{
  "version": "1.0",
  "truncation": null,
  "padding": null,
  "added_tokens": [
    {
      "id": 0,
      "content": "[UNK]",
      "single_word": false,
      "lstrip": false,
      "rstrip": false,
      "normalized": false,
      "special": true
    },
    {
      "id": 1,
      "content": "[CLS]",
      "single_word": false,
      "lstrip": false,
      "rstrip": false,
      "normalized": false,
      "special": true
    },
    {
      "id": 2,
      "content": "[SEP]",
      "single_word": false,
      "lstrip": false,
      "rstrip": false,
      "normalized": false,
      "special": true
    },
    {
      "id": 3,
      "content": "[PAD]",
      "single_word": false,
      "lstrip": false,
      "rstrip": false,
      "normalized": false,
      "special": true
    },
    {
      "id": 4,
      "content": "[MASK]",
      "single_word": false,
      "lstrip": false,
      "rstrip": false,
      "normalized": false,
      "special": true
    },
    {
      "id": 5,
      "content": "жь",
      "single_word": false,
      "lstrip": false,
      "rstrip": false,
      "normalized": true,
      "special": false
    },
    {
      "id": 6,
      "content": "ку",
      "single_word": false,
      "lstrip": false,
      "rstrip": false,
      "normalized": true,
      "special": false
    },
    {
      "id": 7,
      "content": "кӀ",
      "single_word": false,
      "lstrip": false,
      "rstrip": false,
      "normalized": true,
      "special": false
    },
    {
      "id": 8,
      "content": "кIу",
      "single_word": false,
      "lstrip": false,
      "rstrip": false,
      "normalized": true,
      "special": false
    },
    {
      "id": 9,
      "content": "къ",
      "single_word": false,
      "lstrip": false,
      "rstrip": false,
      "normalized": true,
      "special": false
    },
    {
      "id": 10,
      "content": "къу",
      "single_word": false,
      "lstrip": false,
      "rstrip": false,
      "normalized": true,
      "special": false
    },
    {
      "id": 11,
      "content": "кхъ",
      "single_word": false,
      "lstrip": false,
      "rstrip": false,
      "normalized": true,
      "special": false
    },
    {
      "id": 12,
      "content": "кхъу",
      "single_word": false,
      "lstrip": false,
      "rstrip": false,
      "normalized": true,
      "special": false
    },
    {
      "id": 13,
      "content": "лъ",
      "single_word": false,
      "lstrip": false,
      "rstrip": false,
      "normalized": true,
      "special": false
    },
    {
      "id": 14,
      "content": "лI",
      "single_word": false,
      "lstrip": false,
      "rstrip": false,
      "normalized": true,
      "special": false
    },
    {
      "id": 15,
      "content": "пI",
      "single_word": false,
      "lstrip": false,
      "rstrip": false,
      "normalized": true,
      "special": false
    },
    {
      "id": 16,
      "content": "тI",
      "single_word": false,
      "lstrip": false,
      "rstrip": false,
      "normalized": true,
      "special": false
    },
    {
      "id": 17,
      "content": "фI",
      "single_word": false,
      "lstrip": false,
      "rstrip": false,
      "normalized": true,
      "special": false
    },
    {
      "id": 18,
      "content": "ху",
      "single_word": false,
      "lstrip": false,
      "rstrip": false,
      "normalized": true,
      "special": false
    },
    {
      "id": 19,
      "content": "хь",
      "single_word": false,
      "lstrip": false,
      "rstrip": false,
      "normalized": true,
      "special": false
    },
    {
      "id": 20,
      "content": "хъ",
      "single_word": false,
      "lstrip": false,
      "rstrip": false,
      "normalized": true,
      "special": false
    },
    {
      "id": 21,
      "content": "хъу",
      "single_word": false,
      "lstrip": false,
      "rstrip": false,
      "normalized": true,
      "special": false
    },
    {
      "id": 22,
      "content": "цI",
      "single_word": false,
      "lstrip": false,
      "rstrip": false,
      "normalized": true,
      "special": false
    },
    {
      "id": 23,
      "content": "щI",
      "single_word": false,
      "lstrip": false,
      "rstrip": false,
      "normalized": true,
      "special": false
    },
    {
      "id": 24,
      "content": "Ӏу",
      "single_word": false,
      "lstrip": false,
      "rstrip": false,
      "normalized": true,
      "special": false
    },
    {
      "id": 25,
      "content": "хуэ",
      "single_word": false,
      "lstrip": false,
      "rstrip": false,
      "normalized": true,
      "special": false
    },
    {
      "id": 26,
      "content": "во",
      "single_word": false,
      "lstrip": false,
      "rstrip": false,
      "normalized": true,
      "special": false
    },
    {
      "id": 27,
      "content": "рэ",
      "single_word": false,
      "lstrip": false,
      "rstrip": false,
      "normalized": true,
      "special": false
    },
    {
      "id": 28,
      "content": "зэ",
      "single_word": false,
      "lstrip": false,
      "rstrip": false,
      "normalized": true,
      "special": false
    },
    {
      "id": 29,
      "content": "де",
      "single_word": false,
      "lstrip": false,
      "rstrip": false,
      "normalized": true,
      "special": false
    },
    {
      "id": 30,
      "content": "зо",
      "single_word": false,
      "lstrip": false,
      "rstrip": false,
      "normalized": true,
      "special": false
    },
    {
      "id": 31,
      "content": "ар",
      "single_word": false,
      "lstrip": false,
      "rstrip": false,
      "normalized": true,
      "special": false
    },
    {
      "id": 32,
      "content": "ди",
      "single_word": false,
      "lstrip": false,
      "rstrip": false,
      "normalized": true,
      "special": false
    },
    {
      "id": 33,
      "content": "ремы",
      "single_word": false,
      "lstrip": false,
      "rstrip": false,
      "normalized": true,
      "special": false
    },
    {
      "id": 34,
      "content": "эрэ",
      "single_word": false,
      "lstrip": false,
      "rstrip": false,
      "normalized": true,
      "special": false
    },
    {
      "id": 35,
      "content": "дэ",
      "single_word": false,
      "lstrip": false,
      "rstrip": false,
      "normalized": true,
      "special": false
    },
    {
      "id": 36,
      "content": "ры",
      "single_word": false,
      "lstrip": false,
      "rstrip": false,
      "normalized": true,
      "special": false
    },
    {
      "id": 37,
      "content": "эж",
      "single_word": false,
      "lstrip": false,
      "rstrip": false,
      "normalized": true,
      "special": false
    },
    {
      "id": 38,
      "content": "ри",
      "single_word": false,
      "lstrip": false,
      "rstrip": false,
      "normalized": true,
      "special": false
    },
    {
      "id": 39,
      "content": "ыж",
      "single_word": false,
      "lstrip": false,
      "rstrip": false,
      "normalized": true,
      "special": false
    },
    {
      "id": 40,
      "content": "фы",
      "single_word": false,
      "lstrip": false,
      "rstrip": false,
      "normalized": true,
      "special": false
    },
    {
      "id": 41,
      "content": "мы",
      "single_word": false,
      "lstrip": false,
      "rstrip": false,
      "normalized": true,
      "special": false
    },
    {
      "id": 42,
      "content": "ау",
      "single_word": false,
      "lstrip": false,
      "rstrip": false,
      "normalized": true,
      "special": false
    },
    {
      "id": 43,
      "content": "щы",
      "single_word": false,
      "lstrip": false,
      "rstrip": false,
      "normalized": true,
      "special": false
    },
    {
      "id": 44,
      "content": "къым",
      "single_word": false,
      "lstrip": false,
      "rstrip": false,
      "normalized": true,
      "special": false
    },
    {
      "id": 45,
      "content": "хуа",
      "single_word": false,
      "lstrip": false,
      "rstrip": false,
      "normalized": true,
      "special": false
    },
    {
      "id": 46,
      "content": "эм",
      "single_word": false,
      "lstrip": false,
      "rstrip": false,
      "normalized": true,
      "special": false
    },
    {
      "id": 47,
      "content": "ат",
      "single_word": false,
      "lstrip": false,
      "rstrip": false,
      "normalized": true,
      "special": false
    },
    {
      "id": 48,
      "content": "хэ",
      "single_word": false,
      "lstrip": false,
      "rstrip": false,
      "normalized": true,
      "special": false
    },
    {
      "id": 49,
      "content": "нщ",
      "single_word": false,
      "lstrip": false,
      "rstrip": false,
      "normalized": true,
      "special": false
    },
    {
      "id": 50,
      "content": "зы",
      "single_word": false,
      "lstrip": false,
      "rstrip": false,
      "normalized": true,
      "special": false
    },
    {
      "id": 51,
      "content": "жы",
      "single_word": false,
      "lstrip": false,
      "rstrip": false,
      "normalized": true,
      "special": false
    },
    {
      "id": 52,
      "content": "тэ",
      "single_word": false,
      "lstrip": false,
      "rstrip": false,
      "normalized": true,
      "special": false
    },
    {
      "id": 53,
      "content": "ро",
      "single_word": false,
      "lstrip": false,
      "rstrip": false,
      "normalized": true,
      "special": false
    },
    {
      "id": 54,
      "content": "ды",
      "single_word": false,
      "lstrip": false,
      "rstrip": false,
      "normalized": true,
      "special": false
    },
    {
      "id": 55,
      "content": "хы",
      "single_word": false,
      "lstrip": false,
      "rstrip": false,
      "normalized": true,
      "special": false
    },
    {
      "id": 56,
      "content": "къэ",
      "single_word": false,
      "lstrip": false,
      "rstrip": false,
      "normalized": true,
      "special": false
    },
    {
      "id": 57,
      "content": "рызы",
      "single_word": false,
      "lstrip": false,
      "rstrip": false,
      "normalized": true,
      "special": false
    },
    {
      "id": 58,
      "content": "ащ",
      "single_word": false,
      "lstrip": false,
      "rstrip": false,
      "normalized": true,
      "special": false
    },
    {
      "id": 59,
      "content": "ре",
      "single_word": false,
      "lstrip": false,
      "rstrip": false,
      "normalized": true,
      "special": false
    },
    {
      "id": 60,
      "content": "да",
      "single_word": false,
      "lstrip": false,
      "rstrip": false,
      "normalized": true,
      "special": false
    },
    {
      "id": 61,
      "content": "до",
      "single_word": false,
      "lstrip": false,
      "rstrip": false,
      "normalized": true,
      "special": false
    },
    {
      "id": 62,
      "content": "ам",
      "single_word": false,
      "lstrip": false,
      "rstrip": false,
      "normalized": true,
      "special": false
    },
    {
      "id": 63,
      "content": "гъэ",
      "single_word": false,
      "lstrip": false,
      "rstrip": false,
      "normalized": true,
      "special": false
    },
    {
      "id": 64,
      "content": "вэ",
      "single_word": false,
      "lstrip": false,
      "rstrip": false,
      "normalized": true,
      "special": false
    },
    {
      "id": 65,
      "content": "ми",
      "single_word": false,
      "lstrip": false,
      "rstrip": false,
      "normalized": true,
      "special": false
    },
    {
      "id": 66,
      "content": "къы",
      "single_word": false,
      "lstrip": false,
      "rstrip": false,
      "normalized": true,
      "special": false
    },
    {
      "id": 67,
      "content": "ын",
      "single_word": false,
      "lstrip": false,
      "rstrip": false,
      "normalized": true,
      "special": false
    },
    {
      "id": 68,
      "content": "ха",
      "single_word": false,
      "lstrip": false,
      "rstrip": false,
      "normalized": true,
      "special": false
    },
    {
      "id": 69,
      "content": "эн",
      "single_word": false,
      "lstrip": false,
      "rstrip": false,
      "normalized": true,
      "special": false
    },
    {
      "id": 70,
      "content": "фӀэ",
      "single_word": false,
      "lstrip": false,
      "rstrip": false,
      "normalized": true,
      "special": false
    },
    {
      "id": 71,
      "content": "ущ",
      "single_word": false,
      "lstrip": false,
      "rstrip": false,
      "normalized": true,
      "special": false
    },
    {
      "id": 72,
      "content": "ра",
      "single_word": false,
      "lstrip": false,
      "rstrip": false,
      "normalized": true,
      "special": false
    }
  ],
  "normalizer": null,
  "pre_tokenizer": {
    "type": "WhitespaceSplit"
  },
  "post_processor": null,
  "decoder": null,
  "model": {
    "type": "BPE",
    "dropout": null,
    "unk_token": null,
    "continuing_subword_prefix": null,
    "end_of_word_suffix": null,
    "fuse_unk": false,
    "vocab": {
      "[UNK]": 0,
      "[CLS]": 1,
      "[SEP]": 2,
      "[PAD]": 3,
      "[MASK]": 4,
      "!": 5,
      "\"": 6,
      "#": 7,
      "%": 8,
      "&": 9,
      "'": 10,
      "(": 11,
      ")": 12,
      "*": 13,
      "+": 14,
      ",": 15,
      "-": 16,
      ".": 17,
      "/": 18,
      "0": 19,
      "1": 20,
      "2": 21,
      "3": 22,
      "4": 23,
      "5": 24,
      "6": 25,
      "7": 26,
      "8": 27,
      "9": 28,
      ":": 29,
      ";": 30,
      "<": 31,
      "=": 32,
      ">": 33,
      "?": 34,
      "@": 35,
      "A": 36,
      "B": 37,
      "C": 38,
      "D": 39,
      "E": 40,
      "F": 41,
      "G": 42,
      "H": 43,
      "I": 44,
      "J": 45,
      "K": 46,
      "L": 47,
      "M": 48,
      "N": 49,
      "O": 50,
      "P": 51,
      "Q": 52,
      "R": 53,
      "S": 54,
      "T": 55,
      "U": 56,
      "V": 57,
      "W": 58,
      "X": 59,
      "Y": 60,
      "Z": 61,
      "[": 62,
      "\\": 63,
      "]": 64,
      "_": 65,
      "a": 66,
      "b": 67,
      "c": 68,
      "d": 69,
      "e": 70,
      "f": 71,
      "g": 72,
      "h": 73,
      "i": 74,
      "j": 75,
      "k": 76,
      "l": 77,
      "m": 78,
      "n": 79,
      "o": 80,
      "p": 81,
      "q": 82,
      "r": 83,
      "s": 84,
      "t": 85,
      "u": 86,
      "v": 87,
      "w": 88,
      "x": 89,
      "y": 90,
      "z": 91,
      "«": 92,
      "¬": 93,
      "°": 94,
      "»": 95,
      "¼": 96,
      "Ç": 97,
      "à": 98,
      "è": 99,
      "é": 100,
      "ò": 101,
      "ü": 102,
      "ĭ": 103,
      "́": 104,
      "̆": 105,
      "Ё": 106,
      "І": 107,
      "А": 108,
      "Б": 109,
      "В": 110,
      "Г": 111,
      "Д": 112,
      "Е": 113,
      "Ж": 114,
      "З": 115,
      "И": 116,
      "Й": 117,
      "К": 118,
      "Л": 119,
      "М": 120,
      "Н": 121,
      "О": 122,
      "П": 123,
      "Р": 124,
      "С": 125,
      "Т": 126,
      "У": 127,
      "Ф": 128,
      "Х": 129,
      "Ц": 130,
      "Ч": 131,
      "Ш": 132,
      "Щ": 133,
      "Ъ": 134,
      "Ы": 135,
      "Ь": 136,
      "Э": 137,
      "Ю": 138,
      "Я": 139,
      "а": 140,
      "б": 141,
      "в": 142,
      "г": 143,
      "д": 144,
      "е": 145,
      "ж": 146,
      "з": 147,
      "и": 148,
      "й": 149,
      "к": 150,
      "л": 151,
      "м": 152,
      "н": 153,
      "о": 154,
      "п": 155,
      "р": 156,
      "с": 157,
      "т": 158,
      "у": 159,
      "ф": 160,
      "х": 161,
      "ц": 162,
      "ч": 163,
      "ш": 164,
      "щ": 165,
      "ъ": 166,
      "ы": 167,
      "ь": 168,
      "э": 169,
      "ю": 170,
      "я": 171,
      "ё": 172,
      "і": 173,
      "ҩ": 174,
      "Ӏ": 175,
      "–": 176,
      "—": 177,
      "‘": 178,
      "’": 179,
      "“": 180,
      "”": 181,
      "„": 182,
      "•": 183,
      "…": 184,
      "′": 185,
      "№": 186,
      "→": 187,
      "−": 188,
      "♦": 189,
      "⠀": 190,
      "уэ": 191,
      "гъ": 192,
      "Iэ": 193,
      "къ": 194,
      "эм": 195,
      "эр": 196,
      "ым": 197,
      "лъ": 198,
      "кI": 199,
      "гъэ": 200,
      "хь": 201,
      "ащ": 202,
      "хъ": 203,
      "ху": 204,
      "щы": 205,
      "щI": 206,
      "хэм": 207,
      "зэ": 208,
      "къы": 209,
      "кIэ": 210,
      "зы": 211,
      "нэ": 212,
      "хуэ": 213,
      "хьэ": 214,
      "ар": 215,
      "щIэ": 216,
      "ыр": 217,
      "жь": 218,
      "ей": 219,
      "дэ": 220,
      "рэ": 221,
      "ал": 222,
      "хэр": 223,
      "гу": 224,
      "ын": 225,
      "гъуэ": 226,
      "зэр": 227,
      "ри": 228,
      "пс": 229,
      "хъу": 230,
      "хэ": 231,
      "Iы": 232,
      "лъэ": 233,
      "ра": 234,
      "те": 235,
      "гъу": 236,
      "кIуэ": 237,
      "аб": 238,
      "дж": 239,
      "ан": 240,
      "ды": 241,
      "мы": 242,
      "ап": 243,
      "ны": 244,
      "ауэ": 245,
      "ст": 246,
      "ди": 247,
      "ат": 248,
      "Къ": 249,
      "гъэм": 250,
      "ам": 251,
      "ащ.": 252,
      "зэры": 253,
      "ры": 254,
      "ун": 255,
      "Iу": 256,
      "эн": 257,
      "ми": 258,
      "къым": 259,
      "Iуэ": 260,
      "къу": 261,
      "пэ": 262,
      "ли": 263,
      "ен": 264,
      "къэ": 265,
      "-м": 266,
      "сы": 267,
      "щIы": 268,
      "алъ": 269,
      "агъэ": 270,
      "къуэ": 271,
      "ро": 272,
      "эу": 273,
      "хы": 274,
      "нэхъ": 275,
      "бы": 276,
      "цIы": 277,
      "лэ": 278,
      "ко": 279,
      "абы": 280,
      "ит": 281,
      "щ.": 282,
      "мэ": 283,
      "де": 284,
      "ну": 285,
      "и,": 286,
      "зи": 287,
      "ку": 288,
      "щхьэ": 289,
      "ет": 290,
      "20": 291,
      "ор": 292,
      "ла": 293,
      "ма": 294,
      "Iэм": 295,
      "ре": 296,
      "жы": 297,
      "къэр": 298,
      "кIу": 299,
      "ыну": 300,
      "эб": 301,
      "фIэ": 302,
      "ин": 303,
      "щыт": 304,
      "ер": 305,
      "си": 306,
      "лъы": 307,
      "цIыху": 308,
      "акIуэ": 309,
      "дыг": 310,
      "хуэдэ": 311,
      "у,": 312,
      "19": 313,
      "да": 314,
      "ужь": 315,
      "зэм": 316,
      "лъа": 317,
      "но": 318,
      "Iуэху": 319,
      "игъэ": 320,
      "фэ": 321,
      "кIы": 322,
      "сп": 323,
      "он": 324,
      "лэжь": 325,
      "джэ": 326,
      "ем": 327,
      "шы": 328,
      "ов": 329,
      "ий": 330,
      "хъуэ": 331,
      "хэт": 332,
      "уб": 333,
      "сэ": 334,
      "псо": 335,
      "Ар": 336,
      "пIэ": 337,
      "ка": 338,
      "щ,": 339,
      "Абы": 340,
      "хьэм": 341,
      "ныгъэ": 342,
      "къи": 343,
      "гъэр": 344,
      "ейм": 345,
      "ащIэ": 346,
      "кIи": 347,
      "за": 348,
      "на": 349,
      "щэ": 350,
      "кIа": 351,
      "ту": 352,
      "т.": 353,
      "ль": 354,
      "тэ": 355,
      "уэд": 356,
      "дыгэ": 357,
      "нэхъы": 358,
      "къыщы": 359,
      "лI": 360,
      "рыс": 361,
      "ты": 362,
      "шхуэ": 363,
      "уна": 364,
      "фI": 365,
      "дей": 366,
      "бэ": 367,
      "тхы": 368,
      "анэ": 369,
      "лъэп": 370,
      "зым": 371,
      "ув": 372,
      "къэрал": 373,
      "гуэ": 374,
      "та": 375,
      "кIэ,": 376,
      "цIэ": 377,
      "куэд": 378,
      "шэ": 379,
      "щыщ": 380,
      "къым.": 381,
      "лIэ": 382,
      "ха": 383,
      "..": 384,
      "алэ": 385,
      "ащ,": 386,
      "жэ": 387,
      "тым": 388,
      "апIэ": 389,
      "кэм": 390,
      "джы": 391,
      "лы": 392,
      "жи": 393,
      "до": 394,
      "ни": 395,
      "илъэ": 396,
      "дун": 397,
      "хьэр": 398,
      "ще": 399,
      "щIа": 400,
      "бжь": 401,
      "ур": 402,
      "гъуэм": 403,
      "Къэб": 404,
      "Хь": 405,
      "по": 406,
      "жа": 407,
      "фIы": 408,
      "кэ": 409,
      "ти": 410,
      "Къэбэр": 411,
      "хэмрэ": 412,
      "то": 413,
      "дэм": 414,
      "хуа": 415,
      "хуей": 416,
      "псэ": 417,
      "пы": 418,
      "ри,": 419,
      "про": 420,
      "махуэ": 421,
      "убли": 422,
      "ек": 423,
      "къа": 424,
      "къе": 425,
      "т,": 426,
      "Урыс": 427,
      "спубли": 428,
      "хаб": 429,
      "эрэ": 430,
      "Къэбэрдей": 431,
      "сым": 432,
      "адыгэ": 433,
      "псэу": 434,
      "го": 435,
      "алъкъэр": 436,
      "хи": 437,
      "со": 438,
      "деж": 439,
      "ев": 440,
      "псы": 441,
      "рагъэ": 442,
      "ав": 443,
      "-Б": 444,
      "ло": 445,
      "икIи": 446,
      "ес": 447,
      "алъэ": 448,
      "зыгъэ": 449,
      "ыгъэ": 450,
      "ири": 451,
      "къыщ": 452,
      "уи": 453,
      "кIуэкI": 454,
      "япэ": 455,
      "ус": 456,
      "ным": 457,
      "плъ": 458,
      "аз": 459,
      "бл": 460,
      "урэ": 461,
      "ств": 462,
      "гуэр": 463,
      "дзэ": 464,
      "ыным": 465,
      "Къэбэрдей-Б": 466,
      "Къэбэрдей-Балъкъэр": 467,
      "унафэ": 468,
      "ме": 469,
      "Р-м": 470,
      "э,": 471,
      "дз": 472,
      "зыр": 473,
      "Хьэ": 474,
      "спубликэм": 475,
      "зэхуэ": 476,
      "къал": 477,
      "тыр": 478,
      "илъэс": 479,
      "тI": 480,
      "щIын": 481,
      "»,": 482,
      "щыIэ": 483,
      "ахуэ": 484,
      "мэ,": 485,
      "щым": 486,
      "ск": 487,
      "лъагъу": 488,
      "къызэр": 489,
      "бгъэ": 490,
      "хэр,": 491,
      "хуащ": 492,
      "са": 493,
      "эмы": 494,
      "у.": 495,
      "зе": 496,
      "хъы": 497,
      "ныбжь": 498,
      "пи": 499,
      "къым,": 500,
      "иIэ": 501,
      "гъа": 502,
      "р.": 503,
      "рыIуэ": 504,
      "теу": 505,
      "-рэ": 506,
      "пщ": 507,
      "я,": 508,
      "Ап": 509,
      "ви": 510,
      "бо": 511,
      "къызэры": 512,
      "хъуну": 513,
      "дуней": 514,
      "щIи": 515,
      "ящыщ": 516,
      "зэIу": 517,
      "жьэ": 518,
      "ныгъэм": 519,
      "къыхэ": 520,
      "эры": 521,
      "лIы": 522,
      "Нал": 523,
      "лъэпкъ": 524,
      "202": 525,
      "р,": 526,
      "ие": 527,
      "ныкъуэ": 528,
      "эп": 529,
      "пщIэ": 530,
      "ут": 531,
      "дыдэ": 532,
      "мо": 533,
      "шык": 534,
      "хуэдэу": 535,
      "хэм,": 536,
      "апщIэ": 537,
      "къалъ": 538,
      "ман": 539,
      "гра": 540,
      "егъэ": 541,
      "адэ": 542,
      "цIыкIу": 543,
      "Мы": 544,
      "кт": 545,
      "убы": 546,
      "алъэм": 547,
      "18": 548,
      "къуа": 549,
      "цэм": 550,
      "КъБ": 551,
      "Ре": 552,
      "хуи": 553,
      "ент": 554,
      "итI": 555,
      "«С": 556,
      "хьа": 557,
      "унэ": 558,
      "Налшык": 559,
      "Зэ": 560,
      "фи": 561,
      "ща": 562,
      "пе": 563,
      "аль": 564,
      "папщIэ": 565,
      "гъуэщI": 566,
      "щIэныгъэ": 567,
      "щи": 568,
      "щIалэ": 569,
      "ас": 570,
      "Iащ": 571,
      "ым,": 572,
      "ауэ,": 573,
      "хъэ": 574,
      "ад": 575,
      "гум": 576,
      "лагъуэ": 577,
      "хэр.": 578,
      "му": 579,
      "тIэ": 580,
      "хэри": 581,
      "гъуа": 582,
      "Жы": 583,
      "дэт": 584,
      "хэлъ": 585,
      "зиIэ": 586,
      "ригъэ": 587,
      "во": 588,
      "кум": 589,
      "зэман": 590,
      "зауэ": 591,
      "щIыхь": 592,
      "унафэщI": 593,
      "ар.": 594,
      "зэфIэ": 595,
      "бр": 596,
      "рей": 597,
      "♦19": 598,
      "гугъу": 599,
      "едж": 600,
      "00": 601,
      "ягъэ": 602,
      "нэгъуэщI": 603,
      "Му": 604,
      "тхылъ": 605,
      "ци": 606,
      "ыт": 607,
      "ыгъэм": 608,
      "абыхэм": 609,
      "еде": 610,
      "къызэ": 611,
      "ыр.": 612,
      "хъуа": 613,
      "хэмкIэ": 614,
      "Урысей": 615,
      "Гъ": 616,
      "гуп": 617,
      "али": 618,
      "сыт": 619,
      "Республикэм": 620,
      "бзэ": 621,
      "орт": 622,
      "иужь": 623,
      "Ди": 624,
      "ва": 625,
      "хъум": 626,
      "ыр,": 627,
      "Нэ": 628,
      "кIыж": 629,
      "нат": 630,
      "бж": 631,
      "пщI": 632,
      "эри": 633,
      "КъБР-м": 634,
      "ымрэ": 635,
      "гъащIэ": 636,
      "ми,": 637,
      "хабзэ": 638,
      "ле": 639,
      "кIэм": 640,
      "абий": 641,
      "....": 642,
      "Адыгэ": 643,
      "къри": 644,
      "ша": 645,
      "хэми": 646,
      "су": 647,
      "амэ": 648,
      "тащ": 649,
      "ари": 650,
      "ахэр": 651,
      "щэн": 652,
      "Мэ": 653,
      "блэ": 654,
      "же": 655,
      "пар": 656,
      "щIэм": 657,
      "».": 658,
      "05": 659,
      "ябр": 660,
      "мыгъэ": 661,
      "ки": 662,
      "тер": 663,
      "СС": 664,
      "кIын": 665,
      "Къы": 666,
      "щхьэкIэ": 667,
      "джэгу": 668,
      "щIэу": 669,
      "мини": 670,
      "гупсы": 671,
      "ащIэм": 672,
      "Кав": 673,
      "адыг": 674,
      "псалъэ": 675,
      "апэ": 676,
      "бар": 677,
      "Кавка": 678,
      "жу": 679,
      "кIыу": 680,
      "щызэ": 681,
      "къыщIэ": 682,
      "гъуэгу": 683,
      "Ауэ": 684,
      "дгъэ": 685,
      "рым": 686,
      "об": 687,
      "Iэмал": 688,
      "пщы": 689,
      "рацэм": 690,
      "газ": 691,
      "жын": 692,
      "цIэрыIуэ": 693,
      "тIы": 694,
      "Хъ": 695,
      "ани": 696,
      "дунейм": 697,
      "тх": 698,
      "ствэм": 699,
      "ыгъуэ": 700,
      "къыдэ": 701,
      "ыри": 702,
      "Iа": 703,
      "ат.": 704,
      "овет": 705,
      "хьэзэхуэ": 706,
      "Урысейм": 707,
      "хо": 708,
      "так": 709,
      "Жылагъуэ": 710,
      "па": 711,
      "Ма": 712,
      "Гу": 713,
      "тын": 714,
      "2021": 715,
      "апхуэдэ": 716,
      "ащэ": 717,
      "газет": 718,
      "зэри": 719,
      "ба": 720,
      "Iэу": 721,
      "ис": 722,
      "не": 723,
      "пщэ": 724,
      "ру": 725,
      "къыт": 726,
      "хэм.": 727,
      "къалъхуащ": 728,
      "анэм": 729,
      "къэралым": 730,
      "псори": 731,
      "лим": 732,
      "сабий": 733,
      "щыпсэу": 734,
      "15": 735,
      "уа": 736,
      "уэрэ": 737,
      "ил": 738,
      "иджы": 739,
      "сэб": 740,
      "17": 741,
      "щIыпIэ": 742,
      "хуауэ": 743,
      "згъэ": 744,
      "эт": 745,
      "плъы": 746,
      "къо": 747,
      "хуит": 748,
      "12": 749,
      "що": 750,
      "Си": 751,
      "ду": 752,
      "апIэм": 753,
      "Лъ": 754,
      "рат": 755,
      "зу": 756,
      "зыхуэ": 757,
      "лэжьакIуэ": 758,
      "цIэр": 759,
      "гъы": 760,
      "щIэр": 761,
      "10": 762,
      "хьащ": 763,
      "щыта": 764,
      "Феде": 765,
      "жыр": 766,
      "тера": 767,
      "зэфIэкI": 768,
      "хуагъэ": 769,
      "зэхьэзэхуэ": 770,
      "сэн": 771,
      "жыну": 772,
      "ля": 773,
      "щагъэ": 774,
      "зэгу": 775,
      "тель": 776,
      "зо": 777,
      "плъэ": 778,
      "хэу": 779,
      "кIэлъы": 780,
      "Сэ": 781,
      "хуэди": 782,
      "къалэ": 783,
      "дунейпсо": 784,
      "пхъу": 785,
      "закъуэ": 786,
      "16": 787,
      "се": 788,
      "къалэм": 789,
      "пIэм": 790,
      "нэужь": 791,
      "увы": 792,
      "хъыбар": 793,
      "сэбэп": 794,
      "им": 795,
      "бжы": 796,
      "шын": 797,
      "узы": 798,
      "фэм": 799,
      "лым": 800,
      "Апхуэдэ": 801,
      "тра": 802,
      "нэмы": 803,
      "»-м": 804,
      "чем": 805,
      "эгъу": 806,
      "благъэ": 807,
      "лъэгъу": 808,
      "псом": 809,
      "хабзэм": 810,
      "жэм": 811,
      "эну": 812,
      "бг": 813,
      "къигъэ": 814,
      "жащ.": 815,
      "ымы": 816,
      "щи,": 817,
      "щащ": 818,
      "лъху": 819,
      "бий": 820,
      "къэс": 821,
      "идж": 822,
      "ЩI": 823,
      "пI": 824,
      "Iэр": 825,
      "ЦIы": 826,
      "цI": 827,
      "гъуэр": 828,
      "дэр": 829,
      "Къэбэрдей-Балъкъэрым": 830,
      "ныгъэр": 831,
      "мыхьэ": 832,
      "ирагъэ": 833,
      "Ан": 834,
      "тет": 835,
      "чемпи": 836,
      "алэм": 837,
      "лэжьыгъэ": 838,
      "гъуэн": 839,
      "хъулIэ": 840,
      "УФ": 841,
      "ров": 842,
      "коман": 843,
      "сс": 844,
      "лъхьэ": 845,
      "ух": 846,
      "пащ": 847,
      "Федерацэм": 848,
      "фы": 849,
      "ым.": 850,
      "05:": 851,
      "Зы": 852,
      "ков": 853,
      "хьащ.": 854,
      "щхьэм": 855,
      "урыс": 856,
      "лек": 857,
      "ден": 858,
      "хъун": 859,
      "терату": 860,
      "анд": 861,
      "дин": 862,
      "щхьэр": 863,
      "къар": 864,
      "шх": 865,
      "зэхэ": 866,
      "Со": 867,
      "кIуэкIа": 868,
      "лъыт": 869,
      "Iэнат": 870,
      "теухуауэ": 871,
      "жиIащ": 872,
      "тIу": 873,
      "дэу": 874,
      "нэс": 875,
      "Ин": 876,
      "къызы": 877,
      "Хэ": 878,
      "м,": 879,
      "пкъ": 880,
      "щIагъэ": 881,
      "щекIуэкI": 882,
      "пре": 883,
      "хив": 884,
      "зэра": 885,
      "пэм": 886,
      "зыбж": 887,
      "рад": 888,
      "зэпе": 889,
      "республикэм": 890,
      "«Спар": 891,
      "фIыуэ": 892,
      "«Спартак": 893,
      "2020": 894,
      "имы": 895,
      "щIыналъэм": 896,
      "2019": 897,
      "УФ-м": 898,
      "щхьэу": 899,
      "чемпион": 900,
      "Мо": 901,
      "хъуащ": 902,
      "сти": 903,
      "Абыхэм": 904,
      "жьы": 905,
      "уд": 906,
      "цэ": 907,
      "лIэужь": 908,
      "щхъ": 909,
      "ти,": 910,
      "хьэлI": 911,
      "Махуэ": 912,
      "дыдэу": 913,
      "шэу": 914,
      "теухуа": 915,
      "ЦIыху": 916,
      "ахъ": 917,
      "хуе": 918,
      "гъэхэм": 919,
      "тхьэм": 920,
      "лъапIэ": 921,
      "лъэпкъым": 922,
      "зэпеуэ": 923,
      "лу": 924,
      "бэр": 925,
      "щт": 926,
      "IуэхущI": 927,
      "Къэ": 928,
      "ктор": 929,
      "абжь": 930,
      "хагъэ": 931,
      "енер": 932,
      "ком": 933,
      "Архив": 934,
      "хьэзыр": 935,
      "лъэныкъуэ": 936,
      "ира": 937,
      "къыс": 938,
      "жыпIэ": 939,
      "ги": 940,
      "спорт": 941,
      "лъаг": 942,
      "лъэн": 943,
      "щымы": 944,
      "эным": 945,
      "11": 946,
      "ар,": 947,
      "къыз": 948,
      "жьым": 949,
      "гъуэт": 950,
      "кІ": 951,
      "дэс": 952,
      "хыхьэ": 953,
      "ве": 954,
      "гъащIэм": 955,
      "Iуэхум": 956,
      "лыкъу": 957,
      "альнэ": 958,
      "щIащ": 959,
      "шэр": 960,
      "Ды": 961,
      "арэ": 962,
      "хъуащ.": 963,
      "ши": 964,
      "би": 965,
      "ныбжьэгъу": 966,
      "еплъ": 967,
      "),": 968,
      "къагъэ": 969,
      "фыну": 970,
      "гъунэ": 971,
      "14": 972,
      "мурад": 973,
      "ать": 974,
      "щIым": 975,
      "хигъэ": 976,
      "мед": 977,
      "кIащ": 978,
      "пэщIэ": 979,
      "ыщIэ": 980,
      "гъус": 981,
      "Уэ": 982,
      "жэр": 983,
      "тр": 984,
      "мен": 985,
      "шу": 986,
      "кIыр": 987,
      "цIыхухэм": 988,
      "хъур": 989,
      "зэманым": 990,
      "пэщ": 991,
      "хьэлIэ": 992,
      "Сы": 993,
      "езы": 994,
      "три": 995,
      "щIыналъэ": 996,
      "псоми": 997,
      "Мар": 998,
      "къулыкъу": 999,
      "джэр": 1000,
      "13": 1001,
      "эми": 1002,
      "Кавказ": 1003,
      "грам": 1004,
      "вер": 1005,
      "зэрыщыт": 1006,
      "сыр": 1007,
      "сурэ": 1008,
      "шхуэм": 1009,
      "кIэр": 1010,
      "тетым": 1011,
      "ста": 1012,
      "зыIэ": 1013,
      "хуэдиз": 1014,
      "атэ": 1015,
      "къуажэм": 1016,
      "рави": 1017,
      "тыхь": 1018,
      "анэр": 1019,
      "30": 1020,
      "хуэмы": 1021,
      "По": 1022,
      "гъэпс": 1023,
      "алым": 1024,
      "эм,": 1025,
      "убыд": 1026,
      "мащIэ": 1027,
      "хьэт": 1028,
      "дахэ": 1029,
      "кIыну": 1030,
      "кIуа": 1031,
      "езым": 1032,
      "щыте": 1033,
      "арти": 1034,
      "псэлъы": 1035,
      "чес": 1036,
      "къуд": 1037,
      "иту": 1038,
      "лажьэ": 1039,
      "лIэужьыгъуэ": 1040,
      "къыте": 1041,
      "къащ": 1042,
      "сто": 1043,
      "Но": 1044,
      "щыты": 1045,
      "-р": 1046,
      "куу": 1047,
      "лей": 1048,
      "Илъэ": 1049,
      "уэрэд": 1050,
      "равитель": 1051,
      "гъэщIэ": 1052,
      "минист": 1053,
      "Олим": 1054,
      "лен": 1055,
      "Къэр": 1056,
      "макъ": 1057,
      "къалэн": 1058,
      "гъунэгъу": 1059,
      "мин": 1060,
      "кон": 1061,
      "уни": 1062,
      "лъагъуэ": 1063,
      "Совет": 1064,
      "адыгэб": 1065,
      "эмрэ": 1066,
      "артист": 1067,
      "тхакIуэ": 1068,
      "хащ": 1069,
      "эмэ": 1070,
      "уты": 1071,
      "шко": 1072,
      "мет": 1073,
      "ещ": 1074,
      "ско": 1075,
      "Iэпы": 1076,
      "къуажэ": 1077,
      "Iуащ": 1078,
      "Иджы": 1079,
      "200": 1080,
      "вэ": 1081,
      "пэщы": 1082,
      "лий": 1083,
      "Ро": 1084,
      "лан": 1085,
      "зэрагъэ": 1086,
      "иджыри": 1087,
      "Дэ": 1088,
      "жащ": 1089,
      "пхъэ": 1090,
      "ехъулIэ": 1091,
      "2022": 1092,
      "тхьэ": 1093,
      "ау": 1094,
      "Iэтащ": 1095,
      "ран": 1096,
      "амэ,": 1097,
      "Дун": 1098,
      "Тыр": 1099,
      "сом": 1100,
      "утбо": 1101,
      "щытащ.": 1102,
      "щыгъуэ": 1103,
      "Сыт": 1104,
      "адэм": 1105,
      "ся": 1106,
      "ами": 1107,
      "зэмы": 1108,
      "ай": 1109,
      "бе": 1110,
      "куэдым": 1111,
      "СР-м": 1112,
      "Правитель": 1113,
      "гупсыс": 1114,
      "тэкъым.": 1115,
      "вро": 1116,
      "от": 1117,
      "........": 1118,
      "ами,": 1119,
      "щытащ": 1120,
      "Iуэхур": 1121,
      "псым": 1122,
      "жаIэ": 1123,
      "ыгъэр": 1124,
      "эмэ,": 1125,
      "эр,": 1126,
      "Ас": 1127,
      "гур": 1128,
      "гуэрым": 1129,
      "лъытэ": 1130,
      "Пс": 1131,
      "мыр": 1132,
      "цIыхуб": 1133,
      "мэхъу": 1134,
      "гъуазэ": 1135,
      "рэ,": 1136,
      "зыху": 1137,
      "Бо": 1138,
      "емы": 1139,
      "кIуэну": 1140,
      "из": 1141,
      "яIэ": 1142,
      "нэхъыщхьэ": 1143,
      "нэужь,": 1144,
      "джэб": 1145,
      "их": 1146,
      "кIащ.": 1147,
      "иужькIэ": 1148,
      "ам,": 1149,
      "Правительствэм": 1150,
      ").": 1151,
      "дэтхэ": 1152,
      "литерату": 1153,
      "лов": 1154,
      "махуэм": 1155,
      "урн": 1156,
      "джакIуэ": 1157,
      "щIигъу": 1158,
      "Сп": 1159,
      "фа": 1160,
      "иригъэ": 1161,
      "мыхъу": 1162,
      "рэ.": 1163,
      "гупым": 1164,
      "усакIуэ": 1165,
      "къыр": 1166,
      "фIэкIа": 1167,
      "агъ": 1168,
      "бзэм": 1169,
      "зыбжанэ": 1170,
      "25": 1171,
      "ухуэ": 1172,
      "бгъэдэ": 1173,
      "эр.": 1174,
      "деми": 1175,
      "гуры": 1176,
      "аным": 1177,
      "прос": 1178,
      "кIэ.": 1179,
      "умы": 1180,
      "щIыр": 1181,
      "адрей": 1182,
      "Лъэп": 1183,
      "Тхы": 1184,
      "цIыхубэ": 1185,
      "ября,": 1186,
      "Вла": 1187,
      "хэмы": 1188,
      "Апхуэдэу": 1189,
      "къару": 1190,
      "футбо": 1191,
      "че": 1192,
      "етIу": 1193,
      "лити": 1194,
      "кур": 1195,
      "ныр": 1196,
      "дигъэ": 1197,
      "йо": 1198,
      "зыхьэ": 1199,
      "стер": 1200,
      "махуэщ": 1201,
      "Уна": 1202,
      "Моск": 1203,
      "жым": 1204,
      "Ко": 1205,
      "мар": 1206,
      "зэкIэ": 1207,
      "За": 1208,
      "жэу": 1209,
      "къаб": 1210,
      "зэгухьэ": 1211,
      "къэзы": 1212,
      "лог": 1213,
      "Те": 1214,
      "нэхъыфI": 1215,
      "унагъуэ": 1216,
      "лэжьыгъэм": 1217,
      "Аб": 1218,
      "Ищхъ": 1219,
      "Іэ": 1220,
      "чэ": 1221,
      "Влади": 1222,
      "рай": 1223,
      "бзы": 1224,
      "яхуэ": 1225,
      "Ли": 1226,
      "жиIэ": 1227,
      "ат,": 1228,
      "кин": 1229,
      "хъумэ": 1230,
      "пхъ": 1231,
      "джэм": 1232,
      "бзэр": 1233,
      "япэу": 1234,
      "пащтыхь": 1235,
      "Уи": 1236,
      "вы": 1237,
      "уры": 1238,
      "хьэмэ": 1239,
      "ж.": 1240,
      "Махуэгъэпс": 1241,
      "ехъулIэныгъэ": 1242,
      "защIэ": 1243,
      "IэщIагъэ": 1244,
      "хьым": 1245,
      "зэпы": 1246,
      "мэм": 1247,
      "къып": 1248,
      "цент": 1249,
      "зэщIэ": 1250,
      "зэре": 1251,
      "хэта": 1252,
      "лекс": 1253,
      "щIауэ": 1254,
      "оным": 1255,
      "лэм": 1256,
      "гурыIуэ": 1257,
      "Ахэр": 1258,
      "псалъэм": 1259,
      "шэч": 1260,
      "угъэ": 1261,
      "щэнхабзэм": 1262,
      "къыщалъ": 1263,
      "ри.": 1264,
      "фэр": 1265,
      "шыр": 1266,
      "тIыс": 1267,
      "IуэхущIапIэ": 1268,
      "чи": 1269,
      "цIыхум": 1270,
      "-нэ": 1271,
      "илъэси": 1272,
      "просмо": 1273,
      "мыхьэнэ": 1274,
      "зэхьэзэхуэм": 1275,
      "щыгъу": 1276,
      "дзы": 1277,
      "лю": 1278,
      "щIэкI": 1279,
      "командэ": 1280,
      "щIащ.": 1281,
      "плI": 1282,
      "вар": 1283,
      "ября": 1284,
      "бгъу": 1285,
      "журн": 1286,
      "Москва": 1287,
      "къра": 1288,
      "хьэу": 1289,
      "кIуэд": 1290,
      "егъэджакIуэ": 1291,
      "Зи": 1292,
      "Щэн": 1293,
      "мат": 1294,
      "медал": 1295,
      "Адыг": 1296,
      "мылъ": 1297,
      "нэхърэ": 1298,
      "«Спартак-": 1299,
      "спор": 1300,
      "жеIэ": 1301,
      "кадеми": 1302,
      "ыныгъэ": 1303,
      "нэхъыбэ": 1304,
      "нар": 1305,
      "лажь": 1306,
      "ейпсо": 1307,
      "зан": 1308,
      "шым": 1309,
      "Iыгъ": 1310,
      "увэ": 1311,
      "Алекс": 1312,
      "хьыр": 1313,
      "зэу": 1314,
      "СССР-м": 1315,
      "Спорт": 1316,
      "верси": 1317,
      "«Спартак-Налшык": 1318,
      "гъусэу": 1319,
      "зыщы": 1320,
      "щхьэхуэ": 1321,
      "псэху": 1322,
      "хъыджэб": 1323,
      "адыгэхэм": 1324,
      "при": 1325,
      "хъужь": 1326,
      "къудей": 1327,
      "тэкъым": 1328,
      "Джэ": 1329,
      "Олимп": 1330,
      "м.": 1331,
      "зэи": 1332,
      "цIыхухэр": 1333,
      "Мухьэмэ": 1334,
      "сып": 1335,
      "Iуэхугъуэ": 1336,
      "хам": 1337,
      "хъуауэ": 1338,
      "щэху": 1339,
      "етIуанэ": 1340,
      "саугъэ": 1341,
      "ящыщу": 1342,
      "щIэныгъэм": 1343,
      "дэкI": 1344,
      "Евро": 1345,
      "ЩIы": 1346,
      "жэуап": 1347,
      "мрэ": 1348,
      "дакъэ": 1349,
      "хъэн": 1350,
      "алъэр": 1351,
      "псту": 1352,
      "куэ": 1353,
      "Къэрал": 1354,
      "Къу": 1355,
      "къудам": 1356,
      "Мухьэмэд": 1357,
      "дэIэпы": 1358,
      "псын": 1359,
      "унэм": 1360,
      "тхыгъэ": 1361,
      "теат": 1362,
      "щIыкIэ": 1363,
      "усэ": 1364,
      "ЩIэ": 1365,
      "къыщи": 1366,
      "хьэн": 1367,
      "щIэхэр": 1368,
      "«К": 1369,
      "дар": 1370,
      "сам": 1371,
      "кIуэу": 1372,
      "абжьу": 1373,
      "нэхъыжь": 1374,
      "проек": 1375,
      "тхыдэм": 1376,
      "жан": 1377,
      "бзэкIэ": 1378,
      "ЛIы": 1379,
      "совет": 1380,
      "ныбжьыщIэ": 1381,
      "Мэз": 1382,
      "къызэрагъэ": 1383,
      "зэIуа": 1384,
      "уе": 1385,
      "зыри": 1386,
      "нэмыщI": 1387,
      "топ": 1388,
      "апхъэ": 1389,
      "ынымкIэ": 1390,
      "II": 1391,
      "На": 1392,
      "эри,": 1393,
      "щIыгъу": 1394,
      "хэту": 1395,
      "мэкъу": 1396,
      "щIалэгъу": 1397,
      "гуфIэ": 1398,
      "узын": 1399,
      "лъэгъуа": 1400,
      "зэрыщы": 1401,
      "ящыщщ": 1402,
      "щIо": 1403,
      "щIалэм": 1404,
      "ча": 1405,
      "ститу": 1406,
      "щIэныгъэлI": 1407,
      "22": 1408,
      "гушхуэ": 1409,
      "Иужь": 1410,
      "дзэм": 1411,
      "дзауэ": 1412,
      "куэдрэ": 1413,
      "папщIэ,": 1414,
      "хьы": 1415,
      "ыныр": 1416,
      "текIуэ": 1417,
      "жылагъуэ": 1418,
      "абр": 1419,
      "кхъу": 1420,
      "лъэхъэн": 1421,
      "они": 1422,
      "ейр": 1423,
      "универси": 1424,
      "Лъэпкъ": 1425,
      "Аслъэн": 1426,
      "Тхьэм": 1427,
      "кла": 1428,
      "рыт": 1429,
      "игу": 1430,
      "лар": 1431,
      "нэхъыб": 1432,
      "199": 1433,
      "тIо": 1434,
      "убыдэу": 1435,
      "еджапIэ": 1436,
      "Пэ": 1437,
      "хэтащ": 1438,
      "губ": 1439,
      "рав": 1440,
      "агъуэ": 1441,
      "ипэ": 1442,
      "ыныгъэм": 1443,
      "ствен": 1444,
      "Владими": 1445,
      "джылы": 1446,
      "дыщэ": 1447,
      "тэм": 1448,
      "кIуэцI": 1449,
      "ной": 1450,
      "тренер": 1451,
      "утыку": 1452,
      "тэр": 1453,
      "уэр": 1454,
      "ащхьэ": 1455,
      "пхъуэ": 1456,
      "рал": 1457,
      "джэн": 1458,
      "лъэщ": 1459,
      "фо": 1460,
      "еи": 1461,
      "щыгъэ": 1462,
      "А-м": 1463,
      "абэ": 1464,
      "сси": 1465,
      "ащи,": 1466,
      "Илъэс": 1467,
      "спортым": 1468,
      "Iэдакъэ": 1469,
      "сымэ": 1470,
      "жри": 1471,
      "ну.": 1472,
      "уэ,": 1473,
      "21": 1474,
      "+)": 1475,
      "ник": 1476,
      "унэтI": 1477,
      "фе": 1478,
      "зэпеуэм": 1479,
      "ного": 1480,
      "Ию": 1481,
      "Пре": 1482,
      "Чер": 1483,
      "лам": 1484,
      "пх": 1485,
      "хуабжьу": 1486,
      "ныбжьыр": 1487,
      "ЗэIу": 1488,
      "Ис": 1489,
      "пэр": 1490,
      "дым": 1491,
      "окъуэ": 1492,
      "рас": 1493,
      "мыIэ": 1494,
      "ати,": 1495,
      "град": 1496,
      "хуагъэфэ": 1497,
      "тхэм": 1498,
      "эу,": 1499,
      "мкIэ": 1500,
      "зэхъуэ": 1501,
      "апхуэдэу": 1502,
      "пшы": 1503,
      "гъуаз": 1504,
      "хыу": 1505,
      "кIыныгъэ": 1506,
      "зыщIэ": 1507,
      "Алий": 1508,
      "хьауэ": 1509,
      "ыры": 1510,
      "алэр": 1511,
      "Унафэ": 1512,
      "Ми": 1513,
      "ехьэлI": 1514,
      "рэм": 1515,
      "джэс": 1516,
      "ян": 1517,
      "То": 1518,
      "зэрыхъу": 1519,
      "жыг": 1520,
      "Александ": 1521,
      "хьэщIэ": 1522,
      "зэрызэ": 1523,
      "щигъэ": 1524,
      "алист": 1525,
      "коно": 1526,
      "здэ": 1527,
      "мым": 1528,
      "фащэ": 1529,
      "щIыну": 1530,
      "«Д": 1531,
      "хуигъэ": 1532,
      "фIащ": 1533,
      "лIа": 1534,
      "бэч": 1535,
      "гъэщIэгъуэн": 1536,
      "ию": 1537,
      "кан": 1538,
      "фэеплъ": 1539,
      "IэщIа": 1540,
      "лъэIу": 1541,
      "IэнатIэм": 1542,
      "зэмылIэужьыгъуэ": 1543,
      "кIи,": 1544,
      "зыте": 1545,
      "дыхьэ": 1546,
      "фащ": 1547,
      "хамэ": 1548,
      "лъэгъуэ": 1549,
      "телъы": 1550,
      "зыми": 1551,
      "194": 1552,
      "хъуэпс": 1553,
      "лIэщIы": 1554,
      "Шэр": 1555,
      "гуапэ": 1556,
      "хуащI": 1557,
      "-П": 1558,
      "бэн": 1559,
      "Тыркум": 1560,
      "щIэн": 1561,
      "Япэ": 1562,
      "хьэх": 1563,
      "каз": 1564,
      "28": 1565,
      "хьэры": 1566,
      "гугъ": 1567,
      "гъащIэр": 1568,
      "щыхьэт": 1569,
      "зауэм": 1570,
      "«А": 1571,
      "зыгуэр": 1572,
      "акIуэхэм": 1573,
      "щегъэ": 1574,
      "абар": 1575,
      "езыр": 1576,
      "пас": 1577,
      "щIыпIэм": 1578,
      "24": 1579,
      "халъ": 1580,
      "амкIэ,": 1581,
      "къэху": 1582,
      "Шэ": 1583,
      "29": 1584,
      "хьу": 1585,
      "Дж": 1586,
      "23": 1587,
      "коми": 1588,
      "итIым": 1589,
      "гупсысэ": 1590,
      "щІ": 1591,
      "газетАрхив": 1592,
      "ей,": 1593,
      "ува": 1594,
      "щIэныгъэхэм": 1595,
      "IэнатIэ": 1596,
      "Къар": 1597,
      "хэр»": 1598,
      "Щэнхабзэ": 1599,
      "год": 1600,
      "академи": 1601,
      "Шы": 1602,
      "лэжьыгъэр": 1603,
      "пIэр": 1604,
      "есс": 1605,
      "къриубыдэу": 1606,
      "щекIуэкIа": 1607,
      "Ху": 1608,
      "пэры": 1609,
      "нобэ": 1610,
      "куэдкIэ": 1611,
      "мелу": 1612,
      "къур": 1613,
      "програм": 1614,
      "къызэри": 1615,
      "зезыхьэ": 1616,
      "Европэм": 1617,
      "ный": 1618,
      "-кIэ": 1619,
      "бжыгъэ": 1620,
      "Бе": 1621,
      "бла": 1622,
      "къыхуэ": 1623,
      "ам.": 1624,
      "ант": 1625,
      "27": 1626,
      "ейрэ": 1627,
      "кило": 1628,
      "ский": 1629,
      "Псы": 1630,
      "щIэдзауэ": 1631,
      "хэри.": 1632,
      "ия": 1633,
      "уз": 1634,
      "сыма": 1635,
      "а,": 1636,
      "фIэщ": 1637,
      "нэ,": 1638,
      "щыхъу": 1639,
      "къудамэм": 1640,
      "щрагъэ": 1641,
      "куль": 1642,
      "фIу": 1643,
      "гъым": 1644,
      "жьыр": 1645,
      "хьэл": 1646,
      "еврал": 1647,
      "смен": 1648,
      "щхьэкIэ,": 1649,
      "ем,": 1650,
      "Нобэ": 1651,
      "ня": 1652,
      "тех": 1653,
      "щIу": 1654,
      "гъусэ": 1655,
      "197": 1656,
      "Iэн": 1657,
      "Бахъ": 1658,
      "дзэр": 1659,
      "сть": 1660,
      "Нэхъы": 1661,
      "Хэку": 1662,
      "зэIущIэ": 1663,
      "уп": 1664,
      "зэхъуэкIыныгъэ": 1665,
      "яху": 1666,
      "уэгъуэм": 1667,
      "къун": 1668,
      "дыдэм": 1669,
      "къуэш": 1670,
      "196": 1671,
      "аращ": 1672,
      "дежкIэ": 1673,
      "хе": 1674,
      "густа": 1675,
      "проф": 1676,
      "26": 1677,
      "бын": 1678,
      "аращ.": 1679,
      "рис": 1680,
      "Ав": 1681,
      "нэгу": 1682,
      "хуащ.": 1683,
      "щIидз": 1684,
      "щ:": 1685,
      "зэгъэ": 1686,
      "зыхэ": 1687,
      "хыж": 1688,
      "кIар": 1689,
      "республи": 1690,
      "лъэхъэнэм": 1691,
      "сь": 1692,
      "жыпIэмэ,": 1693,
      "арэзы": 1694,
      "хуэм": 1695,
      "щыгъуи": 1696,
      "феде": 1697,
      "ёр": 1698,
      "гуап": 1699,
      "кономи": 1700,
      "полити": 1701,
      "тащ.": 1702,
      "ак": 1703,
      "псэр": 1704,
      "Прези": 1705,
      "КIуэ": 1706,
      "50": 1707,
      "щыгъуазэ": 1708,
      "кIыу,": 1709,
      "андэрэ": 1710,
      "дауэ": 1711,
      "ных": 1712,
      "Сою": 1713,
      "фIыщIэ": 1714,
      "къуэм": 1715,
      "щхьэусы": 1716,
      "ырт.": 1717,
      "нур": 1718,
      "рт": 1719,
      "сын": 1720,
      "Що": 1721,
      "дэлъху": 1722,
      "ЩIалэ": 1723,
      "Бахъсэн": 1724,
      "ральнэ": 1725,
      "хутыр": 1726,
      "бжыгъэр": 1727,
      "бэнэ": 1728,
      "ауэ.": 1729,
      "од": 1730,
      "утIы": 1731,
      "08": 1732,
      "доктор": 1733,
      "лIыкIуэ": 1734,
      "Про": 1735,
      "хъунущ.": 1736,
      "къыд": 1737,
      "екIуэкI": 1738,
      "Iэры": 1739,
      "зэIущIэм": 1740,
      "тен": 1741,
      "Зэры": 1742,
      "пэж": 1743,
      "хуэдэу,": 1744,
      "шагъэр": 1745,
      "гуащIэ": 1746,
      "урысы": 1747,
      "хэку": 1748,
      "СШ": 1749,
      "къуэр": 1750,
      "ург": 1751,
      "къызэгъэ": 1752,
      "лъандэрэ": 1753,
      "кIэлъыплъ": 1754,
      "АрщхьэкIэ": 1755,
      "сурэт": 1756,
      "сэр": 1757,
      "хащ.": 1758,
      "нэу": 1759,
      "дэмы": 1760,
      "бек": 1761,
      "лыр": 1762,
      "ым»": 1763,
      "ащ:": 1764,
      "ну,": 1765,
      "зэгухьэныгъэм": 1766,
      "шей": 1767,
      "ирихьэлIэ": 1768,
      "Лэ": 1769,
      "насып": 1770,
      "лътI": 1771,
      "цIыкIум": 1772,
      "спортсмен": 1773,
      "тров": 1774,
      "къыхигъэ": 1775,
      "Бэ": 1776,
      "и.": 1777,
      "Мэзкуу": 1778,
      "акъы": 1779,
      "раз": 1780,
      "пэт": 1781,
      "просмотров": 1782,
      "логие": 1783,
      "рт.": 1784,
      "дэтхэнэ": 1785,
      "гъат": 1786,
      "зыхуей": 1787,
      "фон": 1788,
      "Пар": 1789,
      "Iи": 1790,
      "Хас": 1791,
      "дрей": 1792,
      "зыужь": 1793,
      "министер": 1794,
      "псэм": 1795,
      "Къан": 1796,
      "курыт": 1797,
      "къегъэ": 1798,
      "бзылъху": 1799,
      "унагъуэм": 1800,
      "еп": 1801,
      "198": 1802,
      "Да": 1803,
      "нэ.": 1804,
      "Ба": 1805,
      "лъэгъуащ": 1806,
      "Щхьэ": 1807,
      "гуэру": 1808,
      "ж,": 1809,
      "Кавказым": 1810,
      "къэгъу": 1811,
      "дан": 1812,
      "жри,": 1813,
      "кIыпIэ": 1814,
      "хуейуэ": 1815,
      "атIэ": 1816,
      "нап": 1817,
      "шэм": 1818,
      "филь": 1819,
      "Заур": 1820,
      "иджыблагъэ": 1821,
      "ыгъуэм": 1822,
      "Iыхьэ": 1823,
      "лъэпкъэгъу": 1824,
      "университетым": 1825,
      "кI.": 1826,
      "щIэлъ": 1827,
      "«Адыгэ": 1828,
      "ном": 1829,
      "щри": 1830,
      "дер": 1831,
      "щIе": 1832,
      "хуо": 1833,
      "цер": 1834,
      "дыгъэ": 1835,
      "2018": 1836,
      "хабзэр": 1837,
      "дза": 1838,
      "зра": 1839,
      "быдэ": 1840,
      "ыну.": 1841,
      "пашэ": 1842,
      "♦194": 1843,
      "яхэт": 1844,
      "зэп": 1845,
      "унафэм": 1846,
      "Iэзэ": 1847,
      "кIауэ": 1848,
      "къыще": 1849,
      "тэкъым,": 1850,
      "акт": 1851,
      "махуэр": 1852,
      "нэмыщIауэ,": 1853,
      "стан": 1854,
      "кач": 1855,
      "гъыр": 1856,
      "бжьы": 1857,
      "метр": 1858,
      "иро": 1859,
      "зэте": 1860,
      "упщI": 1861,
      "мафIэ": 1862,
      "еплъы": 1863,
      "энджэ": 1864,
      "Iуащхьэм": 1865,
      "щынэмыщIауэ,": 1866,
      "зэран": 1867,
      "апхуэдиз": 1868,
      "ымкIэ": 1869,
      "Тхьэ": 1870,
      "ир": 1871,
      "институ": 1872,
      "?!": 1873,
      "ом": 1874,
      "лэжьэн": 1875,
      "IэщIагъэлI": 1876,
      "лъабжь": 1877,
      "зэхуа": 1878,
      "экономи": 1879,
      "зекIуэ": 1880,
      "хэкум": 1881,
      "расно": 1882,
      "ессор": 1883,
      ".00": 1884,
      "ентым": 1885,
      "нэхъыщхьэр": 1886,
      "кар": 1887,
      "нэху": 1888,
      "нэр": 1889,
      "щиIэ": 1890,
      ".0": 1891,
      "щIэт": 1892,
      "кIуащ.": 1893,
      "IуэхукIэ": 1894,
      "Iащ.": 1895,
      "Ни": 1896,
      "Щы": 1897,
      "зригъэ": 1898,
      "хуэрэ": 1899,
      "къызыхэ": 1900,
      "Борис": 1901,
      "!»": 1902,
      "мэш": 1903,
      "атым": 1904,
      "Iум": 1905,
      "къуэдзэ": 1906,
      "дек": 1907,
      "къалъы": 1908,
      "псэлъыхь": 1909,
      "ырей": 1910,
      "илъэсым": 1911,
      "хэлъхьэ": 1912,
      "ке": 1913,
      "хъан": 1914,
      "«У": 1915,
      "къэхъу": 1916,
      "дохутыр": 1917,
      "Литерату": 1918,
      "илъ": 1919,
      "тхыдэ": 1920,
      "Во": 1921,
      "дент": 1922,
      "жыс": 1923,
      "ля,": 1924,
      "ят": 1925,
      "зэригъэ": 1926,
      "Iыхь": 1927,
      "къыщызэIуа": 1928,
      "шэн": 1929,
      "къыща": 1930,
      "Iэтащхьэ": 1931,
      "ынущ": 1932,
      "тырку": 1933,
      "бгы": 1934,
      "эрей": 1935,
      "бгъэдэлъ": 1936,
      "мам": 1937,
      "дыжь": 1938,
      "лъагэ": 1939,
      "къап": 1940,
      "тIэкIу": 1941,
      "кхъухь": 1942,
      "кIам": 1943,
      "нущ": 1944,
      "защ": 1945,
      "пщIы": 1946,
      "что": 1947,
      "хах": 1948,
      "хуейщ": 1949,
      "хуэу": 1950,
      "къыху": 1951,
      "гугъэ": 1952,
      "ок": 1953,
      "ческэ": 1954,
      "35": 1955,
      "пшын": 1956,
      "щхъуэ": 1957,
      "щIэбл": 1958,
      "псэун": 1959,
      "профессор": 1960,
      "Нар": 1961,
      "жауэ": 1962,
      "гъуэты": 1963,
      "дакъи": 1964,
      "Iуа": 1965,
      "IуэхущIапIэм": 1966,
      "КIуэкIуэ": 1967,
      "хуэрэгъу": 1968,
      "ягу": 1969,
      "хьэлъэ": 1970,
      "псыр": 1971,
      "зэгурыIуэ": 1972,
      "бжэ": 1973,
      "къыдигъэ": 1974,
      "хъыджэбз": 1975,
      "вет": 1976,
      "узэ": 1977,
      "гъуей": 1978,
      "лин": 1979,
      "Хъы": 1980,
      "кIэлъыкIуэ": 1981,
      "вор": 1982,
      "але": 1983,
      "рий": 1984,
      "зэрыт": 1985,
      "гъуэу": 1986,
      "щыщу": 1987,
      "хуейщ.": 1988,
      "ея": 1989,
      "Владимир": 1990,
      "Союзым": 1991,
      "сыщы": 1992,
      "Адэ": 1993,
      "♦18": 1994,
      "дыгъу": 1995,
      "Iэт": 1996,
      "хьэрхуэрэгъу": 1997,
      "У-м": 1998,
      "убыдэ": 1999,
      "Кур": 2000,
      "щу": 2001,
      "цIыхубз": 2002,
      "цен": 2003,
      "дэнэ": 2004,
      "хэгъэ": 2005,
      "ласт": 2006,
      "къэбэр": 2007,
      "США-м": 2008,
      "0-м": 2009,
      "195": 2010,
      "IэдакъэщIэкI": 2011,
      "чэнджэ": 2012,
      "пол": 2013,
      "щытыкIэ": 2014,
      "ныгъэхэм": 2015,
      "нэм": 2016,
      "эрэм": 2017,
      "лъэпкъхэм": 2018,
      "къалъыт": 2019,
      "Ищхъэрэ": 2020,
      "«П": 2021,
      "Скач": 2022,
      "блэгъ": 2023,
      "газету": 2024,
      "щапхъэ": 2025,
      "хым": 2026,
      "...": 2027,
      "Дунейпсо": 2028,
      ")Скач": 2029,
      "DF": 2030,
      "PDF": 2031,
      "жыжь": 2032,
      ")Скачать": 2033,
      "къыхи": 2034,
      "пэща": 2035,
      "ынущ.": 2036,
      "нэхъыщхьэм": 2037,
      "Нэхъ": 2038,
      "сымаджэ": 2039,
      "ипкъ": 2040,
      "тету": 2041,
      "адэр": 2042,
      "алы": 2043,
      "Къи": 2044,
      "къэзыгъэ": 2045,
      "иджыпсту": 2046,
      "ше": 2047,
      "цIыхур": 2048,
      "адэ-": 2049,
      "министерствэм": 2050,
      "ФIы": 2051,
      "лиг": 2052,
      "ламентым": 2053,
      "щыр": 2054,
      "кра": 2055,
      "щIэх": 2056,
      "гъыу": 2057,
      "щэм": 2058,
      "жьа": 2059,
      "Гъу": 2060,
      "лIэщIыгъуэм": 2061,
      "Ны": 2062,
      "бу": 2063,
      "нымкIэ": 2064,
      "тхьэмадэ": 2065,
      "хуэгъэ": 2066,
      "жьауэ": 2067,
      "урэ,": 2068,
      "авто": 2069,
      "Алы": 2070,
      "къэхутэ": 2071,
      "ум": 2072,
      "жагъуэ": 2073,
      "сат": 2074,
      "стэн": 2075,
      "школ": 2076,
      "мь": 2077,
      "жыIэ": 2078,
      "журналист": 2079,
      "был": 2080,
      "жыджэр": 2081,
      "тхылъым": 2082,
      "анием": 2083,
      "«Спартак-Налшыкым»": 2084,
      "къэмы": 2085,
      "Кон": 2086,
      "чы": 2087,
      "хъар": 2088,
      "дэлъ": 2089,
      "кав": 2090,
      "Ме": 2091,
      "дэн": 2092,
      "Красно": 2093,
      "теплъэ": 2094,
      "гъэм,": 2095,
      "уш": 2096,
      "дици": 2097,
      "зегъэ": 2098,
      "хъуар": 2099,
      "лъэныкъуэкIэ": 2100,
      "Iуащхьэмахуэ": 2101,
      "Фи": 2102,
      "дагъэ": 2103,
      "жыным": 2104,
      "щхьэщы": 2105,
      "пщыкIу": 2106,
      "кес": 2107,
      "лъыхъуэ": 2108,
      "мылъку": 2109,
      "лъаб": 2110,
      "апщэ": 2111,
      "Къуэ": 2112,
      "Литературэ": 2113,
      "ово": 2114,
      "хъумэным": 2115,
      "газетым": 2116,
      "лътIан": 2117,
      "рыIу": 2118,
      "кIуащ": 2119,
      "КъБКъ": 2120,
      "Джэгу": 2121,
      "ИтI": 2122,
      "Куэд": 2123,
      "къэп": 2124,
      "жыхуа": 2125,
      "................": 2126,
      "федеральнэ": 2127,
      "нэблагъэ": 2128,
      "Хэкум": 2129,
      "гулъытэ": 2130,
      "лъым": 2131,
      "хьэну": 2132,
      "мэхъу.": 2133,
      "ямы": 2134,
      "кIри,": 2135,
      "къикIа": 2136,
      "фIыгъэ": 2137,
      "мелуан": 2138,
      "хэс": 2139,
      "мып": 2140,
      "лъэпкъыр": 2141,
      "зит": 2142,
      "къыщIэкIын": 2143,
      "«Т": 2144,
      "Рус": 2145,
      "дра": 2146,
      "ван": 2147,
      "джа": 2148,
      "Псалъэм": 2149,
      "нал": 2150,
      "Су": 2151,
      "зыщI": 2152,
      "ерг": 2153,
      "къыщагъэ": 2154,
      "щекIуэкIащ": 2155,
      "IэщIагъэм": 2156,
      "Каз": 2157,
      "тур": 2158,
      "комп": 2159,
      "ской": 2160,
      "медалыр": 2161,
      "кIуэн": 2162,
      "ные": 2163,
      "орг": 2164,
      "Гер": 2165,
      "лет": 2166,
      "щIэс": 2167,
      "ирихьэлIэу": 2168,
      "Іы": 2169,
      "ЕтIу": 2170,
      "пщIэр": 2171,
      "Александр": 2172,
      "ии": 2173,
      "Гъэ": 2174,
      "ием": 2175,
      "Iэмэ": 2176,
      "щIапIэ": 2177,
      "ара": 2178,
      "аргуэру": 2179,
      "трагъэ": 2180,
      "кI,": 2181,
      "наIуэ": 2182,
      "жиI": 2183,
      "щыIа": 2184,
      "жэщым": 2185,
      "зрагъэ": 2186,
      "гуфIы": 2187,
      "кая": 2188,
      "кIэух": 2189,
      "та,": 2190,
      "мыхьэнэшхуэ": 2191,
      "ипэкIэ": 2192,
      "ащэм": 2193,
      "къэралхэм": 2194,
      "лъабжьэ": 2195,
      "07": 2196,
      "хыр": 2197,
      "псэлъ": 2198,
      "дейм": 2199,
      "Тхыдэ": 2200,
      "телъыджэ": 2201,
      "жу,": 2202,
      "Iэщ": 2203,
      "-рэ,": 2204,
      "хъумэн": 2205,
      "тэмэм": 2206,
      "Парламентым": 2207,
      "зэуэ": 2208,
      "зэрымы": 2209,
      "къызэригъэ": 2210,
      "зри": 2211,
      "хьащ,": 2212,
      "лист": 2213,
      "зор": 2214,
      "чен": 2215,
      "роман": 2216,
      "скэ": 2217,
      "къэн": 2218,
      "фын": 2219,
      "IэфI": 2220,
      "къыщыщIэдзауэ": 2221,
      "Тем": 2222,
      "гъэс": 2223,
      "зэрыр": 2224,
      "блэмэ": 2225,
      "зэрыхуэ": 2226,
      "гъазэм": 2227,
      "къыхэхам": 2228,
      "институтым": 2229,
      "До": 2230,
      "зэфI": 2231,
      "Шэрджэс": 2232,
      "театрым": 2233,
      "щIэну": 2234,
      "соци": 2235,
      "прези": 2236,
      "тху": 2237,
      "спек": 2238,
      "республикэ": 2239,
      "Казбек": 2240,
      "«Б": 2241,
      "диви": 2242,
      "Сири": 2243,
      "ире": 2244,
      "админист": 2245,
      "иужьрей": 2246,
      ".2022": 2247,
      "Ал": 2248,
      "нэхъыщхьэу": 2249,
      "логи": 2250,
      "итху": 2251,
      "мазэм": 2252,
      "адыгэбзэкIэ": 2253,
      "самбл": 2254,
      "Окт": 2255,
      "ейуэ": 2256,
      "ехьэлIа": 2257,
      "лъэм": 2258,
      "кIэры": 2259,
      "атэм": 2260,
      "га": 2261,
      "къахэ": 2262,
      "сет": 2263,
      "къыхэкIыу": 2264,
      "Лен": 2265,
      "стам": 2266,
      "къэбэрдей": 2267,
      "мэлы": 2268,
      "ондэ": 2269,
      "урысей": 2270,
      "Хасэм": 2271,
      "жен": 2272,
      "пер": 2273,
      "IуэхухэмкIэ": 2274,
      "ныгъэхэр": 2275,
      "Ви": 2276,
      "балъкъэр": 2277,
      "щыс": 2278,
      "гъуэгум": 2279,
      "инэм": 2280,
      "литературэм": 2281,
      "генер": 2282,
      "тхэр": 2283,
      "кърагъэ": 2284,
      "жыху": 2285,
      "джыI": 2286,
      "Миха": 2287,
      "кэр": 2288,
      "рон": 2289,
      "абардин": 2290,
      "мьер": 2291,
      "хьар": 2292,
      "дием": 2293,
      "шхуэр": 2294,
      "дэтхэн": 2295,
      "ЩIэныгъэ": 2296,
      "екIу": 2297,
      "сан": 2298,
      "Iуэтэ": 2299,
      "31": 2300,
      "ящI": 2301,
      "хущIэ": 2302,
      "дызэ": 2303,
      "кIыхь": 2304,
      "Iэтащхьэм": 2305,
      "упщIэ": 2306,
      "гъэсэн": 2307,
      "09": 2308,
      "Аращ": 2309,
      "щхьэусыгъуэ": 2310,
      "Щоджэн": 2311,
      "декабр": 2312,
      "ная": 2313,
      "нов": 2314,
      "Анзор": 2315,
      "футболым": 2316,
      "щIалэр": 2317,
      "твор": 2318,
      "уэра": 2319,
      "ми.": 2320,
      "Мис": 2321,
      "зауэлI": 2322,
      "ге": 2323,
      "к,": 2324,
      "хьэлъа": 2325,
      "псалъэр": 2326,
      "хъуре": 2327,
      "жащ,": 2328,
      "щтэмэ,": 2329,
      "Жан": 2330,
      "нет": 2331,
      "лIыхъужь": 2332,
      "ырыс": 2333,
      "къыхигъэщащ": 2334,
      "Iэмэпсым": 2335,
      "декабря,": 2336,
      "ехь": 2337,
      "Пэж": 2338,
      "Псо": 2339,
      "щхь": 2340,
      "щып": 2341,
      "доктор,": 2342,
      "Лэжь": 2343,
      ":4": 2344,
      "Ка": 2345,
      "акIуэм": 2346,
      "шхын": 2347,
      "Ку": 2348,
      "папщIэ.": 2349,
      "дэсхэм": 2350,
      "став": 2351,
      "иным": 2352,
      "бок": 2353,
      "увыпIэр": 2354,
      "стив": 2355,
      "Сабий": 2356,
      "темы": 2357,
      "абы.": 2358,
      "жисс": 2359,
      "бзэкIэ)": 2360,
      "Жь": 2361,
      "ншэу": 2362,
      "кол": 2363,
      "иджырей": 2364,
      "атья": 2365,
      "т:": 2366,
      "лъахэ": 2367,
      "тыщI": 2368,
      "ещхь": 2369,
      "дыр": 2370,
      "сэм": 2371,
      "щыджэгу": 2372,
      "акIуэ,": 2373,
      "фIи": 2374,
      "фIыгъуэ": 2375,
      "гъур": 2376,
      "къэкIуэ": 2377,
      "це": 2378,
      "къан": 2379,
      "тIэу": 2380,
      "къагъэсэбэп": 2381,
      "5-рэ": 2382,
      "Псом": 2383,
      "жар": 2384,
      "сво": 2385,
      "чер": 2386,
      "Къа": 2387,
      "Къэбэрдейм": 2388,
      "щокъуэ": 2389,
      "тIохъу": 2390,
      "Арат": 2391,
      "Iыхьэм": 2392,
      "къызэралъ": 2393,
      "шына": 2394,
      "Хьэсэн": 2395,
      "фер": 2396,
      "щ»,": 2397,
      "щIэхэм": 2398,
      "алIэ": 2399,
      "урысейпсо": 2400,
      "Дек": 2401,
      "хузэфIэкI": 2402,
      "уэрэджыI": 2403,
      "кавказ": 2404,
      "ищI": 2405,
      "къригъэ": 2406,
      "кIий": 2407,
      "ащхьэм": 2408,
      "анэдэлъху": 2409,
      "ХьэтIохъу": 2410,
      "тар": 2411,
      "Къэрэ": 2412,
      "лай": 2413,
      "адэкIэ": 2414,
      "хауэ": 2415,
      "ащIы": 2416,
      "хэкIуэ": 2417,
      "щхьэгъусэ": 2418,
      "иу": 2419,
      "процент": 2420,
      "рэ?": 2421,
      "Мысыр": 2422,
      "КъБКъУ-м": 2423,
      "ген": 2424,
      "ещI": 2425,
      "министр": 2426,
      "гор": 2427,
      "сен": 2428,
      "пут": 2429,
      "рет": 2430,
      "тал": 2431,
      "къыщигъэ": 2432,
      "Ищхъэрэм": 2433,
      "г.": 2434,
      "сент": 2435,
      "дихьэх": 2436,
      "нущ.": 2437,
      "хэмылъ": 2438,
      "Михаил": 2439,
      "Сент": 2440,
      "худо": 2441,
      "лав": 2442,
      "лэжьа": 2443,
      "школым": 2444,
      "Зэм": 2445,
      "ущы": 2446,
      "ансамбл": 2447,
      "тив": 2448,
      "унафэщIу": 2449,
      "Герман": 2450,
      "Джэр": 2451,
      "зды": 2452,
      "феврал": 2453,
      "зехьэ": 2454,
      "апэм": 2455,
      "дамыгъэ": 2456,
      "Апре": 2457,
      "командэм": 2458,
      "дов": 2459,
      "(16": 2460,
      "вгъэ": 2461,
      "телъ": 2462,
      "градус": 2463,
      "мьер-": 2464,
      "окт": 2465,
      "гузэ": 2466,
      "ахъшэ": 2467,
      "ского": 2468,
      "Декабр": 2469,
      "гъуэзэ": 2470,
      "хэ,": 2471,
      "фIэфI": 2472,
      "зэхъуэкIыныгъэхэр": 2473,
      "ури": 2474,
      "щIэгъу": 2475,
      "къум": 2476,
      "щIалэгъуалэм": 2477,
      "»-р": 2478,
      "гъэмрэ": 2479,
      "къэф": 2480,
      "цIыкIур": 2481,
      "джи": 2482,
      "язы": 2483,
      "къуэгъу": 2484,
      "ным,": 2485,
      "хуэмыдэу": 2486,
      "Iэпхъуэ": 2487,
      "псор": 2488,
      "ЛIыхъужь": 2489,
      "Мыр": 2490,
      "апхъ": 2491,
      "нэхъри": 2492,
      "Гъуэ": 2493,
      "апIэр": 2494,
      "муз": 2495,
      "«И": 2496,
      "Фран": 2497,
      "сер": 2498,
      "тэн": 2499,
      "щхьэхуит": 2500,
      "ыну,": 2501,
      "унэху": 2502,
      "февраля,": 2503,
      "стра": 2504,
      "ягъэув": 2505,
      "«Спартак»-м": 2506,
      "хъарзы": 2507,
      "е,": 2508,
      "щIигъэ": 2509,
      "хэри,": 2510,
      "бург": 2511,
      "рейм": 2512,
      "зэхэт": 2513,
      "дыдэр": 2514,
      "пIалъэ": 2515,
      "Инджылы": 2516,
      "Ле": 2517,
      "уи,": 2518,
      "фыр": 2519,
      "фин": 2520,
      "концер": 2521,
      "ыщ": 2522,
      "убгъу": 2523,
      "ирокъу": 2524,
      "саб": 2525,
      "усы": 2526,
      "фор": 2527,
      "цIэрыIуэ,": 2528,
      "имыIэу": 2529,
      "хын": 2530,
      "къыщызэрагъэ": 2531,
      "06": 2532,
      "х,": 2533,
      "хьэпшы": 2534,
      "под": 2535,
      "итIыр": 2536,
      "нэхъыбэу": 2537,
      "хъуащ,": 2538,
      "даIуэ": 2539,
      "щагъэлъапIэ": 2540,
      "стори": 2541,
      "чэзу": 2542,
      "ИужькIэ": 2543,
      "Руслан": 2544,
      "XX": 2545,
      "жыжьэ": 2546,
      "загъэ": 2547,
      "напэ": 2548,
      "IуэрыIу": 2549,
      "щэнхабзэ": 2550,
      "кІэ": 2551,
      ":5": 2552,
      "къабзэ": 2553,
      "районым": 2554,
      "студ": 2555,
      "Iуэхухэр": 2556,
      "лъэпкъы": 2557,
      "хьэри,": 2558,
      "сабийхэм": 2559,
      "Иджыпсту": 2560,
      "къэгъэ": 2561,
      "Дзэ": 2562,
      "нэры": 2563,
      "гъуащхьэ": 2564,
      "джэу": 2565,
      "мыдэ": 2566,
      "шыIэ": 2567,
      "Полити": 2568,
      "(16+)": 2569,
      "тан": 2570,
      "гъакIуэ": 2571,
      "вагъуэ": 2572,
      "пен": 2573,
      "зэхи": 2574,
      "хэзы": 2575,
      "зыгъэпсэху": 2576,
      "къыщыгъэ": 2577,
      "ирагъэкIуэкI": 2578,
      "студент": 2579,
      "мыбы": 2580,
      "сыту": 2581,
      "жэщ": 2582,
      "КIэ": 2583,
      "хэхъуэ": 2584,
      "дэIэпыкъу": 2585,
      "ист": 2586,
      "тей": 2587,
      "тор": 2588,
      "зыхэт": 2589,
      "щызэхуэ": 2590,
      "рикэм": 2591,
      "августа": 2592,
      "хьэпшып": 2593,
      "зымы": 2594,
      "еслъэн": 2595,
      "хуэдизу": 2596,
      "кино": 2597,
      "А.": 2598,
      "цIэм": 2599,
      "Росси": 2600,
      "КъищынэмыщIауэ,": 2601,
      "IэщIэ": 2602,
      "хоз": 2603,
      "занщIэу": 2604,
      "яу": 2605,
      "теле": 2606,
      "театр": 2607,
      "мызэ": 2608,
      "гъэры": 2609,
      "♦195": 2610,
      "грамм": 2611,
      "январ": 2612,
      "Мам": 2613,
      "къызо": 2614,
      "иткIэ": 2615,
      "хъунущ": 2616,
      "кхъуэ": 2617,
      "макъамэ": 2618,
      "къыхуи": 2619,
      "щхьэгъус": 2620,
      "реда": 2621,
      "поли": 2622,
      "егъэджэ": 2623,
      "гъуазджэм": 2624,
      "Iэщэ": 2625,
      "рист": 2626,
      "гуэш": 2627,
      "позит": 2628,
      "хэми.": 2629,
      "зыIэригъэ": 2630,
      "къалъытэ": 2631,
      "Джэрий": 2632,
      "сле": 2633,
      "эрч": 2634,
      "дом": 2635,
      "иIэу": 2636,
      "футболист": 2637,
      "октября,": 2638,
      "хуейм": 2639,
      "мэд": 2640,
      "поль": 2641,
      "псынщIэу": 2642,
      "фестив": 2643,
      "дицинэ": 2644,
      "зегъэужь": 2645,
      "бли": 2646,
      "уар": 2647,
      "уан": 2648,
      "зэдэ": 2649,
      "жэрдэм": 2650,
      "лигэм": 2651,
      "жыджэру": 2652,
      "рус": 2653,
      "лев": 2654,
      "ью": 2655,
      "кIым": 2656,
      "хьын": 2657,
      "нобэр": 2658,
      "сэ,": 2659,
      "цион": 2660,
      "къызэгъэпэщы": 2661,
      "теты": 2662,
      "убзыху": 2663,
      "дежым": 2664,
      "ещанэ": 2665,
      "5-м": 2666,
      "фу": 2667,
      "орден": 2668,
      "ноября,": 2669,
      "Iэмэпсымэ": 2670,
      "Политикэ": 2671,
      "августа,": 2672,
      "«Къэбэрдей-Балъкъэр": 2673,
      "хьэ.": 2674,
      "гуауэ": 2675,
      "фIыцIэ": 2676,
      "елъыт": 2677,
      "«Си": 2678,
      "00-м": 2679,
      "Го": 2680,
      "щыIэм": 2681,
      "зэрыте": 2682,
      "унафэщIым": 2683,
      "дэрэ": 2684,
      "еуэ": 2685,
      "пцI": 2686,
      "хъулI": 2687,
      "дзащ.": 2688,
      "Ве": 2689,
      "ейхэм": 2690,
      "щIыуэ": 2691,
      "фило": 2692,
      "мэкъумэш": 2693,
      "сымэ.": 2694,
      "ЗэIущIэхэр": 2695,
      "Къардэн": 2696,
      "гъатхэ": 2697,
      "дивизи": 2698,
      "?»": 2699,
      "Алим": 2700,
      "Д-м": 2701,
      "хэн": 2702,
      "накъы": 2703,
      "щIыналъэхэм": 2704,
      "Президен": 2705,
      "Апреля": 2706,
      "Iэпкъ": 2707,
      "абэр": 2708,
      "сигу": 2709,
      "Хэт": 2710,
      "х.": 2711,
      "это": 2712,
      "лэжьакIуэхэм": 2713,
      "узыншагъэр": 2714,
      "Аме": 2715,
      "пщIа": 2716,
      "уIэ": 2717,
      "кхъухьлъ": 2718,
      "аг": 2719,
      "ншэ": 2720,
      "дахэм": 2721,
      "щауэ": 2722,
      "ья": 2723,
      "къыхуагъэфэ": 2724,
      "кIэлъ": 2725,
      "щегъэжьауэ": 2726,
      ":00": 2727,
      "хар": 2728,
      "мазэ": 2729,
      "тернет": 2730,
      "-ПП": 2731,
      "позитор": 2732,
      "эк": 2733,
      "кIуэды": 2734,
      "увыIэ": 2735,
      "IэмкIэ,": 2736,
      "ныбжьыщIэхэм": 2737,
      "Ра": 2738,
      "цэр": 2739,
      "Iущыгъэ": 2740,
      "руг": 2741,
      "Iэпхъу": 2742,
      "Къап": 2743,
      "жиIэу": 2744,
      "НэгъуэщI": 2745,
      "равлен": 2746,
      "утIыпщ": 2747,
      "шынагъуэ": 2748,
      "хъу.": 2749,
      "област": 2750,
      "гуапэу": 2751,
      "Истам": 2752,
      "кым": 2753,
      "гъуэта": 2754,
      "гугъуехь": 2755,
      "щэнхабзэмкIэ": 2756,
      "фильм": 2757,
      "1-м": 2758,
      "сек": 2759,
      "щригъэ": 2760,
      "амо": 2761,
      "рт,": 2762,
      "лэжьэ": 2763,
      "щIалэхэм": 2764,
      "щIэупщIэ": 2765,
      "Олимпи": 2766,
      "администрацэм": 2767,
      "сентября,": 2768,
      "илъагъу": 2769,
      "яужь": 2770,
      "мывэ": 2771,
      "тынш": 2772,
      "утыкум": 2773,
      "ират": 2774,
      "Iэза": 2775,
      "дэф": 2776,
      "хыурэ": 2777,
      "хуейр": 2778,
      "Хъуэ": 2779,
      "бадзэ": 2780,
      "пIей": 2781,
      "премьер-": 2782,
      ".03": 2783,
      "января,": 2784,
      "Ло": 2785,
      "ху,": 2786,
      "аба": 2787,
      "щIыб": 2788,
      "рымы": 2789,
      "ИтIанэ": 2790,
      "агъу": 2791,
      "ёр,": 2792,
      "макIуэ": 2793,
      "кIадэм": 2794,
      "дапщэ": 2795,
      "истори": 2796,
      "сыхьэ": 2797,
      "кор": 2798,
      "нэмыцэ": 2799,
      "Арати,": 2800,
      "щIэж": 2801,
      "щIэгъэ": 2802,
      "ей.": 2803,
      "рона": 2804,
      "режисс": 2805,
      "инджылы": 2806,
      "саугъэтыр": 2807,
      "дджы": 2808,
      "ита": 2809,
      "щыIэщ.": 2810,
      "Ге": 2811,
      "Зауэ": 2812,
      "бали": 2813,
      "зэкъуэ": 2814,
      "джым": 2815,
      "псэлъэ": 2816,
      "дунейр": 2817,
      "Мухьэ": 2818,
      "Марие": 2819,
      "МВ": 2820,
      "Серг": 2821,
      "ырщ.": 2822,
      "жыла": 2823,
      "Мэкъу": 2824,
      "40": 2825,
      "Ха": 2826,
      "бэм": 2827,
      "тери": 2828,
      "щхьэпэ": 2829,
      "шыпхъу": 2830,
      "ябрь": 2831,
      "щхьэуIум": 2832,
      "футболымкIэ": 2833,
      "Сан": 2834,
      "зых": 2835,
      "зыры": 2836,
      "ырт": 2837,
      "зыбжанэм": 2838,
      "къулыкъум": 2839,
      "УнафэщI": 2840,
      "Егъэ": 2841,
      "Идж": 2842,
      "бза": 2843,
      "сте": 2844,
      "щIэту": 2845,
      "жэп": 2846,
      "спектак": 2847,
      "хэтыну": 2848,
      "зауэшхуэм": 2849,
      "Дунейм": 2850,
      "(12": 2851,
      "ехы": 2852,
      "икъу": 2853,
      "щылажьэ": 2854,
      "дызэры": 2855,
      "щIыпIэхэм": 2856,
      "цы": 2857,
      "еджапIэм": 2858,
      "уасэ": 2859,
      "уас": 2860,
      "ядэ": 2861,
      "гъэсэ": 2862,
      "ало": 2863,
      "депут": 2864,
      "Мая": 2865,
      "щIыгъуу": 2866,
      "комитетым": 2867,
      "дыгъэгъазэм": 2868,
      "апхуэдизкIэ": 2869,
      "Пщы": 2870,
      "ежь": 2871,
      "пэмы": 2872,
      "тригъэ": 2873,
      "къащIэ": 2874,
      "гуш": 2875,
      "зэрыри": 2876,
      "гъэмахуэ": 2877,
      "щIыIу": 2878,
      "гъуэгуры": 2879,
      "пэтми,": 2880,
      ".03.2022": 2881,
      "Лю": 2882,
      "его": 2883,
      "эрт.": 2884,
      "уеблэмэ": 2885,
      "Ян": 2886,
      "сов": 2887,
      "щIал": 2888,
      "щIэ,": 2889,
      "псалъ": 2890,
      "кой": 2891,
      "къызэрагъэпэщ": 2892,
      "Октября": 2893,
      "Къэрэшей": 2894,
      "-Джэрий": 2895,
      "пов": 2896,
      "щ».": 2897,
      "ымкIэ,": 2898,
      "дол": 2899,
      "пасэрей": 2900,
      "генерал": 2901,
      "вэу": 2902,
      "щ»": 2903,
      "щыгъуэм": 2904,
      "махуэхэм": 2905,
      "хъунур": 2906,
      "адэжь": 2907,
      "Марта": 2908,
      "Июля": 2909,
      "Нико": 2910,
      "Пэжщ,": 2911,
      "Тэрч": 2912,
      "лэжьэну": 2913,
      "физи": 2914,
      "лэжьыгъэхэр": 2915,
      ":0": 2916,
      "щащ.": 2917,
      "мызакъуэ": 2918,
      "чемпионатым": 2919,
      "щымыIэ": 2920,
      "щытыкIэм": 2921,
      "адыгэбзэм": 2922,
      "зыужьыныгъэм": 2923,
      "сащ": 2924,
      "тепсэлъы": 2925,
      "сыхьэт": 2926,
      "щIыхьэ": 2927,
      "куэду": 2928,
      "лIыгъэ": 2929,
      "шэрджэс": 2930,
      "июля,": 2931,
      "дыжьын": 2932,
      "еджэ": 2933,
      "лъэр": 2934,
      "лъхьа": 2935,
      "кIащ,": 2936,
      "диIэ": 2937,
      "абыкIэ": 2938,
      "даха": 2939,
      "ЩIым": 2940,
      "фIэм": 2941,
      "бан": 2942,
      "все": 2943,
      "хуэзы": 2944,
      "гъуэхэм": 2945,
      "амрэ": 2946,
      "кубок": 2947,
      "хъуэхъу": 2948,
      "медицинэ": 2949,
      "хэлъу": 2950,
      "Ахь": 2951,
      "пху": 2952,
      "пащхьэ": 2953,
      "ид": 2954,
      "фар": 2955,
      "инг": 2956,
      "хэмрэ.": 2957,
      "Iущыгъэ:": 2958,
      "Истамбыл": 2959,
      "»-": 2960,
      "Дэт": 2961,
      "бгъэры": 2962,
      "ущ": 2963,
      "щI.": 2964,
      "нэхъыфIу": 2965,
      "-мы": 2966,
      "ее": 2967,
      "яфIэ": 2968,
      "дри": 2969,
      "еры": 2970,
      "хъууэ": 2971,
      "Iуфэм": 2972,
      "дыдэхэм": 2973,
      "лэжьакIуэ,": 2974,
      "пред": 2975,
      "къыщалъхуа": 2976,
      "дэтхэнэми": 2977,
      "обще": 2978,
      "программэм": 2979,
      "Ленин": 2980,
      "Ки": 2981,
      "пхы": 2982,
      "къинэ": 2983,
      "♦193": 2984,
      "гуфIэгъуэ": 2985,
      "ину": 2986,
      "щIар": 2987,
      "щIыным": 2988,
      "ныкъу": 2989,
      "ати": 2990,
      "джэгум": 2991,
      "заем": 2992,
      "никэ": 2993,
      "псэупIэ": 2994,
      "Декабря": 2995,
      "дивизионым": 2996,
      "(12+)": 2997,
      "Дау": 2998,
      "ыра": 2999,
      "къэдгъэ": 3000,
      "шагъэм": 3001,
      "къыздэ": 3002,
      "сурэтыщI": 3003,
      "Августа": 3004,
      "ЪУ": 3005,
      "щын": 3006,
      "щIэтIыс": 3007,
      "мастер": 3008,
      "ынур": 3009,
      "бгырыс": 3010,
      "артисткэ": 3011,
      "цIыхубэм": 3012,
      "бз": 3013,
      "зыIу": 3014,
      "нэгъуэщIхэри.": 3015,
      "пщIондэ": 3016,
      "суд": 3017,
      "етер": 3018,
      "щыхъунущ.": 3019,
      "пэгъунэгъу": 3020,
      "дауи,": 3021,
      "дзыхь": 3022,
      "Июня": 3023,
      "ронави": 3024,
      "бал": 3025,
      "ют": 3026,
      "зыхэлъ": 3027,
      "Къаз": 3028,
      "щытащ,": 3029,
      "Тырку": 3030,
      "IуэхущIапIэхэм": 3031,
      "чэнджэщ": 3032,
      "-щIэ": 3033,
      "ДА": 3034,
      "Ла": 3035,
      "бей": 3036,
      "ради": 3037,
      "кото": 3038,
      "кIуауэ": 3039,
      "лэжьащ.": 3040,
      "унафэр": 3041,
      "зэмылIэужьыгъуэхэм": 3042,
      "тенджы": 3043,
      "Сурэ": 3044,
      "акъ": 3045,
      "ней": 3046,
      "гъущI": 3047,
      "къаху": 3048,
      "адыгэхэр": 3049,
      "марта,": 3050,
      "пхъа": 3051,
      "дакъикъэ": 3052,
      "ухы": 3053,
      "нэпс": 3054,
      "кIуам": 3055,
      "езыхэм": 3056,
      "Сентября": 3057,
      "ерыс": 3058,
      "мэн": 3059,
      "мон": 3060,
      "хэми,": 3061,
      "хэкI": 3062,
      "тхыдэр": 3063,
      "район": 3064,
      "жаны": 3065,
      "бзылъхугъэ": 3066,
      "мамыр": 3067,
      "жыхуиIэ": 3068,
      "оте": 3069,
      "лъэужь": 3070,
      "тегъэ": 3071,
      "кIуэгъуэм": 3072,
      "емрэ": 3073,
      "къищт": 3074,
      "литератур": 3075,
      "Уе": 3076,
      "ыны": 3077,
      "къэкIуэну": 3078,
      "нато": 3079,
      "СулътIан": 3080,
      "дэфтэр": 3081,
      "ихь": 3082,
      "ул": 3083,
      "щIакIуэ": 3084,
      "хуэхъу": 3085,
      "гуза": 3086,
      "пэщащ": 3087,
      "щIыкI": 3088,
      "род": 3089,
      "къыщо": 3090,
      "къызэрыгуэ": 3091,
      "акъыл": 3092,
      "Ахьмэд": 3093,
      "зыхи": 3094,
      "Къуа": 3095,
      "щытэ": 3096,
      "ка»": 3097,
      "етербург": 3098,
      "Анато": 3099,
      "ищIащ": 3100,
      "арат": 3101,
      "вой": 3102,
      "кIыжын": 3103,
      "гурыIуэгъуэ": 3104,
      "(«": 3105,
      "ец": 3106,
      "лъахэм": 3107,
      "Iуэхухэм": 3108,
      "гъазэ": 3109,
      "Республи": 3110,
      "адрейм": 3111,
      "ЗэIущIэм": 3112,
      "ская": 3113,
      "гъкIэ": 3114,
      "лъыр": 3115,
      "щрагъэкIуэкI": 3116,
      "депутат": 3117,
      "дяпэ": 3118,
      "зэредж": 3119,
      "кIыжа": 3120,
      "как": 3121,
      "ания": 3122,
      "тхьэмахуэ": 3123,
      "нэсу": 3124,
      "иригъэкIуэкI": 3125,
      "Iыхьлы": 3126,
      "алыдж": 3127,
      "Къэрэшей-": 3128,
      "Пащ": 3129,
      "эу.": 3130,
      "антIэ": 3131,
      "Черкес": 3132,
      "тэмэму": 3133,
      "хэха": 3134,
      "хъумэнымкIэ": 3135,
      "пкъы": 3136,
      "мэз": 3137,
      "регъэ": 3138,
      "фIэкIуэ": 3139,
      "года": 3140,
      "хуежь": 3141,
      "Псори": 3142,
      "Январ": 3143,
      "Эль": 3144,
      "кIыу.": 3145,
      "экономикэ": 3146,
      "Бы": 3147,
      "Ва": 3148,
      "Фы": 3149,
      "езыгъэ": 3150,
      "тхэ": 3151,
      "къэм": 3152,
      "кIэщI": 3153,
      "быд": 3154,
      "ить": 3155,
      "лау": 3156,
      "ное": 3157,
      "лыхь": 3158,
      "ских": 3159,
      "щIэблэм": 3160,
      "Феврал": 3161,
      "абзэ": 3162,
      "дыщы": 3163,
      "спо": 3164,
      "мелар": 3165,
      "лIыжь": 3166,
      "лъэгъуащ.": 3167,
      "проектым": 3168,
      "Би": 3169,
      "Вале": 3170,
      "КIы": 3171,
      "хуар": 3172,
      "ала": 3173,
      "зэрит": 3174,
      "зий": 3175,
      "орд": 3176,
      "жылэ": 3177,
      "193": 3178,
      "-рэ.": 3179,
      "цIыкIухэр": 3180,
      "къалэнхэр": 3181,
      "комисс": 3182,
      "фIыгъэкIэ": 3183,
      "пхъум": 3184,
      "сри": 3185,
      "шагъэ": 3186,
      "композитор": 3187,
      "губгъуэм": 3188,
      "къыдигъэкIа": 3189,
      "Февраля": 3190,
      "«О": 3191,
      "Беслъэн": 3192,
      "яхуи": 3193,
      "гъэн": 3194,
      "хъугъуэ": 3195,
      "къулей": 3196,
      "Мурат": 3197,
      "мызакъуэу,": 3198,
      "I9": 3199,
      "кл": 3200,
      "яй": 3201,
      "кIэрэ": 3202,
      "инамо": 3203,
      "овэ": 3204,
      "фокIадэм": 3205,
      "Краснодар": 3206,
      "Али": 3207,
      "щ!": 3208,
      "хьам": 3209,
      "Къал": 3210,
      "сыху": 3211,
      "итIанэ": 3212,
      "Ноября": 3213,
      "уха": 3214,
      "гъхэм": 3215,
      "гуащ": 3216,
      "дид": 3217,
      "щытын": 3218,
      "бгъэдыхьэ": 3219,
      "псалъэхэр": 3220,
      "къэхутэныгъэ": 3221,
      "гукъыдэ": 3222,
      "мэ.": 3223,
      "шхуэхэр": 3224,
      "граф": 3225,
      "Мура": 3226,
      "метри": 3227,
      "центрым": 3228,
      "класс": 3229,
      "пасэу": 3230,
      "Пут": 3231,
      "екIуэкIа": 3232,
      "пхуэ": 3233,
      "хъа": 3234,
      "къыкIэлъыкIуэ": 3235,
      "къым:": 3236,
      "Лъэ": 3237,
      "щIидзащ.": 3238,
      "нэрылъагъу": 3239,
      "дон": 3240,
      "хыну": 3241,
      "тедз": 3242,
      "зимыIэ": 3243,
      "хъуэм": 3244,
      "къежь": 3245,
      "гупыр": 3246,
      "ЩIалэгъуэ": 3247,
      "къэт": 3248,
      "шылэм": 3249,
      "щIагъуэ": 3250,
      "жаIэр": 3251,
      "спортымкIэ": 3252,
      "Зэман": 3253,
      "Куэ": 3254,
      "бю": 3255,
      "гэ": 3256,
      "й,": 3257,
      "щызы": 3258,
      "ирокъу.": 3259,
      "бадзэуэгъуэм": 3260,
      "МВД-м": 3261,
      "Ста": 3262,
      "фIэщы": 3263,
      "дахэу": 3264,
      "ий,": 3265,
      "бжыгъэм": 3266,
      "ед": 3267,
      "губжь": 3268,
      "Iыхьэр": 3269,
      "сту": 3270,
      "стро": 3271,
      "къэкIыж": 3272,
      "фIхэр": 3273,
      "махуэщ.": 3274,
      "къыхэкIыу,": 3275,
      "тхакIуэ,": 3276,
      "дэIэпыкъуэгъу": 3277,
      "Укра": 3278,
      "екIуэ": 3279,
      "н,": 3280,
      "къыхагъэ": 3281,
      "тхылъыр": 3282,
      "05:00": 3283,
      "щIалэгъуалэ": 3284,
      "ственнэ": 3285,
      "антIэм": 3286,
      "ЕтIуанэ": 3287,
      "Фат": 3288,
      "сэри": 3289,
      "тов": 3290,
      "къуей": 3291,
      "пэкIэ": 3292,
      "къекIуэ": 3293,
      "щыIэкъым.": 3294,
      "пэщIэт": 3295,
      "къащы": 3296,
      "Ноб": 3297,
      "РС": 3298,
      "икэ": 3299,
      "тщIы": 3300,
      "гъэлъэгъуэ": 3301,
      "къыщалъхуащ.": 3302,
      "мэр": 3303,
      "ть": 3304,
      "стов": 3305,
      "ащIэр": 3306,
      "къалащхьэм": 3307,
      "адыгэм": 3308,
      "АдэкIэ": 3309,
      "Юрэ": 3310,
      "хущхъуэ": 3311,
      "хуэр": 3312,
      "Iыс": 3313,
      "зауэр": 3314,
      "Лэжьыгъэм": 3315,
      "Президентым": 3316,
      "«Г": 3317,
      "Бет": 3318,
      "енкэ": 3319,
      "шхуэхэм": 3320,
      "политикэ": 3321,
      "ансамблым": 3322,
      "Америкэм": 3323,
      "2-м": 3324,
      "Iар": 3325,
      "нкIэ": 3326,
      "олим": 3327,
      "щхъу": 3328,
      "хьэлэ": 3329,
      "фIа": 3330,
      "гуэрхэр": 3331,
      "пщащэ": 3332,
      "жэпуэгъуэм": 3333,
      "Сирием": 3334,
      "Иван": 3335,
      "мир": 3336,
      "евэ": 3337,
      "пкъры": 3338,
      "Нарт": 3339,
      "Че": 3340,
      "жмэ,": 3341,
      "хурэ": 3342,
      "тепщэ": 3343,
      "мыщIэ": 3344,
      "джэхэмкIэ": 3345,
      "♦196": 3346,
      "тыншу": 3347,
      "бийм": 3348,
      "-мытIэу": 3349,
      "къыпэ": 3350,
      "арщхьэкIэ": 3351,
      "гуащэ": 3352,
      "тетыр": 3353,
      "ыным,": 3354,
      "зэхуэса": 3355,
      "щытекIуа": 3356,
      "накъыгъэм": 3357,
      "пщым": 3358,
      "тон": 3359,
      "уч": 3360,
      "шхы": 3361,
      "щІэ": 3362,
      "гъэзэ": 3363,
      "зыфIащ": 3364,
      "лыкъуэ": 3365,
      "хуитыныгъэ": 3366,
      "ЦIыхум": 3367,
      "люк": 3368,
      "Ныбжь": 3369,
      "Iун": 3370,
      "зиужь": 3371,
      "фIым": 3372,
      "кандид": 3373,
      "-щIэхыурэ": 3374,
      "с.": 3375,
      "къыб": 3376,
      "хьэ,": 3377,
      "апре": 3378,
      "щIыкIэм": 3379,
      "пылъ": 3380,
      "теухуауэ.": 3381,
      "саугъэт": 3382,
      "килограмм": 3383,
      "щыгъ": 3384,
      "хэрщ.": 3385,
      "зэриIэ": 3386,
      "станым": 3387,
      "шыщхьэуIум": 3388,
      "тыгъэ": 3389,
      "ников": 3390,
      "лект": 3391,
      "щытыкIэр": 3392,
      "-и": 3393,
      "Ри": 3394,
      "Тим": 3395,
      "ижь": 3396,
      "Кърым": 3397,
      "иткIэ,": 3398,
      "но-": 3399,
      "къищ": 3400,
      "псэущхьэ": 3401,
      "ствэ": 3402,
      "Аф": 3403,
      "уей": 3404,
      "хьэзы": 3405,
      "дежи": 3406,
      "къыщыдэ": 3407,
      "гъасэ": 3408,
      "зэманыр": 3409,
      "агъыр": 3410,
      "XV": 3411,
      "зн": 3412,
      "зыкъо": 3413,
      "джащ": 3414,
      "игъэзэ": 3415,
      "къэралыгъуэ": 3416,
      "къигъэзэ": 3417,
      "куууэ": 3418,
      "еплъыкIэ": 3419,
      "с,": 3420,
      "зэхы": 3421,
      "щIэщыгъуэ": 3422,
      "цIыкIухэм": 3423,
      "балъкъэры": 3424,
      "Шо": 3425,
      "эмкIэ,": 3426,
      "щынэхъ": 3427,
      "уващ": 3428,
      "жиIэр": 3429,
      "лэмэт": 3430,
      "зэхуаку": 3431,
      "Инджылызым": 3432,
      "Николай": 3433,
      "Тх": 3434,
      "иух": 3435,
      "кий": 3436,
      "щэр": 3437,
      "гъащ": 3438,
      "къакIуэ": 3439,
      "зэхэту": 3440,
      "арат.": 3441,
      "щIэныгъэр": 3442,
      "атыр": 3443,
      "ется": 3444,
      "щытар": 3445,
      "илъэсхэм": 3446,
      "тхьэмыщ": 3447,
      "пло": 3448,
      "къит": 3449,
      "жьей": 3450,
      "къиух": 3451,
      "нымрэ": 3452,
      "тIэ,": 3453,
      "щIыхьыр": 3454,
      "стади": 3455,
      "гъэщIэгъуэ": 3456,
      "напэкIуэцI": 3457,
      "зыщи": 3458,
      "хьэкъ": 3459,
      "лэжьы": 3460,
      "100": 3461,
      "Мари": 3462,
      "зар": 3463,
      "мер": 3464,
      "щалъ": 3465,
      "хужь": 3466,
      "къыдо": 3467,
      "нэIэ": 3468,
      "уващ.": 3469,
      "жырт.": 3470,
      "къудамэ": 3471,
      "III": 3472,
      "уэрэджыIакIуэ": 3473,
      "(адыгэбзэкIэ": 3474,
      "зэпэщIэ": 3475,
      "пIэрэ": 3476,
      "3-м": 3477,
      "атэр": 3478,
      "евро": 3479,
      "къалащхьэ": 3480,
      "шынагъуэн": 3481,
      "Мысырым": 3482,
      "(адыгэбзэкIэ)": 3483,
      "-хэм": 3484,
      "Бэр": 3485,
      "оч": 3486,
      "къыхо": 3487,
      "дахэр": 3488,
      "сабийм": 3489,
      "зэфIэкIыр": 3490,
      "тхыгъэхэр": 3491,
      "социальнэ": 3492,
      "икъукIэ": 3493,
      "70": 3494,
      "Куб": 3495,
      "Мус": 3496,
      "Не": 3497,
      "яри": 3498,
      "къыпы": 3499,
      "нэщхъ": 3500,
      "сызэры": 3501,
      "Арсен": 3502,
      "пщэры": 3503,
      "графи": 3504,
      "хьэлIа": 3505,
      "мэкъуауэ": 3506,
      "ца": 3507,
      "гъав": 3508,
      "сытым": 3509,
      "цIыхухъу": 3510,
      "тик": 3511,
      "хуейт": 3512,
      "Ауэ,": 3513,
      "увыпIэ": 3514,
      "къысхуэ": 3515,
      "Дыщэ": 3516,
      "Адыгейм": 3517,
      "«Кабардин": 3518,
      "хэлъхьэныгъэ": 3519,
      "Виктор": 3520,
      "равленэм": 3521,
      "хъаз": 3522,
      "щI,": 3523,
      "гувэу": 3524,
      "гъуэхэр": 3525,
      "мазаем": 3526,
      "дерс": 3527,
      "лъабжьэр": 3528,
      "гуэд": 3529,
      "пцIы": 3530,
      "хэкIыпIэ": 3531,
      "2012": 3532,
      "лея": 3533,
      "пщыхьэ": 3534,
      "километр": 3535,
      "гузэвэ": 3536,
      "Санкт": 3537,
      "Ставро": 3538,
      "Кар": 3539,
      "еш": 3540,
      "зов": 3541,
      "удз": 3542,
      "зэныбжьэгъу": 3543,
      "купщIа": 3544,
      "20-м": 3545,
      "урым": 3546,
      "къахуэ": 3547,
      "Нэху": 3548,
      "художе": 3549,
      "Путин": 3550,
      "гуа": 3551,
      "лакIуэ": 3552,
      "тхыгъэм": 3553,
      "къызэрымы": 3554,
      "ныгъэмрэ": 3555,
      "бэнэкIэ": 3556,
      "РСФ": 3557,
      "ич": 3558,
      "муни": 3559,
      "зэда": 3560,
      "лъэба": 3561,
      "Iуры": 3562,
      "дзащ": 3563,
      "-Петербург": 3564,
      "пэрыт": 3565,
      "утIыпщы": 3566,
      "щIэх-щIэхыурэ": 3567,
      "«З": 3568,
      "Езы": 3569,
      "Осет": 3570,
      "щит": 3571,
      "жылэм": 3572,
      "хэтащ.": 3573,
      "хуейщ,": 3574,
      "къафэ": 3575,
      "Хьэж": 3576,
      "граду": 3577,
      "ари.": 3578,
      "щопсэу": 3579,
      "творче": 3580,
      "ферен": 3581,
      "мызэ-мытIэу": 3582,
      "80": 3583,
      "пу": 3584,
      "шэры": 3585,
      "джет": 3586,
      "псэкIэ": 3587,
      "ехьэлIауэ": 3588,
      "Мей": 3589,
      "хуабэ": 3590,
      "щыщIэ": 3591,
      "къут": 3592,
      "сыпы": 3593,
      "унафэщIхэм": 3594,
      "епха": 3595,
      "лъахэгъу": 3596,
      "зэху": 3597,
      "мыш": 3598,
      "Джэгухэм": 3599,
      "Санкт-Петербург": 3600,
      "ИкIи": 3601,
      "ищIэ": 3602,
      "ыр»": 3603,
      "дие": 3604,
      "гъэр,": 3605,
      "лIым": 3606,
      "фIыкIэ": 3607,
      "зыIэрагъэ": 3608,
      "Хъыбар": 3609,
      "Ставрополь": 3610,
      "кIуэу,": 3611,
      "шынэ": 3612,
      "ий.": 3613,
      "хэтхэм": 3614,
      "плъыхь": 3615,
      "лэжьыгъэхэм": 3616,
      "просмотра": 3617,
      "«Динамо": 3618,
      "Шэрджэ": 3619,
      "редактор": 3620,
      "Къапщтэмэ,": 3621,
      "премьер-лигэм": 3622,
      "градуси": 3623,
      "зыхуагъэ": 3624,
      "ром": 3625,
      "ректор": 3626,
      "Хьэм": 3627,
      "Къэралым": 3628,
      "адрейхэм": 3629,
      "къыщызэIуахащ": 3630,
      "РСФСР-м": 3631,
      "Мин": 3632,
      "къызэIу": 3633,
      "гъуащ": 3634,
      "лъагъур": 3635,
      "тхылъхэр": 3636,
      "Бел": 3637,
      "къэфакIуэ": 3638,
      "скэм": 3639,
      "тре": 3640,
      "хмат": 3641,
      "ато": 3642,
      "кIахэм": 3643,
      "музы": 3644,
      "кIыжащ.": 3645,
      "щыпсэухэм": 3646,
      "макъам": 3647,
      "жриIащ": 3648,
      "Жэ": 3649,
      "КIу": 3650,
      "Татья": 3651,
      "лъэмы": 3652,
      "хуаб": 3653,
      "зыхуагъэфэ": 3654,
      "аплъэ": 3655,
      "къыщыхъу": 3656,
      "къащт": 3657,
      "журнал": 3658,
      "онием": 3659,
      "Уэрэ": 3660,
      "Ша": 3661,
      "край": 3662,
      "яте": 3663,
      "гущIэгъу": 3664,
      "Хьэб": 3665,
      "хуейт.": 3666,
      "зэIущIэр": 3667,
      "тIэун": 3668,
      "президент": 3669,
      "мэлыжьы": 3670,
      "сэрэ": 3671,
      "щIам": 3672,
      "атор": 3673,
      "щхьэп": 3674,
      "Илъэси": 3675,
      "зыхуигъэ": 3676,
      "Хуабэр": 3677,
      "Января": 3678,
      "кIыным": 3679,
      "щыщIэдзауэ": 3680,
      "хьэблэ": 3681,
      "гъунап": 3682,
      "къэкIы": 3683,
      "Хъус": 3684,
      "Дауи,": 3685,
      "2-рэ": 3686,
      "«В": 3687,
      "нэкIэ": 3688,
      "хуэн": 3689,
      "кIуэт": 3690,
      "щэкIуэгъуэм": 3691,
      "тэдж": 3692,
      "адыгэбзэ": 3693,
      "хьэзыра": 3694,
      "АН": 3695,
      "Ев": 3696,
      "Iэп": 3697,
      "хьэпIэ": 3698,
      "хэнэ": 3699,
      "дий": 3700,
      "лад": 3701,
      "гъэрэ": 3702,
      "Зэхьэзэхуэ": 3703,
      "текIуэныгъэ": 3704,
      "Са": 3705,
      "абдеж": 3706,
      "зигъэ": 3707,
      "апхуэдэуи": 3708,
      "Нэхъыщхьэм": 3709,
      "хозяй": 3710,
      "Сэр": 3711,
      "зам": 3712,
      "ящIэ": 3713,
      "лъэры": 3714,
      "коронави": 3715,
      "рем": 3716,
      "пщIым": 3717,
      "щыта,": 3718,
      "жыжьэу": 3719,
      "къызэралъхурэ": 3720,
      "Там": 3721,
      "гда": 3722,
      "д.": 3723,
      "сащ.": 3724,
      "ийм": 3725,
      "убл": 3726,
      "нэхъыбэр": 3727,
      "къыщыхэ": 3728,
      "сабии": 3729,
      "лауре": 3730,
      "ссым": 3731,
      "шин": 3732,
      "лэт": 3733,
      "емкIэ": 3734,
      "советым": 3735,
      "7-м": 3736,
      "Фэ": 3737,
      "зрэ": 3738,
      "лъакъуэ": 3739,
      "ство": 3740,
      "къызэра": 3741,
      "Апхуэдэуи": 3742,
      "90": 3743,
      "эрт": 3744,
      "къэ,": 3745,
      "ным.": 3746,
      "хъэнэ": 3747,
      "иужькIэ,": 3748,
      "щымыIэу": 3749,
      "шист": 3750,
      "(балъкъэры": 3751,
      "Iей": 3752,
      "акъым": 3753,
      "змы": 3754,
      "офи": 3755,
      "хукIэ": 3756,
      "апхуэдизу": 3757,
      "фIо": 3758,
      "гъахъуэ": 3759,
      "бея": 3760,
      "жаIэ.": 3761,
      "кхъухьлъатэ": 3762,
      "дру": 3763,
      "жым,": 3764,
      "зэрыцI": 3765,
      "махуи": 3766,
      "къазэры": 3767,
      "пере": 3768,
      "пIащIэ": 3769,
      "Андрей": 3770,
      "«Спартак-Налшык»": 3771,
      "Мухьэдин": 3772,
      "ФатIи": 3773,
      "Ду": 3774,
      "Иорд": 3775,
      "Хуэ": 3776,
      "егъащIэ": 3777,
      "уагъэ": 3778,
      "зыбгъэдэлъ": 3779,
      "сыщIэ": 3780,
      "цIыхуу": 3781,
      "узыфэ": 3782,
      "(балъкъэрыбзэкIэ)": 3783,
      "къыщыт": 3784,
      "кІуэ": 3785,
      "псынщIэ": 3786,
      "дащ": 3787,
      "пым": 3788,
      "щыхъум": 3789,
      "щIэгъуэн": 3790,
      "Хъу": 3791,
      "щащI": 3792,
      "гъатхэпэм": 3793,
      "тIэунейрэ": 3794,
      "М.": 3795,
      "схуэ": 3796,
      "укIы": 3797,
      "чу": 3798,
      "къызэIуа": 3799,
      "къэнэ": 3800,
      "Iуэхутхьэ": 3801,
      "тхыгъэхэм": 3802,
      "д,": 3803,
      "плъа": 3804,
      "хьыну": 3805,
      "техъуэ": 3806,
      "итай": 3807,
      "сабийхэр": 3808,
      "бюджет": 3809,
      "купщIафIэ": 3810,
      "Бер": 3811,
      "Лон": 3812,
      "ищIэр": 3813,
      "фран": 3814,
      "ань": 3815,
      "кIуар": 3816,
      "къэралыгъуэм": 3817,
      "къыщащ": 3818,
      "Къэза": 3819,
      "Шэч": 3820,
      "Шэрджэсым": 3821,
      "Кабар": 3822,
      "Яп": 3823,
      "кри": 3824,
      "хур": 3825,
      "хуэс": 3826,
      "Iус": 3827,
      "ства": 3828,
      "къыщIэкIыну": 3829,
      "Ростов": 3830,
      "литературэ": 3831,
      "част": 3832,
      "бэнакIуэ": 3833,
      "Президент": 3834,
      "Иджыри": 3835,
      "8-м": 3836,
      "ель": 3837,
      "эм.": 3838,
      "хут": 3839,
      "хэплъэ": 3840,
      "Хъуэжэ": 3841,
      "хъугъуэфIыгъуэ": 3842,
      "4-м": 3843,
      "жам": 3844,
      "слов": 3845,
      "ууэ": 3846,
      "ятеухуа": 3847,
      "щIащ,": 3848,
      "кIэ»": 3849,
      "риз": 3850,
      "рам": 3851,
      "ССР-м": 3852,
      "хьэрып": 3853,
      "ретар": 3854,
      "нобэрей": 3855,
      "-уэ": 3856,
      "жал": 3857,
      "ог": 3858,
      "зэха": 3859,
      "зыщ": 3860,
      "нэгум": 3861,
      "ыныгъэр": 3862,
      "зэращ": 3863,
      "хэщ.": 3864,
      "хэтщ": 3865,
      "хъурт.": 3866,
      "Германием": 3867,
      "дэрэжэ": 3868,
      "Iэпэ": 3869,
      "Iэты": 3870,
      "хэти": 3871,
      "Гъат": 3872,
      "къызэгъэпэщ": 3873,
      "Академи": 3874,
      "кап": 3875,
      "щ…": 3876,
      "хьэлэмэт": 3877,
      "зэрыхъуну": 3878,
      "инхэр": 3879,
      "ящыщщ.": 3880,
      "Интернет": 3881,
      "2008": 3882,
      "мамлюк": 3883,
      "ещI:": 3884,
      "къызэрыгуэкI": 3885,
      "Мейкъу": 3886,
      "Бг": 3887,
      "шхэ": 3888,
      "кърат": 3889,
      "зэш": 3890,
      "ырт,": 3891,
      "дит": 3892,
      "мэс": 3893,
      "кIыхьа": 3894,
      "Сыту": 3895,
      "мардэ": 3896,
      "мыпхуэдэ": 3897,
      "Та": 3898,
      "ухъуре": 3899,
      "щыхъуа": 3900,
      "хъу,": 3901,
      "КъШ": 3902,
      "эри.": 3903,
      "адыгэбзэр": 3904,
      "бел": 3905,
      "профессор,": 3906,
      ":3": 3907,
      "ждан": 3908,
      "наб": 3909,
      "щапхъ": 3910,
      "зыхуа": 3911,
      "щIэмы": 3912,
      "ныкъуэм": 3913,
      "джэгухэм": 3914,
      "шинэ": 3915,
      "щIидзащ": 3916,
      "музейм": 3917,
      "02": 3918,
      "св": 3919,
      "элект": 3920,
      "зэрыжи": 3921,
      "ремен": 3922,
      "къыхэкI": 3923,
      "щIалэхэр": 3924,
      "пщэдджы": 3925,
      "Дагъы": 3926,
      "-щэн": 3927,
      "ест": 3928,
      "пIы": 3929,
      "ращ": 3930,
      "сцен": 3931,
      "фэн": 3932,
      "2010": 3933,
      "Iэм,": 3934,
      "акIуэу": 3935,
      "ность": 3936,
      "ции": 3937,
      "кIэмкIэ": 3938,
      "лъэныкъуэмкIэ": 3939,
      "Дэнэ": 3940,
      "академием": 3941,
      "Узы": 3942,
      "къыщIы": 3943,
      "ырэ": 3944,
      "къуэн": 3945,
      "гъуэгуанэ": 3946,
      "щIымахуэ": 3947,
      "проект": 3948,
      "Шу": 3949,
      "зна": 3950,
      "план": 3951,
      "цІы": 3952,
      "зэпэ": 3953,
      "нэкIу": 3954,
      "фIэщыгъэ": 3955,
      "нагъы": 3956,
      "шэ,": 3957,
      "Хьэми": 3958,
      "къытри": 3959,
      "Иужьрей": 3960,
      "культу": 3961,
      "Тимур": 3962,
      "Лондон": 3963,
      "Аль": 3964,
      "Ново": 3965,
      "шев": 3966,
      "дэ,": 3967,
      "зэрыхэт": 3968,
      "щIыкIа": 3969,
      "лэжьащ": 3970,
      "итIкIэ": 3971,
      "лажьэ.": 3972,
      "усакIуэ,": 3973,
      "футбол": 3974,
      "зэпыт": 3975,
      "апреля,": 3976,
      "60": 3977,
      "Iащ,": 3978,
      "пь": 3979,
      "санэ": 3980,
      "ялъагъу": 3981,
      "Iэ,": 3982,
      "Iэс": 3983,
      "зыгуэрым": 3984,
      "митри": 3985,
      "мэзым": 3986,
      "къыщыхъуа": 3987,
      "медаль": 3988,
      "плIанэ": 3989,
      "жысIэ": 3990,
      "Дэтхэнэ": 3991,
      "2,": 3992,
      "Дауэ": 3993,
      "ел": 3994,
      "хов": 3995,
      "яку": 3996,
      "хь,": 3997,
      "хь.": 3998,
      "зэгъусэу": 3999,
      "рием": 4000,
      "телев": 4001,
      "пщIантIэм": 4002,
      "щэнхабзэмрэ": 4003,
      "Щэнхабзэм": 4004,
      "IэщIагъэр": 4005,
      "XI": 4006,
      "»)": 4007,
      "плъагъу": 4008,
      "уащ": 4009,
      "лъэхъэнэ": 4010,
      "щIышылэм": 4011,
      "нэхъапэм": 4012,
      "кIуащ,": 4013,
      "зэхуэмыдэ": 4014,
      "Адыгэб": 4015,
      "хъуэпсапIэ": 4016,
      "мыпхуэдэу": 4017,
      "45": 4018,
      "зер": 4019,
      "зыфIи": 4020,
      "абра": 4021,
      "стэ": 4022,
      "фIэкI": 4023,
      "къищынэмыщIауэ,": 4024,
      "ныгъэмкIэ": 4025,
      "къытра": 4026,
      "конферен": 4027,
      "ТекIуэ": 4028,
      "куэди": 4029,
      "бжыгъэкIэ": 4030,
      "къызыхэкIа": 4031,
      "къыздэсым": 4032,
      "ОВ": 4033,
      "къарур": 4034,
      "жиIащ:": 4035,
      "зыбжанэкIэ": 4036,
      "бжьыпэр": 4037,
      "Темыр": 4038,
      "областым": 4039,
      "мэкъуауэгъуэм": 4040,
      "зыхуагъэфэща": 4041,
      "ня,": 4042,
      "шт": 4043,
      "къыу": 4044,
      "гъуи": 4045,
      "унагъуэр": 4046,
      "техно": 4047,
      "лъэпкъэгъухэм": 4048,
      "Олимпиадэм": 4049,
      "гъуэгурыкIуэ": 4050,
      "опе": 4051,
      "рыр": 4052,
      "къимы": 4053,
      "къеуэ": 4054,
      "иIэщ": 4055,
      "Дуней": 4056,
      "ез": 4057,
      "ой": 4058,
      "ящы": 4059,
      "зыкIи": 4060,
      "итан": 4061,
      "сою": 4062,
      "щыIэр": 4063,
      "вили": 4064,
      "убыда": 4065,
      "алием": 4066,
      "пэщIэдзэм": 4067,
      "чэты": 4068,
      "пащтыхьым": 4069,
      "уэркъ": 4070,
      "IэнатIэхэм": 4071,
      "тедзапIэм": 4072,
      "(урысы": 4073,
      "Дмитри": 4074,
      "мус": 4075,
      "уху": 4076,
      "зэгъ": 4077,
      "хэкIуэд": 4078,
      "фэщэн": 4079,
      "бжьэ": 4080,
      "тIа": 4081,
      "пщэм": 4082,
      "Май": 4083,
      "лъагэу": 4084,
      "ветера": 4085,
      "халъхьэ": 4086,
      "хэмылъу,": 4087,
      "къыщыгъэлъэгъуа": 4088,
      "«Урысей": 4089,
      "жра": 4090,
      "хлад": 4091,
      "щэу": 4092,
      "♦17": 4093,
      "къре": 4094,
      "къыщIи": 4095,
      "телъхьэ": 4096,
      "пэш": 4097,
      "ност": 4098,
      "ирикъу": 4099,
      "щыIэу": 4100,
      "цIэрыIуэм": 4101,
      "классым": 4102,
      "унэтIыныгъэ": 4103,
      "лъымэн": 4104,
      "кIэлъо": 4105,
      "секретар": 4106,
      "художественнэ": 4107,
      "Адрей": 4108,
      "Зэп": 4109,
      "Пё": 4110,
      "брэ": 4111,
      "н.": 4112,
      "щIалъ": 4113,
      "нущ,": 4114,
      "щхьэж": 4115,
      "кэмкIэ": 4116,
      "брус": 4117,
      "Къэзан": 4118,
      "лъагапIэ": 4119,
      "пэщIэдзэ": 4120,
      "хъыджэбзым": 4121,
      "сату": 4122,
      "Осетие": 4123,
      "хэIу": 4124,
      "пыщIа": 4125,
      "къызэрыхэ": 4126,
      "пщIэшхуэ": 4127,
      "партым": 4128,
      "къытхуэ": 4129,
      "жыну.": 4130,
      "кIэлъыкIуэу": 4131,
      "нэхъыщхьэхэм": 4132,
      "благъэр": 4133,
      "дэмыкIыу": 4134,
      "Сев": 4135,
      "бил": 4136,
      "щра": 4137,
      "япэр": 4138,
      "къыха": 4139,
      "пыухы": 4140,
      "бгъэды": 4141,
      "пщIэн": 4142,
      "гъуэгур": 4143,
      "пащхьэм": 4144,
      "05:15": 4145,
      "адэ-анэм": 4146,
      "черкес": 4147,
      "ерыскъы": 4148,
      "Iам": 4149,
      "игъащIэ": 4150,
      "хри,": 4151,
      "шен": 4152,
      "я»": 4153,
      "къат": 4154,
      "къыбгъэдэ": 4155,
      "кIэу": 4156,
      "хуэфащэ": 4157,
      "жьхэм": 4158,
      "хъуам": 4159,
      "хъумэ,": 4160,
      "унэр": 4161,
      "пэшым": 4162,
      "пщащ": 4163,
      "министрым": 4164,
      "гупсысэр": 4165,
      "факуль": 4166,
      "фашист": 4167,
      "народ": 4168,
      "хьэл-щэн": 4169,
      "хущIэкъу": 4170,
      "концерт": 4171,
      "балигъ": 4172,
      "Къалмы": 4173,
      "«Кавказ": 4174,
      "бдеж": 4175,
      "къин": 4176,
      "зыхь": 4177,
      "щIэзы": 4178,
      "щIыж": 4179,
      "сим": 4180,
      "зэхуэс": 4181,
      "бгым": 4182,
      "зэгъэпэщы": 4183,
      "блиоте": 4184,
      "Бил": 4185,
      "ери": 4186,
      "ищIа": 4187,
      "пщхьэ": 4188,
      "сху": 4189,
      "гъанэ": 4190,
      "кIри": 4191,
      "хуэунэтI": 4192,
      "тепсэлъыхь": 4193,
      "дино": 4194,
      "росси": 4195,
      "щытхъу": 4196,
      "захуэ": 4197,
      "увэн": 4198,
      "Гъэм": 4199,
      "пIи": 4200,
      "фызы": 4201,
      "мэхъу,": 4202,
      "июня,": 4203,
      "елъытауэ": 4204,
      "жылагъуэм": 4205,
      "9-м": 4206,
      "В.": 4207,
      "СК": 4208,
      "Къалэ": 4209,
      "нум": 4210,
      "Хьэры": 4211,
      "ратор": 4212,
      "зэхьэзэхуэхэм": 4213,
      "хъыбарегъащIэ": 4214,
      "хэлъхьэным": 4215,
      "налшык": 4216,
      "Гъуэгу": 4217,
      "бгъэрыкIуэ": 4218,
      "лъэбакъуэ": 4219,
      "Хъусен": 4220,
      "франджы": 4221,
      "(урысыбзэкIэ)": 4222,
      "Кан": 4223,
      "Лей": 4224,
      "пл": 4225,
      "щанэ": 4226,
      "зэгуэр": 4227,
      "щIэрэ": 4228,
      "ание": 4229,
      "къуан": 4230,
      "нукъым.": 4231,
      "щхьэху": 4232,
      "шыкъуэ": 4233,
      "зыгъэзащIэ": 4234,
      "пща": 4235,
      "Къызэры": 4236,
      "Нобэ♦": 4237,
      "жыхуаIэ": 4238,
      "президен": 4239,
      "хъурея": 4240,
      "(к": 4241,
      "Юрий": 4242,
      "жрэ": 4243,
      "ищIащ.": 4244,
      "ткIий": 4245,
      "гъабэ": 4246,
      "ар?": 4247,
      "жьэр": 4248,
      "дипло": 4249,
      "рылъху": 4250,
      "къэплъы": 4251,
      "ноби": 4252,
      "она": 4253,
      "лько": 4254,
      "жаIэу": 4255,
      "виде": 4256,
      "псэуну": 4257,
      "драмат": 4258,
      "Украинэм": 4259,
      "0-рэ": 4260,
      "Ахъ": 4261,
      "нщ": 4262,
      "дэIу": 4263,
      "гъуэтащ": 4264,
      "фIэу": 4265,
      "артист,": 4266,
      "округ": 4267,
      "телефон": 4268,
      "Къэзахъ": 4269,
      ".05": 4270,
      "04": 4271,
      "Щэ": 4272,
      "ф,": 4273,
      "къызэхуэса": 4274,
      "зыхэта": 4275,
      "2017": 4276,
      "вод": 4277,
      "убыдащ": 4278,
      "текIуэныгъэр": 4279,
      "къэхут": 4280,
      "актёр": 4281,
      "мэлыжьыхьым": 4282,
      "Ус": 4283,
      "зей": 4284,
      "уо": 4285,
      "узэры": 4286,
      "чим": 4287,
      "гъуэтын": 4288,
      "теплъ": 4289,
      "мэшы": 4290,
      "нэхъыщIэ": 4291,
      "къызыте": 4292,
      "щхьэхуэу": 4293,
      "гъуазджэхэмкIэ": 4294,
      "россий": 4295,
      "7-рэ": 4296,
      "Iауэ": 4297,
      "Китай": 4298,
      "ЭР": 4299,
      "икIа": 4300,
      "лъат": 4301,
      "фIэмы": 4302,
      "лъагъуэм": 4303,
      "насыпы": 4304,
      "къэралыр": 4305,
      "хьэри": 4306,
      "дэсхэр": 4307,
      "зэпымы": 4308,
      "пIейтей": 4309,
      "хутэ": 4310,
      "хуэныкъуэ": 4311,
      "тес": 4312,
      "машинэ": 4313,
      "лэжьапIэ": 4314,
      "тыр.": 4315,
      "пщащэм": 4316,
      "186": 4317,
      "мелуани": 4318,
      "Бэч": 4319,
      "щIэблэр": 4320,
      "гуэдзэ": 4321,
      "КъШР-м": 4322,
      "«Ф": 4323,
      "Ад": 4324,
      "Дон": 4325,
      "Свет": 4326,
      "для": 4327,
      "кли": 4328,
      "зыхьа": 4329,
      "гулъыт": 4330,
      "ына": 4331,
      "том": 4332,
      "тIылъ": 4333,
      "зэхэс": 4334,
      "дыхьэшх": 4335,
      "Прохлад": 4336,
      "хьэрхуэрэгъухэм": 4337,
      "анэдэлъхубзэр": 4338,
      "Эльбрус": 4339,
      "1.": 4340,
      "4-рэ": 4341,
      "Ам": 4342,
      "щтэ": 4343,
      "дихьэ": 4344,
      "Къур": 4345,
      "Iущ": 4346,
      "Iуфэ": 4347,
      "АрщхьэкIэ,": 4348,
      "хуищI": 4349,
      "сулътIан": 4350,
      "мыхьэнэр": 4351,
      "нэхъыбэм": 4352,
      "уэрам": 4353,
      "Мейкъуапэ": 4354,
      "Изра": 4355,
      "Ру": 4356,
      "елэжь": 4357,
      "хьил": 4358,
      "зэзыгъэ": 4359,
      "зыхы": 4360,
      "щIэбэн": 4361,
      "быдэу": 4362,
      "дет": 4363,
      "бот": 4364,
      "тIысы": 4365,
      "зэримы": 4366,
      "иригъэкIуэкIа": 4367,
      "Аслъэнбэч": 4368,
      "фащэр": 4369,
      "благъэм": 4370,
      "Хъыджэб": 4371,
      "6-рэ": 4372,
      "дэри": 4373,
      "упс": 4374,
      "Iэзэу": 4375,
      "зэхуэдэ": 4376,
      "къэбгъэ": 4377,
      "чемпионат": 4378,
      "уэрамым": 4379,
      "Щам": 4380,
      "щыху": 4381,
      "щыхьэ": 4382,
      "хуэдэу.": 4383,
      "цIэкIэ": 4384,
      "блэмэ,": 4385,
      "адэкIи": 4386,
      "жыныр": 4387,
      "Мади": 4388,
      "къигъэсэбэп": 4389,
      "дэIэпыкъун": 4390,
      "фондым": 4391,
      "гъуэзэджэ": 4392,
      "Гъэмахуэ": 4393,
      "6-м": 4394,
      "Уэр": 4395,
      "нев": 4396,
      "щат": 4397,
      "э.": 4398,
      "зыщагъэ": 4399,
      "дэзыхьэ": 4400,
      "зэрыхуей": 4401,
      "зэрыпхъу": 4402,
      "мылъкур": 4403,
      "хьэрычэты": 4404,
      "Дзэлыкъуэ": 4405,
      "смэн": 4406,
      "мэт": 4407,
      "цIыхуи": 4408,
      "кIыфI": 4409,
      "кэмрэ": 4410,
      "деж,": 4411,
      "бжэм": 4412,
      "Iуащхьэ": 4413,
      "ушкин": 4414,
      "доллар": 4415,
      "клуб": 4416,
      "-у": 4417,
      "о-": 4418,
      "ыкъуэ": 4419,
      "хэх": 4420,
      "ынымрэ": 4421,
      "лъагъуныгъэр": 4422,
      "щIидзэ": 4423,
      "Макъ": 4424,
      "хъарзынэу": 4425,
      "Фин": 4426,
      "драгъэ": 4427,
      "пал": 4428,
      "хэгъэр": 4429,
      "инхэм": 4430,
      "лъагъуэр": 4431,
      "блэгъэ": 4432,
      "нэмыщI,": 4433,
      "къурш": 4434,
      "хуэмурэ": 4435,
      "кIэрыху": 4436,
      "олимп": 4437,
      "«Х": 4438,
      "ипхъу": 4439,
      "зэхыхьэ": 4440,
      "гукъэкIыж": 4441,
      "хэплъ": 4442,
      "Iыгъыу": 4443,
      "IупщI": 4444,
      "спе": 4445,
      "догъэ": 4446,
      "поэ": 4447,
      "Ленинград": 4448,
      "которы": 4449,
      "«М": 4450,
      "Iэгъуэ": 4451,
      "щIрэ": 4452,
      "Iыгъы": 4453,
      "зэрыжиI": 4454,
      "цIэхэр": 4455,
      "цип": 4456,
      "пхъур": 4457,
      "хъыбарыр": 4458,
      "05:05": 4459,
      "гъунэгъуу": 4460,
      "зэфIагъэ": 4461,
      "-ПП-м": 4462,
      "зэрыжиIэмкIэ,": 4463,
      "конференц": 4464,
      "99": 4465,
      "Плъы": 4466,
      "Пщэ": 4467,
      "бзу": 4468,
      "кре": 4469,
      "пщIыхь": 4470,
      "прав": 4471,
      "юдо": 4472,
      "ящ": 4473,
      "Iэдэм": 4474,
      "зэбг": 4475,
      "гъупщ": 4476,
      "2016": 4477,
      "мая,": 4478,
      "уафэ": 4479,
      "библиоте": 4480,
      "убыдащ.": 4481,
      "щIэныгъэмрэ": 4482,
      "щIэныгъэлIхэм": 4483,
      "техникэ": 4484,
      "актри": 4485,
      "ЩоджэнцIыкIу": 4486,
      "Ари": 4487,
      "Балъкъэр": 4488,
      "КI": 4489,
      "е.": 4490,
      "ежэ": 4491,
      "едгъэ": 4492,
      "нт": 4493,
      "щIэ.": 4494,
      "гъупщэ": 4495,
      "иримы": 4496,
      "нэхъыжьхэм": 4497,
      "языныкъуэ": 4498,
      "хъарзынэ": 4499,
      "Ез": 4500,
      "Пас": 4501,
      "тхуэ": 4502,
      "щыпхъэ": 4503,
      "хэщ": 4504,
      "къым»,": 4505,
      "ности": 4506,
      "псыгъ": 4507,
      "«Сэ": 4508,
      "сабийр": 4509,
      "лъапIэр": 4510,
      "кIырт.": 4511,
      "Советым": 4512,
      "къапщтэмэ,": 4513,
      "Алыхьым": 4514,
      "зырыз": 4515,
      "Се": 4516,
      "Уа": 4517,
      "ефIэ": 4518,
      "жу.": 4519,
      "кl": 4520,
      "зэгуэ": 4521,
      "зэрахуэ": 4522,
      "щхьэц": 4523,
      "ер,": 4524,
      "жакъым.": 4525,
      "сымэ,": 4526,
      "уигу": 4527,
      "натIэ": 4528,
      "щыгъуэми": 4529,
      ".00,": 4530,
      "инджылыз": 4531,
      "тенджыз": 4532,
      "Н-м": 4533,
      "цев": 4534,
      "щIат": 4535,
      "къыхуа": 4536,
      "зытет": 4537,
      "ст,": 4538,
      "статья": 4539,
      "кIуадэ": 4540,
      "эба": 4541,
      "псалъэ»": 4542,
      "лIэужьыгъуэм": 4543,
      "управленэм": 4544,
      "гео": 4545,
      "пщэрылъ": 4546,
      "дэрэжэгъуэ": 4547,
      "ухъуреихь": 4548,
      "03": 4549,
      "Іуэ": 4550,
      "Бар": 4551,
      "щкIэ": 4552,
      "щаб": 4553,
      "къапэ": 4554,
      "щыцIэрыIуэ": 4555,
      "зэтра": 4556,
      "щIэблэ": 4557,
      "сиIэ": 4558,
      "сым,": 4559,
      "ныкъуэкъу": 4560,
      "сэбэ": 4561,
      "щекIуэкIыну": 4562,
      "имыIэ": 4563,
      "къызди": 4564,
      "гъуэтащ.": 4565,
      "30-м": 4566,
      "Конститу": 4567,
      "ХьэтIохъущы": 4568,
      "ХьэтIохъущокъуэ": 4569,
      "Пщым": 4570,
      "сфIэ": 4571,
      "там": 4572,
      "щIэу,": 4573,
      "гъум": 4574,
      "къэу": 4575,
      "иныр": 4576,
      "ти.": 4577,
      "гъаджэ": 4578,
      "убыды": 4579,
      "бзэмрэ": 4580,
      "лажьэу": 4581,
      "адэ-анэ": 4582,
      "зыфIаща": 4583,
      "«Мы": 4584,
      "Ази": 4585,
      "Зэр": 4586,
      "Ит": 4587,
      "лэр": 4588,
      "зыхуе": 4589,
      "нэтын": 4590,
      "тем": 4591,
      "мыв": 4592,
      "щIыIэ": 4593,
      "орус": 4594,
      "ов,": 4595,
      "хадэ": 4596,
      "къате": 4597,
      "еджакIуэ": 4598,
      "»-мрэ": 4599,
      "командэр": 4600,
      "тIум": 4601,
      "лажьэ,": 4602,
      "кубокыр": 4603,
      "кандидат": 4604,
      "Уз": 4605,
      "Iэпщэ": 4606,
      "гушыIэ": 4607,
      "хъума": 4608,
      "стру": 4609,
      "теуху": 4610,
      "хъунукъым.": 4611,
      "тран": 4612,
      "фыз": 4613,
      "зэхэгъэ": 4614,
      "Поль": 4615,
      "медалхэр": 4616,
      "IуэхукIэ»": 4617,
      "уардэ": 4618,
      "Анатолэ": 4619,
      "комиссэм": 4620,
      "капитан": 4621,
      "ветеран": 4622,
      "Iо": 4623,
      "«Н": 4624,
      "хьим": 4625,
      "нэса": 4626,
      "Хьэшыр": 4627,
      "ие,": 4628,
      "хэлъхьэн": 4629,
      "фед": 4630,
      "ГъэщIэгъуэн": 4631,
      "финалым": 4632,
      "шэрыуэ": 4633,
      "(кг": 4634,
      "Азэм": 4635,
      "пей": 4636,
      "тыну": 4637,
      "фэб": 4638,
      "хьэса": 4639,
      "пэлъэ": 4640,
      "дегъэ": 4641,
      "зимы": 4642,
      "блэм": 4643,
      "Адыгэхэм": 4644,
      "псалъэхэм": 4645,
      "бай": 4646,
      "бий.": 4647,
      "къалэныр": 4648,
      "УнафэщIым": 4649,
      "Франджым": 4650,
      "радио": 4651,
      "хозяйствэм": 4652,
      "Ипщэ": 4653,
      "чэт": 4654,
      "яв": 4655,
      "зылъагъу": 4656,
      "зыхъумэ": 4657,
      "стре": 4658,
      "волю": 4659,
      "Мэшыкъуэ": 4660,
      "сс-": 4661,
      "фынущ.": 4662,
      "щытепсэлъы": 4663,
      "хащIы": 4664,
      "нэхъыфIхэм": 4665,
      "полицэм": 4666,
      "Израил": 4667,
      "АтIэ": 4668,
      "ос": 4669,
      "тат": 4670,
      "хащ,": 4671,
      "щылъ": 4672,
      "щIэхъуэпс": 4673,
      "ене": 4674,
      "къэзгъэ": 4675,
      "иты": 4676,
      "2014": 4677,
      "цIыхугъэ": 4678,
      "щIадзэ": 4679,
      "къалэр": 4680,
      "щымыт": 4681,
      "къыщIэкIа": 4682,
      "мащIэу": 4683,
      "Теат": 4684,
      "08:": 4685,
      "Люд": 4686,
      "къызэрагъэпэщащ.": 4687,
      "леяуэ": 4688,
      "ф.": 4689,
      "гъи": 4690,
      "жьэм": 4691,
      "гуащIэм": 4692,
      "сэ.": 4693,
      "турист": 4694,
      "хими": 4695,
      "къызэрыщы": 4696,
      "МафIэ": 4697,
      "зыIэры": 4698,
      "Псалъэ": 4699,
      "цIыхубзым": 4700,
      "центр": 4701,
      "шхыныгъуэ": 4702,
      "абазэ": 4703,
      "мышлен": 4704,
      "3-рэ": 4705,
      "8-рэ": 4706,
      "«Гу": 4707,
      "ган": 4708,
      "яхэ": 4709,
      "Iэджэ": 4710,
      "хъстэн": 4711,
      "ыншэу": 4712,
      "рие": 4713,
      "зэрыхуейм": 4714,
      "итщ": 4715,
      "кIуат": 4716,
      "ужьы": 4717,
      "къихьэ": 4718,
      "тауры": 4719,
      "-Бал": 4720,
      "блэкIам": 4721,
      "щIэупщI": 4722,
      "плъыжь": 4723,
      "бий,": 4724,
      "лъэныкъуэкIи": 4725,
      "жэуапл": 4726,
      "ныбжьыщIэхэр": 4727,
      "Авст": 4728,
      "мелард": 4729,
      "стадионым": 4730,
      "1,": 4731,
      "«Ан": 4732,
      "Уры": 4733,
      "бер": 4734,
      "ёв": 4735,
      "зэпи": 4736,
      "хэр:": 4737,
      "мыгувэу": 4738,
      "ную": 4739,
      "хэтщ.": 4740,
      "бэлыхь": 4741,
      "сымы": 4742,
      "шахмат": 4743,
      "Iэмалхэр": 4744,
      "атэкъым": 4745,
      "тхакIуэм": 4746,
      "щIигъу.": 4747,
      "усакIуэм": 4748,
      "жиIэри": 4749,
      "гъуащхьэхъумэ": 4750,
      "уасэр": 4751,
      "Iуэхутхьэбзэ": 4752,
      "хэIущIыIу": 4753,
      "АССР-м": 4754,
      "Т.": 4755,
      "тха": 4756,
      "зэкъуэш": 4757,
      "нэщэ": 4758,
      "дэкIа": 4759,
      "гукъинэ": 4760,
      "хъуауэ,": 4761,
      "2013": 4762,
      "макъыр": 4763,
      "лья": 4764,
      "хьэрэ": 4765,
      "кIэм,": 4766,
      "щхьэкIэ.": 4767,
      "уэрэдхэр": 4768,
      "Псэу": 4769,
      "режиссёр": 4770,
      "ерыщу": 4771,
      "коронавирус": 4772,
      "«Е": 4773,
      "Стал": 4774,
      "Хамэ": 4775,
      "власт": 4776,
      "шащ.": 4777,
      "ейхэр": 4778,
      "хэкур": 4779,
      "ту.": 4780,
      "щыIэщ": 4781,
      "сай": 4782,
      "ныбжьы": 4783,
      "къыдэкIуэу": 4784,
      "нэмыс": 4785,
      "культур": 4786,
      "-урым": 4787,
      "гар": 4788,
      "гвар": 4789,
      "лон": 4790,
      "ологие": 4791,
      "хат": 4792,
      "ятеухуауэ": 4793,
      "зэрыхъун": 4794,
      "сыж": 4795,
      "ети": 4796,
      "ынущ,": 4797,
      "пIэкIэ": 4798,
      "къафэм": 4799,
      "мел": 4800,
      "щIыналъэр": 4801,
      "иIэщ.": 4802,
      "щекIуэкIащ.": 4803,
      "Ислъ": 4804,
      "пшыхь": 4805,
      "академик": 4806,
      "программэ": 4807,
      "................................": 4808,
      "щыгъын": 4809,
      "къыщыхэжаны": 4810,
      "an": 4811,
      "«Ар": 4812,
      "«Ди": 4813,
      "икIи,": 4814,
      "пшэ": 4815,
      "слъагъу": 4816,
      "щызекIуэ": 4817,
      "щIапIэм": 4818,
      "къыгурыIуэ": 4819,
      "темыр": 4820,
      "джащ.": 4821,
      "къэза": 4822,
      "роIуэ": 4823,
      "щIадзащ.": 4824,
      "къыщымы": 4825,
      "импе": 4826,
      "зэрыщытар.": 4827,
      "ещхьу": 4828,
      "Исмэ": 4829,
      "орган": 4830,
      "гъэсэныгъэ": 4831,
      "Къуажэ": 4832,
      "Къэрэшей-Шэрджэсым": 4833,
      "Евген": 4834,
      "дино-Бал": 4835,
      "Прохладнэ": 4836,
      "таурыхъ": 4837,
      "Ор": 4838,
      "ахэм": 4839,
      "слу": 4840,
      "ыу": 4841,
      "япкъ": 4842,
      "къыди": 4843,
      "къыкъуэ": 4844,
      "хьэс": 4845,
      "зэрым": 4846,
      "хэхэс": 4847,
      "къэхъуа": 4848,
      "абыи": 4849,
      "куры": 4850,
      "АбыкIэ": 4851,
      "къикI": 4852,
      "къикIыр": 4853,
      "тIур": 4854,
      "Абхъа": 4855,
      "саугъэтым": 4856,
      "комплек": 4857,
      "филологие": 4858,
      "Пащтыхь": 4859,
      "Дмитрий": 4860,
      "О-м": 4861,
      "цин": 4862,
      "яр": 4863,
      "IэкIуэ": 4864,
      "лъхьащ": 4865,
      "гъэзэщIэ": 4866,
      "хьи": 4867,
      "щIэпхъа": 4868,
      "рак": 4869,
      "кIуэм": 4870,
      "кIуэр": 4871,
      "рыкъуэ": 4872,
      "къутэ": 4873,
      "щIыхуэ": 4874,
      "ноб": 4875,
      "тыж": 4876,
      "щIэныгъэхэмкIэ": 4877,
      "Кавказа": 4878,
      "нэужьым": 4879,
      "тхьэкIу": 4880,
      "пхъэр": 4881,
      "щIалэгъуалэр": 4882,
      "лъабжьэм": 4883,
      "-тIэ": 4884,
      "Зым": 4885,
      "яз": 4886,
      "кIуж": 4887,
      "щэнейрэ": 4888,
      "блэкIа": 4889,
      "щхьэмы": 4890,
      "лажьэр": 4891,
      "сатыр": 4892,
      "Егъэджэ": 4893,
      "щалъхуа": 4894,
      "драматург": 4895,
      "Пушкин": 4896,
      "Унэ": 4897,
      "жден": 4898,
      "пша": 4899,
      "шэну": 4900,
      "сты": 4901,
      "итар": 4902,
      "акIуэр": 4903,
      "IуэхущIа": 4904,
      "ащIэу": 4905,
      "къыщыс": 4906,
      "тыкуэ": 4907,
      "жаIащ": 4908,
      "образ": 4909,
      "Мэкъумэш": 4910,
      "дяпэкIэ": 4911,
      "кхъ": 4912,
      "пIа": 4913,
      "сщIэр": 4914,
      "зыщIа": 4915,
      "расс": 4916,
      "Iув": 4917,
      "къэ?": 4918,
      "кIуэкI.": 4919,
      "ныбжьым": 4920,
      "воз": 4921,
      "КъыкIэлъыкIуэ": 4922,
      "къыщIэкIащ": 4923,
      "пашэу": 4924,
      "10-м": 4925,
      "05:10": 4926,
      "Ком": 4927,
      "мати": 4928,
      "Къущхьэ": 4929,
      "зэрырагъэ": 4930,
      "тепсэлъыхьащ": 4931,
      "-К": 4932,
      "Вагъуэ": 4933,
      "ХЬ": 4934,
      "ря": 4935,
      "ула": 4936,
      "узыр": 4937,
      "фей": 4938,
      "Iэб": 4939,
      "Iэбэ": 4940,
      "щыIащ": 4941,
      "кэ,": 4942,
      "щэнхабзэр": 4943,
      "зэрыщытым": 4944,
      "2009": 4945,
      "Абду": 4946,
      "актёр,": 4947,
      "егъэджэныгъэ": 4948,
      "Iэпкълъэпкъым": 4949,
      "Пётр": 4950,
      ".30": 4951,
      "жей": 4952,
      "ук": 4953,
      "хьат": 4954,
      "зэщIи": 4955,
      "зэхагъэ": 4956,
      "зыкъы": 4957,
      "аращ,": 4958,
      "хэу,": 4959,
      "хъуэр": 4960,
      "щIагъ": 4961,
      "Хьэчим": 4962,
      "лъагъуныгъэм": 4963,
      "еджэн": 4964,
      "лег": 4965,
      "гъуэгуанэм": 4966,
      "уафэм": 4967,
      "зыхуэдэр": 4968,
      "чески": 4969,
      "махуэщ♦": 4970,
      "лъэгъуэну": 4971,
      "блэгъащ": 4972,
      "ырамы": 4973,
      "муницип": 4974,
      "Татьянэ": 4975,
      "набдзэ": 4976,
      "Хьэмид": 4977,
      "Исмэхьил": 4978,
      "Еле": 4979,
      "дор": 4980,
      "къыфIащ": 4981,
      "джан": 4982,
      "къуи": 4983,
      "револю": 4984,
      "дадэ": 4985,
      "къекIуэкI": 4986,
      "дзэхэм": 4987,
      "хуимы": 4988,
      "папщIэ»": 4989,
      "щIыкIэкIэ": 4990,
      "зэмылIэужьыгъуэхэр": 4991,
      "КъуэкIыпIэ": 4992,
      "Билал": 4993,
      "Куры": 4994,
      "Мэр": 4995,
      "ТIэ": 4996,
      "быр": 4997,
      "кабардин": 4998,
      "пцIэ": 4999,
      "эч": 5000,
      "анэрэ": 5001,
      "IуэкIэ": 5002,
      "рохьэлIэ": 5003,
      "щэдж": 5004,
      "гуэри": 5005,
      "есси": 5006,
      "къыдэкIы": 5007,
      "Инал": 5008,
      "пресс-": 5009,
      "дэкIри,": 5010,
      "хэгъэгу": 5011,
      "автомо": 5012,
      "хьэлъагъхэм": 5013,
      "Георг": 5014,
      "эбагъы": 5015,
      "С-м": 5016,
      "дам": 5017,
      "или": 5018,
      "ска": 5019,
      "фым": 5020,
      "уэшх": 5021,
      "Iэнэ": 5022,
      "жьхэр": 5023,
      "абгъэ": 5024,
      "ныс": 5025,
      "тхыгъэр": 5026,
      "деж.": 5027,
      "егъэфIэкIуэ": 5028,
      "Зэхуэ": 5029,
      "ами.": 5030,
      "сымаджэщым": 5031,
      "зэреджэр": 5032,
      "ЩэнхабзэмкIэ": 5033,
      "Жэбагъы": 5034,
      "Зыгъэ": 5035,
      "Па": 5036,
      "Фо": 5037,
      "гуроIуэ": 5038,
      "15-м": 5039,
      "12:": 5040,
      "Дыгъу": 5041,
      "плIым": 5042,
      "топыр": 5043,
      "фоч": 5044,
      "Сергей": 5045,
      "лауреат": 5046,
      "Думэм": 5047,
      "сей": 5048,
      "фэу": 5049,
      "уэн": 5050,
      "хуу": 5051,
      "лэгъу": 5052,
      "Аращи,": 5053,
      "шэ.": 5054,
      "тым,": 5055,
      "гъуафIэ": 5056,
      "ирагъэкIуэкIа": 5057,
      "ших": 5058,
      "мырзэ": 5059,
      "чили": 5060,
      "журналым": 5061,
      "центи": 5062,
      "Ара": 5063,
      "Нур": 5064,
      "Х-м": 5065,
      "бдзэ": 5066,
      "есэ": 5067,
      "л,": 5068,
      "т»": 5069,
      "щ)": 5070,
      "гъэгъа": 5071,
      "къыIу": 5072,
      "рацэ": 5073,
      "кIуэ.": 5074,
      "хыхьа": 5075,
      "эмыщI": 5076,
      "щIыпIэр": 5077,
      "ахъшэр": 5078,
      "зэрагъэпэщы": 5079,
      "класси": 5080,
      "Людми": 5081,
      "Гор": 5082,
      "При": 5083,
      "еин": 5084,
      "жет": 5085,
      "гъэув": 5086,
      "зэтри": 5087,
      "рази": 5088,
      "джэным": 5089,
      "2015": 5090,
      "мази": 5091,
      "щытми,": 5092,
      "шыгъу": 5093,
      "къыщызэIу": 5094,
      "боль": 5095,
      "къызэзыгъэ": 5096,
      "кърикIуа": 5097,
      "Мэш": 5098,
      "Къыз": 5099,
      "тыныгъэм": 5100,
      "Федеральнэ": 5101,
      "зэхьэзэхуэр": 5102,
      "хыхьэу": 5103,
      "щыхьэтщ": 5104,
      "Шэджэм": 5105,
      "ЩIэныгъэхэмкIэ": 5106,
      "щIыуэпсым": 5107,
      "ырамыку": 5108,
      "01": 5109,
      "зэщIа": 5110,
      "къыщIо": 5111,
      "гурымы": 5112,
      "зэрыжа": 5113,
      "етх": 5114,
      "ина": 5115,
      "щеджэ": 5116,
      "тIым": 5117,
      "Мыбы": 5118,
      "зэрихьэу": 5119,
      "къудейуэ": 5120,
      "пэтми": 5121,
      "зэранкIэ": 5122,
      "зэхуакум": 5123,
      "гъэсакIуэ": 5124,
      "Иорданием": 5125,
      "«Чер": 5126,
      "Зырамыку": 5127,
      "заб": 5128,
      "иден": 5129,
      "кӀ": 5130,
      "лли": 5131,
      "олог": 5132,
      "сар": 5133,
      "гъап": 5134,
      "хуэзэу": 5135,
      "дэIуэ": 5136,
      "хъуным": 5137,
      "гъэм.": 5138,
      "Iут": 5139,
      "зихъуэ": 5140,
      "етэ": 5141,
      "къыщыху": 5142,
      "ХьэфIыцIэ": 5143,
      "Лъагъу": 5144,
      "зэрекIуэкI": 5145,
      "Исхьэкъ": 5146,
      "Къанокъуэ": 5147,
      "гъуащхьауэ": 5148,
      "Белорус": 5149,
      "Езым": 5150,
      "Пе": 5151,
      "Сэри": 5152,
      "банэ": 5153,
      "к»": 5154,
      "кто": 5155,
      "слав": 5156,
      "гъэхэр": 5157,
      "зэпIэ": 5158,
      "къыхуе": 5159,
      "хьэкъу": 5160,
      "гурэ": 5161,
      "хъурей": 5162,
      "лъэкI": 5163,
      "абхъаз": 5164,
      "джэды": 5165,
      "кIэмрэ": 5166,
      "щыпсэуа": 5167,
      "ЩIалэгъу": 5168,
      "Мырзэ": 5169,
      "Леони": 5170,
      "къызолъытэ": 5171,
      "Къалмыкъ": 5172,
      "округым": 5173,
      "4,": 5174,
      "Нат": 5175,
      "пор": 5176,
      "узым": 5177,
      "ухуей": 5178,
      "Iэужь": 5179,
      "зэхуи": 5180,
      "зыу": 5181,
      "гужь": 5182,
      "джэ.": 5183,
      "кърихьэлI": 5184,
      "атэкъым.": 5185,
      "гурыIу": 5186,
      "усэхэр": 5187,
      "щІы": 5188,
      "екIуу": 5189,
      "гукъыдэж": 5190,
      "Исп": 5191,
      "бзий": 5192,
      "дамэ": 5193,
      "защ.": 5194,
      "опер": 5195,
      "нэу,": 5196,
      "хьэкI": 5197,
      "кIуэж": 5198,
      "кого": 5199,
      "катери": 5200,
      "къилъыт": 5201,
      "туриз": 5202,
      "фIагъ": 5203,
      "проценти": 5204,
      "Хьэуэ,": 5205,
      "лъагъуныгъэ": 5206,
      "еджагъэ": 5207,
      "Соци": 5208,
      "Къэжэр": 5209,
      "фынущ": 5210,
      "хъурейм": 5211,
      "узыншагъэм": 5212,
      "пIалъэкIэ": 5213,
      "IуэрыIуатэм": 5214,
      "филосо": 5215,
      "инджылызы": 5216,
      "пыухыкIа": 5217,
      "«Р": 5218,
      "Ибрэ": 5219,
      "зем": 5220,
      "мей": 5221,
      "чь": 5222,
      "щыну": 5223,
      "зыха": 5224,
      "ыншэ": 5225,
      "пэжыр": 5226,
      "2011": 5227,
      "жыф": 5228,
      "кIуалIэ": 5229,
      "ему": 5230,
      "щIагъым": 5231,
      "унафэкIэ": 5232,
      "хуащIу": 5233,
      "этэр": 5234,
      "ЩIДА": 5235,
      "ЦIыхухэм": 5236,
      "зэрыщыту": 5237,
      "Iуэхугъуэхэм": 5238,
      "программ": 5239,
      "Псыжь": 5240,
      "Iэнэм": 5241,
      "бэнэкIэмкIэ": 5242,
      "къэпщытэ": 5243,
      "драмэ": 5244,
      "Iуэтэж": 5245,
      ":55": 5246,
      "домбея": 5247,
      "Зеи": 5248,
      "КЪУ": 5249,
      "Тау": 5250,
      "Хабзэ": 5251,
      "блы": 5252,
      "гов": 5253,
      "ху.": 5254,
      "хэмыт": 5255,
      "зыфIэ": 5256,
      "хуэгъэпс": 5257,
      "щIэуэ": 5258,
      "хиубыдэ": 5259,
      "зэпеуэхэм": 5260,
      "2006": 5261,
      "хьэщIэхэм": 5262,
      "щыхъум,": 5263,
      "Гъатхэ": 5264,
      "муслъымэн": 5265,
      "Ибрэхьим": 5266,
      "«Ш": 5267,
      "«Э": 5268,
      "«Во": 5269,
      "Анэ": 5270,
      "вит": 5271,
      "ехъуэ": 5272,
      "жес": 5273,
      "зап": 5274,
      "тру": 5275,
      "хури": 5276,
      "щыхъуащ": 5277,
      "зэдзэ": 5278,
      "хъумакIуэ": 5279,
      "но,": 5280,
      "дзе": 5281,
      "бжэр": 5282,
      "Iэпыкъу": 5283,
      "бгъум": 5284,
      "къызэралъыт": 5285,
      "Зэхьэзэхуэм": 5286,
      "зыфIища": 5287,
      "сэбэпы": 5288,
      "ншагъэр": 5289,
      "шар": 5290,
      "гъымрэ": 5291,
      "лъхьэр": 5292,
      "анов": 5293,
      "зэрыхэ": 5294,
      "ино": 5295,
      "къамы": 5296,
      "ские": 5297,
      "Жыг": 5298,
      "жыныгъэм": 5299,
      "пIалъэр": 5300,
      "ковник": 5301,
      "гъуэтыну": 5302,
      "вест": 5303,
      "къуажэхэм": 5304,
      "мыхъуу,": 5305,
      "куржы": 5306,
      "жымкIэ,": 5307,
      "къэзыухъуреихь": 5308,
      "губгъуэ": 5309,
      "къэхъукъащIэ": 5310,
      "Жьы": 5311,
      "ещхьу,": 5312,
      "гъэщIэгъуэну": 5313,
      "Японием": 5314,
      "Езанэм": 5315,
      "ЩIДАА-м": 5316,
      "5-": 5317,
      "«Ро": 5318,
      "Ири": 5319,
      "рен": 5320,
      "щыщыт": 5321,
      "щыяпэу": 5322,
      "зыщигъэ": 5323,
      "зыкъыщигъэ": 5324,
      "щIэз": 5325,
      "ани,": 5326,
      "щхьэгъу": 5327,
      "джэд": 5328,
      "Аруан": 5329,
      "промышлен": 5330,
      "къадэ": 5331,
      "меди": 5332,
      "къыхэщIыкIа": 5333,
      "унафэщI,": 5334,
      "ГъащIэм": 5335,
      "Абдеж": 5336,
      "год2021": 5337,
      "ябрь)Скачать": 5338,
      "Къаз-Джэрий": 5339,
      "Абхъазым": 5340,
      "Зар": 5341,
      "Оль": 5342,
      "дригъэ": 5343,
      "нес": 5344,
      "ящIа": 5345,
      "къыфIэ": 5346,
      "кIэра": 5347,
      "лъэныкъу": 5348,
      "Къумы": 5349,
      "акIуэхэр": 5350,
      "лIыр": 5351,
      "лIэн": 5352,
      "зезы": 5353,
      "иIэж": 5354,
      "Апхуэдиз": 5355,
      "къытхуи": 5356,
      "ЩIын": 5357,
      "лэжьыгъэшхуэ": 5358,
      "къащхьэ": 5359,
      "2007": 5360,
      "емыблэ": 5361,
      "къаруу": 5362,
      "защIэу": 5363,
      "IэдакъэщIэкIхэр": 5364,
      "Хасэ": 5365,
      "алыдж-урым": 5366,
      "зэпымыууэ": 5367,
      "зэрыжиIамкIэ,": 5368,
      "КБ": 5369,
      "умым": 5370,
      "къыф": 5371,
      "зыщегъэ": 5372,
      "щIэры": 5373,
      "ын,": 5374,
      "дж,": 5375,
      "къул": 5376,
      "роз": 5377,
      "нэхъыжьы": 5378,
      "соб": 5379,
      "ствэр": 5380,
      "бгъэдэт": 5381,
      "ЦIыкIу": 5382,
      "IэнатIэр": 5383,
      "зэрахьэ": 5384,
      "адрейр": 5385,
      "Гъуаз": 5386,
      "щхьэхуитыныгъэм": 5387,
      "къэдгъэкIыжын": 5388,
      "«Л": 5389,
      "Пари": 5390,
      "ТI": 5391,
      "залым": 5392,
      "хьар.": 5393,
      "щыгум": 5394,
      "лъэгъуэн": 5395,
      "роль": 5396,
      "макъым": 5397,
      "къыщра": 5398,
      "тыр,": 5399,
      "Музы": 5400,
      "хуиту": 5401,
      "12-м": 5402,
      "зуан": 5403,
      "били": 5404,
      "зэгухьэныгъэ": 5405,
      "яхэтщ": 5406,
      "фестивал": 5407,
      "Светла": 5408,
      "Блэ": 5409,
      "Екатери": 5410,
      "УК": 5411,
      "гла": 5412,
      "уков": 5413,
      "щIу,": 5414,
      "хьэтыр": 5415,
      "хъуат": 5416,
      "хъуат.": 5417,
      "тел": 5418,
      "къупщхьэ": 5419,
      "пэплъэ": 5420,
      "куро": 5421,
      "лэжьэгъу": 5422,
      "нач": 5423,
      "дзюдо": 5424,
      "гъажэ": 5425,
      "къыхэкIыу.": 5426,
      "граждан": 5427,
      "тету,": 5428,
      "«Спартак»": 5429,
      "Владикавказ": 5430,
      "зэпыщIэныгъэ": 5431,
      "лIакъуэ": 5432,
      "тегъэщIапIэ": 5433,
      "гуэдзэным": 5434,
      "Мэшб": 5435,
      "гим": 5436,
      "нщ.": 5437,
      "пыр": 5438,
      "участ": 5439,
      "яIэу": 5440,
      "хум": 5441,
      "хьэгъуэ": 5442,
      "рит": 5443,
      "лъэпIэ": 5444,
      "дигу": 5445,
      "зэрыс": 5446,
      "пэжу": 5447,
      "2000": 5448,
      "Абыкъу": 5449,
      "къызэре": 5450,
      "къызэрыс": 5451,
      "♦197": 5452,
      "блэгъа": 5453,
      "Хъан": 5454,
      "хуитымкIэ": 5455,
      "щогугъ": 5456,
      "зэфIэкIым": 5457,
      "ЦIыхухэр": 5458,
      "фынур": 5459,
      "къулыкъур": 5460,
      "25-м": 5461,
      "IэщIагъэлIхэм": 5462,
      "къыщагъэсэбэп": 5463,
      "щхьэгъусэм": 5464,
      "творчествэм": 5465,
      "офицер": 5466,
      "Кабардино-Бал": 5467,
      "XIX": 5468,
      "Зэпеуэ": 5469,
      "Ел": 5470,
      "бдежым": 5471,
      "я.": 5472,
      "лъап": 5473,
      "зыдэ": 5474,
      "хуэзэ": 5475,
      "хуэфэщэн": 5476,
      "хэщ,": 5477,
      "декIуэкI": 5478,
      "хэт,": 5479,
      "хьэм,": 5480,
      "нэхъыжьым": 5481,
      "тохъуэ": 5482,
      "унэцIэ": 5483,
      "♦199": 5484,
      "хабзэхэм": 5485,
      "закъуэу": 5486,
      "ухуэныгъэ": 5487,
      "мылъкум": 5488,
      "год2019": 5489,
      "бзылъхугъэм": 5490,
      "фестивалым": 5491,
      "Уеблэмэ": 5492,
      "года2020": 5493,
      "гузэвэгъуэ": 5494,
      "къэзакъ": 5495,
      "36": 5496,
      "Ай": 5497,
      "гер": 5498,
      "публи": 5499,
      "хыным": 5500,
      "щыгуфIы": 5501,
      "зэреплъ": 5502,
      "рикэ": 5503,
      "зищIы": 5504,
      "пщкIу": 5505,
      "Резуан": 5506,
      "щау": 5507,
      "зыхуэныкъуэ": 5508,
      "зэрыщытыр": 5509,
      "къыпхуэ": 5510,
      "усэхэм": 5511,
      "Республикэ": 5512,
      "ХЬЭ": 5513,
      "Людмилэ": 5514,
      "гин": 5515,
      "уэ.": 5516,
      "хъуу": 5517,
      "рев": 5518,
      "жытIэ": 5519,
      "псэлъа": 5520,
      "псэукIэр": 5521,
      "илъэситху": 5522,
      "хъунущ,": 5523,
      "егъэлеяуэ": 5524,
      "кIыжыну": 5525,
      "фащэу": 5526,
      "зыхуейр": 5527,
      "летикэ": 5528,
      "ЩIымахуэ": 5529,
      "электро": 5530,
      "уте": 5531,
      "лъит": 5532,
      "гъэлъагъуэ": 5533,
      "хьат.": 5534,
      "щIыкIэр": 5535,
      "шхуэу": 5536,
      "шэс": 5537,
      "псэукIэ": 5538,
      "муд": 5539,
      "гугъум": 5540,
      "Мак": 5541,
      "къытху": 5542,
      "комым": 5543,
      "мэкъумэшы": 5544,
      "Александр.": 5545,
      "Псоми": 5546,
      "гузав": 5547,
      "технологие": 5548,
      "къэхутакIуэ": 5549,
      "зэрыхъунщи,": 5550,
      "Iил": 5551,
      "Езыр": 5552,
      "Кор": 5553,
      "шо": 5554,
      "ю,": 5555,
      "хуащ,": 5556,
      "хьэж": 5557,
      "хъулIа": 5558,
      "ратив": 5559,
      "джагъэ": 5560,
      "итщ.": 5561,
      "Iуэхугъуэм": 5562,
      "щIэныгъэ-": 5563,
      "пщIантIэ": 5564,
      "хабзэхэр": 5565,
      "тIылъы": 5566,
      "къалэхэм": 5567,
      "Токи": 5568,
      "зрата": 5569,
      "очко": 5570,
      "видео": 5571,
      "Белорусси": 5572,
      "Зеикъуэ": 5573,
      "КЪ": 5574,
      "езгъэ": 5575,
      "иIыгъ": 5576,
      "уэри": 5577,
      "зэж": 5578,
      "зэбгъу": 5579,
      "зыщIы": 5580,
      "дэну": 5581,
      "зэрыщымы": 5582,
      "Iуху": 5583,
      "хыу,": 5584,
      "хыпIэ": 5585,
      "хыхьащ": 5586,
      "деи": 5587,
      "интер": 5588,
      "къыщыдэкI": 5589,
      "шхуэ,": 5590,
      "хуащIы": 5591,
      "зешэ": 5592,
      "хъыджэбзыр": 5593,
      "екIуэкIащ.": 5594,
      "сыхьэтым": 5595,
      "ДыщэкI": 5596,
      "пщыхьэщхьэм": 5597,
      "5,": 5598,
      "Іу": 5599,
      "Гуэ": 5600,
      "Ген": 5601,
      "Зу": 5602,
      "И.": 5603,
      "Идар": 5604,
      "Псэ": 5605,
      "Тбили": 5606,
      "ех": 5607,
      "швили": 5608,
      "…»": 5609,
      "уэгум": 5610,
      "эрт,": 5611,
      "зэзгъэ": 5612,
      "къыпщы": 5613,
      "къыхуагъэ": 5614,
      "нэгъабэ": 5615,
      "лич": 5616,
      "къэз": 5617,
      "къихуэу": 5618,
      "КъБАССР-м": 5619,
      "кIыжащ": 5620,
      "обра": 5621,
      "ехъулIэныгъэхэм": 5622,
      "нарт": 5623,
      "«Спартак-Налшыкыр»": 5624,
      "губдз": 5625,
      "Владимир.": 5626,
      "фильмым": 5627,
      "къыщацIыху": 5628,
      "зэгурыIуэныгъэм": 5629,
      "блэгъащ.": 5630,
      "зэхущытыкIэ": 5631,
      "Темыркъан": 5632,
      "3,": 5633,
      ":1": 5634,
      "Аба": 5635,
      "Ти": 5636,
      "Ту": 5637,
      "щыIу": 5638,
      "къызыхуэ": 5639,
      "къыхах": 5640,
      "пыч": 5641,
      "лIыжьым": 5642,
      "лъэпкъхэр": 5643,
      "къыдэкIуэу,": 5644,
      "зэгухьэныгъэхэм": 5645,
      "унагъуэхэм": 5646,
      "«Куб": 5647,
      "Насып": 5648,
      "полковник": 5649,
      "псэлъащ": 5650,
      "ирегъэ": 5651,
      "уIэгъэ": 5652,
      "графие": 5653,
      "комплексым": 5654,
      "IэкIуэлъ": 5655,
      "муниципальнэ": 5656,
      "(18": 5657,
      "Ст": 5658,
      "л.": 5659,
      "ь,": 5660,
      "зыкъи": 5661,
      "жь,": 5662,
      "интернет": 5663,
      "номо": 5664,
      "хьэмэ,": 5665,
      "куэд.": 5666,
      "урэ.": 5667,
      "Мэхъэ": 5668,
      "Хъур": 5669,
      "уэрэдыжь": 5670,
      "зэхьэзэхуэ.": 5671,
      "щагъэув": 5672,
      "зокъуэ": 5673,
      "щхьэры": 5674,
      "щтэн": 5675,
      "зэрагъэпэщ": 5676,
      "ехъулIэныгъэхэр": 5677,
      "еджапIэр": 5678,
      "лъэщу": 5679,
      "федерацэм": 5680,
      "спортсменхэм": 5681,
      "IэдакъэщIэкIхэм": 5682,
      "органи": 5683,
      "къыхуагъэфэщащ": 5684,
      "жылахъстэн": 5685,
      "Китайм": 5686,
      "нэщэнэ": 5687,
      "«Дэ": 5688,
      "Жи": 5689,
      "Фигу": 5690,
      "сон": 5691,
      "тауэ": 5692,
      "гъэхьэзыр": 5693,
      "зэджэ": 5694,
      "лик": 5695,
      "япэщIыкIэ": 5696,
      "плъыр": 5697,
      "къалэмы": 5698,
      "гъафIэ": 5699,
      "адыгэр": 5700,
      "пажэ": 5701,
      "шууей": 5702,
      "зэрыщытыр.": 5703,
      "щэхуу": 5704,
      "топджэгум": 5705,
      "лътIаным": 5706,
      "зэфIигъэ": 5707,
      "спектакл": 5708,
      "фIэщыгъэр": 5709,
      "!..": 5710,
      "Фе": 5711,
      "Футбо": 5712,
      "и»": 5713,
      "лъу": 5714,
      "зыща": 5715,
      "хьэпIэм": 5716,
      "Iуэу": 5717,
      "турэм": 5718,
      "фIагъэ": 5719,
      "къэралпсо": 5720,
      "хэмрэ,": 5721,
      "лIыкIуэу": 5722,
      "зэфIэкIа": 5723,
      "ходи": 5724,
      "хъыбары": 5725,
      "теухуауэ»": 5726,
      "тIури": 5727,
      "къежьапIэ": 5728,
      "зыщегъэужь": 5729,
      "Токио": 5730,
      "Ат": 5731,
      "Джылахъстэн": 5732,
      "Пав": 5733,
      "УС": 5734,
      "ебгъэрыкIуэ": 5735,
      "пон": 5736,
      "ший": 5737,
      "рег": 5738,
      "ка,": 5739,
      "псэуа": 5740,
      "тхылъхэм": 5741,
      "Къыхэгъэ": 5742,
      "щыгъупщ": 5743,
      "Куржым": 5744,
      "къызэгъэпэщакIуэ": 5745,
      "нобэми": 5746,
      "женер": 5747,
      "ищ": 5748,
      "ххэм": 5749,
      "ящIащ.": 5750,
      "лъхьащ.": 5751,
      "хьыным": 5752,
      "щыж": 5753,
      "хъуж": 5754,
      "гъун": 5755,
      "сыкъэ": 5756,
      "узыфэм": 5757,
      "05:08": 5758,
      "езыри": 5759,
      "Iуэхугъуэхэр": 5760,
      "гъуащхьэтет": 5761,
      "зегъэужьыным": 5762,
      "Васи": 5763,
      "КIыщокъуэ": 5764,
      "«Кабардинка": 5765,
      "ФатIимэ": 5766,
      "Конституцэм": 5767,
      "жэуаплыныгъэ": 5768,
      "37": 5769,
      "«Хьэ": 5770,
      "Ер": 5771,
      "К-м": 5772,
      "кро": 5773,
      "яхэту": 5774,
      "гъанэр": 5775,
      "къанэ": 5776,
      "къылъы": 5777,
      "къыщIа": 5778,
      "нэгъэс": 5779,
      "хэрт.": 5780,
      "зэрыху": 5781,
      "дел": 5782,
      "етIы": 5783,
      "пIэрэ?": 5784,
      "Нало": 5785,
      "пщIэрэ": 5786,
      "Гъунэ": 5787,
      "тIыгу": 5788,
      "Хъун": 5789,
      "щагъэхьэзыр": 5790,
      "жьыж": 5791,
      "министру": 5792,
      "челов": 5793,
      "зэрыхъущи,": 5794,
      "Шэшэн": 5795,
      "къызэрилъыт": 5796,
      "дзэри,": 5797,
      "зэрыпхъуакIуэхэм": 5798,
      "Къумыкъу": 5799,
      "жник": 5800,
      "ищхъ": 5801,
      "пин": 5802,
      "хей": 5803,
      "чий": 5804,
      "къыхалъ": 5805,
      "цIыхубэр": 5806,
      "сол": 5807,
      "дзэхэр": 5808,
      "щыIэщ,": 5809,
      "хьахэм": 5810,
      "Зэгуэ": 5811,
      "Мухьэр": 5812,
      "ымрэ.": 5813,
      "джэгугъуэ": 5814,
      "хъыбархэр": 5815,
      "чемпио": 5816,
      "ровэ": 5817,
      "жыпIэмэ": 5818,
      "гъащIэмрэ": 5819,
      "гъэщIэрэ": 5820,
      "псалъэмакъ": 5821,
      "нарты": 5822,
      "щрихьэлIэ": 5823,
      ".02": 5824,
      "хэкIуэда": 5825,
      "сыхьэти": 5826,
      "хуежьащ.": 5827,
      "Валерэ": 5828,
      "зербай": 5829,
      "«Урысейм": 5830,
      "Язы": 5831,
      "ищIыр": 5832,
      "с»": 5833,
      "зыхуи": 5834,
      "зылъху": 5835,
      "жьащ.": 5836,
      "гъуу": 5837,
      "кIуэри,": 5838,
      "дыщIэ": 5839,
      "мыкIуэ": 5840,
      "ату": 5841,
      "ени": 5842,
      "нэхъапэ": 5843,
      "дель": 5844,
      "кафед": 5845,
      "турэ": 5846,
      "фIакIуэ": 5847,
      "къуажэр": 5848,
      "Мэлы": 5849,
      "мурадщ": 5850,
      "мурадыр": 5851,
      "университет": 5852,
      "жыхуаIэм": 5853,
      "уэрэджыIакIуэ,": 5854,
      "-ижьыж": 5855,
      "къызэрымыкIуэ": 5856,
      ".25": 5857,
      "1-рэ": 5858,
      "Нэмы": 5859,
      "Тэтэр": 5860,
      "дрэ": 5861,
      "мно": 5862,
      "цк": 5863,
      "ым)": 5864,
      "щыуагъэ": 5865,
      "къыкIэлъы": 5866,
      "дэгу": 5867,
      "дэкIу": 5868,
      "густ": 5869,
      "бысым": 5870,
      "коным": 5871,
      "жып": 5872,
      "пыIэ": 5873,
      "евым": 5874,
      "ск,": 5875,
      "пись": 5876,
      "нэгъуэщIу": 5877,
      "шапсыгъ": 5878,
      "блэкI": 5879,
      "жыркъым.": 5880,
      "ЩIалэм": 5881,
      "11:": 5882,
      "уэрэдыр": 5883,
      "дауэдапщэ": 5884,
      "зэгурыIуэныгъэ": 5885,
      "жыжьэм": 5886,
      "щIыуэпс": 5887,
      "Къэрэшей-Шэрджэс": 5888,
      "крайм": 5889,
      "союз": 5890,
      "Къэзахъстаным": 5891,
      "«Къ": 5892,
      "КП": 5893,
      "Пер": 5894,
      "Тур": 5895,
      "ращ.": 5896,
      "ту,": 5897,
      "укI": 5898,
      "цIу": 5899,
      "шауэ": 5900,
      "яти": 5901,
      "ящIэр": 5902,
      "лъапэ": 5903,
      "щыхуэ": 5904,
      "къыпи": 5905,
      "гуащэм": 5906,
      "дыгъэр": 5907,
      "-махуэ": 5908,
      "щIыба": 5909,
      "рол": 5910,
      "комо": 5911,
      "итха": 5912,
      "кIухь": 5913,
      "овым": 5914,
      "псэу,": 5915,
      "пщтыр": 5916,
      "14-м": 5917,
      "къыщызэрагъэпэщ": 5918,
      "зыIэригъэхьащ.": 5919,
      "циональ": 5920,
      "гъунапкъэ": 5921,
      "Азербай": 5922,
      "Пет": 5923,
      "мор": 5924,
      "фрон": 5925,
      "шащ": 5926,
      "шал": 5927,
      "ь)Скачать": 5928,
      "кIэри": 5929,
      "кIэщIым": 5930,
      "техьэ": 5931,
      "IутIы": 5932,
      "пэплъ": 5933,
      "ито": 5934,
      "фIхэм": 5935,
      "Урыс-": 5936,
      "хэлъкъым.": 5937,
      "Къыс": 5938,
      "Роман": 5939,
      "чествен": 5940,
      "Адыгэм": 5941,
      "хьэлэмэ": 5942,
      "сыны": 5943,
      "урысыбзэкIэ": 5944,
      "экономикэм": 5945,
      "къэпщыт": 5946,
      "логиемкIэ": 5947,
      "ЩIэныгъэлI": 5948,
      "хьэлъагъ": 5949,
      "щригъэкIуэкI": 5950,
      "къищтащ": 5951,
      "налшыкдэсхэм": 5952,
      "хьэрычэтыщIэ": 5953,
      "гвардием": 5954,
      "«Ло": 5955,
      "Из": 5956,
      "Хаб": 5957,
      "дын": 5958,
      "епх": 5959,
      "имыгъэ": 5960,
      "кхэм": 5961,
      "тэу": 5962,
      "дири": 5963,
      "лъхьэужь": 5964,
      "щIэныгъэмкIэ": 5965,
      "нэхъыбэрэ": 5966,
      "къыдагъэ": 5967,
      "сурэтхэр": 5968,
      "кIэухым": 5969,
      "гъавэ": 5970,
      "лъэрызехьэ": 5971,
      "Къыхэгъэщыпхъэ": 5972,
      "/ф": 5973,
      "АР-м": 5974,
      "Дыгъэ": 5975,
      "Игор": 5976,
      "УЭ": 5977,
      "нам": 5978,
      "нер": 5979,
      "сэмэ": 5980,
      "уIу": 5981,
      "уэгъуэ": 5982,
      "къыто": 5983,
      "хуэхъуащ": 5984,
      "жьэу": 5985,
      "гъуэтыр": 5986,
      "хэщIапIэ": 5987,
      "тегушхуэ": 5988,
      "мис": 5989,
      "рокъуэ": 5990,
      "зием": 5991,
      "щытра": 5992,
      "шэлIэ": 5993,
      "къахуи": 5994,
      "зыгъэсэ": 5995,
      "уиIэ": 5996,
      "дзэпщ": 5997,
      "фир": 5998,
      "къыщIэкIащ.": 5999,
      "ЦIыхубэ": 6000,
      "къагъэлъагъуэ": 6001,
      "гупсысэм": 6002,
      "еджапIэхэм": 6003,
      "27-м": 6004,
      "номор": 6005,
      "щрикъум": 6006,
      "кест": 6007,
      "жыхуаIэр": 6008,
      "це-": 6009,
      "телевиден": 6010,
      "факультетым": 6011,
      "Азэмэт": 6012,
      "IуэхущIафэ": 6013,
      "Вы": 6014,
      "Губ": 6015,
      "МУС": 6016,
      "кв": 6017,
      "хегъэ": 6018,
      "кIэщ": 6019,
      "жьу": 6020,
      "гупы": 6021,
      "итал": 6022,
      "кIыпIэм": 6023,
      "Хьэу": 6024,
      "меж": 6025,
      "Хьэзрэ": 6026,
      "лъагъу.": 6027,
      "къыхэкIа": 6028,
      "Зэгуэрым": 6029,
      "судар": 6030,
      "щызэхэта": 6031,
      "пщылI": 6032,
      "гием": 6033,
      "езыхэр": 6034,
      "лIэщIыгъуэ": 6035,
      "творческэ": 6036,
      "анэдэлъхубзэм": 6037,
      "Кило": 6038,
      "дяпэкIи": 6039,
      "НыбжьыщIэ": 6040,
      "Академием": 6041,
      "фейдэ": 6042,
      "УКОВ": 6043,
      "МУСУКОВ": 6044,
      "Іэм": 6045,
      "Быр": 6046,
      "Хо": 6047,
      "Япэр": 6048,
      "а»": 6049,
      "быным": 6050,
      "ихъум": 6051,
      "зыт": 6052,
      "хъури,": 6053,
      "джэну": 6054,
      "амбо": 6055,
      "май": 6056,
      "фIэкIуэд": 6057,
      "къиуха": 6058,
      "фIыр": 6059,
      "зымыгъэ": 6060,
      "хаха": 6061,
      "къехъулI": 6062,
      "сакъы": 6063,
      "гъас": 6064,
      "жынущ.": 6065,
      "биль": 6066,
      "Уэсмэн": 6067,
      "ческой": 6068,
      "пхъэм": 6069,
      "щхьэусыгъуэр": 6070,
      "теплъэгъуэ": 6071,
      "ДАХ-м": 6072,
      "пкъыгъуэ": 6073,
      "къэкIыгъэ": 6074,
      "Север": 6075,
      "дириж": 6076,
      "300": 6077,
      "7,": 6078,
      "ЛI": 6079,
      "ОО": 6080,
      "еу": 6081,
      "ыж": 6082,
      "зэдгъэ": 6083,
      "кIэхэм": 6084,
      "зыIыгъ": 6085,
      "зыхуащI": 6086,
      "ения": 6087,
      "къэб": 6088,
      "щIакхъуэ": 6089,
      "щыIэкъым,": 6090,
      "ски": 6091,
      "ЖыпIэ": 6092,
      "хъуахэм": 6093,
      "къабгъэ": 6094,
      "нарко": 6095,
      "Мухьэмэд.": 6096,
      "къызэрагъэпэщащ": 6097,
      "уэршэр": 6098,
      "къуну": 6099,
      "50-м": 6100,
      "станц": 6101,
      "Каир": 6102,
      "здынэс": 6103,
      "зэрыцIалэм": 6104,
      "палатэм": 6105,
      "-ПП-мкIэ": 6106,
      "домбеякъ": 6107,
      "хьэгъуэлIы": 6108,
      "Де": 6109,
      "Ещанэ": 6110,
      "Мат": 6111,
      "дмы": 6112,
      "пам": 6113,
      "сщIэ": 6114,
      "щэб": 6115,
      "хъея": 6116,
      "хуэт": 6117,
      "жьащ": 6118,
      "инженер": 6119,
      "щыIэну": 6120,
      "цIыкIуу": 6121,
      "аринэ": 6122,
      "джэрий": 6123,
      "емыкIу": 6124,
      "здэщыIэ": 6125,
      "ФIыщIэ": 6126,
      "зэрыра": 6127,
      "зауэлIхэм": 6128,
      "ехыжащ.": 6129,
      "гъэлъэгъуэныгъэ": 6130,
      "къэдгъэкIыжынщи,": 6131,
      "Языныкъуэ": 6132,
      "-ми": 6133,
      "39": 6134,
      "Бжьы": 6135,
      "Кот": 6136,
      "вал": 6137,
      "ины": 6138,
      "иубыд": 6139,
      "лэры": 6140,
      "пун": 6141,
      "ращIы": 6142,
      "хьри,": 6143,
      "къыIэры": 6144,
      "нэн": 6145,
      "щIэкIэ": 6146,
      "гъуэлъы": 6147,
      "телей": 6148,
      "Iуатэ": 6149,
      "было": 6150,
      "реб": 6151,
      "къыщыте": 6152,
      "щих": 6153,
      "Гуащэ": 6154,
      "зэрыщытам": 6155,
      "Тхылъ": 6156,
      "къызэрагъэпэща": 6157,
      "23-м": 6158,
      "щIедзэ": 6159,
      "дэтхэнэри": 6160,
      "къызэгъэпэщыным": 6161,
      "Ныбжьэгъу": 6162,
      "къызэхуэсахэм": 6163,
      "зэрыхуейр.": 6164,
      "Пщымахуэ": 6165,
      "къалэмыпэм": 6166,
      ".02.2022": 6167,
      ".,": 6168,
      "«Ч": 6169,
      "Вал": 6170,
      "Его": 6171,
      "Шэрэ": 6172,
      "фІ": 6173,
      "эти": 6174,
      "гъэжь": 6175,
      "хъаным": 6176,
      "зэбгъэ": 6177,
      "Къо": 6178,
      "да»": 6179,
      "ужькIэ": 6180,
      "убзыхуа": 6181,
      "апIэхэм": 6182,
      "только": 6183,
      "ными": 6184,
      "скэр": 6185,
      "пщэдей": 6186,
      "лъэныкъуэм": 6187,
      "ныбжьэгъухэм": 6188,
      "хъурт": 6189,
      "наро": 6190,
      "Мухьэмэд,": 6191,
      "губзыгъэ": 6192,
      "1941": 6193,
      "къегъэлъагъуэ": 6194,
      "БетI": 6195,
      "кIыхьагъ": 6196,
      "Пасэрей": 6197,
      "Курыт": 6198,
      "комотив": 6199,
      "(Ию": 6200,
      "6,": 6201,
      "Бзылъху": 6202,
      "Лы": 6203,
      "зди": 6204,
      "иIа": 6205,
      "кари": 6206,
      "эпо": 6207,
      "къыщI": 6208,
      "къыда": 6209,
      "аращи,": 6210,
      "хэпщIы": 6211,
      "кIуэ,": 6212,
      "ение": 6213,
      "етым": 6214,
      "оркест": 6215,
      "кIыурэ": 6216,
      "науч": 6217,
      "хэлъщ": 6218,
      "гупсысы": 6219,
      "гупсыса": 6220,
      "псалъэкIэ": 6221,
      "цIэрыIуэхэм": 6222,
      "жыну,": 6223,
      "лян": 6224,
      "Апхуэдэхэм": 6225,
      "нэсащ.": 6226,
      "иран": 6227,
      "школыр": 6228,
      "хэтахэм": 6229,
      "щыгъупщэ": 6230,
      "щхьэхуэхэм": 6231,
      "пашэныгъэр": 6232,
      "IэщэкIэ": 6233,
      "тонн": 6234,
      "европей": 6235,
      "«Динамо»-м": 6236,
      "38": 6237,
      "Лат": 6238,
      "бор": 6239,
      "врем": 6240,
      "дап": 6241,
      "ебгъэ": 6242,
      "ежьэ": 6243,
      "жджы": 6244,
      "жур": 6245,
      "Iэта": 6246,
      "IэщIыб": 6247,
      "хъее": 6248,
      "къыщIагъэ": 6249,
      "пэIэщIэ": 6250,
      "къуэ,": 6251,
      "мафIэм": 6252,
      "къэрэ": 6253,
      "джыкI": 6254,
      "голов": 6255,
      "17-м": 6256,
      "этно": 6257,
      "10:": 6258,
      "тхьэмадэм": 6259,
      "мыхъумы": 6260,
      "Коми": 6261,
      "Махуэгъэпс♦": 6262,
      "тэкъыми,": 6263,
      "хьыж": 6264,
      "пшынэ": 6265,
      "пшынауэ": 6266,
      "щIэгъэкъуэн": 6267,
      "Ласи": 6268,
      "къащтам,": 6269,
      "зэрыжаIэмкIэ,": 6270,
      "ЭМ": 6271,
      "бгъэм": 6272,
      "ихьэ": 6273,
      "лат": 6274,
      "лер": 6275,
      "пшэр": 6276,
      "учили": 6277,
      "IэмыщIэ": 6278,
      "къабы": 6279,
      "кIун": 6280,
      "хьи,": 6281,
      "рэIил": 6282,
      "алэры": 6283,
      "лъэIэ": 6284,
      "тетхы": 6285,
      "тезыр": 6286,
      "або": 6287,
      "Iупэ": 6288,
      "ролыр": 6289,
      "Артур": 6290,
      "заво": 6291,
      "лIащ.": 6292,
      "шэж": 6293,
      "псэууэ": 6294,
      "вице-": 6295,
      "унэцIэр": 6296,
      "зэфIэмы": 6297,
      "къызэщIи": 6298,
      "зогъэ": 6299,
      "увыпIэм": 6300,
      "ЦIыхубз": 6301,
      "гурыщIэ": 6302,
      "чии": 6303,
      "унэтIыныгъэм": 6304,
      "гъуаздж": 6305,
      "фэеплъыр": 6306,
      "техни": 6307,
      "Мадинэ": 6308,
      "щытепсэлъыхьащ": 6309,
      "гукъинэж": 6310,
      "Абдул": 6311,
      "Париж": 6312,
      "Тбилиси": 6313,
      "«Локомотив": 6314,
      "(и": 6315,
      "2-нэ": 6316,
      "Журн": 6317,
      "Чы": 6318,
      "ехыж": 6319,
      "еупщI": 6320,
      "ищIэн": 6321,
      "пащIэ": 6322,
      "пIащ": 6323,
      "ырзэ": 6324,
      "дыгъэм": 6325,
      "дия": 6326,
      "абы,": 6327,
      "сэлам": 6328,
      "хасэ": 6329,
      "усэм": 6330,
      "Хьэту": 6331,
      "щIыныгъэ": 6332,
      "ция": 6333,
      "сулътIаным": 6334,
      "джэгупIэ": 6335,
      "пщыр": 6336,
      "жынщ.": 6337,
      "Гугъу": 6338,
      "ковэ": 6339,
      "Нази": 6340,
      "лIыкIуэхэр": 6341,
      "пэмыжыжьэу": 6342,
      "СурэтыщI": 6343,
      "бюджетым": 6344,
      "Дагъыстэн": 6345,
      "набдзэгубдз": 6346,
      "Георгий": 6347,
      "**": 6348,
      "Джу": 6349,
      "иху": 6350,
      "сем": 6351,
      "шь": 6352,
      "щ).": 6353,
      "зэпэщ": 6354,
      "зыкъыщы": 6355,
      "кIуахэр": 6356,
      "лъахъ": 6357,
      "къыщызыхьа": 6358,
      "гуэны": 6359,
      "зэхуэсы": 6360,
      "зэхуэсым": 6361,
      "дыдэу,": 6362,
      "адэшхуэ": 6363,
      "гъуэгуанэр": 6364,
      "къалэКъэбэрдей-Балъкъэр": 6365,
      "16-м": 6366,
      "11-м": 6367,
      "ское": 6368,
      "къабзэм": 6369,
      "ЩIыхь": 6370,
      "часть": 6371,
      "Къару": 6372,
      "зэIущIэхэм": 6373,
      "къегъэкIыж": 6374,
      "зэпры": 6375,
      "зыгъэпсэхупIэ": 6376,
      "фIэщыгъэм": 6377,
      "«Кабардинка»": 6378,
      "пщащэр": 6379,
      "БетIал": 6380,
      "АР": 6381,
      "Гроз": 6382,
      "егупсыс": 6383,
      "ику": 6384,
      "мне": 6385,
      "ущIэ": 6386,
      "чкъалэ": 6387,
      "щыгу": 6388,
      "зыуэ": 6389,
      "хьэжы": 6390,
      "хьэлъэм": 6391,
      "директор": 6392,
      "Къуэд": 6393,
      "щIыхьа": 6394,
      "щхьэщыт": 6395,
      "щIа,": 6396,
      "жакъым": 6397,
      "лъагъу,": 6398,
      "кIыныр": 6399,
      "зэрахъуэ": 6400,
      "Махуэм": 6401,
      "ЦIыхур": 6402,
      "къысхуи": 6403,
      "къулыкъущIэ": 6404,
      "Абдежым": 6405,
      "Адыгей": 6406,
      "жеIэ:": 6407,
      "проектыр": 6408,
      "1991": 6409,
      "гъуейщ.": 6410,
      "09:": 6411,
      "къыщызэрагъэпэща": 6412,
      ":0-у": 6413,
      "Черкесск": 6414,
      "Мурадин": 6415,
      "нагъыщэ": 6416,
      "Бэчмырзэ": 6417,
      "Италием": 6418,
      "Зэхуэсым": 6419,
      "-щэ": 6420,
      "-езыр": 6421,
      "Бей": 6422,
      "Залым": 6423,
      "ЦСК": 6424,
      "тхъу": 6425,
      "уэс": 6426,
      "гъауэ": 6427,
      "хьэсы": 6428,
      "джыр": 6429,
      "дисс": 6430,
      "Iуэн": 6431,
      "енг": 6432,
      "нукъым": 6433,
      "джэ,": 6434,
      "куэдми": 6435,
      "жахэм": 6436,
      "Къэбэрдейр": 6437,
      "тIас": 6438,
      "гъуасэ": 6439,
      "хъуакъым.": 6440,
      "щызэхэ": 6441,
      "щIыпIэкIэ": 6442,
      "вести": 6443,
      "2004": 6444,
      "ауз": 6445,
      "зэкIэлъхьэужь": 6446,
      "къабзэу": 6447,
      "зэщIэхъее": 6448,
      "егъэджакIуэм": 6449,
      "гупсысэхэр": 6450,
      "номер": 6451,
      "щIегъуэ": 6452,
      "дакъикъэм": 6453,
      "полномо": 6454,
      "къыщызэрагъэпэщащ": 6455,
      "щызэхуэхьэса": 6456,
      "Iэзагъ": 6457,
      "ЕгъэджакIуэ": 6458,
      "Уеблэмэ,": 6459,
      "Польшэм": 6460,
      "етIысэ": 6461,
      "цкене": 6462,
      "Ласицкене": 6463,
      "Кхъу": 6464,
      "Олег": 6465,
      "а.": 6466,
      "зейм": 6467,
      "игъуэт": 6468,
      "с-": 6469,
      "сит": 6470,
      "кIмэ,": 6471,
      "щыхэ": 6472,
      "нэхэр": 6473,
      "хуэп": 6474,
      "хьэкIэ": 6475,
      "гумэ": 6476,
      "лицэм": 6477,
      "итIу": 6478,
      "мэл": 6479,
      "захуигъэ": 6480,
      "тхыпхъэ": 6481,
      "пщIэншэу": 6482,
      "«Сы": 6483,
      "кIыжу": 6484,
      "мыхьэн": 6485,
      "11:4": 6486,
      "кульп": 6487,
      "адэ-анэр": 6488,
      "къыхуагъэфэщащ.": 6489,
      "сайтым": 6490,
      "щэджащэ": 6491,
      "ru": 6492,
      "бов": 6493,
      "дро": 6494,
      "лэн": 6495,
      "ущи": 6496,
      "цу": 6497,
      "чис": 6498,
      "щ;": 6499,
      "ящIащ": 6500,
      "хуитI": 6501,
      "кIэн": 6502,
      "гукъеуэ": 6503,
      "пси": 6504,
      "абдежым": 6505,
      "ынум": 6506,
      "да,": 6507,
      "ублэ": 6508,
      "лIащ": 6509,
      "лIауэ": 6510,
      "махуэшхуэ": 6511,
      "гупхэм": 6512,
      "ГушыIэ": 6513,
      "хуитыныгъэм": 6514,
      "сэбэпын": 6515,
      "команди": 6516,
      "хьэзыру": 6517,
      "хьэщIэщым": 6518,
      "1945": 6519,
      "хьэрыпы": 6520,
      "07:": 6521,
      "къызэригъэпэщ": 6522,
      "ягъэуващ.": 6523,
      "щIэрэщIэ": 6524,
      "Макъамэ": 6525,
      "Зэпеуэм": 6526,
      "зэбгъузэ": 6527,
      "кафедрэм": 6528,
      "С.": 6529,
      "вз": 6530,
      "гре": 6531,
      "ипщэ": 6532,
      "нащ.": 6533,
      "раль": 6534,
      "сли": 6535,
      "т!": 6536,
      "хри": 6537,
      "шхэр": 6538,
      "шэри": 6539,
      "ющ": 6540,
      "ящIыну": 6541,
      "хуэкIуэ": 6542,
      "дэщIыгъуу": 6543,
      "мыщI": 6544,
      "ст.": 6545,
      "хыхьащ.": 6546,
      "2005": 6547,
      "инст": 6548,
      "ерта": 6549,
      "хуэдэщ.": 6550,
      "кIыф": 6551,
      "хъуэ,": 6552,
      "еймрэ": 6553,
      "Хьэмы": 6554,
      "дзор": 6555,
      "адэшхуэм": 6556,
      "сыт?": 6557,
      "Урысеймрэ": 6558,
      "зыхуэди": 6559,
      "хуэмыдэ": 6560,
      "къудейм": 6561,
      "пащтыхьыгъуэм": 6562,
      "чаев": 6563,
      "лIыкIуэхэм": 6564,
      "Красножан": 6565,
      "зэхэты": 6566,
      "жэщ-махуэ": 6567,
      "щхьэгъусэр": 6568,
      "ЗэIущIэхэрКъБР-м": 6569,
      "Анатолий": 6570,
      "Бэрбэч": 6571,
      "IэплIэ": 6572,
      "свя": 6573,
      "Пщэдджы": 6574,
      "явля": 6575,
      "Израилым": 6576,
      "«Кубань": 6577,
      ".10": 6578,
      "400": 6579,
      "«По": 6580,
      "Нов": 6581,
      "жат": 6582,
      "плIы": 6583,
      "фра": 6584,
      "щl": 6585,
      "ятх": 6586,
      "гъэтIылъы": 6587,
      "хьэдэ": 6588,
      "стран": 6589,
      "къуэрылъху": 6590,
      "купщIэ": 6591,
      "тэ.": 6592,
      "тымрэ": 6593,
      "хилъхьэ": 6594,
      "унэхэм": 6595,
      "Зэгуэр": 6596,
      "адыгэу": 6597,
      "закъуэкъым,": 6598,
      "Апхуэдэу,": 6599,
      "ауан": 6600,
      "Лъэпкъым": 6601,
      "псынщIэм": 6602,
      "щIокъу": 6603,
      "хуейуэ.": 6604,
      "гъурлы": 6605,
      "усыгъэм": 6606,
      "Зауэм": 6607,
      "меларди": 6608,
      "хьэлэл": 6609,
      "ТхакIуэхэм": 6610,
      "Интернетым": 6611,
      "хэлъхьэн.": 6612,
      "нэгъэсауэ": 6613,
      "32": 6614,
      "Хы": 6615,
      "напIэ": 6616,
      "т?": 6617,
      "уигъэ": 6618,
      "цинэм": 6619,
      "эко": 6620,
      "Iэпа": 6621,
      "щыкъу": 6622,
      "щыгугъ": 6623,
      "зэпкъры": 6624,
      "зэчии": 6625,
      "зытри": 6626,
      "архив": 6627,
      "зэрыгушхуэ": 6628,
      "мира": 6629,
      "линэ": 6630,
      "лием": 6631,
      "ред": 6632,
      "дамы": 6633,
      "закон": 6634,
      "гъуэм,": 6635,
      "ложен": 6636,
      "къызэрыт": 6637,
      "зиIэ,": 6638,
      "сытми": 6639,
      "бжэн": 6640,
      "Хэкур": 6641,
      "чемпион,": 6642,
      "хуея": 6643,
      "зэпеуэр": 6644,
      "мащIэкъым.": 6645,
      "лажьэм": 6646,
      "орденым": 6647,
      "щапхъэу": 6648,
      "ХьэтIохъущыкъуей": 6649,
      "Социалист": 6650,
      "КБР": 6651,
      "49": 6652,
      "Бай": 6653,
      "Брази": 6654,
      "Дыгъэм": 6655,
      "Кил": 6656,
      "мун": 6657,
      "р?": 6658,
      "тэну": 6659,
      "ххэр": 6660,
      "чин": 6661,
      "щIар.": 6662,
      "кIэр,": 6663,
      "зылъы": 6664,
      "тещIыхь": 6665,
      "апэр": 6666,
      "стэным": 6667,
      "были": 6668,
      "къикIыу": 6669,
      "жиІ": 6670,
      "илъэгъу": 6671,
      "къай": 6672,
      "къехъулIэ": 6673,
      "псэукIэм": 6674,
      "ави": 6675,
      "лэжьакIуэхэр": 6676,
      "Сос": 6677,
      "ныбжьэгъум": 6678,
      "ехъулIэныгъэкIэ": 6679,
      "просмотр": 6680,
      "1990": 6681,
      "Владимир,": 6682,
      "зэрыхъуам": 6683,
      "28-м": 6684,
      "дыгъужь": 6685,
      "къэзыгъэлъагъуэ": 6686,
      "журналист,": 6687,
      "мылъкукIэ": 6688,
      "автомобиль": 6689,
      "Музыкэ": 6690,
      "диссерта": 6691,
      "500": 6692,
      "«Iуащхьэмахуэ": 6693,
      "Алан": 6694,
      "Балъ": 6695,
      "Емы": 6696,
      "Лу": 6697,
      "т…": 6698,
      "гъ.": 6699,
      "кIар.": 6700,
      "кIэщ.": 6701,
      "арагъэ": 6702,
      "гукIэ": 6703,
      "зэрэ": 6704,
      "джэрэ": 6705,
      "итут": 6706,
      "щытауэ": 6707,
      "адыгэлI": 6708,
      "дежкIи": 6709,
      "илъэситI": 6710,
      "хъунукъым": 6711,
      "дыдэщ.": 6712,
      "физ": 6713,
      "ягъэува": 6714,
      "ыгъуэр": 6715,
      "Зыгуэр": 6716,
      "къысщо": 6717,
      "ЩIыуэ": 6718,
      "чэнджэщэ": 6719,
      "Алыдж": 6720,
      "ЕтIуанэр": 6721,
      "ьютер": 6722,
      "Мэкъуауэ": 6723,
      "жыхуиIэщ.": 6724,
      "къекIуэкIы": 6725,
      "Щамил": 6726,
      "Iим": 6727,
      "Ира": 6728,
      "Лев": 6729,
      "Сам": 6730,
      "бэу": 6731,
      "гру": 6732,
      "кам": 6733,
      "пхуэдэ": 6734,
      "щабэ": 6735,
      "языхэ": 6736,
      "хъым": 6737,
      "щынэмы": 6738,
      "нэсыху": 6739,
      "гун": 6740,
      "хэкуэ": 6741,
      "тек": 6742,
      "мыгъуэ": 6743,
      "жызо": 6744,
      "жыфыну": 6745,
      "эбий": 6746,
      "ерт": 6747,
      "хъуэж": 6748,
      "хадэм": 6749,
      "ние": 6750,
      "тикэ": 6751,
      "къезы": 6752,
      "государ": 6753,
      "ыным.": 6754,
      "лъагъун": 6755,
      "хъунукъым,": 6756,
      "лIыгъэр": 6757,
      "Урысейр": 6758,
      "бзэхэр": 6759,
      "къысху": 6760,
      "лъагагъ": 6761,
      "13:": 6762,
      "13-м": 6763,
      "пхъэщ.": 6764,
      "Бол": 6765,
      "ухуэн": 6766,
      "Абхъаз": 6767,
      "22-м": 6768,
      "Исмел": 6769,
      "зыщIэхъуэпс": 6770,
      "ЯпэщIыкIэ": 6771,
      "гъэсэнхэм": 6772,
      "обществен": 6773,
      "иригъэкIуэкIащ": 6774,
      "жриIащ:": 6775,
      "Бгырыс": 6776,
      "Узбек": 6777,
      "публици": 6778,
      "Мэхъэчкъалэ": 6779,
      "организа": 6780,
      "-езыру": 6781,
      "VI": 6782,
      "«Уэ": 6783,
      "Ами": 6784,
      "СИ": 6785,
      "гани": 6786,
      "друг": 6787,
      "икIэ": 6788,
      "осет": 6789,
      "яхэлъ": 6790,
      "IэфIу": 6791,
      "къыды": 6792,
      "диумым": 6793,
      "когда": 6794,
      "итхы": 6795,
      "оре": 6796,
      "казы": 6797,
      "хуащIащ": 6798,
      "жьэ.": 6799,
      "щаIэ": 6800,
      "сэну": 6801,
      "зэрыщытар": 6802,
      "езыми": 6803,
      "емылъыт": 6804,
      "увэж": 6805,
      "ФIыуэ": 6806,
      "Пщыхьэ": 6807,
      "пщэдджыжь": 6808,
      "япэрауэ,": 6809,
      "дэзыхьэх": 6810,
      "ессион": 6811,
      ");": 6812,
      "Ау": 6813,
      "ЛIэ": 6814,
      "Унэм": 6815,
      "асп": 6816,
      "далъ": 6817,
      "зде": 6818,
      "пап": 6819,
      "умыгъэ": 6820,
      "яIу": 6821,
      "лъапIэм": 6822,
      "хьмуд": 6823,
      "щыхьэр": 6824,
      "зэпа": 6825,
      "гугъэр": 6826,
      "рин": 6827,
      "лъэс": 6828,
      "мыбдеж": 6829,
      "пэджэ": 6830,
      "лэжьащ,": 6831,
      "кас": 6832,
      "анэ,": 6833,
      "къемы": 6834,
      "эрэ.": 6835,
      "гъакъуэ": 6836,
      "манитар": 6837,
      "вак": 6838,
      "кIэм-и": 6839,
      "Мазэ": 6840,
      "энымкIэ": 6841,
      "Спор": 6842,
      "гурыIуащ": 6843,
      "проектхэр": 6844,
      "лIэщIыгъуэхэм": 6845,
      "США": 6846,
      "Ради": 6847,
      "зэхыхьэм": 6848,
      "Шорэ": 6849,
      "заруб": 6850,
      "пьес": 6851,
      "Хьэрып": 6852,
      "Хъыджэбз": 6853,
      "IупщIу": 6854,
      "актрисэ,": 6855,
      "хозяйствэмкIэ": 6856,
      "ищхъэрэ": 6857,
      "46": 6858,
      "Вя": 6859,
      "дю": 6860,
      "дымы": 6861,
      "еплIанэ": 6862,
      "пш": 6863,
      "фт": 6864,
      "ххэ": 6865,
      "зэхэлъ": 6866,
      "нэщI": 6867,
      "гупсэху": 6868,
      "гъухэм": 6869,
      "дыкъуэ": 6870,
      "ныбэ": 6871,
      "диным": 6872,
      "уней": 6873,
      "жыл": 6874,
      "щытамэ,": 6875,
      "лъыхъу": 6876,
      "19-м": 6877,
      "бэлэры": 6878,
      "зым.": 6879,
      "хасэм": 6880,
      "апIэу": 6881,
      "после": 6882,
      "Хьэт": 6883,
      "хъуну.": 6884,
      "Мысо": 6885,
      "итIми": 6886,
      "«Сыт": 6887,
      "хьа,": 6888,
      "♦198": 6889,
      "тхылъыр.": 6890,
      "бзэхэм": 6891,
      "жери": 6892,
      "Iэуес": 6893,
      "дук": 6894,
      "къигъэлъэгъуащ": 6895,
      "кІу": 6896,
      "лейуэ": 6897,
      "пэщылъ": 6898,
      "Дунейр": 6899,
      "щIигъум": 6900,
      "Тхыдэм": 6901,
      "Алексей": 6902,
      "тхыдэм,": 6903,
      "Ислъэм": 6904,
      "зэрыхъуар": 6905,
      "жыгым": 6906,
      "26-м": 6907,
      "Лэск": 6908,
      "социаль": 6909,
      "Хьэсэнбий": 6910,
      "Иджырей": 6911,
      "Валерий": 6912,
      "Котля": 6913,
      "къабыл": 6914,
      "кIэм-икIэ": 6915,
      "Бэрэ": 6916,
      "ФI": 6917,
      "Фа": 6918,
      "гал": 6919,
      "жре": 6920,
      "зат": 6921,
      "ращи,": 6922,
      "син": 6923,
      "япхъу": 6924,
      "гъахуэ": 6925,
      "къет": 6926,
      "къыхуигъэ": 6927,
      "лиц": 6928,
      "сыкъи": 6929,
      "щхьэпо": 6930,
      "ермон": 6931,
      "сэлэ": 6932,
      "Армен": 6933,
      "увэну": 6934,
      "докум": 6935,
      "псэлъэн": 6936,
      "ирихьэ": 6937,
      "зехуэ": 6938,
      "иIэкъым.": 6939,
      "ныкъуэр": 6940,
      "щи.": 6941,
      "щIыхькIэ": 6942,
      "ягъэхьэзыр": 6943,
      "нэгъуэщIхэми": 6944,
      "Гъуб": 6945,
      "кърихьэлIа": 6946,
      "ГуфIэ": 6947,
      "лъэгъуар": 6948,
      "пкърыт": 6949,
      "зыбжанэрэ": 6950,
      "удын": 6951,
      "грамми": 6952,
      "щытекIуащ.": 6953,
      "зэгухьэныгъэр": 6954,
      "тIысхьэ": 6955,
      "дэIэпыкъуныгъэ": 6956,
      "Iэмэпсымэхэр": 6957,
      "Лэскэн": 6958,
      "(иджы": 6959,
      "79": 6960,
      "жщ.": 6961,
      "пан": 6962,
      "ся,": 6963,
      "тщIа": 6964,
      "цов": 6965,
      "ш,": 6966,
      "яхэтащ": 6967,
      "IэпщIэ": 6968,
      "щылэжьащ.": 6969,
      "зэн": 6970,
      "кIэщIу": 6971,
      "жьэн": 6972,
      "хъуху": 6973,
      "рабо": 6974,
      "стар": 6975,
      "Къай": 6976,
      "гъэмэ": 6977,
      "амери": 6978,
      "пэжыпIэ": 6979,
      "къэд": 6980,
      "сыхуей": 6981,
      "къуэпс": 6982,
      "нукъым,": 6983,
      "фэтэр": 6984,
      "спон": 6985,
      "хэтхэр": 6986,
      "гъуэмрэ": 6987,
      "Хьэр": 6988,
      "город": 6989,
      "ству": 6990,
      "щыIэкъым": 6991,
      "иIэт": 6992,
      "ягъэзэ": 6993,
      "щIэузэда": 6994,
      "объ": 6995,
      "05:07": 6996,
      "зэрамы": 6997,
      "мурадщ.": 6998,
      "кIырт": 6999,
      "Иджыблагъэ": 7000,
      "без": 7001,
      "яIэры": 7002,
      "щэнхабзэм,": 7003,
      "21-м": 7004,
      "зыхэс": 7005,
      "къыщызэIуахащ.": 7006,
      "Iэтауэ": 7007,
      "хэмылъу": 7008,
      "Михаил.": 7009,
      "серв": 7010,
      "IуэрыIуатэ": 7011,
      "России": 7012,
      "Вели": 7013,
      "банк": 7014,
      "литературэмрэ": 7015,
      "бгъэдыхьэкIэ": 7016,
      "шынагъуэншагъэр": 7017,
      "Нэхущ": 7018,
      "зэхуэмыдэхэм": 7019,
      "фэбжь": 7020,
      "щIэрыщIэу": 7021,
      ".45": 7022,
      "Эр": 7023,
      "дя": 7024,
      "дал": 7025,
      "зда": 7026,
      "малъ": 7027,
      "сю": 7028,
      "лъын": 7029,
      "щыхъуащ.": 7030,
      "щыIащ.": 7031,
      "нэт": 7032,
      "нэсы": 7033,
      "хэщIыныгъэ": 7034,
      "гъу,": 7035,
      "-ма": 7036,
      "щIыгъуэ": 7037,
      "къуэр.": 7038,
      "кIыхьым": 7039,
      "хъуэн": 7040,
      "зым,": 7041,
      "увауэ": 7042,
      "тахэм": 7043,
      "хахуа": 7044,
      "бжьэры": 7045,
      "ур,": 7046,
      "гуэрхэм": 7047,
      "унафэщIыр": 7048,
      "нэгъуэщIым": 7049,
      "хабзэхъумэ": 7050,
      "щэну": 7051,
      "джэгукIэ": 7052,
      "Сочэ": 7053,
      "хьэзырар": 7054,
      "стой": 7055,
      "нырщ.": 7056,
      "ЩIыпIэ": 7057,
      "къыщихьащ": 7058,
      "академик,": 7059,
      "щыхъукIи,": 7060,
      "хэкупсэ": 7061,
      "кара": 7062,
      "1957": 7063,
      "логием": 7064,
      "лIыхъужьхэм": 7065,
      "Узыншагъэр": 7066,
      "КъызэрыщIэкI": 7067,
      "набдзэгубдзаплъэ": 7068,
      "ермонтов": 7069,
      "8,": 7070,
      "Бал": 7071,
      "Едж": 7072,
      "Мон": 7073,
      "Тен": 7074,
      "ХХ": 7075,
      "еж": 7076,
      "з,": 7077,
      "нащ": 7078,
      "око": 7079,
      "скульп": 7080,
      "удэ": 7081,
      "Iэми": 7082,
      "щыдгъэ": 7083,
      "зыпылъ": 7084,
      "зэращIы": 7085,
      "атлетикэ": 7086,
      "зэрыхуейр": 7087,
      "къэкIуа": 7088,
      "систе": 7089,
      "Аргуэру": 7090,
      "жиIащ.": 7091,
      "хьэрт.": 7092,
      "топсэлъыхь": 7093,
      "махуэшхуэм": 7094,
      "ХьэтIу": 7095,
      "хуащIа": 7096,
      "мож": 7097,
      "Налшык,": 7098,
      "еджэу": 7099,
      "Урысейпсо": 7100,
      "псалъэу": 7101,
      "къыдэкIуэ": 7102,
      "къыдэкIа": 7103,
      "паг": 7104,
      "лъагапIэм": 7105,
      "кIыну.": 7106,
      "чеслав": 7107,
      "тхьэIуху": 7108,
      "щIигъукIэ": 7109,
      "гуапэщ.": 7110,
      "Джэб": 7111,
      "год1": 7112,
      "развит": 7113,
      "быдэкIэ": 7114,
      "ЕтIуанэм": 7115,
      "хьэлъагъыр": 7116,
      "Мамхэ": 7117,
      "Пащты": 7118,
      "Афгани": 7119,
      "щопсэу.": 7120,
      "белджылы": 7121,
      "планет": 7122,
      "кIэлъоплъ": 7123,
      "клиникэ": 7124,
      "библиотекэм": 7125,
      "«Черномор": 7126,
      "зэдзэкI": 7127,
      "Василий": 7128,
      "Вячеслав": 7129,
      ".ru": 7130,
      "«Я": 7131,
      "«Зэ": 7132,
      "Зали": 7133,
      "СР": 7134,
      "гие": 7135,
      "остэн": 7136,
      "пинг": 7137,
      "урий": 7138,
      "юр": 7139,
      "яригъэ": 7140,
      "хуиIэ": 7141,
      "хузо": 7142,
      "ат:": 7143,
      "пэжым": 7144,
      "кую": 7145,
      "ийр": 7146,
      "Абыи": 7147,
      "над": 7148,
      "зыр,": 7149,
      "ящыщт": 7150,
      "Мэл": 7151,
      "лъэгъуамкIэ,": 7152,
      "лъхьэ.": 7153,
      "гих": 7154,
      "клад": 7155,
      "Топ": 7156,
      "Япэу": 7157,
      "напэр": 7158,
      "Тхьэгъэ": 7159,
      "линг": 7160,
      "цIыхубзхэм": 7161,
      "Конст": 7162,
      "Куэдрэ": 7163,
      "художник": 7164,
      "зэкIэлъхьэужьу": 7165,
      "Нью": 7166,
      "ТIу": 7167,
      "Фё": 7168,
      "зв": 7169,
      "зейр": 7170,
      "таб": 7171,
      "фІэ": 7172,
      "лъкъун": 7173,
      "зэныкъуэкъу": 7174,
      "ырщ,": 7175,
      "хэращ.": 7176,
      "хэр»,": 7177,
      "зэро": 7178,
      "рой": 7179,
      "жыхуэ": 7180,
      "хэты": 7181,
      "щIагъуэу": 7182,
      "зыгъэкI": 7183,
      "лIыхъу": 7184,
      "ягъэлъапIэ": 7185,
      "щызэхэт": 7186,
      "анием,": 7187,
      "тыншэу": 7188,
      "щолажьэ": 7189,
      "закъуэщ": 7190,
      "зэхэлъы": 7191,
      "Иннэ": 7192,
      "хьырт.": 7193,
      "фэеплъу": 7194,
      "хьэрычэт": 7195,
      "Псыхуабэ": 7196,
      "политикэм": 7197,
      "пшыналъэ": 7198,
      "музей": 7199,
      "быдапIэ": 7200,
      "пщIымэ,": 7201,
      "Дагъыстэным": 7202,
      "ТекIуэныгъэ": 7203,
      "хэхыныгъэ": 7204,
      "хэпщIыкIыу": 7205,
      "55": 7206,
      "гово": 7207,
      "фие": 7208,
      "шхуи": 7209,
      "ящIыр": 7210,
      "IэщIэлъ": 7211,
      "эмкIэ": 7212,
      "щыхигъэ": 7213,
      "зэуа": 7214,
      "къыхуащI": 7215,
      "къыщхьэщы": 7216,
      "къыщIигъэ": 7217,
      "зыдзэ": 7218,
      "зыплъыхь": 7219,
      "нэIэм": 7220,
      "щIэдз": 7221,
      "лъэдэ": 7222,
      "кIуэцIы": 7223,
      "мыIэу": 7224,
      "лись": 7225,
      "къэзу": 7226,
      "сыще": 7227,
      "кос": 7228,
      "щытмэ,": 7229,
      "лъэпо": 7230,
      "къемызэ": 7231,
      "адыгэхэмрэ": 7232,
      "бгъэдэс": 7233,
      "гъаIуэ": 7234,
      "нэгъуэщIхэми.": 7235,
      "русым": 7236,
      "хабзэмрэ": 7237,
      "веден": 7238,
      "хъуркъым.": 7239,
      "щытекIуащ": 7240,
      "2001": 7241,
      "тхьэлъэIу": 7242,
      "чик": 7243,
      "етIуанэу": 7244,
      "само": 7245,
      "спортымрэ": 7246,
      "ЗэIущIэр": 7247,
      "къэхутэныгъэхэр": 7248,
      "хэкIуэдахэм": 7249,
      "адыгэбзэмрэ": 7250,
      "гузавэ": 7251,
      "Уэрэд": 7252,
      "Абазэ": 7253,
      "Ак": 7254,
      "Жэп": 7255,
      "Лермонтов": 7256,
      "бри": 7257,
      "тэрэ": 7258,
      "IэкIэ": 7259,
      "зэщхьэщы": 7260,
      "къыжьэ": 7261,
      "зытра": 7262,
      "теб": 7263,
      "ункIыфI": 7264,
      "Iуащ.": 7265,
      "щIылIа": 7266,
      "эукъ": 7267,
      "итыр": 7268,
      "рес": 7269,
      "инспек": 7270,
      "ер.": 7271,
      "нове": 7272,
      "Къэбэрдей-Балъкъэрыр": 7273,
      "18-м": 7274,
      "унэхуа": 7275,
      "зэфIэгъэ": 7276,
      "къытригъэ": 7277,
      "Федера": 7278,
      "жырт": 7279,
      "лъхьэн": 7280,
      "тхакIуэхэм": 7281,
      "факъым.": 7282,
      "Тхылъым": 7283,
      "ыныр»": 7284,
      "жриIэ": 7285,
      "1942": 7286,
      "зыгуэркIэ": 7287,
      "24-м": 7288,
      "яхузэфIэкI": 7289,
      "еплъыкIэр": 7290,
      "умэн": 7291,
      "тхылъымпIэ": 7292,
      "литературэмкIэ": 7293,
      "Iэпкълъэпкъыр": 7294,
      "уIэбжь": 7295,
      "Къазбэч": 7296,
      "XVIII": 7297,
      "штаб": 7298,
      "статьям": 7299,
      "Сталин": 7300,
      "программэм,": 7301,
      "Журналист": 7302,
      "ХьэтIутIэ": 7303,
      "«Черноморец": 7304,
      "лъэпощхьэпо": 7305,
      "34": 7306,
      "IV": 7307,
      "Гра": 7308,
      "Кара": 7309,
      "Чэри": 7310,
      "Штат": 7311,
      "щыщIа": 7312,
      "хэмкIэ,": 7313,
      "нэгъуэ": 7314,
      "нэпцI": 7315,
      "арод": 7316,
      "щIэпхъуэ": 7317,
      "лъэу": 7318,
      "инов": 7319,
      "щыту": 7320,
      "къиху": 7321,
      "ейм,": 7322,
      "зымыщIэ": 7323,
      "хахуэ": 7324,
      "них": 7325,
      "дународ": 7326,
      "хьэршым": 7327,
      "хэлъкъым": 7328,
      "ащэху": 7329,
      "закъуэм": 7330,
      "хьэлIащ": 7331,
      "шуу": 7332,
      "ландием": 7333,
      "зэмызэ": 7334,
      "командэхэм": 7335,
      "матикэ": 7336,
      "дэкIауэ": 7337,
      "къызэрагъэпэщы": 7338,
      "узыншэу": 7339,
      "1943": 7340,
      "Джат": 7341,
      "къызэринэ": 7342,
      "километри": 7343,
      "урысыбзэ": 7344,
      ":44": 7345,
      "пенсэ": 7346,
      "къалъытэ.": 7347,
      "ныкъусан": 7348,
      "пьесэ": 7349,
      "фызыжь": 7350,
      "диплом": 7351,
      "Констант": 7352,
      "Рим": 7353,
      "бауэ": 7354,
      "жыр.": 7355,
      "зм": 7356,
      "зни": 7357,
      "ллэ": 7358,
      "порт": 7359,
      "сев": 7360,
      "ском": 7361,
      "яхъум": 7362,
      "хухах": 7363,
      "щыз": 7364,
      "щызиIэ": 7365,
      "рат.": 7366,
      "нысэ": 7367,
      "Къыр": 7368,
      "нэхърэ.": 7369,
      "кое": 7370,
      "зин": 7371,
      "рест": 7372,
      "эбэ": 7373,
      "лъытащ": 7374,
      "кIакъым.": 7375,
      "блэр": 7376,
      "зэIущIи": 7377,
      "хуищIащ": 7378,
      "щIалэщIэм": 7379,
      "ягъэзащIэ": 7380,
      "Маго": 7381,
      "Гупсы": 7382,
      "баш": 7383,
      "стоя": 7384,
      "школакIуэ": 7385,
      "тхьэусы": 7386,
      "Ищхъэр": 7387,
      "къудейщ.": 7388,
      "Къумахуэ": 7389,
      "узыншэ": 7390,
      "езыр-езыру": 7391,
      "къызыхэкIар": 7392,
      "ченкэ": 7393,
      "республикэхэм": 7394,
      "Лэжьыгъэ": 7395,
      "загъэпсэху": 7396,
      "студентхэм": 7397,
      "режиссёр,": 7398,
      "гъэмахуэм": 7399,
      "къэралыгъуэр": 7400,
      "къыбгъэдэкIыу": 7401,
      "народов": 7402,
      "щIэупщIащ": 7403,
      "ческих": 7404,
      "дзюдомкIэ": 7405,
      "Котляров": 7406,
      "Мамхэгъ": 7407,
      "Нью-": 7408,
      "АМ": 7409,
      "Амир": 7410,
      "Цы": 7411,
      "бин": 7412,
      "жкIэ": 7413,
      "кие": 7414,
      "правитель": 7415,
      "хым,": 7416,
      "Iэгуауэ": 7417,
      "лъауэ": 7418,
      "лъэIуащ": 7419,
      "амкIэ": 7420,
      "эншэ": 7421,
      "данэ": 7422,
      "лъахэр": 7423,
      "хъуэу": 7424,
      "тэтэр": 7425,
      "токъуэ": 7426,
      "хир": 7427,
      "ствов": 7428,
      "къызэрыр": 7429,
      "гъасэр": 7430,
      "ныгъэм,": 7431,
      "Наль": 7432,
      "Мыбдеж": 7433,
      "хэлъыр": 7434,
      "гугъуу": 7435,
      "бгын": 7436,
      "цэхэм": 7437,
      "сурэтхэм": 7438,
      "куэды": 7439,
      "КъухьэпIэ": 7440,
      "1965": 7441,
      "Къанщауэ": 7442,
      "налог": 7443,
      "романым": 7444,
      "Россий": 7445,
      "ционер": 7446,
      "истории": 7447,
      "стер,": 7448,
      "бгырысхэм": 7449,
      "балет": 7450,
      "зэриIэр": 7451,
      "насыпыфIэ": 7452,
      "струк": 7453,
      "емыблэжу": 7454,
      "гимна": 7455,
      "ЖыпIэну": 7456,
      "Спортым": 7457,
      ".50": 7458,
      "1-нэ": 7459,
      "75-рэ": 7460,
      ":2": 7461,
      "Н.": 7462,
      "ПщIэ": 7463,
      "где": 7464,
      "уды": 7465,
      "ышхуэ": 7466,
      "щызгъэ": 7467,
      "зыще": 7468,
      "зыкъыщагъэ": 7469,
      "рэщ.": 7470,
      "Къыт": 7471,
      "зэрыдэ": 7472,
      "сыхуэ": 7473,
      "щIыIэм": 7474,
      "ка.": 7475,
      "къихьащ.": 7476,
      "лышх": 7477,
      "лIыгъэм": 7478,
      "дыдэхэр": 7479,
      "Мывэ": 7480,
      "185": 7481,
      "188": 7482,
      "арием": 7483,
      "СССР": 7484,
      "псомкIи": 7485,
      "бгыры": 7486,
      "пIалъэм": 7487,
      "05:17": 7488,
      "хъунщ": 7489,
      "къагъэзэ": 7490,
      "курс": 7491,
      "кIуэцIры": 7492,
      "фащэм": 7493,
      "1970": 7494,
      "Август": 7495,
      "ГъукIэ": 7496,
      "Куэдым": 7497,
      "къэна": 7498,
      "чэзум": 7499,
      "корре": 7500,
      "шэрджэсхэм": 7501,
      "тенджызым": 7502,
      "композитор,": 7503,
      "Нобель": 7504,
      "Минист": 7505,
      "зэращI": 7506,
      "Канадэм": 7507,
      "президенту": 7508,
      "хъуреягъкIэ": 7509,
      "клубым": 7510,
      "тыкуэн": 7511,
      "къыщызэIуих": 7512,
      "IутIыж": 7513,
      "институт": 7514,
      "40-м": 7515,
      "«Ды": 7516,
      "Дадэ": 7517,
      "еIэ": 7518,
      "епщыкIу": 7519,
      "защIэм": 7520,
      "игъуэ": 7521,
      "много": 7522,
      "щар": 7523,
      "юри": 7524,
      "яубыд": 7525,
      "кърым": 7526,
      "къанэр": 7527,
      "зыпкърыт": 7528,
      "лъэща": 7529,
      "лэхьи,": 7530,
      "мэжджы": 7531,
      "нур.": 7532,
      "ет,": 7533,
      "маш": 7534,
      "ин,": 7535,
      "дах": 7536,
      "хьэмэрэ": 7537,
      "гъэри": 7538,
      "занэ": 7539,
      "япэкIэ": 7540,
      "вич": 7541,
      "ким": 7542,
      "лъэгъуащ,": 7543,
      "лъапIэхэр": 7544,
      "дахэ,": 7545,
      "гъунэгъум": 7546,
      "яIэщ.": 7547,
      "мыхъуми": 7548,
      "къыпху": 7549,
      "къудейкъым,": 7550,
      "тIощI": 7551,
      "гуапэщ": 7552,
      "къыдигъэкIащ": 7553,
      "къэзыгъэзэ": 7554,
      "хьэпшыпхэр": 7555,
      "спектаклым": 7556,
      "повест": 7557,
      "судья": 7558,
      "олимпи": 7559,
      "замен": 7560,
      "Австр": 7561,
      "Евгений": 7562,
      "хуэгъэпса": 7563,
      "Игорь": 7564,
      ".20": 7565,
      "__": 7566,
      "Іэу": 7567,
      "бат": 7568,
      "гек": 7569,
      "ищIы": 7570,
      "луб": 7571,
      "мес": 7572,
      "цIа": 7573,
      "щӀ": 7574,
      "№1-м": 7575,
      "уэлий": 7576,
      "Iэуэ": 7577,
      "кIауэ,": 7578,
      "ащхьэр": 7579,
      "зэчий": 7580,
      "хьэблэм": 7581,
      "щIэным": 7582,
      "щIэджыкI": 7583,
      "хэрщ": 7584,
      "кIуэтэ": 7585,
      "дыдж": 7586,
      "нып": 7587,
      "Къе": 7588,
      "къэлъыт": 7589,
      "къэтэдж": 7590,
      "сызы": 7591,
      "рекор": 7592,
      "ынур.": 7593,
      "инагъ": 7594,
      "щытам": 7595,
      "хэтащ,": 7596,
      "гуэн": 7597,
      "моно": 7598,
      "итIри": 7599,
      "ГъащIэ": 7600,
      "иужь,": 7601,
      "амэ.": 7602,
      "цIэрыIуэр": 7603,
      "пасэ": 7604,
      "цIыхубзыр": 7605,
      "советы": 7606,
      "Накъы": 7607,
      "1995": 7608,
      "Унафэ№": 7609,
      "Къармэ": 7610,
      "компьютер": 7611,
      "орденыр": 7612,
      "Iэпкълъэпкъ": 7613,
      "экспе": 7614,
      "хуэзыщIа": 7615,
      "зэпэщIэтын": 7616,
      "Новороссий": 7617,
      "зэбгры": 7618,
      "цинэр": 7619,
      "«Кабардинка»-м": 7620,
      "(6": 7621,
      "-хуэмурэ": 7622,
      "3-нэ": 7623,
      "or": 7624,
      "нем": 7625,
      "сщIыну": 7626,
      "укъуэ": 7627,
      "ядо": 7628,
      "уэм": 7629,
      "гъэ,": 7630,
      "щIри,": 7631,
      "хэм»": 7632,
      "зэщхь": 7633,
      "хуэдэм": 7634,
      "арт": 7635,
      "щIэкIа": 7636,
      "алин": 7637,
      "анс": 7638,
      "мыл": 7639,
      "зэрыхъум": 7640,
      "къуэм,": 7641,
      "сигъэ": 7642,
      "емен": 7643,
      "убла": 7644,
      "гъэр.": 7645,
      "жэз": 7646,
      "ур.": 7647,
      "хуаIэ": 7648,
      "хабжэ": 7649,
      "гъазэр": 7650,
      "жьэгу": 7651,
      "щаухуэ": 7652,
      "гъуазэр": 7653,
      "хэмкIэ.": 7654,
      "кIыж.": 7655,
      "исхэм": 7656,
      "зыхуэдэм": 7657,
      "жыркъым": 7658,
      "Сэхъу": 7659,
      "лъэныкъуэр": 7660,
      "къабза": 7661,
      "зэщIэну": 7662,
      "зэIущIэ.": 7663,
      "хуозэ": 7664,
      "станов": 7665,
      "Вол": 7666,
      "иратащ.": 7667,
      "пIейт": 7668,
      "ются": 7669,
      "Жэщ": 7670,
      "Еленэ": 7671,
      "туризмэм": 7672,
      "КЪУЭ": 7673,
      "щэбэт": 7674,
      "Шэрэдж": 7675,
      "/с": 7676,
      "«Ж": 7677,
      "Акъы": 7678,
      "Гри": 7679,
      "Кам": 7680,
      "МЧ": 7681,
      "Мен": 7682,
      "акъыр": 7683,
      "вым": 7684,
      "еро": 7685,
      "ищIыну": 7686,
      "лся": 7687,
      "рхэм": 7688,
      "тхьэры": 7689,
      "шхэм": 7690,
      "шло": 7691,
      "щащэ": 7692,
      "ягъуэт": 7693,
      "хьид": 7694,
      "щызыгъэ": 7695,
      "нэсым": 7696,
      "темати": 7697,
      "кIуэда": 7698,
      "щытщ.": 7699,
      "даго": 7700,
      "ль)Скачать": 7701,
      "тхылъы": 7702,
      "дунеи": 7703,
      "псыежэ": 7704,
      "писа": 7705,
      "бом": 7706,
      "гъуазэм": 7707,
      "щызэхи": 7708,
      "Iэмалхэм": 7709,
      "хагъэхьащ": 7710,
      "кІы": 7711,
      "гъащIэм,": 7712,
      "щытепсэлъыхь": 7713,
      "уэрэдым": 7714,
      "етIуанэр": 7715,
      "Унагъуэ": 7716,
      "къыпхуэмы": 7717,
      "ларус": 7718,
      "Пэжыр": 7719,
      "1944": 7720,
      "«Ал": 7721,
      "мафIэр": 7722,
      "IэщIагъэлIхэр": 7723,
      "Борис,": 7724,
      "Борис.": 7725,
      "Сабийхэм": 7726,
      "зегъэужьынымкIэ": 7727,
      "пхужыIэ": 7728,
      "»-р.": 7729,
      "гурыIуэгъуэщи,": 7730,
      "ствэхэм": 7731,
      "Iэгъуэблагъэм": 7732,
      "жыныгъэмкIэ": 7733,
      "письмо": 7734,
      "корреспон": 7735,
      "Пен": 7736,
      "ЪЭ": 7737,
      "ацэм": 7738,
      "есть": 7739,
      "шэрэ": 7740,
      "ыфI": 7741,
      "ябж": 7742,
      "лъхуа": 7743,
      "хущIокъу": 7744,
      "хьэщIэм": 7745,
      "армыхъу": 7746,
      "рэ»": 7747,
      "техуэ": 7748,
      "Къэп": 7749,
      "жызыIэ": 7750,
      "фэ,": 7751,
      "къищынэмы": 7752,
      "къыщыхъуар": 7753,
      "жизни": 7754,
      "къыщагъуэ": 7755,
      "къызэрыра": 7756,
      "борэ": 7757,
      "къыхэзы": 7758,
      "Зэи": 7759,
      "щIалэщIэ": 7760,
      "гугъуе": 7761,
      "къызэте": 7762,
      "хъуа,": 7763,
      "ки.": 7764,
      "жынущ": 7765,
      "зэгурыIу": 7766,
      "Сэфар": 7767,
      "хъыбарым": 7768,
      "благъэ.": 7769,
      "энущ.": 7770,
      "луан": 7771,
      "иратащ": 7772,
      "мурадкIэ": 7773,
      "200-м": 7774,
      "пхъэщхьэмы": 7775,
      "IуэхущIапIэхэр": 7776,
      "лъэхъэнэр": 7777,
      "ПэщIэ": 7778,
      "Джон": 7779,
      "Хуабжьу": 7780,
      "ирихьэлIэу,": 7781,
      "Къантемыр": 7782,
      "♦1945": 7783,
      "къыхури": 7784,
      "зэрымыхъуну": 7785,
      "итхум": 7786,
      "санти": 7787,
      "Жанхъуэ": 7788,
      "Фэеплъ": 7789,
      "Берлин": 7790,
      "зэрыхъунум": 7791,
      "къратащ.": 7792,
      "пщэдджыжьым": 7793,
      "Адыгэбзэм": 7794,
      "Ислъам": 7795,
      "рассказ": 7796,
      "время": 7797,
      "головнэ": 7798,
      "Къуэдзокъуэ": 7799,
      "ДжэбрэIил": 7800,
      ".15": 7801,
      "60-м": 7802,
      "Батыр": 7803,
      "Зо": 7804,
      "Пек": 7805,
      "Ты": 7806,
      "елъэIу": 7807,
      "мащIэм": 7808,
      "сч": 7809,
      "уда": 7810,
      "ямыгъэ": 7811,
      "зэщхьэгъусэ": 7812,
      "къыдж": 7813,
      "архи": 7814,
      "дэкIыу": 7815,
      "кIуэкIыу": 7816,
      "ата": 7817,
      "зигу": 7818,
      "рез": 7819,
      "къихьащ": 7820,
      "нау": 7821,
      "хьэркъым.": 7822,
      "къахо": 7823,
      "къеджэ": 7824,
      "дыдэщ": 7825,
      "цIыкIурэ": 7826,
      "щызэха": 7827,
      "Iэмалыр": 7828,
      "Гум": 7829,
      "руж": 7830,
      "щокIуэкI": 7831,
      "къигъэув": 7832,
      "тIуми": 7833,
      "цэхэр": 7834,
      "коммун": 7835,
      "зыIэщIэлъ": 7836,
      "щIигъуауэ": 7837,
      "кхъуей": 7838,
      "тIощIрэ": 7839,
      "зытепсэлъыхь": 7840,
      "1972": 7841,
      "1980": 7842,
      "лъэпкъэгъухэр": 7843,
      "полкым": 7844,
      "хъумэным,": 7845,
      "Дохутыр": 7846,
      "фестиваль": 7847,
      "Дэтхэн": 7848,
      "представ": 7849,
      "ижь-ижьыж": 7850,
      "КIунэ": 7851,
      "цІыху": 7852,
      "хуэунэтIа": 7853,
      "къызэзыгъэпэща": 7854,
      "МэшбащIэ": 7855,
      "пычыгъуэ": 7856,
      "жызоIэ": 7857,
      ".35": 7858,
      "Гур": 7859,
      "Тр": 7860,
      "Так": 7861,
      "ХЪУ": 7862,
      "Шко": 7863,
      "съ": 7864,
      "у»": 7865,
      "шэм,": 7866,
      "кIыр.": 7867,
      "хуам": 7868,
      "къыхэт": 7869,
      "зытеу": 7870,
      "дэ.": 7871,
      "гъуэт.": 7872,
      "Iыгъа": 7873,
      "дызы": 7874,
      "дыкъэзыухъуреихь": 7875,
      "ныжь": 7876,
      "зэрыгъэ": 7877,
      "къыми,": 7878,
      "къым».": 7879,
      "къэхьыным": 7880,
      "лэ,": 7881,
      "ласти": 7882,
      "каев": 7883,
      "бэджэн": 7884,
      "къэралми": 7885,
      "шэсы": 7886,
      "докъуэ": 7887,
      "ним": 7888,
      "псэу.": 7889,
      "ныкъуэкIэ": 7890,
      "егъэкIуэкI": 7891,
      "убых": 7892,
      "«Со": 7893,
      "хъуафэ": 7894,
      "кIыжри,": 7895,
      "гупсысыр": 7896,
      "этэн": 7897,
      "щолажьэ.": 7898,
      "закъуэр": 7899,
      "Апхуэдэщ": 7900,
      "ФедерацэмкIэ": 7901,
      "Къэхъун": 7902,
      "бзэр,": 7903,
      "Москва,": 7904,
      "егъэджакIуэу": 7905,
      "къыщихьащ.": 7906,
      "зыщIэлъ": 7907,
      "Тыркум,": 7908,
      "республикэр": 7909,
      "гуапа": 7910,
      "фильмыр": 7911,
      "бжьыхьэ": 7912,
      "хэлъхьэныгъэшхуэ": 7913,
      "макъамэм": 7914,
      "которые": 7915,
      "08:29": 7916,
      "тхьэкIумэ": 7917,
      "коммунальнэ": 7918,
      "-щы": 7919,
      "75": 7920,
      "Х/ф": 7921,
      "вес": 7922,
      "времен": 7923,
      "жауэ,": 7924,
      "ижьыр": 7925,
      "кры": 7926,
      "тащ,": 7927,
      "шие": 7928,
      "щхъы": 7929,
      "уэз": 7930,
      "щыб": 7931,
      "къыхэмы": 7932,
      "ари,": 7933,
      "щIэхъуэ": 7934,
      "гушы": 7935,
      "губзы": 7936,
      "кIуэгъуэ": 7937,
      "сыхуейщ": 7938,
      "Iуэхуу": 7939,
      "пIэу": 7940,
      "къихьа": 7941,
      "тутын": 7942,
      "жив": 7943,
      "жиIа": 7944,
      "кэхэм": 7945,
      "тырбы": 7946,
      "къыхэгъэ": 7947,
      "къыхэжаны": 7948,
      "моло": 7949,
      "цIыкIу,": 7950,
      "щилъагъу": 7951,
      "адры": 7952,
      "ались": 7953,
      "Къып": 7954,
      "Кавказыр": 7955,
      "щIыпIэхэр": 7956,
      "зыхуэкIуэ": 7957,
      "хуагъэфащ": 7958,
      "Индием": 7959,
      "дахэхэр": 7960,
      "къытехьащ": 7961,
      "лейтен": 7962,
      "нэхъыщхьэхэр": 7963,
      "25-рэ": 7964,
      "бжыгъэхэр": 7965,
      "Проф": 7966,
      "насыпыр": 7967,
      "лъабжьэу": 7968,
      "дохутырхэм": 7969,
      "ФIыцIэ": 7970,
      "гузэв": 7971,
      "Руслан,": 7972,
      "дапщэщи": 7973,
      "Къуажэм": 7974,
      "езыгъэкIуэкI": 7975,
      "Мурат,": 7976,
      "хэгъэрейхэм": 7977,
      "фронтым": 7978,
      "Северного": 7979,
      "Фёдор": 7980,
      "//": 7981,
      "АтIэ,": 7982,
      "Тхьэр": 7983,
      "бим": 7984,
      "дв": 7985,
      "жкъым": 7986,
      "ием,": 7987,
      "ори": 7988,
      "пха": 7989,
      "ркъым.": 7990,
      "сагъэ": 7991,
      "уди": 7992,
      "щахуэ": 7993,
      "кIыр,": 7994,
      "зэт": 7995,
      "зэхуэдэу": 7996,
      "нэщ.": 7997,
      "хуэ.": 7998,
      "псап": 7999,
      "хэдгъэ": 8000,
      "мыдрей": 8001,
      "етху": 8002,
      "мастер,": 8003,
      "кIуапIэ": 8004,
      "ынукъым.": 8005,
      "ини": 8006,
      "лъаIуэ": 8007,
      "хэт.": 8008,
      "хэту,": 8009,
      "националь": 8010,
      "джыз": 8011,
      "махуэу": 8012,
      "-Бэч": 8013,
      "вием": 8014,
      "кIыжмэ,": 8015,
      "гъащIэу": 8016,
      "обкомым": 8017,
      "щагъэлъэп": 8018,
      "закъуэтIа": 8019,
      "лъэгъуам": 8020,
      "сурэтыр": 8021,
      "жащ:": 8022,
      "извест": 8023,
      "зыщыгугъ": 8024,
      "щIалэм.": 8025,
      "мафIэс": 8026,
      "ять": 8027,
      "♦189": 8028,
      "школхэм": 8029,
      "зрагъэужь": 8030,
      "редак": 8031,
      "критик": 8032,
      "абрагъуэ": 8033,
      "кIэрыхубжьэры": 8034,
      "уардэунэм": 8035,
      "зэпIэзэры": 8036,
      "Леонид": 8037,
      "КПСС": 8038,
      "гъуазджэмрэ": 8039,
      "(Ф": 8040,
      "ГИ": 8041,
      "Гей": 8042,
      "Зами": 8043,
      "жэн": 8044,
      "змэм": 8045,
      "суб": 8046,
      "сло": 8047,
      "щакIуэ": 8048,
      "хуабэр": 8049,
      "зэб": 8050,
      "зыщIи": 8051,
      "нэхэм": 8052,
      "хуэхъуар": 8053,
      "хэзгъэ": 8054,
      "джащIэ": 8055,
      "аты": 8056,
      "итым": 8057,
      "матери": 8058,
      "хэту.": 8059,
      "захуа": 8060,
      "кIапсэ": 8061,
      "хьэр.": 8062,
      "тие": 8063,
      "псыхъуэ": 8064,
      "блым": 8065,
      "зезыгъэ": 8066,
      "иIэщ,": 8067,
      "бажэм": 8068,
      "щыпсэухэр": 8069,
      "щокъуэм": 8070,
      "бийр": 8071,
      "меня": 8072,
      "къытехьа": 8073,
      "къащтащ.": 8074,
      "Илъэсым": 8075,
      "жиIэри,": 8076,
      "МахуэгъэпсНобэ♦": 8077,
      "IуэхущIапIэр": 8078,
      "кIуэцIым": 8079,
      "Александр,": 8080,
      "1968": 8081,
      "бынхэр": 8082,
      "Президиумым": 8083,
      "зыужьыныгъэ": 8084,
      "Жьа": 8085,
      "иуха": 8086,
      "ехыжа": 8087,
      "Бытырбы": 8088,
      "зыкъом": 8089,
      "уэрамхэм": 8090,
      "99,": 8091,
      "нэтынхэр": 8092,
      "гурымыIуэ": 8093,
      "Испанием": 8094,
      "Гъатхэпэм": 8095,
      "къащхьэщы": 8096,
      "къызыхуэтыншэу": 8097,
      "наркотик": 8098,
      "ныкъусаныгъэ": 8099,
      "100-м": 8100,
      "3-": 8101,
      "«Черкес": 8102,
      "Жамбо": 8103,
      "Что": 8104,
      "Экономи": 8105,
      "жар.": 8106,
      "иса": 8107,
      "ихьащ.": 8108,
      "ишх": 8109,
      "сфIэфI": 8110,
      "уемы": 8111,
      "гъаб": 8112,
      "Iэдэ": 8113,
      "лъащIэм": 8114,
      "хьэлы": 8115,
      "арым": 8116,
      "дыгъуасэ": 8117,
      "зэрыхъунур": 8118,
      "Iуплъэ": 8119,
      "итIыс": 8120,
      "орым": 8121,
      "Iэмыр": 8122,
      "хэтщ,": 8123,
      "тхыдэт": 8124,
      "жизн": 8125,
      "сомо": 8126,
      "дзэзешэ": 8127,
      "ХьэщIэ": 8128,
      "Хьэжы": 8129,
      "тIыр": 8130,
      "мой": 8131,
      "егъэджэным": 8132,
      "щIэм,": 8133,
      "зэридзэ": 8134,
      "закъуэкъым": 8135,
      "05:20": 8136,
      "лъагэм": 8137,
      "къулыкъущIэ,": 8138,
      "лъагъуэу": 8139,
      "мыхъуми,": 8140,
      "зэпыту": 8141,
      "къыщалъы": 8142,
      "гъусэу.": 8143,
      "тIощIым": 8144,
      "сымаджэхэм": 8145,
      "овой": 8146,
      "ИтIани,": 8147,
      "зэрыригъэ": 8148,
      "Октябрь": 8149,
      "следов": 8150,
      "зэрырикъум": 8151,
      "быдапIэм": 8152,
      "Нарткъалэ": 8153,
      "къыщыдэкIащ": 8154,
      "стадион": 8155,
      "фIощI": 8156,
      "сценэм": 8157,
      "зыхуеину": 8158,
      "ветеранхэм": 8159,
      "ГъэщIэгъуэнщ": 8160,
      "нартыху": 8161,
      "жреIэ": 8162,
      "эукъий": 8163,
      "гектар": 8164,
      "de": 8165,
      "«Шэрджэс": 8166,
      "ГЪУ": 8167,
      "Сту": 8168,
      "беслъэн": 8169,
      "гит": 8170,
      "игъуэта": 8171,
      "сказ": 8172,
      "свет": 8173,
      "тлъагъу": 8174,
      "уащ.": 8175,
      "уче": 8176,
      "хан": 8177,
      "чыны": 8178,
      "къыде": 8179,
      "хьэным": 8180,
      "дэгъэ": 8181,
      "алэб": 8182,
      "абгъу": 8183,
      "джыным": 8184,
      "джаным": 8185,
      "джабэ": 8186,
      "дыщ": 8187,
      "пэжыжьэ": 8188,
      "эурэ": 8189,
      "хыжащ.": 8190,
      "зиIэм": 8191,
      "инвести": 8192,
      "хуэдэ,": 8193,
      "номи": 8194,
      "произ": 8195,
      "къелъытэ": 8196,
      "щIыныр": 8197,
      "хъыIэ,": 8198,
      "КъБР": 8199,
      "воен": 8200,
      "натIэм": 8201,
      "джэгур": 8202,
      "плъыфэ": 8203,
      "Лъа": 8204,
      "пхъурылъху": 8205,
      "Апхуэдэурэ": 8206,
      "фызым": 8207,
      "къытес": 8208,
      "къытеувы": 8209,
      "яхуэгъэ": 8210,
      "щхьэхуэхэр": 8211,
      "университетыр": 8212,
      "Аслъэн,": 8213,
      "1994": 8214,
      "Худо": 8215,
      "1964": 8216,
      "къыдалъ": 8217,
      "♦1942": 8218,
      "бжьыхьэм": 8219,
      "къалъытэри,": 8220,
      "шего": 8221,
      "хуэгъэза": 8222,
      "хуэгъэзауэ": 8223,
      "къэхутэныгъэхэм": 8224,
      "серд": 8225,
      "агент": 8226,
      "современ": 8227,
      "отечествен": 8228,
      "Куэцэ": 8229,
      "игъащIэкIэ": 8230,
      "Плъыжь": 8231,
      "гъуащхьэхъумэныкъуэ": 8232,
      "Кабардино-Балкари": 8233,
      "зищIысыр": 8234,
      "къэрэшей": 8235,
      "тIасхъэ": 8236,
      "дагоги": 8237,
      "(19": 8238,
      "2-": 8239,
      "FM": 8240,
      "Iар.": 8241,
      "«Къэбэрдей-Балъкъэрым": 8242,
      "«Зы": 8243,
      "Дав": 8244,
      "ЖЬ": 8245,
      "Йо": 8246,
      "Тэ": 8247,
      "ая": 8248,
      "иде": 8249,
      "к.": 8250,
      "лл": 8251,
      "сщI": 8252,
      "юрист": 8253,
      "ён": 8254,
      "хъыр": 8255,
      "хьэлъ": 8256,
      "теля": 8257,
      "гъэми": 8258,
      "была": 8259,
      "былым": 8260,
      "куейм": 8261,
      "лъапсэ": 8262,
      "нокъуэ": 8263,
      "къэрал,": 8264,
      "хахэм": 8265,
      "пещэ": 8266,
      "щиубыд": 8267,
      "унафэщIхэр": 8268,
      "МуIэ": 8269,
      "вакъэ": 8270,
      "Адыгэхэр": 8271,
      "хохьэ": 8272,
      "15:": 8273,
      "хъыбархэм": 8274,
      "фынущ,": 8275,
      "ления": 8276,
      "йоджэ.": 8277,
      "нэхъыфIхэр": 8278,
      "илъэсищэ": 8279,
      "Аслъэн.": 8280,
      "килограмми": 8281,
      "профессион": 8282,
      "арэзыуэ": 8283,
      "гъатхэм": 8284,
      "♦1941": 8285,
      "къэна,": 8286,
      "Тембот": 8287,
      "хузэфIэкIащ": 8288,
      "Инджылыз": 8289,
      "форма": 8290,
      "щIэгъэкъуэ": 8291,
      "пщыхьэщхьэ": 8292,
      "зэныбжьэгъугъэ": 8293,
      "зэдай": 8294,
      "мамлюкхэм": 8295,
      "белджы": 8296,
      "секретарь": 8297,
      "Азие": 8298,
      "ехъуэхъуащ": 8299,
      "Белоруссием": 8300,
      "Урыс-Кавказ": 8301,
      "Чылар": 8302,
      "Iэуэлъауэ": 8303,
      "Пекин": 8304,
      "44": 8305,
      "«Кавказым": 8306,
      "Алъ": 8307,
      "Все": 8308,
      "РАН": 8309,
      "Сер": 8310,
      "бро": 8311,
      "еф": 8312,
      "исп": 8313,
      "кхъэ": 8314,
      "охъу": 8315,
      "пра": 8316,
      "тёр": 8317,
      "уеплъ": 8318,
      "фэри": 8319,
      "IэщIэу": 8320,
      "зэлъы": 8321,
      "къыжра": 8322,
      "ал,": 8323,
      "гъуэту": 8324,
      "хъуами,": 8325,
      "мысыр": 8326,
      "Къалэм": 8327,
      "зэрыхъур": 8328,
      "итащ": 8329,
      "тэ,": 8330,
      "къэралхэми": 8331,
      "тым.": 8332,
      "поплъэ": 8333,
      "пыт": 8334,
      "ыгъэкIэ": 8335,
      "блын": 8336,
      "гуэрхэри": 8337,
      "пион": 8338,
      "теухуащ": 8339,
      "къыхэс": 8340,
      "мура": 8341,
      "нэгъуэщIхэм": 8342,
      "алисти": 8343,
      "Лъы": 8344,
      "Сэлим": 8345,
      "Анэм": 8346,
      "урысхэм": 8347,
      "хагъэхьащ.": 8348,
      "тращIы": 8349,
      "яIэщ": 8350,
      "адрейхэр": 8351,
      "курсым": 8352,
      "жиIэри.": 8353,
      "Черке": 8354,
      "бынхэм": 8355,
      "политик": 8356,
      "зэIущIэм.": 8357,
      "акъылыр": 8358,
      "Заур,": 8359,
      "узэIэбэ": 8360,
      "къыщIэкIынщ": 8361,
      "щыплъагъу": 8362,
      "Къазий": 8363,
      "ИтIанэ,": 8364,
      "зыужьыныгъэмкIэ": 8365,
      "гуащэр": 8366,
      "электрон": 8367,
      "къызытехъу": 8368,
      "властым": 8369,
      "Зэгуэтхэм": 8370,
      "квон": 8371,
      "НыбжьыщIэхэм": 8372,
      "Егоровэ": 8373,
      "аспиран": 8374,
      "Новороссийск": 8375,
      "«Хъыбар": 8376,
      "Йор": 8377,
      "К.": 8378,
      "Он": 8379,
      "бгъа": 8380,
      "гы": 8381,
      "ебэн": 8382,
      "жыр,": 8383,
      "ик": 8384,
      "ихьа": 8385,
      "лын": 8386,
      "мэу": 8387,
      "оп": 8388,
      "тин": 8389,
      "уанэ": 8390,
      "хет": 8391,
      "эпи": 8392,
      "юн": 8393,
      "япэм": 8394,
      "яубзыху": 8395,
      "лъатэ": 8396,
      "щIондэ": 8397,
      "зытIу": 8398,
      "хьэу,": 8399,
      "гура": 8400,
      "хэзыгъэ": 8401,
      "мыт": 8402,
      "зэрыжаIэ": 8403,
      "махъ": 8404,
      "даIыгъ": 8405,
      "завод": 8406,
      "къэралы": 8407,
      "жэгу": 8408,
      "къагурыIуэ": 8409,
      "эрэ,": 8410,
      "гуэркIэ": 8411,
      "иIэр": 8412,
      "1829": 8413,
      "Нэгумэ": 8414,
      "джэгун": 8415,
      "тхауэ": 8416,
      "къытращIы": 8417,
      "узыфэр": 8418,
      "лъхьэну": 8419,
      "зэрадзэ": 8420,
      "14:": 8421,
      "Сыбыр": 8422,
      "стаграм": 8423,
      "эмэ.": 8424,
      "пхъэхэр": 8425,
      "Псын": 8426,
      "илъэсиплI": 8427,
      "егъэджакIуэхэм": 8428,
      "зэрыщыгъуазэ": 8429,
      "кIуэцIкIэ": 8430,
      "телъыджэм": 8431,
      "телъыджэу": 8432,
      "зыгуэрхэр": 8433,
      "ФIыцIэм": 8434,
      "Сергей.": 8435,
      "жаIэрт.": 8436,
      "челове": 8437,
      "пунк": 8438,
      "Накъыгъэм": 8439,
      "Аш": 8440,
      "Бек": 8441,
      "Мал": 8442,
      "Умар": 8443,
      "Щауэ": 8444,
      "астро": 8445,
      "кун": 8446,
      "ншагъэ": 8447,
      "яшх": 8448,
      "♦Урысейм": 8449,
      "уэу": 8450,
      "кIапэ": 8451,
      "щыщ,": 8452,
      "зэгуэрым": 8453,
      "къыхыхьэ": 8454,
      "ынщ": 8455,
      "псу": 8456,
      "абырэ": 8457,
      "рылъ": 8458,
      "демо": 8459,
      "игъэзащIэ": 8460,
      "къилъыхъуэ": 8461,
      "шхуэкIэ": 8462,
      "шэт": 8463,
      "пщэр": 8464,
      "хъуну,": 8465,
      "щIидзэр": 8466,
      "хуищIа": 8467,
      "щиух": 8468,
      "обе": 8469,
      "пщэфI": 8470,
      "»-м,": 8471,
      "Къэрмо": 8472,
      "къратащ": 8473,
      "уеблэмэ,": 8474,
      "щIыгъуей": 8475,
      "бланэ": 8476,
      "нур?": 8477,
      "Заурбэч": 8478,
      "зыщIар": 8479,
      "колл": 8480,
      "егъэджэныгъэмкIэ": 8481,
      "жэрдэмкIэ": 8482,
      "Олимпиадэр": 8483,
      "жиIэрт": 8484,
      "къиухащ.": 8485,
      "хъугъуэфIыгъуэхэр": 8486,
      "актрисэ": 8487,
      "ныбжьыщIэм": 8488,
      "Азербайджаным": 8489,
      "Бразилием": 8490,
      "Гъубж": 8491,
      "зытеухуар": 8492,
      "КПСС-м": 8493,
      "48": 8494,
      "4-нэ": 8495,
      "I8": 8496,
      "lэ": 8497,
      "Дам": 8498,
      "ЕхъулIэ": 8499,
      "Жэм": 8500,
      "тщIэ": 8501,
      "укъе": 8502,
      "хрэ": 8503,
      "ххэу": 8504,
      "яIыгъ": 8505,
      "лъапщIэ": 8506,
      "кIхэм": 8507,
      "щызэры": 8508,
      "зэдж": 8509,
      "зылъэ": 8510,
      "жьын": 8511,
      "гъуэ,": 8512,
      "тета": 8513,
      "мыс": 8514,
      "сыщIэм": 8515,
      "мазэр": 8516,
      "хуэдэщ": 8517,
      "зэми": 8518,
      "ному": 8519,
      "законо": 8520,
      "бжьам": 8521,
      "хуейхэм": 8522,
      "автор": 8523,
      "къыщрагъэ": 8524,
      "сакъ": 8525,
      "иIэкъым": 8526,
      "къызэрызэрагъэпэщ": 8527,
      "эрылъагъу": 8528,
      "Мыпхуэдэ": 8529,
      "гъуэгухэр": 8530,
      "бахъуэ": 8531,
      "анэмрэ": 8532,
      "дум": 8533,
      "ираты": 8534,
      "кIырт,": 8535,
      "хъуркъым": 8536,
      "хъурт,": 8537,
      "лэжьыгъэмрэ": 8538,
      "Мухьэмэд-": 8539,
      "тхыдэмрэ": 8540,
      "щIоупщIэ": 8541,
      "текIуэныгъэм": 8542,
      "1992": 8543,
      "щрагъэкIуэкIа": 8544,
      "жысIэн": 8545,
      "сымаджэщ": 8546,
      "Аланием": 8547,
      "31-м": 8548,
      "колхоз": 8549,
      "ехыжащ": 8550,
      "Беслъэней": 8551,
      "хьэлэлу": 8552,
      "гъэзэщIакIуэ": 8553,
      "лауреат,": 8554,
      "зэзыгъэкIуж": 8555,
      "император": 8556,
      "медицинэм": 8557,
      "ЩIыналъэ": 8558,
      "зэреплъымкIэ,": 8559,
      "зэрыщыгъуазэщи,": 8560,
      "er": 8561,
      "Зау": 8562,
      "ЗекIуэ": 8563,
      "ИФ": 8564,
      "Пшы": 8565,
      "Пес": 8566,
      "Пхъэ": 8567,
      "Чем": 8568,
      "ЭН": 8569,
      "ахэр.": 8570,
      "нщ,": 8571,
      "пщыт": 8572,
      "правленэм": 8573,
      "лъхьэри,": 8574,
      "кIат.": 8575,
      "гъэу": 8576,
      "зэзэмызэ": 8577,
      "хьэжь": 8578,
      "кIуэри": 8579,
      "мых": 8580,
      "щIыпIи": 8581,
      "ет.": 8582,
      "лагер": 8583,
      "маз": 8584,
      "джэгугъу": 8585,
      "хахащ": 8586,
      "ирикъуа": 8587,
      "лъагъуу": 8588,
      "къызэрыте": 8589,
      "зэIущIэхэр": 8590,
      "Мыбдежым": 8591,
      "зиIэхэм": 8592,
      "вает": 8593,
      "парт": 8594,
      "цIэрыIуэу": 8595,
      "жынур": 8596,
      "лъэгъуауэ": 8597,
      "энущ": 8598,
      "лъытапхъэ": 8599,
      "ведом": 8600,
      "шэри,": 8601,
      "хуэдизкIэ": 8602,
      "къарукIэ": 8603,
      "Мэздэгу": 8604,
      "щIэныгъэлI,": 8605,
      "Тол": 8606,
      "хьэщIэщ": 8607,
      "щыхъукIэ,": 8608,
      "1973": 8609,
      "управ": 8610,
      "сыно": 8611,
      "къыщежь": 8612,
      "къэбэрдейхэм": 8613,
      "къагъэсэбэпу": 8614,
      "Зэманым": 8615,
      "финал": 8616,
      "къызэгъэпэщынымкIэ": 8617,
      "Iэзагъым": 8618,
      "дахагъэм": 8619,
      "ущрохьэлIэ": 8620,
      "Республикэр": 8621,
      "XVI": 8622,
      "зыкъомрэ": 8623,
      "къызэрымыкIуэу": 8624,
      "оперэ": 8625,
      "хуэунэтIауэ": 8626,
      "ткIийуэ": 8627,
      "къыщымынэу,": 8628,
      "органхэм": 8629,
      "ГъуазджэхэмкIэ": 8630,
      "ративнэ": 8631,
      "Жилин": 8632,
      "дирижёр": 8633,
      "икIэщIыпIэкIэ": 8634,
      "Афганистаным": 8635,
      "Жэпуэгъуэм": 8636,
      "(6+)": 8637,
      "Бытырбыху": 8638,
      "алэбзу": 8639,
      ".40": 8640,
      "4.": 8641,
      "Іэр": 8642,
      "Аскэр": 8643,
      "ДЖ": 8644,
      "Зыр": 8645,
      "Иуан": 8646,
      "Ипщэм": 8647,
      "КIа": 8648,
      "КIэу": 8649,
      "Рам": 8650,
      "Тан": 8651,
      "Уты": 8652,
      "дхэм": 8653,
      "ера": 8654,
      "ефэн": 8655,
      "ип": 8656,
      "уже": 8657,
      "член": 8658,
      "щхьу": 8659,
      "гъэ)": 8660,
      "щызе": 8661,
      "щылэжьа": 8662,
      "щызыIэригъэ": 8663,
      "щIым,": 8664,
      "зэIэпа": 8665,
      "къыхе": 8666,
      "нэф": 8667,
      "нэIуа": 8668,
      "хуэу,": 8669,
      "алIэр": 8670,
      "хэ!": 8671,
      "лиев": 8672,
      "енит": 8673,
      "къэсы": 8674,
      "къэфэ": 8675,
      "щIыIэр": 8676,
      "щхьэдэ": 8677,
      "лась": 8678,
      "датель": 8679,
      "лъадэ": 8680,
      "къыщызэгъэпэщы": 8681,
      "бэшэч": 8682,
      "уващ,": 8683,
      "хьэрф": 8684,
      "Къэбэрдей-Балъкъэр»": 8685,
      "жьэхэ": 8686,
      "къалъхуа": 8687,
      "Мыгувэу": 8688,
      "итIрэ": 8689,
      "къызэщIэ": 8690,
      "КъБР-м,": 8691,
      "зыхуэдгъэ": 8692,
      "жырт,": 8693,
      "16:": 8694,
      "«Спартак»-р": 8695,
      "тхьэма": 8696,
      "мурадхэр": 8697,
      "усакIуэхэм": 8698,
      "1998": 8699,
      "къуршы": 8700,
      "хуэмей": 8701,
      "Союз": 8702,
      "Щомахуэ": 8703,
      "бзылъхугъэр": 8704,
      "хабзэр,": 8705,
      "бжьыфIэ": 8706,
      "Курсол": 8707,
      "Гъуурий": 8708,
      "компанием": 8709,
      "танк": 8710,
      "КъардэнгъущI": 8711,
      "яхуищIащ": 8712,
      "пэщIэтынымкIэ": 8713,
      "тепщэныгъэр": 8714,
      "иухащ.": 8715,
      "Мусуков": 8716,
      "теплъэр": 8717,
      "къызэралъытэмкIэ,": 8718,
      "Ольгэ": 8719,
      "ЩIэныгъэлIхэм": 8720,
      "гуэныхь": 8721,
      "-то": 8722,
      "66": 8723,
      "Ем": 8724,
      "Ису": 8725,
      "Как": 8726,
      "Пщащ": 8727,
      "афIэкIа": 8728,
      "ихуа": 8729,
      "пуд": 8730,
      "чев": 8731,
      "ье": 8732,
      "яхъумэ": 8733,
      "ядэIэпыкъун": 8734,
      "къыумы": 8735,
      "арати,": 8736,
      "ей»": 8737,
      "дэплъ": 8738,
      "гугъэм": 8739,
      "зэрат": 8740,
      "хъурэ": 8741,
      "тематикэ": 8742,
      "апIы": 8743,
      "стIо": 8744,
      "зэрыхи": 8745,
      "IукI": 8746,
      "сыте": 8747,
      "роди": 8748,
      "щытар.": 8749,
      "псокIэ": 8750,
      "зай": 8751,
      "законым": 8752,
      "анэ.": 8753,
      "цIэу": 8754,
      "хуейт,": 8755,
      "хигъащIэ": 8756,
      "щыIэтэкъым.": 8757,
      "лIыжьыр": 8758,
      "189": 8759,
      "щаIыгъ": 8760,
      "хэлъщ.": 8761,
      "хабзэщ.": 8762,
      "ленэу": 8763,
      "тIылъа": 8764,
      "уахъ": 8765,
      "лъхьэу": 8766,
      "диныр": 8767,
      "ахъшэм": 8768,
      "тхьэмпэ": 8769,
      "Тырны": 8770,
      "Коронави": 8771,
      "1993": 8772,
      "1989": 8773,
      "къалъытащ": 8774,
      "тхьэмадэу": 8775,
      "Iэщэр": 8776,
      "Казбек.": 8777,
      "усыгъэ": 8778,
      "пенсэм": 8779,
      "ядэлэжьэн": 8780,
      "адэжьхэм": 8781,
      "»-р,": 8782,
      "къэкIуэнур": 8783,
      "Кърымым": 8784,
      "аторэм": 8785,
      "мардэхэм": 8786,
      "егъэфIэкIуэным": 8787,
      "Светланэ": 8788,
      "училищэм": 8789,
      "зэбгъузэнатIэ": 8790,
      "Iимам": 8791,
      "осетин": 8792,
      "социально-": 8793,
      "IэпщIэлъапщIэ": 8794,
      "Нью-Йор": 8795,
      "колледж": 8796,
      "-анэ": 8797,
      "9-рэ": 8798,
      "?..": 8799,
      "«Уи": 8800,
      "«Эльбрус": 8801,
      "Бито": 8802,
      "Кхъуэ": 8803,
      "вто": 8804,
      "змыгъэ": 8805,
      "иIащ": 8806,
      "ки,": 8807,
      "тя": 8808,
      "щта": 8809,
      "ятель": 8810,
      "щыI": 8811,
      "зыбгъэ": 8812,
      "арий": 8813,
      "жьейм": 8814,
      "лъэты": 8815,
      "кIуэдэ": 8816,
      "нышхуэ": 8817,
      "стат": 8818,
      "диер": 8819,
      "Къарэ": 8820,
      "сыхуейт": 8821,
      "хыхьэр": 8822,
      "хытIыгу": 8823,
      "пIэхэр": 8824,
      "кIи.": 8825,
      "заужь": 8826,
      "бэлы": 8827,
[...]
