{
  "version": "1.0",
  "truncation": null,
  "padding": null,
  "added_tokens": [
    {
      "id": 1,
      "content": "[PAD]",
      "single_word": false,
      "lstrip": false,
      "rstrip": false,
      "normalized": false,
      "special": true
    },
    {
      "id": 2,
      "content": "[UNK]",
      "single_word": false,
      "lstrip": false,
      "rstrip": false,
      "normalized": false,
      "special": true
    },
    {
      "id": 3,
      "content": "[CLS]",
      "single_word": false,
      "lstrip": false,
      "rstrip": false,
      "normalized": false,
      "special": true
    },
    {
      "id": 4,
      "content": "[SEP]",
      "single_word": false,
      "lstrip": false,
      "rstrip": false,
      "normalized": false,
      "special": true
    },
    {
      "id": 5,
      "content": "[MASK]",
      "single_word": false,
      "lstrip": false,
      "rstrip": false,
      "normalized": false,
      "special": true
    },
    {
      "id": 6,
      "content": "жь",
      "single_word": false,
      "lstrip": false,
      "rstrip": false,
      "normalized": true,
      "special": false
    },
    {
      "id": 7,
      "content": "ку",
      "single_word": false,
      "lstrip": false,
      "rstrip": false,
      "normalized": true,
      "special": false
    },
    {
      "id": 8,
      "content": "кӀ",
      "single_word": false,
      "lstrip": false,
      "rstrip": false,
      "normalized": true,
      "special": false
    },
    {
      "id": 9,
      "content": "кIу",
      "single_word": false,
      "lstrip": false,
      "rstrip": false,
      "normalized": true,
      "special": false
    },
    {
      "id": 10,
      "content": "къ",
      "single_word": false,
      "lstrip": false,
      "rstrip": false,
      "normalized": true,
      "special": false
    },
    {
      "id": 11,
      "content": "къу",
      "single_word": false,
      "lstrip": false,
      "rstrip": false,
      "normalized": true,
      "special": false
    },
    {
      "id": 12,
      "content": "кхъ",
      "single_word": false,
      "lstrip": false,
      "rstrip": false,
      "normalized": true,
      "special": false
    },
    {
      "id": 13,
      "content": "кхъу",
      "single_word": false,
      "lstrip": false,
      "rstrip": false,
      "normalized": true,
      "special": false
    },
    {
      "id": 14,
      "content": "лъ",
      "single_word": false,
      "lstrip": false,
      "rstrip": false,
      "normalized": true,
      "special": false
    },
    {
      "id": 15,
      "content": "лI",
      "single_word": false,
      "lstrip": false,
      "rstrip": false,
      "normalized": true,
      "special": false
    },
    {
      "id": 16,
      "content": "пI",
      "single_word": false,
      "lstrip": false,
      "rstrip": false,
      "normalized": true,
      "special": false
    },
    {
      "id": 17,
      "content": "тI",
      "single_word": false,
      "lstrip": false,
      "rstrip": false,
      "normalized": true,
      "special": false
    },
    {
      "id": 18,
      "content": "фI",
      "single_word": false,
      "lstrip": false,
      "rstrip": false,
      "normalized": true,
      "special": false
    },
    {
      "id": 19,
      "content": "ху",
      "single_word": false,
      "lstrip": false,
      "rstrip": false,
      "normalized": true,
      "special": false
    },
    {
      "id": 20,
      "content": "хь",
      "single_word": false,
      "lstrip": false,
      "rstrip": false,
      "normalized": true,
      "special": false
    },
    {
      "id": 21,
      "content": "хъ",
      "single_word": false,
      "lstrip": false,
      "rstrip": false,
      "normalized": true,
      "special": false
    },
    {
      "id": 22,
      "content": "хъу",
      "single_word": false,
      "lstrip": false,
      "rstrip": false,
      "normalized": true,
      "special": false
    },
    {
      "id": 23,
      "content": "цI",
      "single_word": false,
      "lstrip": false,
      "rstrip": false,
      "normalized": true,
      "special": false
    },
    {
      "id": 24,
      "content": "щI",
      "single_word": false,
      "lstrip": false,
      "rstrip": false,
      "normalized": true,
      "special": false
    },
    {
      "id": 25,
      "content": "Ӏу",
      "single_word": false,
      "lstrip": false,
      "rstrip": false,
      "normalized": true,
      "special": false
    },
    {
      "id": 26,
      "content": "хуэ",
      "single_word": false,
      "lstrip": false,
      "rstrip": false,
      "normalized": true,
      "special": false
    },
    {
      "id": 27,
      "content": "во",
      "single_word": false,
      "lstrip": false,
      "rstrip": false,
      "normalized": true,
      "special": false
    },
    {
      "id": 28,
      "content": "рэ",
      "single_word": false,
      "lstrip": false,
      "rstrip": false,
      "normalized": true,
      "special": false
    },
    {
      "id": 29,
      "content": "зэ",
      "single_word": false,
      "lstrip": false,
      "rstrip": false,
      "normalized": true,
      "special": false
    },
    {
      "id": 30,
      "content": "де",
      "single_word": false,
      "lstrip": false,
      "rstrip": false,
      "normalized": true,
      "special": false
    },
    {
      "id": 31,
      "content": "зо",
      "single_word": false,
      "lstrip": false,
      "rstrip": false,
      "normalized": true,
      "special": false
    },
    {
      "id": 32,
      "content": "ар",
      "single_word": false,
      "lstrip": false,
      "rstrip": false,
      "normalized": true,
      "special": false
    },
    {
      "id": 33,
      "content": "ди",
      "single_word": false,
      "lstrip": false,
      "rstrip": false,
      "normalized": true,
      "special": false
    },
    {
      "id": 34,
      "content": "ремы",
      "single_word": false,
      "lstrip": false,
      "rstrip": false,
      "normalized": true,
      "special": false
    },
    {
      "id": 35,
      "content": "эрэ",
      "single_word": false,
      "lstrip": false,
      "rstrip": false,
      "normalized": true,
      "special": false
    },
    {
      "id": 36,
      "content": "дэ",
      "single_word": false,
      "lstrip": false,
      "rstrip": false,
      "normalized": true,
      "special": false
    },
    {
      "id": 37,
      "content": "ры",
      "single_word": false,
      "lstrip": false,
      "rstrip": false,
      "normalized": true,
      "special": false
    },
    {
      "id": 38,
      "content": "эж",
      "single_word": false,
      "lstrip": false,
      "rstrip": false,
      "normalized": true,
      "special": false
    },
    {
      "id": 39,
      "content": "ри",
      "single_word": false,
      "lstrip": false,
      "rstrip": false,
      "normalized": true,
      "special": false
    },
    {
      "id": 40,
      "content": "ыж",
      "single_word": false,
      "lstrip": false,
      "rstrip": false,
      "normalized": true,
      "special": false
    },
    {
      "id": 41,
      "content": "фы",
      "single_word": false,
      "lstrip": false,
      "rstrip": false,
      "normalized": true,
      "special": false
    },
    {
      "id": 42,
      "content": "мы",
      "single_word": false,
      "lstrip": false,
      "rstrip": false,
      "normalized": true,
      "special": false
    },
    {
      "id": 43,
      "content": "ау",
      "single_word": false,
      "lstrip": false,
      "rstrip": false,
      "normalized": true,
      "special": false
    },
    {
      "id": 44,
      "content": "щы",
      "single_word": false,
      "lstrip": false,
      "rstrip": false,
      "normalized": true,
      "special": false
    },
    {
      "id": 45,
      "content": "къым",
      "single_word": false,
      "lstrip": false,
      "rstrip": false,
      "normalized": true,
      "special": false
    },
    {
      "id": 46,
      "content": "хуа",
      "single_word": false,
      "lstrip": false,
      "rstrip": false,
      "normalized": true,
      "special": false
    },
    {
      "id": 47,
      "content": "эм",
      "single_word": false,
      "lstrip": false,
      "rstrip": false,
      "normalized": true,
      "special": false
    },
    {
      "id": 48,
      "content": "ат",
      "single_word": false,
      "lstrip": false,
      "rstrip": false,
      "normalized": true,
      "special": false
    },
    {
      "id": 49,
      "content": "хэ",
      "single_word": false,
      "lstrip": false,
      "rstrip": false,
      "normalized": true,
      "special": false
    },
    {
      "id": 50,
      "content": "нщ",
      "single_word": false,
      "lstrip": false,
      "rstrip": false,
      "normalized": true,
      "special": false
    },
    {
      "id": 51,
      "content": "зы",
      "single_word": false,
      "lstrip": false,
      "rstrip": false,
      "normalized": true,
      "special": false
    },
    {
      "id": 52,
      "content": "жы",
      "single_word": false,
      "lstrip": false,
      "rstrip": false,
      "normalized": true,
      "special": false
    },
    {
      "id": 53,
      "content": "тэ",
      "single_word": false,
      "lstrip": false,
      "rstrip": false,
      "normalized": true,
      "special": false
    },
    {
      "id": 54,
      "content": "ро",
      "single_word": false,
      "lstrip": false,
      "rstrip": false,
      "normalized": true,
      "special": false
    },
    {
      "id": 55,
      "content": "ды",
      "single_word": false,
      "lstrip": false,
      "rstrip": false,
      "normalized": true,
      "special": false
    },
    {
      "id": 56,
      "content": "хы",
      "single_word": false,
      "lstrip": false,
      "rstrip": false,
      "normalized": true,
      "special": false
    },
    {
      "id": 57,
      "content": "къэ",
      "single_word": false,
      "lstrip": false,
      "rstrip": false,
      "normalized": true,
      "special": false
    },
    {
      "id": 58,
      "content": "рызы",
      "single_word": false,
      "lstrip": false,
      "rstrip": false,
      "normalized": true,
      "special": false
    },
    {
      "id": 59,
      "content": "ащ",
      "single_word": false,
      "lstrip": false,
      "rstrip": false,
      "normalized": true,
      "special": false
    },
    {
      "id": 60,
      "content": "ре",
      "single_word": false,
      "lstrip": false,
      "rstrip": false,
      "normalized": true,
      "special": false
    },
    {
      "id": 61,
      "content": "да",
      "single_word": false,
      "lstrip": false,
      "rstrip": false,
      "normalized": true,
      "special": false
    },
    {
      "id": 62,
      "content": "до",
      "single_word": false,
      "lstrip": false,
      "rstrip": false,
      "normalized": true,
      "special": false
    },
    {
      "id": 63,
      "content": "ам",
      "single_word": false,
      "lstrip": false,
      "rstrip": false,
      "normalized": true,
      "special": false
    },
    {
      "id": 64,
      "content": "гъэ",
      "single_word": false,
      "lstrip": false,
      "rstrip": false,
      "normalized": true,
      "special": false
    },
    {
      "id": 65,
      "content": "вэ",
      "single_word": false,
      "lstrip": false,
      "rstrip": false,
      "normalized": true,
      "special": false
    },
    {
      "id": 66,
      "content": "ми",
      "single_word": false,
      "lstrip": false,
      "rstrip": false,
      "normalized": true,
      "special": false
    },
    {
      "id": 67,
      "content": "къы",
      "single_word": false,
      "lstrip": false,
      "rstrip": false,
      "normalized": true,
      "special": false
    },
    {
      "id": 68,
      "content": "ын",
      "single_word": false,
      "lstrip": false,
      "rstrip": false,
      "normalized": true,
      "special": false
    },
    {
      "id": 69,
      "content": "ха",
      "single_word": false,
      "lstrip": false,
      "rstrip": false,
      "normalized": true,
      "special": false
    },
    {
      "id": 70,
      "content": "эн",
      "single_word": false,
      "lstrip": false,
      "rstrip": false,
      "normalized": true,
      "special": false
    },
    {
      "id": 71,
      "content": "фӀэ",
      "single_word": false,
      "lstrip": false,
      "rstrip": false,
      "normalized": true,
      "special": false
    },
    {
      "id": 72,
      "content": "ущ",
      "single_word": false,
      "lstrip": false,
      "rstrip": false,
      "normalized": true,
      "special": false
    },
    {
      "id": 73,
      "content": "ра",
      "single_word": false,
      "lstrip": false,
      "rstrip": false,
      "normalized": true,
      "special": false
    }
  ],
  "normalizer": null,
  "pre_tokenizer": null,
  "post_processor": null,
  "decoder": null,
  "model": {
    "type": "Unigram",
    "unk_id": 0,
    "vocab": [
      [
        "UNK",
        0.0
      ],
      [
        "[PAD]",
        0.0
      ],
      [
        "[UNK]",
        0.0
      ],
      [
        "[CLS]",
        0.0
      ],
      [
        "[SEP]",
        0.0
      ],
      [
        "[MASK]",
        0.0
      ],
      [
        " ",
        -2.7582914437687265
      ],
      [
        "\n",
        -3.106807971225951
      ],
      [
        "р ",
        -4.408982936928574
      ],
      [
        "м ",
        -4.4155830579449695
      ],
      [
        "и ",
        -4.497477714525223
      ],
      [
        "у ",
        -4.547492379469009
      ],
      [
        "у",
        -4.629583934071995
      ],
      [
        "щ ",
        -4.849930382950426
      ],
      [
        "хэр ",
        -5.083396427110323
      ],
      [
        "и",
        -5.1133486926668255
      ],
      [
        "зы",
        -5.170117587105027
      ],
      [
        "хэм ",
        -5.177385562142124
      ],
      [
        "с",
        -5.199744379100586
      ],
      [
        "ри ",
        -5.304990467277003
      ],
      [
        "кӀэ ",
        -5.3461050541943695
      ],
      [
        "т ",
        -5.3501193339483635
      ],
      [
        "рэ ",
        -5.413282368967305
      ],
      [
        "а ",
        -5.4180061450590085
      ],
      [
        "ым ",
        -5.4433324933911695
      ],
      [
        "ар ",
        -5.458649280979689
      ],
      [
        "щы",
        -5.4852018525643835
      ],
      [
        "ыр ",
        -5.488513117434287
      ],
      [
        "я",
        -5.528649382829869
      ],
      [
        "зэ",
        -5.552274256352671
      ],
      [
        "мы",
        -5.552716929537114
      ],
      [
        "а",
        -5.580506917916628
      ],
      [
        "т",
        -5.59647788934242
      ],
      [
        "п",
        -5.611135205209129
      ],
      [
        "е",
        -5.6119010438425185
      ],
      [
        "гъэ",
        -5.661170441605689
      ],
      [
        "абы ",
        -5.676841953870127
      ],
      [
        "сы",
        -5.679088287700774
      ],
      [
        "ми ",
        -5.735799934812963
      ],
      [
        "къы",
        -5.738299344019671
      ],
      [
        "ащ ",
        -5.800893107370079
      ],
      [
        "н",
        -5.828858221011258
      ],
      [
        "н ",
        -5.836977804183178
      ],
      [
        "д",
        -5.844212390655722
      ],
      [
        "ауэ ",
        -5.849086541234296
      ],
      [
        "мэ ",
        -5.879333760771523
      ],
      [
        "щӀэ",
        -5.88102807356656
      ],
      [
        "зэры",
        -5.88267871708376
      ],
      [
        "хьэ",
        -5.89313661946278
      ],
      [
        "м",
        -5.894944870255419
      ],
      [
        "я ",
        -5.9242065532055594
      ],
      [
        "р",
        -5.934538636124703
      ],
      [
        "дэ",
        -5.978416206599313
      ],
      [
        "м и ",
        -6.024996228599706
      ],
      [
        "къа",
        -6.055041296149058
      ],
      [
        "уэ ",
        -6.066662456540833
      ],
      [
        "з",
        -6.068741434273949
      ],
      [
        "ды",
        -6.089042803536325
      ],
      [
        "Ӏэ",
        -6.128502477901906
      ],
      [
        "нэ",
        -6.139820932275162
      ],
      [
        "гу",
        -6.145672855972029
      ],
      [
        "мэ",
        -6.1701133255875025
      ],
      [
        "ы",
        -6.173057716066337
      ],
      [
        "ху",
        -6.193909621246741
      ],
      [
        "ди ",
        -6.200294521531324
      ],
      [
        "хуэ",
        -6.206079357026246
      ],
      [
        "хэ",
        -6.221401582033469
      ],
      [
        "къэ",
        -6.2376379988240735
      ],
      [
        "мрэ ",
        -6.241470210704721
      ],
      [
        "хэм я ",
        -6.266120655963396
      ],
      [
        "Ӏу",
        -6.269920738416689
      ],
      [
        "те",
        -6.283167975886952
      ],
      [
        "ф",
        -6.328986726178936
      ],
      [
        "лъэ",
        -6.365382778922044
      ],
      [
        "к",
        -6.4026345601156205
      ],
      [
        "о",
        -6.406291674329482
      ],
      [
        "на",
        -6.413391059120141
      ],
      [
        "рт ",
        -6.4162393322120295
      ],
      [
        "щӀы",
        -6.421134784285211
      ],
      [
        "кӀэ",
        -6.4279505361789155
      ],
      [
        "къи",
        -6.441583075157665
      ],
      [
        "да",
        -6.465629370020208
      ],
      [
        "щ",
        -6.469894138620258
      ],
      [
        "ри",
        -6.475847704974122
      ],
      [
        "б",
        -6.4837847451268935
      ],
      [
        "къым ",
        -6.491993401869426
      ],
      [
        "къе",
        -6.499384613121382
      ],
      [
        "ры",
        -6.504705704025582
      ],
      [
        "шы",
        -6.530342319455947
      ],
      [
        "хъу",
        -6.532726829338094
      ],
      [
        "уэ",
        -6.536273494550912
      ],
      [
        "си ",
        -6.553778657754259
      ],
      [
        "нэхъ ",
        -6.56283301022283
      ],
      [
        "ра",
        -6.572269411918763
      ],
      [
        "уи ",
        -6.5952347833981815
      ],
      [
        "ну ",
        -6.609047950321333
      ],
      [
        "фэ",
        -6.609318967630168
      ],
      [
        "мкӀэ ",
        -6.609867891457476
      ],
      [
        "шэ",
        -6.618315451671442
      ],
      [
        "къу",
        -6.624055472857346
      ],
      [
        "гъу",
        -6.633736281025561
      ],
      [
        "ш",
        -6.684594453732759
      ],
      [
        "в",
        -6.68844922004673
      ],
      [
        "пэ",
        -6.6904480473042405
      ],
      [
        "лъ",
        -6.700561281106621
      ],
      [
        "сэ ",
        -6.7096419513707595
      ],
      [
        "ты",
        -6.712660334718247
      ],
      [
        "нэ ",
        -6.719560327814193
      ],
      [
        "къыщы",
        -6.725879830276872
      ],
      [
        "ма",
        -6.727040468127239
      ],
      [
        "за",
        -6.743669958975415
      ],
      [
        "сэ",
        -6.752076682684338
      ],
      [
        "хэмрэ ",
        -6.753502132301515
      ],
      [
        "гъэм ",
        -6.756717156942274
      ],
      [
        "Ӏ",
        -6.763364463671959
      ],
      [
        "19",
        -6.767941286507378
      ],
      [
        "ар",
        -6.773311244153819
      ],
      [
        "щхьэ",
        -6.779173233844032
      ],
      [
        "са",
        -6.795329879162669
      ],
      [
        "ж",
        -6.802894911341054
      ],
      [
        "ща",
        -6.80737931171859
      ],
      [
        "ди",
        -6.820139079571206
      ],
      [
        "фы",
        -6.845462945633017
      ],
      [
        "зи ",
        -6.85645300320488
      ],
      [
        "зы ",
        -6.856892039390939
      ],
      [
        "бэ",
        -6.8650088052926765
      ],
      [
        "э",
        -6.868778089828902
      ],
      [
        "л",
        -6.87504052377016
      ],
      [
        "рэ",
        -6.876507112882624
      ],
      [
        "кӀуэ",
        -6.880943316442853
      ],
      [
        "ым и ",
        -6.887383087836884
      ],
      [
        "до",
        -6.897801220614728
      ],
      [
        "къуэ",
        -6.913777184464317
      ],
      [
        "фӀэ",
        -6.91417287636841
      ],
      [
        "та",
        -6.916336583550613
      ],
      [
        "урэ ",
        -6.924192417707431
      ],
      [
        "ла",
        -6.9307294114448545
      ],
      [
        "ха",
        -6.938762477229195
      ],
      [
        "ны",
        -6.943180952381795
      ],
      [
        "ба",
        -6.947932287529374
      ],
      [
        "зи",
        -6.9492476077703795
      ],
      [
        "тэ",
        -6.960459040123686
      ],
      [
        "щэ",
        -6.967650338092952
      ],
      [
        "къо",
        -6.967686202807153
      ],
      [
        "х ",
        -6.982248878899913
      ],
      [
        "гъа",
        -6.98921734005024
      ],
      [
        "хы",
        -6.999777461176324
      ],
      [
        "ро",
        -7.0108192076087565
      ],
      [
        "щӀа",
        -7.016065976576719
      ],
      [
        "хэри ",
        -7.021994946553372
      ],
      [
        "кӀы",
        -7.027361943938141
      ],
      [
        "е ",
        -7.035430517661654
      ],
      [
        "къызэры",
        -7.036475670149963
      ],
      [
        "ре",
        -7.0532144647423
      ],
      [
        "па",
        -7.057046463429659
      ],
      [
        "ахэр ",
        -7.063444509715724
      ],
      [
        "адыгэ ",
        -7.081620410268748
      ],
      [
        "ли",
        -7.100175386855392
      ],
      [
        "ным ",
        -7.105466241299611
      ],
      [
        "г",
        -7.108987251059363
      ],
      [
        "бгъэ",
        -7.127156631737613
      ],
      [
        "жы",
        -7.127714512391247
      ],
      [
        "гъуэ",
        -7.132303643157778
      ],
      [
        "х",
        -7.138789008556381
      ],
      [
        "цӀыху",
        -7.139017063865433
      ],
      [
        "со",
        -7.142780673124667
      ],
      [
        "си",
        -7.1466669631585376
      ],
      [
        "де",
        -7.149823788948325
      ],
      [
        "ч",
        -7.161940053849216
      ],
      [
        "лэ",
        -7.168601284453011
      ],
      [
        "икӀи ",
        -7.16938495632883
      ],
      [
        "псы",
        -7.203458727787133
      ],
      [
        "ти ",
        -7.230843122807601
      ],
      [
        "абы и ",
        -7.233074933198221
      ],
      [
        "ку",
        -7.236469974814325
      ],
      [
        "ж ",
        -7.2426366129273685
      ],
      [
        "джэ",
        -7.251248210368562
      ],
      [
        "кӀ ",
        -7.251973180310129
      ],
      [
        "дэ ",
        -7.259404703474377
      ],
      [
        "хьа",
        -7.261332449328323
      ],
      [
        "то",
        -7.268609272921864
      ],
      [
        "къызэ",
        -7.301334317320938
      ],
      [
        "л ",
        -7.317377137401822
      ],
      [
        "бы",
        -7.325932224936839
      ],
      [
        "уа",
        -7.325993106483136
      ],
      [
        "къэбэрдей балъкъ",
        -7.32780941426379
      ],
      [
        "хэми ",
        -7.331048575801395
      ],
      [
        "зэра",
        -7.340915856756517
      ],
      [
        "ша",
        -7.3411301046516275
      ],
      [
        "жа",
        -7.343045629506568
      ],
      [
        "кӀи ",
        -7.3496126187508395
      ],
      [
        "цӀыху ",
        -7.35028570378458
      ],
      [
        "игъэ",
        -7.352224466876768
      ],
      [
        "пӀэ",
        -7.355641165249169
      ],
      [
        "ыну ",
        -7.361153223805767
      ],
      [
        "ц",
        -7.363311121606602
      ],
      [
        "хэм я",
        -7.3660162568254215
      ],
      [
        "илъэс ",
        -7.370452996185122
      ],
      [
        "хь",
        -7.370825329329328
      ],
      [
        "кӀа",
        -7.378295622970365
      ],
      [
        "ири",
        -7.379747546966357
      ],
      [
        "жьэ",
        -7.380816368073221
      ],
      [
        "лы",
        -7.397119948938064
      ],
      [
        "щи",
        -7.398964908446267
      ],
      [
        "кӀу",
        -7.3999405509256455
      ],
      [
        "жьы",
        -7.4046060135344725
      ],
      [
        "мы ",
        -7.40684815152809
      ],
      [
        "тхьэ",
        -7.408048233736585
      ],
      [
        "мо",
        -7.4122249382358305
      ],
      [
        "хуа",
        -7.420675784482576
      ],
      [
        "зыгъэ",
        -7.421322895164977
      ],
      [
        "лъэпкъ ",
        -7.4226143426349385
      ],
      [
        "дзэ",
        -7.442217393489248
      ],
      [
        "зе",
        -7.442428107488265
      ],
      [
        "по",
        -7.455200338171098
      ],
      [
        "тэкъым ",
        -7.457727465873321
      ],
      [
        "ымрэ ",
        -7.459832979260323
      ],
      [
        "жэ",
        -7.46190199915803
      ],
      [
        "ка",
        -7.470773842062815
      ],
      [
        "лъа",
        -7.472630473620967
      ],
      [
        "с ",
        -7.473190241355969
      ],
      [
        "щи ",
        -7.4749894116721265
      ],
      [
        "хэт ",
        -7.47530403877634
      ],
      [
        "бо",
        -7.476191634313274
      ],
      [
        "сыт ",
        -7.478090578194587
      ],
      [
        "къ",
        -7.486568722587574
      ],
      [
        "апхуэдэ ",
        -7.4946624842638165
      ],
      [
        "мыгъэ",
        -7.498288837109108
      ],
      [
        "хъуэ",
        -7.500740738219017
      ],
      [
        "абыхэм ",
        -7.502828146420159
      ],
      [
        "ныр ",
        -7.504026528093338
      ],
      [
        "ис",
        -7.511113061160666
      ],
      [
        "ырт ",
        -7.51212141963434
      ],
      [
        "ти",
        -7.5133611468577985
      ],
      [
        "ркъым ",
        -7.531641917147162
      ],
      [
        "иджы ",
        -7.532819929707362
      ],
      [
        "жащ ",
        -7.53470326998999
      ],
      [
        "фа",
        -7.538061097535948
      ],
      [
        "зэри",
        -7.539641237621922
      ],
      [
        "аращ ",
        -7.542667355502481
      ],
      [
        "ми",
        -7.543537298995874
      ],
      [
        "пы",
        -7.5511025146953
      ],
      [
        "Ӏуэ",
        -7.567479944439542
      ],
      [
        "жиӀащ ",
        -7.57239207006222
      ],
      [
        "хэт",
        -7.576281400358775
      ],
      [
        "ва",
        -7.587079486666418
      ],
      [
        "се",
        -7.591079839639665
      ],
      [
        "пщы",
        -7.594863607190769
      ],
      [
        "зэхэ",
        -7.59681682461404
      ],
      [
        "акъым ",
        -7.59863368760287
      ],
      [
        "жь",
        -7.59915066094147
      ],
      [
        "згъэ",
        -7.601625781072865
      ],
      [
        "хьы",
        -7.602427938544894
      ],
      [
        "ни",
        -7.606099143920826
      ],
      [
        "плъэ",
        -7.617013491115783
      ],
      [
        "ин",
        -7.62236625869525
      ],
      [
        "фӀы",
        -7.623141426395225
      ],
      [
        "ат ",
        -7.629807876585675
      ],
      [
        "нщ ",
        -7.631534240953783
      ],
      [
        "лъагъу",
        -7.631920739265507
      ],
      [
        "ло",
        -7.631935714361571
      ],
      [
        "щыӀэ",
        -7.637119245399916
      ],
      [
        "Ӏуэху",
        -7.638705541530355
      ],
      [
        "à",
        -7.647254159913025
      ],
      [
        "псэу",
        -7.651218643528203
      ],
      [
        "нущ ",
        -7.657127343150615
      ],
      [
        "къэрал ",
        -7.658690668976666
      ],
      [
        "ɚ",
        -7.661894822516144
      ],
      [
        "илъэс",
        -7.668235804791289
      ],
      [
        "лӀэ",
        -7.672009017943024
      ],
      [
        "жь ",
        -7.672634155916178
      ],
      [
        "лъы",
        -7.677472741759896
      ],
      [
        "хэмкӀэ ",
        -7.677778330839459
      ],
      [
        "хьащ ",
        -7.684550842042686
      ],
      [
        "й",
        -7.6849440003762535
      ],
      [
        "ит",
        -7.688261943570616
      ],
      [
        "гуэ",
        -7.69336332338221
      ],
      [
        "къыз",
        -7.693647978453535
      ],
      [
        "апхуэдэу ",
        -7.6948086951344745
      ],
      [
        "гу ",
        -7.697999627732125
      ],
      [
        "лъхьэ",
        -7.70237224385488
      ],
      [
        "къыхэ",
        -7.708841790356189
      ],
      [
        "Ӏо",
        -7.7120271751207365
      ],
      [
        "гъ ",
        -7.714844860564845
      ],
      [
        "зэ ",
        -7.716358797661684
      ],
      [
        "й ",
        -7.723125270782349
      ],
      [
        "егъэ",
        -7.727185119137246
      ],
      [
        "пщӀэ",
        -7.728038267104251
      ],
      [
        "жу ",
        -7.729578350357157
      ],
      [
        "э ",
        -7.733096490804062
      ],
      [
        "гъэ ",
        -7.733766225050013
      ],
      [
        "нэгъуэщӀ ",
        -7.734067832009767
      ],
      [
        "щыт",
        -7.73466728496275
      ],
      [
        "во",
        -7.736323390297569
      ],
      [
        "псалъэ",
        -7.739698108438423
      ],
      [
        "ле",
        -7.740616766764862
      ],
      [
        "ей ",
        -7.742177327999812
      ],
      [
        "фи",
        -7.743331480432772
      ],
      [
        "псэ",
        -7.74341387866612
      ],
      [
        "12 ",
        -7.744766161704593
      ],
      [
        "нур ",
        -7.752869108417954
      ],
      [
        "20",
        -7.755086090525772
      ],
      [
        "ягъэ",
        -7.755855400923005
      ],
      [
        "къыс",
        -7.758370675083947
      ],
      [
        "ɷ",
        -7.763804183368537
      ],
      [
        "тӀэ",
        -7.768426557810567
      ],
      [
        "дгъэ",
        -7.77317072515932
      ],
      [
        "хабзэ",
        -7.773625085247533
      ],
      [
        "фэ ",
        -7.774422025985155
      ],
      [
        "псори ",
        -7.77773129638874
      ],
      [
        "хуэдэу ",
        -7.7778988369364725
      ],
      [
        "ю",
        -7.783893300939788
      ],
      [
        "унэ",
        -7.786964725346923
      ],
      [
        "не",
        -7.78794594279273
      ],
      [
        "хэу ",
        -7.788335994943154
      ],
      [
        "го",
        -7.79479529271844
      ],
      [
        "нэс",
        -7.796232604641114
      ],
      [
        "шхуэ ",
        -7.79661940639439
      ],
      [
        "мыхъу",
        -7.796683917335963
      ],
      [
        "къыдэ",
        -7.803888797949371
      ],
      [
        "00 ",
        -7.8057700742716065
      ],
      [
        "2 ",
        -7.808617096059502
      ],
      [
        "би",
        -7.815621545964024
      ],
      [
        "хь ",
        -7.821324120431198
      ],
      [
        "гъуэ ",
        -7.824154771253923
      ],
      [
        "ш ",
        -7.830756703254799
      ],
      [
        "к ",
        -7.839208250249532
      ],
      [
        "зо",
        -7.840036695143663
      ],
      [
        "йо",
        -7.842197072301378
      ],
      [
        "м и",
        -7.8503151210784985
      ],
      [
        "ын ",
        -7.851855110893267
      ],
      [
        "Ӏа",
        -7.854508223085979
      ],
      [
        "му",
        -7.858144559850155
      ],
      [
        "пщэ",
        -7.860596551214298
      ],
      [
        "умы",
        -7.861447792088818
      ],
      [
        "щхьэ ",
        -7.868423314249007
      ],
      [
        "япэ ",
        -7.870849375693394
      ],
      [
        "ст",
        -7.872592782831539
      ],
      [
        "фӀыуэ ",
        -7.876888192121456
      ],
      [
        "хи",
        -7.87692701066624
      ],
      [
        "хо",
        -7.877545046269438
      ],
      [
        "ан",
        -7.877839067621119
      ],
      [
        "но",
        -7.87859107803297
      ],
      [
        "кӀуэ ",
        -7.878948198291509
      ],
      [
        "бзэ",
        -7.880871401627406
      ],
      [
        "кӀыу ",
        -7.885932654825801
      ],
      [
        "чы",
        -7.886427310732703
      ],
      [
        "махуэ",
        -7.887662948137004
      ],
      [
        "тет",
        -7.887840943612032
      ],
      [
        "щӀ ",
        -7.88820427406583
      ],
      [
        "бе",
        -7.893191228174993
      ],
      [
        "пхъэ",
        -7.89413373030747
      ],
      [
        "ó",
        -7.895975606804685
      ],
      [
        "лӀы",
        -7.898119411628887
      ],
      [
        "щӀ",
        -7.899885912599597
      ],
      [
        "джа",
        -7.900897944900095
      ],
      [
        "увэ",
        -7.902443786937274
      ],
      [
        "шӀэ",
        -7.91092558882724
      ],
      [
        "ще",
        -7.920041337049636
      ],
      [
        "Ӏуэху ",
        -7.920964025377991
      ],
      [
        "ынущ ",
        -7.922848077300392
      ],
      [
        "жан",
        -7.923284864125742
      ],
      [
        "щӀалэ",
        -7.923526661215012
      ],
      [
        "къэс",
        -7.924361364925771
      ],
      [
        "20 ",
        -7.92760530755416
      ],
      [
        "ко",
        -7.927697731493046
      ],
      [
        "ира",
        -7.932058381218479
      ],
      [
        "гъуэт",
        -7.933974497714933
      ],
      [
        "апхуэдэ",
        -7.937030553682765
      ],
      [
        "имы",
        -7.93875359065091
      ],
      [
        "хъуа",
        -7.939162875271993
      ],
      [
        "джэгу",
        -7.941070572136047
      ],
      [
        "три",
        -7.942182809123505
      ],
      [
        "джы",
        -7.945465078652269
      ],
      [
        "ригъэ",
        -7.948021757370171
      ],
      [
        "рщ ",
        -7.948580915900191
      ],
      [
        "чэ",
        -7.950935910079391
      ],
      [
        "къып",
        -7.952694578469183
      ],
      [
        "ей",
        -7.952834896744175
      ],
      [
        "къыт",
        -7.956343009996804
      ],
      [
        "къуажэм ",
        -7.957432925008174
      ],
      [
        "р зы",
        -7.958808078583699
      ],
      [
        "цӀыкӀу",
        -7.961112395112325
      ],
      [
        "лъапӀэ",
        -7.9614559102573494
      ],
      [
        "лӀа",
        -7.961843586164147
      ],
      [
        "куэд ",
        -7.963284616764591
      ],
      [
        "жиӀэ",
        -7.963695734407695
      ],
      [
        "тхы",
        -7.963808364267585
      ],
      [
        "щӀи",
        -7.964431451761202
      ],
      [
        "Ӏуэхур ",
        -7.964742665788643
      ],
      [
        "ру",
        -7.964958336744589
      ],
      [
        "в ",
        -7.969722573909102
      ],
      [
        "шхуэ",
        -7.9702488725616405
      ],
      [
        "щэху",
        -7.977356125580203
      ],
      [
        "ȏ",
        -7.983461257161805
      ],
      [
        "пе",
        -7.984568669752683
      ],
      [
        "зэфӀэкӀ",
        -7.985101520755027
      ],
      [
        "унэм ",
        -7.988640229982657
      ],
      [
        "дунейм ",
        -7.990266993136601
      ],
      [
        "къыте",
        -7.991190040587716
      ],
      [
        "къуэ ",
        -7.993871126496671
      ],
      [
        "кӀащ ",
        -7.996270558671336
      ],
      [
        "фӀ",
        -8.000333908332575
      ],
      [
        "ту",
        -8.001061851692448
      ],
      [
        "иджыри ",
        -8.009555535019183
      ],
      [
        "è",
        -8.010317660876334
      ],
      [
        "ви",
        -8.012180497904016
      ],
      [
        "8 ",
        -8.013629462658471
      ],
      [
        "ал",
        -8.013704754107573
      ],
      [
        "ев ",
        -8.014326572541087
      ],
      [
        "гъащӀэм ",
        -8.01433629410991
      ],
      [
        "дэс",
        -8.016672691533703
      ],
      [
        "нобэ ",
        -8.017214936491412
      ],
      [
        "деж ",
        -8.018546914996659
      ],
      [
        "тра",
        -8.02440658135308
      ],
      [
        "гъо",
        -8.025794930698794
      ],
      [
        "лэжьыгъэ",
        -8.026624192177119
      ],
      [
        "псалъэ ",
        -8.029586774597698
      ],
      [
        "шэ ",
        -8.029919740415258
      ],
      [
        "же",
        -8.031333095183248
      ],
      [
        "цӀэ",
        -8.031867937122257
      ],
      [
        "зыри ",
        -8.03700145182018
      ],
      [
        "пи",
        -8.037154319281244
      ],
      [
        "къэзы",
        -8.042648695726502
      ],
      [
        "хьэщӀэ",
        -8.043412517637789
      ],
      [
        "телъ",
        -8.043886942775499
      ],
      [
        "щэ ",
        -8.045228316743847
      ],
      [
        "адыгэ",
        -8.048967231130877
      ],
      [
        "ɵ",
        -8.050623155061844
      ],
      [
        "пӀэ ",
        -8.052007948014271
      ],
      [
        "щызэ",
        -8.054275672369359
      ],
      [
        "ий ",
        -8.055846158332931
      ],
      [
        "езы",
        -8.056791349130783
      ],
      [
        "арщхьэкӀэ ",
        -8.057108290719967
      ],
      [
        "тащ ",
        -8.061777995019774
      ],
      [
        "хьэ ",
        -8.066337226949395
      ],
      [
        "1 ",
        -8.069296646934108
      ],
      [
        "бгъу",
        -8.07050058278681
      ],
      [
        "гъуа",
        -8.071562763789034
      ],
      [
        "м къы",
        -8.071888171289709
      ],
      [
        "махуэ ",
        -8.072750894919594
      ],
      [
        "блэ",
        -8.076631774944168
      ],
      [
        "лъ ",
        -8.079065828614556
      ],
      [
        "хъумэ",
        -8.079578577405059
      ],
      [
        "налшык ",
        -8.08142764721901
      ],
      [
        "гум ",
        -8.0819135477043
      ],
      [
        "ду",
        -8.082479846007427
      ],
      [
        "къри",
        -8.083869608447136
      ],
      [
        "хуе",
        -8.084359033554028
      ],
      [
        "ну",
        -8.084961099903488
      ],
      [
        "гъы",
        -8.091154347217064
      ],
      [
        "бжэ",
        -8.092088705690658
      ],
      [
        "щӀащ ",
        -8.10041488458559
      ],
      [
        " куэд ",
        -8.103093851522559
      ],
      [
        "про",
        -8.10698919238996
      ],
      [
        "7 ",
        -8.110204100630334
      ],
      [
        " хъу",
        -8.11360525743524
      ],
      [
        "ɭ",
        -8.116286641050001
      ],
      [
        "дза",
        -8.116909985451707
      ],
      [
        "нэхъыфӀ",
        -8.117126981318178
      ],
      [
        "дж",
        -8.119060769851446
      ],
      [
        "къуа",
        -8.122221345148347
      ],
      [
        "дахэ",
        -8.122383566435843
      ],
      [
        "къыщӀэ",
        -8.122650023849818
      ],
      [
        "кӀ",
        -8.1228650654336
      ],
      [
        "тэ ",
        -8.123586447660673
      ],
      [
        "хэлъ",
        -8.124844550348243
      ],
      [
        "ыж",
        -8.124972382144845
      ],
      [
        "хуей",
        -8.127262404107729
      ],
      [
        "жаӀэ",
        -8.128563282820567
      ],
      [
        "хуэдэ",
        -8.129491693445722
      ],
      [
        "ныкъуэ",
        -8.130291038501197
      ],
      [
        "куэд",
        -8.131140459517365
      ],
      [
        "ртэкъым ",
        -8.13168712694545
      ],
      [
        "къыща",
        -8.134441462635415
      ],
      [
        " дыдэ",
        -8.136079287769467
      ],
      [
        "щыӀэ ",
        -8.14292852139013
      ],
      [
        "6 ",
        -8.143910961535568
      ],
      [
        "пэж",
        -8.144045142982321
      ],
      [
        "дунейпсо ",
        -8.144159150501524
      ],
      [
        "иужькӀэ ",
        -8.145466656311276
      ],
      [
        "нымкӀэ ",
        -8.145721674898487
      ],
      [
        "къбр м ",
        -8.147142584214166
      ],
      [
        "лъэпкъ",
        -8.151981226961478
      ],
      [
        "бгы",
        -8.154218401637747
      ],
      [
        "2",
        -8.154777167899312
      ],
      [
        "бий ",
        -8.156880835122687
      ],
      [
        "4",
        -8.157091016721054
      ],
      [
        "ращ ",
        -8.157408169902409
      ],
      [
        " гуэр ",
        -8.157544035491123
      ],
      [
        "псоми ",
        -8.157603537337623
      ],
      [
        "дэт ",
        -8.15856363501665
      ],
      [
        "емы",
        -8.159258581512148
      ],
      [
        "ȫ",
        -8.15944323322455
      ],
      [
        "плъ",
        -8.164489385091645
      ],
      [
        "ам ",
        -8.167099325353362
      ],
      [
        "къуажэ",
        -8.17005629875344
      ],
      [
        "жьа",
        -8.170864597279394
      ],
      [
        "ху ",
        -8.171091958003151
      ],
      [
        "ф ",
        -8.17212322408466
      ],
      [
        "къалэм ",
        -8.17257246997337
      ],
      [
        "къигъэ",
        -8.173103999975092
      ],
      [
        "къалэ",
        -8.174020819356056
      ],
      [
        "фе",
        -8.174784073517714
      ],
      [
        "гъэр ",
        -8.175407926661535
      ],
      [
        "щӀэныгъэ",
        -8.176182047139596
      ],
      [
        "ме",
        -8.177055042869942
      ],
      [
        "къра",
        -8.180541518682235
      ],
      [
        "з ",
        -8.18380260429382
      ],
      [
        "псом ",
        -8.189118193677702
      ],
      [
        "хъу ",
        -8.189674777182441
      ],
      [
        "лъытэ",
        -8.189847229996332
      ],
      [
        "хэр",
        -8.190948313176502
      ],
      [
        "зэре",
        -8.191825114660224
      ],
      [
        "дауэ ",
        -8.194756032083426
      ],
      [
        "ыу ",
        -8.199344801649383
      ],
      [
        "ï",
        -8.200056691567799
      ],
      [
        "3 ",
        -8.202676561266422
      ],
      [
        "хэ ",
        -8.204502884832868
      ],
      [
        "хъ",
        -8.204847297192462
      ],
      [
        "итӀ",
        -8.205305243977536
      ],
      [
        "га",
        -8.208585237822554
      ],
      [
        "кӀуа",
        -8.209716631516828
      ],
      [
        "ыным ",
        -8.210857388533542
      ],
      [
        "ки",
        -8.211217614001539
      ],
      [
        "арат ",
        -8.213111655319796
      ],
      [
        "гуащэ",
        -8.21320988647673
      ],
      [
        "илъ",
        -8.213667862711512
      ],
      [
        "гъащӀэ",
        -8.214300638142284
      ],
      [
        "дз",
        -8.214923855126768
      ],
      [
        "ымкӀэ ",
        -8.216568675995196
      ],
      [
        "че",
        -8.217602471856708
      ],
      [
        "къыщи",
        -8.218494467743579
      ],
      [
        "къбр м и ",
        -8.219476477538672
      ],
      [
        "а нэужь ",
        -8.22178257879229
      ],
      [
        "гуры",
        -8.222801170892279
      ],
      [
        "рэ ирокъу ",
        -8.22569340992789
      ],
      [
        "кӀо",
        -8.226258121581479
      ],
      [
        "яӀэ",
        -8.227744605891925
      ],
      [
        "шу",
        -8.230468695793514
      ],
      [
        "езым ",
        -8.231371863954925
      ],
      [
        "м хуэдэу ",
        -8.232146655425906
      ],
      [
        "р къы",
        -8.232235249591477
      ],
      [
        "кӀыж",
        -8.23910304808657
      ],
      [
        "къ ",
        -8.23974095899064
      ],
      [
        "ыр",
        -8.240626411953215
      ],
      [
        "пӀэм ",
        -8.2428678768016
      ],
      [
        "къызы",
        -8.247339390224212
      ],
      [
        "що",
        -8.248782407026395
      ],
      [
        "фӀэкӀа ",
        -8.249517247200151
      ],
      [
        "ӀэнатӀэ",
        -8.250338180195195
      ],
      [
        "тӀу",
        -8.252950187413749
      ],
      [
        "жиӀэу ",
        -8.253334192052646
      ],
      [
        "ъ",
        -8.255852720462071
      ],
      [
        "ò",
        -8.255983823798905
      ],
      [
        "закъуэ",
        -8.25605647500588
      ],
      [
        "упщӀ",
        -8.2560905780251
      ],
      [
        "хъуащ ",
        -8.259833067696166
      ],
      [
        "Ӏэ ",
        -8.260095282351326
      ],
      [
        "3",
        -8.261684182505006
      ],
      [
        "м я ",
        -8.262919768743414
      ],
      [
        "плъы",
        -8.26473178162419
      ],
      [
        "хыхьэ",
        -8.267057619978653
      ],
      [
        "пэ ",
        -8.269218795441372
      ],
      [
        "ве",
        -8.27246474606399
      ],
      [
        "рти ",
        -8.273760673936938
      ],
      [
        "ым",
        -8.274847743231488
      ],
      [
        "эр ",
        -8.27520649763627
      ],
      [
        "лъэӀу",
        -8.275579050226506
      ],
      [
        "жьым ",
        -8.276137910694777
      ],
      [
        "жыпӀэ",
        -8.276195715014788
      ],
      [
        "ȡ",
        -8.277556208117149
      ],
      [
        "30 ",
        -8.278240161137935
      ],
      [
        "лъагъуэ",
        -8.28413388749137
      ],
      [
        "у щыт",
        -8.284208747805133
      ],
      [
        "куэдрэ ",
        -8.284817751161862
      ],
      [
        "къэрал",
        -8.284888126062464
      ],
      [
        "5 ",
        -8.287468233044688
      ],
      [
        "уи",
        -8.287617800944313
      ],
      [
        "û",
        -8.291119456326934
      ],
      [
        "зыгуэр ",
        -8.291898757719258
      ],
      [
        "дэкӀ",
        -8.292565016335118
      ],
      [
        "тӀы",
        -8.293330467343603
      ],
      [
        "цы",
        -8.293516563502427
      ],
      [
        "уд",
        -8.295641807415565
      ],
      [
        "гъуэгу ",
        -8.296931259204994
      ],
      [
        "лэ ",
        -8.298652594324468
      ],
      [
        "щыщ ",
        -8.298706244154523
      ],
      [
        "п ",
        -8.299752420034016
      ],
      [
        "ɩ",
        -8.300624039296858
      ],
      [
        "лъагэ",
        -8.302310013188253
      ],
      [
        "хъыбар",
        -8.30345986718669
      ],
      [
        "гупсысэ",
        -8.305043860325423
      ],
      [
        "жиӀэри ",
        -8.307868432336742
      ],
      [
        "о ",
        -8.308421826726216
      ],
      [
        "ием ",
        -8.309592540847799
      ],
      [
        "гуапэ",
        -8.310704364725218
      ],
      [
        "хуэдэ ",
        -8.313933646543454
      ],
      [
        "ор",
        -8.314304803495565
      ],
      [
        "сэри ",
        -8.314977941827742
      ],
      [
        "щтэ",
        -8.315109011213769
      ],
      [
        "хуэмы",
        -8.31534564395231
      ],
      [
        "ì ",
        -8.317821371236542
      ],
      [
        "ари ",
        -8.322464478737928
      ],
      [
        "ñ",
        -8.323814691424378
      ],
      [
        "хьа ",
        -8.32505697039324
      ],
      [
        "зыхуэ",
        -8.326513935133272
      ],
      [
        "республикэм ",
        -8.328991933711483
      ],
      [
        "тхьэм ",
        -8.32928250130637
      ],
      [
        "хьэж",
        -8.329534969205874
      ],
      [
        "кӀуащ ",
        -8.32957047311946
      ],
      [
        "нукъым ",
        -8.331664795866997
      ],
      [
        "хьэзыр",
        -8.332056147203522
      ],
      [
        "гъэщӀэгъуэн",
        -8.33347169428462
      ],
      [
        "ɢ",
        -8.335088932357031
      ],
      [
        "нэхъыжь",
        -8.335701289841522
      ],
      [
        "щӀыхь",
        -8.336384077702503
      ],
      [
        "ин ",
        -8.336797155270814
      ],
      [
        "унэ ",
        -8.33952844846868
      ],
      [
        " дыдэу ",
        -8.341335824427555
      ],
      [
        "иӀэ",
        -8.341696606854168
      ],
      [
        "ь",
        -8.342202793621299
      ],
      [
        "зауэм ",
        -8.34607191131584
      ],
      [
        "тым ",
        -8.34708257379582
      ],
      [
        "мащӀэ",
        -8.348491639505287
      ],
      [
        " хъуащ ",
        -8.34854727160886
      ],
      [
        "абы",
        -8.348678126604975
      ],
      [
        "бу",
        -8.34928797476721
      ],
      [
        "хе",
        -8.351400457232243
      ],
      [
        "Ӏуэхум ",
        -8.354189250468092
      ],
      [
        "ищӀэ",
        -8.35434709121453
      ],
      [
        "темы",
        -8.359583043391245
      ],
      [
        "алъ",
        -8.36162093329243
      ],
      [
        "ги",
        -8.36207568641916
      ],
      [
        "щӀэ ",
        -8.366796486285336
      ],
      [
        "гупсыс",
        -8.36773629530168
      ],
      [
        "гуп",
        -8.369677244680247
      ],
      [
        "тхылъ",
        -8.370113198072918
      ],
      [
        "фи ",
        -8.373767045279383
      ],
      [
        "сэ сы",
        -8.37387183816682
      ],
      [
        "ншэ",
        -8.374956465675487
      ],
      [
        "щӀым ",
        -8.375329171959665
      ],
      [
        "хыж",
        -8.377024903547419
      ],
      [
        "псы ",
        -8.378232018730639
      ],
      [
        "щӀыналъэм ",
        -8.378653918345304
      ],
      [
        "дэнэ ",
        -8.37966001473329
      ],
      [
        "махуэм ",
        -8.379715603083092
      ],
      [
        "бжыгъэ",
        -8.379791254056682
      ],
      [
        "хуи",
        -8.38235660698982
      ],
      [
        "10 ",
        -8.382703326060517
      ],
      [
        "тӀа",
        -8.382811494696515
      ],
      [
        "мис ",
        -8.382831624904117
      ],
      [
        "жеӀэ ",
        -8.383934124109883
      ],
      [
        "шъу",
        -8.384121865644765
      ],
      [
        "щӀэс",
        -8.384828146069303
      ],
      [
        "ужь",
        -8.385309140421356
      ],
      [
        "25 ",
        -8.388569351126113
      ],
      [
        "вэ",
        -8.394160160533714
      ],
      [
        "къызэри",
        -8.394677697392668
      ],
      [
        "хащ ",
        -8.395792611430613
      ],
      [
        "япэ",
        -8.39580090739632
      ],
      [
        "хэм",
        -8.396586888418708
      ],
      [
        "нт ",
        -8.39689827409735
      ],
      [
        "Ӏэмал",
        -8.40044617218969
      ],
      [
        "мыщӀэ",
        -8.400765654581582
      ],
      [
        "цӀыхум ",
        -8.403166358291958
      ],
      [
        "абыхэм я ",
        -8.40613882521221
      ],
      [
        "хэм къа",
        -8.409740980296327
      ],
      [
        "ов ",
        -8.413338076119624
      ],
      [
        "Ӏуа",
        -8.414452264901948
      ],
      [
        "езыр ",
        -8.41506147809332
      ],
      [
        "унафэщӀ",
        -8.415905329491563
      ],
      [
        "дежкӀэ ",
        -8.416973464462094
      ],
      [
        "ехъулӀэныгъэ",
        -8.416995747488572
      ],
      [
        "лэжьакӀуэ ",
        -8.417187652028725
      ],
      [
        "щхьэкӀэ ",
        -8.419123017047912
      ],
      [
        "ци",
        -8.41912782582643
      ],
      [
        "литературэ",
        -8.421397085795498
      ],
      [
        "агъ ",
        -8.421899974376577
      ],
      [
        "гупым ",
        -8.422461465300467
      ],
      [
        "джэ ",
        -8.423049455198852
      ],
      [
        "у щыта ",
        -8.427458654744937
      ],
      [
        "езы ",
        -8.427706271862876
      ],
      [
        "1",
        -8.428310268297539
      ],
      [
        "і",
        -8.42849063511531
      ],
      [
        "м деж ",
        -8.43059410814165
      ],
      [
        "шх",
        -8.431610146242551
      ],
      [
        "лажьэ",
        -8.432172473730217
      ],
      [
        "ча",
        -8.433985591684834
      ],
      [
        "гъэкӀ",
        -8.434021520880474
      ],
      [
        "щӀэныгъэ ",
        -8.436999069445942
      ],
      [
        "иджыпсту ",
        -8.437912538910338
      ],
      [
        "тӀэкӀу ",
        -8.43890520388328
      ],
      [
        "нэу ",
        -8.439137764083045
      ],
      [
        "б ",
        -8.43921746927853
      ],
      [
        "дзэ ",
        -8.439309955687884
      ],
      [
        "щыпсэу",
        -8.441633374765802
      ],
      [
        "щыхъу",
        -8.442361616684805
      ],
      [
        " гуэрым ",
        -8.442829743093297
      ],
      [
        "вы",
        -8.44318787974935
      ],
      [
        "су",
        -8.44545912831543
      ],
      [
        "мылъку",
        -8.445948615787932
      ],
      [
        "и щхьэр ",
        -8.446609166072001
      ],
      [
        "хьэлъэ",
        -8.447385095508796
      ],
      [
        "пщӀы",
        -8.44896344442439
      ],
      [
        "пщ",
        -8.450059359634446
      ],
      [
        "акъыл",
        -8.450120133922503
      ],
      [
        "эрым ",
        -8.450126674080817
      ],
      [
        "тӀэ ",
        -8.45090040152911
      ],
      [
        "щыс",
        -8.452111878136797
      ],
      [
        "егъэджакӀуэ",
        -8.453715825284393
      ],
      [
        "деж",
        -8.454446779025334
      ],
      [
        "бын",
        -8.454848645552337
      ],
      [
        "г ",
        -8.457132056192025
      ],
      [
        "шхы",
        -8.458215260948622
      ],
      [
        "аб",
        -8.458911444905237
      ],
      [
        "лэжьэ",
        -8.459433401396252
      ],
      [
        "здэ",
        -8.460573503282825
      ],
      [
        "хэкум ",
        -8.46860175128718
      ],
      [
        "лэжьыгъэм ",
        -8.468747798687348
      ],
      [
        "Ӏэзэ",
        -8.469825664383684
      ],
      [
        "ð ",
        -8.470756807088009
      ],
      [
        "кӀыхь",
        -8.47456714781632
      ],
      [
        "итӀ ",
        -8.475453711102825
      ],
      [
        "гугъу",
        -8.475702944055602
      ],
      [
        "нарт",
        -8.476952790198133
      ],
      [
        "ȩ",
        -8.47811880836001
      ],
      [
        "лӀыхъужь",
        -8.479175756717165
      ],
      [
        "гъу ",
        -8.479240480463224
      ],
      [
        "гуащӀэ",
        -8.479924697507691
      ],
      [
        "18",
        -8.480636889287494
      ],
      [
        "унафэ ",
        -8.481906611836326
      ],
      [
        "нэху",
        -8.48313141591383
      ],
      [
        "щӀо",
        -8.484231973058444
      ],
      [
        "шхуэм ",
        -8.484496172192681
      ],
      [
        "зыщы",
        -8.484998744405539
      ],
      [
        "м щы",
        -8.485828839045697
      ],
      [
        "нэхърэ ",
        -8.485941657670345
      ],
      [
        "ат",
        -8.48767541694602
      ],
      [
        "гушхуэ",
        -8.488348707594232
      ],
      [
        "хуащӀ",
        -8.489161841234553
      ],
      [
        "ын",
        -8.490770770459928
      ],
      [
        "щты",
        -8.49206018071296
      ],
      [
        "балъкъэрыбзэкӀэ ",
        -8.492169549611118
      ],
      [
        "республикэм и ",
        -8.492268964815388
      ],
      [
        "мыр ",
        -8.493076190295062
      ],
      [
        "шӀы",
        -8.493164979437632
      ],
      [
        "къару",
        -8.493463395418216
      ],
      [
        "лӀ",
        -8.493570618616205
      ],
      [
        "цӀыхухэм ",
        -8.494028603706427
      ],
      [
        "тыр ",
        -8.495469659373194
      ],
      [
        "ȓ",
        -8.495612409151645
      ],
      [
        "зэте",
        -8.495920082597625
      ],
      [
        "нэгъуэщӀ",
        -8.496328785214166
      ],
      [
        "зэрэ",
        -8.496676777218369
      ],
      [
        "еджэ",
        -8.497116887616714
      ],
      [
        "зэманым ",
        -8.50340912581538
      ],
      [
        "сабий ",
        -8.503814392476922
      ],
      [
        "кӀэры",
        -8.503903687712036
      ],
      [
        "ет",
        -8.505264775393679
      ],
      [
        "лъэгъу",
        -8.506471259817346
      ],
      [
        "жысӀэ",
        -8.508791956255498
      ],
      [
        "ɬ",
        -8.508873073460927
      ],
      [
        "мар",
        -8.509174201820748
      ],
      [
        "итӀым ",
        -8.509271126044334
      ],
      [
        "лӀыкӀуэ",
        -8.511159132457621
      ],
      [
        "аргуэру ",
        -8.512423150812213
      ],
      [
        "лъэпкъым ",
        -8.512550858775569
      ],
      [
        "сымэ ",
        -8.512986659672178
      ],
      [
        "гъунэгъу",
        -8.51337513963463
      ],
      [
        "анэ",
        -8.514182109088228
      ],
      [
        "жылагъуэ ",
        -8.515496679714994
      ],
      [
        "гъуэгу",
        -8.515832660601976
      ],
      [
        "ник",
        -8.517450645415975
      ],
      [
        "и ныбжьыр илъэс ",
        -8.517829747674483
      ],
      [
        "хагъэ",
        -8.521226979625805
      ],
      [
        "гъусэ",
        -8.521911208002184
      ],
      [
        "къэ ",
        -8.525982932705054
      ],
      [
        "пс",
        -8.526046045130412
      ],
      [
        "жыжьэ",
        -8.52605021147328
      ],
      [
        "ту ",
        -8.527068372455735
      ],
      [
        "урыс ",
        -8.528040791222073
      ],
      [
        "къэбэрдей ",
        -8.528344027283813
      ],
      [
        "пхъу",
        -8.528704203070921
      ],
      [
        "50 ",
        -8.528704520084556
      ],
      [
        "цэ",
        -8.528733075442068
      ],
      [
        "узы",
        -8.529123185892175
      ],
      [
        " псори ",
        -8.529232078071855
      ],
      [
        "къыд",
        -8.529588120649926
      ],
      [
        "у къы",
        -8.530670318282903
      ],
      [
        "сэр",
        -8.532608530848215
      ],
      [
        "амэ ",
        -8.533087970958208
      ],
      [
        "è ",
        -8.533490964428989
      ],
      [
        "усэ",
        -8.53467436422198
      ],
      [
        "насып",
        -8.536165619298904
      ],
      [
        "Ӏý",
        -8.536861845234458
      ],
      [
        "атӀэ ",
        -8.537757048689462
      ],
      [
        " цӀыкӀу",
        -8.537855510731964
      ],
      [
        "гъэзэж",
        -8.537921863469471
      ],
      [
        "гъащӀэ ",
        -8.539412991840615
      ],
      [
        "хэтащ ",
        -8.539847793034895
      ],
      [
        "ирагъэ",
        -8.540822027085657
      ],
      [
        "жыну ",
        -8.541097984959366
      ],
      [
        "ɧ",
        -8.542809113972359
      ],
      [
        "къабзэ",
        -8.543226783249674
      ],
      [
        "гъ",
        -8.544842767900068
      ],
      [
        "унагъуэ",
        -8.545526186803441
      ],
      [
        "á",
        -8.545622011909515
      ],
      [
        "\t",
        -8.5474104679684
      ],
      [
        "къыщӀэкӀ",
        -8.54829214782557
      ],
      [
        "сыт",
        -8.548618104700797
      ],
      [
        "15 ",
        -8.54886454323641
      ],
      [
        "итӀанэ ",
        -8.549558741389747
      ],
      [
        "окъуэ ",
        -8.549726558378715
      ],
      [
        "ищӀ",
        -8.550607639539779
      ],
      [
        "зыми ",
        -8.550979741342763
      ],
      [
        "р зэры",
        -8.551322973203325
      ],
      [
        "нэхъыбэ",
        -8.551986537167371
      ],
      [
        "лэжьа",
        -8.552856831214362
      ],
      [
        "пашэ",
        -8.554122437321507
      ],
      [
        "í",
        -8.555928740948561
      ],
      [
        "игу ",
        -8.560160341804513
      ],
      [
        "мыбы ",
        -8.560630978956198
      ],
      [
        "ɤ",
        -8.560901158021112
      ],
      [
        "н хуейщ ",
        -8.56133034326962
      ],
      [
        "урысейм ",
        -8.562348620541526
      ],
      [
        "жиӀа",
        -8.565218330025745
      ],
      [
        "урысей федерацэм",
        -8.565416913718268
      ],
      [
        "убыд",
        -8.566735681282283
      ],
      [
        "адэкӀэ ",
        -8.566756571523708
      ],
      [
        "у щыта",
        -8.568269808026477
      ],
      [
        "ер",
        -8.569092408639621
      ],
      [
        "Ӏ ",
        -8.56958563205455
      ],
      [
        "16 ",
        -8.570208503836598
      ],
      [
        "цӀэрыӀуэ",
        -8.570278565714277
      ],
      [
        "япэу ",
        -8.572894418623987
      ],
      [
        "гугъэ",
        -8.572903071124527
      ],
      [
        "нов",
        -8.573400238957612
      ],
      [
        "ныбжь",
        -8.573440420649098
      ],
      [
        "кэ ",
        -8.573761608472894
      ],
      [
        "зэрыщыт",
        -8.574945768733768
      ],
      [
        "хыу ",
        -8.577388040948813
      ],
      [
        "цӀыхухэр ",
        -8.57766216780595
      ],
      [
        "щӀыхь зиӀэ и ",
        -8.578221289673802
      ],
      [
        "хъы",
        -8.57922151726479
      ],
      [
        "ιэ",
        -8.579376527493956
      ],
      [
        "17 ",
        -8.579933541854723
      ],
      [
        "щӀалэм ",
        -8.580892091654423
      ],
      [
        "щӀыпӀэ ",
        -8.581760766356744
      ],
      [
        "ð",
        -8.582280381884907
      ],
      [
        "къэхъу",
        -8.582334797648203
      ],
      [
        "эн",
        -8.582786729058261
      ],
      [
        "къыхуэ",
        -8.583046892407433
      ],
      [
        "щхьэгъусэ",
        -8.58510011677411
      ],
      [
        "на ",
        -8.586284083151002
      ],
      [
        "ев",
        -8.586289321926841
      ],
      [
        "фӀыцӀэ",
        -8.587724063246105
      ],
      [
        "щӀалэ ",
        -8.590966411961768
      ],
      [
        "итӀыр ",
        -8.59184164010144
      ],
      [
        "жын ",
        -8.593729826473004
      ],
      [
        "урысей ",
        -8.593785736242902
      ],
      [
        "хуо",
        -8.595157157209595
      ],
      [
        "сымаджэ",
        -8.595327081756281
      ],
      [
        "ыгъэ",
        -8.597005883203616
      ],
      [
        "іэ",
        -8.599389600943402
      ],
      [
        "адэ",
        -8.59981079537266
      ],
      [
        "м сы",
        -8.60034814727138
      ],
      [
        "фыз",
        -8.601187991682215
      ],
      [
        "ӀэфӀ",
        -8.60333985680821
      ],
      [
        "гъуэм ",
        -8.604319544610764
      ],
      [
        "цӀэрыӀуэ ",
        -8.605535911665825
      ],
      [
        "теухуауэ ",
        -8.60581309006386
      ],
      [
        "из",
        -8.607629493602587
      ],
      [
        "бла",
        -8.609945937013784
      ],
      [
        "зауэ ",
        -8.610948417868507
      ],
      [
        "ó ",
        -8.61119488489296
      ],
      [
        "ӀэщӀагъэ",
        -8.611932219493708
      ],
      [
        "ыжащ ",
        -8.61193817722276
      ],
      [
        "рагъэ",
        -8.612616336447637
      ],
      [
        "ȝ",
        -8.61459916120545
      ],
      [
        "у зы",
        -8.614908152416723
      ],
      [
        "ý",
        -8.615050556093397
      ],
      [
        "тӀ",
        -8.61575738945582
      ],
      [
        "40 ",
        -8.615994311253743
      ],
      [
        "кэ",
        -8.616333398578275
      ],
      [
        "ынщ ",
        -8.616633435135473
      ],
      [
        "адыгэбзэкӀэ ",
        -8.617250063101205
      ],
      [
        "ами ",
        -8.61760807294268
      ],
      [
        "ыжь",
        -8.618338865581403
      ],
      [
        "гугъу ",
        -8.618381794372706
      ],
      [
        "уэрэд",
        -8.621799101323989
      ],
      [
        "цӀыхубз",
        -8.622107744688298
      ],
      [
        "мин",
        -8.623453255504856
      ],
      [
        "å",
        -8.62372736046369
      ],
      [
        "сыт хуэдэ ",
        -8.623852848882787
      ],
      [
        "Ӏей",
        -8.624730185639702
      ],
      [
        "хъыбар ",
        -8.625015536121099
      ],
      [
        "рэр ",
        -8.626548658099981
      ],
      [
        "кӀэм ",
        -8.628394623358751
      ],
      [
        "пщӀэ ",
        -8.62942503377875
      ],
      [
        "эу ",
        -8.630349586435798
      ],
      [
        "мыхьэнэ",
        -8.63037877699791
      ],
      [
        "щапхъэ",
        -8.630881891139989
      ],
      [
        "бжьэ",
        -8.631225569767148
      ],
      [
        "жи",
        -8.631480694485914
      ],
      [
        "ни ",
        -8.631564637606125
      ],
      [
        "ыф",
        -8.631947453112417
      ],
      [
        "щагъэ",
        -8.632034535033151
      ],
      [
        "жи ",
        -8.632630718947764
      ],
      [
        "тӀысхьэ",
        -8.63319028263067
      ],
      [
        "шынэ",
        -8.63408458942438
      ],
      [
        "дзы",
        -8.635717815346066
      ],
      [
        "макъамэ",
        -8.635882392442678
      ],
      [
        "он",
        -8.635960174710448
      ],
      [
        "ныгъэ",
        -8.636053359268528
      ],
      [
        "къан",
        -8.638320905300612
      ],
      [
        " гуэр",
        -8.639368640474105
      ],
      [
        "щӀыхьэ",
        -8.643056400475203
      ],
      [
        "ȟ",
        -8.644156426756165
      ],
      [
        "къызэралъхурэ ",
        -8.644617197258643
      ],
      [
        "гуфӀэ",
        -8.645419933495363
      ],
      [
        "н папщӀэ ",
        -8.646681248500721
      ],
      [
        "лажьэ ",
        -8.648550497021963
      ],
      [
        "зэман ",
        -8.650756062961886
      ],
      [
        "сурэт",
        -8.65083134022547
      ],
      [
        "тхакӀуэ",
        -8.651548201409437
      ],
      [
        "псэ ",
        -8.652430156939072
      ],
      [
        "бэ ",
        -8.65247571110073
      ],
      [
        "ире",
        -8.656426170099445
      ],
      [
        "лъагъуныгъэ",
        -8.65717047713464
      ],
      [
        "лъэныкъуэ",
        -8.658098394975028
      ],
      [
        "иригъэ",
        -8.65824781324331
      ],
      [
        "макъ ",
        -8.662497161613958
      ],
      [
        "ȣ",
        -8.662724021115412
      ],
      [
        "фащэ",
        -8.663547571449927
      ],
      [
        " нэхъыщхьэ",
        -8.666986506044129
      ],
      [
        "Ӏи",
        -8.668031872871248
      ],
      [
        "увыӀэ",
        -8.668234900878465
      ],
      [
        "шӀу",
        -8.668365017634013
      ],
      [
        "ста",
        -8.672016088672205
      ],
      [
        "къыху",
        -8.672485729106704
      ],
      [
        "9 ",
        -8.673810121171874
      ],
      [
        "топ",
        -8.674285233723234
      ],
      [
        "зыте",
        -8.674753837238224
      ],
      [
        "щхьэхуэ",
        -8.674825312721142
      ],
      [
        "жри ",
        -8.674910291388551
      ],
      [
        "псым ",
        -8.675925454644785
      ],
      [
        "зэфӀэ",
        -8.676961227405188
      ],
      [
        "тхэ",
        -8.677171067351184
      ],
      [
        "ˠ ",
        -8.680035488705306
      ],
      [
        "къызэра",
        -8.681733870259034
      ],
      [
        "мрэ я ",
        -8.681758261484537
      ],
      [
        "уэр",
        -8.682278233235964
      ],
      [
        "кӀа ",
        -8.682563541245642
      ],
      [
        "цӀыхур ",
        -8.68472404520075
      ],
      [
        "у щытащ ",
        -8.68646286350265
      ],
      [
        "гъэкӀуэкӀ",
        -8.687021857368519
      ],
      [
        "ахъшэ",
        -8.687028420556674
      ],
      [
        "лен",
        -8.688145728617673
      ],
      [
        "хъуну ",
        -8.688424124471174
      ],
      [
        "и унафэщӀ ",
        -8.688887662814492
      ],
      [
        "у я",
        -8.689403645349836
      ],
      [
        "мафӀэ",
        -8.689474936752973
      ],
      [
        "хъэ",
        -8.68967912071841
      ],
      [
        "ц ",
        -8.689795380026773
      ],
      [
        "хьи",
        -8.691492625017917
      ],
      [
        "щӀа ",
        -8.691860450177401
      ],
      [
        "Ӏыгъ",
        -8.691928461790168
      ],
      [
        "жауэ ",
        -8.69237254925804
      ],
      [
        "пшэ",
        -8.693215551672132
      ],
      [
        "зэрыхъу",
        -8.693587332521066
      ],
      [
        "къуажэ ",
        -8.69604664548022
      ],
      [
        "защӀэ",
        -8.696717757342759
      ],
      [
        "ыху ",
        -8.696793282016285
      ],
      [
        "щхьэм ",
        -8.697027673920338
      ],
      [
        "нкӀэ ",
        -8.697494364728183
      ],
      [
        "лъагъу ",
        -8.697513465984496
      ],
      [
        "мухьэмэд ",
        -8.698677566032169
      ],
      [
        "лъабжьэ",
        -8.699664358723878
      ],
      [
        "щӀыпӀэ",
        -8.702102210852678
      ],
      [
        "пӀалъэ",
        -8.70260281503519
      ],
      [
        "дызэ",
        -8.702860710775838
      ],
      [
        "жыӀэ",
        -8.703029342730469
      ],
      [
        " къудей",
        -8.705021186819362
      ],
      [
        "щыӀа",
        -8.705083425347157
      ],
      [
        "уз",
        -8.70537448051141
      ],
      [
        "зыгуэрым ",
        -8.705608128219712
      ],
      [
        "зу",
        -8.706830458875174
      ],
      [
        "али",
        -8.708809971260903
      ],
      [
        "зэи ",
        -8.71128394455025
      ],
      [
        "еплъ",
        -8.713262638910386
      ],
      [
        "тхакӀуэ ",
        -8.71406236219807
      ],
      [
        "пцӀы",
        -8.714119885737905
      ],
      [
        "ати ",
        -8.714224283235465
      ],
      [
        "хуэхъу",
        -8.715539812333477
      ],
      [
        "р зэ",
        -8.717166623839583
      ],
      [
        "зэман",
        -8.717410454615703
      ],
      [
        "хуищӀ",
        -8.717742713711399
      ],
      [
        "Ӏыхьэ",
        -8.719702263545363
      ],
      [
        "45 ",
        -8.721484577832674
      ],
      [
        "пхъуэ",
        -8.72186472042326
      ],
      [
        "зэӀущӀэм ",
        -8.721964209690148
      ],
      [
        "ɫ",
        -8.722110710666968
      ],
      [
        "щыщ",
        -8.72348689624389
      ],
      [
        "ши",
        -8.72442967563134
      ],
      [
        "ё",
        -8.725962741857657
      ],
      [
        "ɛ",
        -8.726139434619585
      ],
      [
        "пцӀэ",
        -8.727032733227178
      ],
      [
        "чемпион",
        -8.727547268643612
      ],
      [
        "ауэ щытащ ",
        -8.731200988580536
      ],
      [
        " зиӀэ ",
        -8.731935100718905
      ],
      [
        "бзылъхугъэ",
        -8.731961780893716
      ],
      [
        "сабий",
        -8.731985077220173
      ],
      [
        "жьыр ",
        -8.732261368287906
      ],
      [
        "жылэ",
        -8.73244952194355
      ],
      [
        "зыхэ",
        -8.73249868792571
      ],
      [
        " сыт ",
        -8.732906831375452
      ],
      [
        "зыщӀэ",
        -8.734775998053586
      ],
      [
        "плъагъу",
        -8.735038689810073
      ],
      [
        "ь ",
        -8.735055373119895
      ],
      [
        "гъазэ",
        -8.738571417227044
      ],
      [
        "ышхуэ",
        -8.739147845340382
      ],
      [
        " зэмылӀэужьыгъуэ",
        -8.739772799084706
      ],
      [
        "ыркъым ",
        -8.740578434475404
      ],
      [
        "хуабжьу ",
        -8.740669215522688
      ],
      [
        " псоми ",
        -8.741177891044385
      ],
      [
        "хэм ящыщщ ",
        -8.74158438672018
      ],
      [
        "4 ",
        -8.741644586298763
      ],
      [
        "ӀуэхущӀапӀэ",
        -8.7426700583321
      ],
      [
        "къыще",
        -8.74276266942572
      ],
      [
        "хъумэ ",
        -8.743372830214328
      ],
      [
        "ай",
        -8.745583808333743
      ],
      [
        "лъыхъуэ",
        -8.746119117715981
      ],
      [
        "ыныр ",
        -8.7481178768904
      ],
      [
        "москва ",
        -8.749445970743775
      ],
      [
        "Ӏэмал ",
        -8.75078606873238
      ],
      [
        "тхыдэм ",
        -8.750835653058765
      ],
      [
        "екӀуэкӀ",
        -8.752172210819998
      ],
      [
        "щта",
        -8.753659845675227
      ],
      [
        "р я",
        -8.754272686833461
      ],
      [
        " си ",
        -8.75517687001635
      ],
      [
        "тес",
        -8.755259555727719
      ],
      [
        "бий",
        -8.756445445884179
      ],
      [
        "кӀэщӀ",
        -8.756452137489815
      ],
      [
        "нэм ",
        -8.756838282366374
      ],
      [
        " ин",
        -8.7571229834277
      ],
      [
        "щхьэусыгъуэ",
        -8.758306595073439
      ],
      [
        "мыӀэ",
        -8.759247391035125
      ],
      [
        "уэ у",
        -8.761076342461037
      ],
      [
        "рэт ",
        -8.761101436111971
      ],
      [
        "тх",
        -8.762638361252899
      ],
      [
        "уеблэмэ ",
        -8.762674125116488
      ],
      [
        "пхуэ",
        -8.762852813484708
      ],
      [
        "дыгъэ",
        -8.76292513290794
      ],
      [
        "джэрий ",
        -8.763370656946403
      ],
      [
        "зэщӀэ",
        -8.763420571083218
      ],
      [
        "агъ",
        -8.7637589175187
      ],
      [
        "ара",
        -8.76450967658736
      ],
      [
        "хуэфащэ",
        -8.765037704271442
      ],
      [
        "ɢ ",
        -8.765188998595676
      ],
      [
        "урысейм и ",
        -8.765409589894887
      ],
      [
        "5",
        -8.766143178342803
      ],
      [
        "тхыгъэ",
        -8.766352255627853
      ],
      [
        "щӀауэ ",
        -8.766355469544452
      ],
      [
        "и Ӏэ",
        -8.767354838266744
      ],
      [
        "теухуа ",
        -8.767665844899074
      ],
      [
        "нэмыс",
        -8.769467941716352
      ],
      [
        "щӀыналъэ",
        -8.77012322385796
      ],
      [
        "лэжьакӀуэ",
        -8.771664152149812
      ],
      [
        "кӀуэж",
        -8.773731091679561
      ],
      [
        "гъэхэм ",
        -8.775174731542693
      ],
      [
        "гъэув",
        -8.775408524230006
      ],
      [
        "лей",
        -8.775539582711682
      ],
      [
        "ий",
        -8.775701006533511
      ],
      [
        "пхы",
        -8.776786141948792
      ],
      [
        "05 ",
        -8.777496260010997
      ],
      [
        "хэту ",
        -8.777512061512514
      ],
      [
        "щӀе",
        -8.7780868311101
      ],
      [
        "ä",
        -8.778243163342065
      ],
      [
        "шыр ",
        -8.77856432564743
      ],
      [
        "цӀыхубэ ",
        -8.780367379695805
      ],
      [
        "бзэр ",
        -8.78065582490607
      ],
      [
        "агъэ",
        -8.78083890849212
      ],
      [
        "кӀэр ",
        -8.781837034046221
      ],
      [
        "ншэу ",
        -8.782286346338026
      ],
      [
        "щӀыр ",
        -8.784116007720373
      ],
      [
        "зэӀущӀэ",
        -8.784237809251625
      ],
      [
        "эм ",
        -8.784689210080025
      ],
      [
        "ɞ",
        -8.785172762226248
      ],
      [
        "хэр зэ",
        -8.785212046849056
      ],
      [
        "усакӀуэ ",
        -8.786428759079792
      ],
      [
        "щымы",
        -8.787381238534929
      ],
      [
        "щӀалэ цӀыкӀу",
        -8.787859618410367
      ],
      [
        "пщащэ",
        -8.788024777027966
      ],
      [
        "школ",
        -8.78981342243198
      ],
      [
        "ыгъуэ",
        -8.790153153663873
      ],
      [
        "нд",
        -8.79041941105301
      ],
      [
        "хигъэ",
        -8.790701670646083
      ],
      [
        "лӀы ",
        -8.791267967703979
      ],
      [
        "цӀэ ",
        -8.791432879387349
      ],
      [
        "щт ",
        -8.792097247330501
      ],
      [
        "пу",
        -8.7926459996502
      ],
      [
        "ид",
        -8.792896755048291
      ],
      [
        "жыр ",
        -8.7934730099616
      ],
      [
        "гъащӀэр ",
        -8.794082204276206
      ],
      [
        "ι",
        -8.794230793173456
      ],
      [
        "кӀри ",
        -8.796637651990952
      ],
      [
        "ыбзэ",
        -8.796929366555316
      ],
      [
        "рэм ",
        -8.799488996881646
      ],
      [
        "хузэфӀэкӀ",
        -8.79975538678708
      ],
      [
        "лъэщ",
        -8.801214309200413
      ],
      [
        "н хуей",
        -8.802704540979587
      ],
      [
        "хуащ ",
        -8.803082230419694
      ],
      [
        "шхэ",
        -8.804577905427733
      ],
      [
        "æ",
        -8.805119016518095
      ],
      [
        "ыщӀэ",
        -8.80537000918
      ],
      [
        "дызэры",
        -8.80564951485818
      ],
      [
        "у сы",
        -8.806905907152135
      ],
      [
        "адрей ",
        -8.80780507154982
      ],
      [
        "зауэ",
        -8.808896521812397
      ],
      [
        "лэжьыгъэр ",
        -8.809405757691161
      ],
      [
        "дохутыр",
        -8.810321166280184
      ],
      [
        "р и",
        -8.810932726749678
      ],
      [
        "ȋ",
        -8.81183276715482
      ],
      [
        "къагъэ",
        -8.812055104669525
      ],
      [
        "рым ",
        -8.812616687986942
      ],
      [
        "ɟ",
        -8.812765529833737
      ],
      [
        "хъун",
        -8.814585113998461
      ],
      [
        "проект",
        -8.815095860877772
      ],
      [
        "ɳ ",
        -8.815508930863176
      ],
      [
        "цӀы",
        -8.815921460048331
      ],
      [
        "псалъэм ",
        -8.816825711534852
      ],
      [
        "дыгъу",
        -8.817420952593004
      ],
      [
        "кӀэлъы",
        -8.81782761938761
      ],
      [
        "тӀыс",
        -8.818185737422601
      ],
      [
        "щыӀэщ ",
        -8.818471026648332
      ],
      [
        "шӀо",
        -8.819150215100217
      ],
      [
        "Ӏэщэ",
        -8.820242581829959
      ],
      [
        "къалэ ",
        -8.820449079861792
      ],
      [
        "хэку",
        -8.820518203307598
      ],
      [
        "дауи ",
        -8.820527332364502
      ],
      [
        "тхылъ ",
        -8.821762289129332
      ],
      [
        "дж ",
        -8.821835829821936
      ],
      [
        "лъыта",
        -8.821872099780474
      ],
      [
        "хуэдиз",
        -8.822935500912603
      ],
      [
        "къэмы",
        -8.823780671360502
      ],
      [
        "ƞ",
        -8.824558283486912
      ],
      [
        "вагъуэ",
        -8.825582119449708
      ],
      [
        "тхыдэ",
        -8.826111890377206
      ],
      [
        "мкӀэ и ",
        -8.827103352467192
      ],
      [
        " мэхъу ",
        -8.82798996029862
      ],
      [
        "къэралым ",
        -8.829644202694524
      ],
      [
        "лӀыжь",
        -8.829874845471618
      ],
      [
        "зэпеуэм ",
        -8.830360231712458
      ],
      [
        "ӀэнатӀэм ",
        -8.830705394133423
      ],
      [
        " щхьэкӀэ ",
        -8.832391165650796
      ],
      [
        "зэпы",
        -8.832631114607212
      ],
      [
        "хуит",
        -8.833031154289774
      ],
      [
        "адэ ",
        -8.833876328458038
      ],
      [
        "етӀуанэ",
        -8.835409607291064
      ],
      [
        "шым ",
        -8.837443442940076
      ],
      [
        "телъыджэ",
        -8.83844756980175
      ],
      [
        "ком",
        -8.838878092780249
      ],
      [
        "тынш",
        -8.839039329912266
      ],
      [
        "фӀ ",
        -8.839398618667857
      ],
      [
        "тха",
        -8.839872818413472
      ],
      [
        "хэр зы",
        -8.840171747290455
      ],
      [
        "жэуап ",
        -8.840608530824895
      ],
      [
        "фӀэфӀ",
        -8.840989234219517
      ],
      [
        "зригъэ",
        -8.841087948383779
      ],
      [
        "анэ ",
        -8.841371735784803
      ],
      [
        "дуней ",
        -8.842796983953464
      ],
      [
        "гурыӀуэ",
        -8.843661859065016
      ],
      [
        "плъыхь",
        -8.844374467460634
      ],
      [
        "хэщ ",
        -8.84439824535601
      ],
      [
        "Ӏэты",
        -8.844513943150616
      ],
      [
        "ч ",
        -8.845199861717699
      ],
      [
        "от",
        -8.845213614598293
      ],
      [
        "ыжу ",
        -8.845940999956408
      ],
      [
        "адэ анэ",
        -8.846690328920287
      ],
      [
        "мэт ",
        -8.848278925701477
      ],
      [
        "при",
        -8.848403309685285
      ],
      [
        "куэдым ",
        -8.850663073935602
      ],
      [
        "вгъэ",
        -8.850716213623857
      ],
      [
        "у зэ",
        -8.851152095581625
      ],
      [
        "урыс",
        -8.851989411451017
      ],
      [
        "пщӀ",
        -8.852312327003348
      ],
      [
        "ува",
        -8.852644722541793
      ],
      [
        "нэмыцэ",
        -8.852805608537656
      ],
      [
        "етӀуанэ ",
        -8.852806116679238
      ],
      [
        "жъ",
        -8.853981909078305
      ],
      [
        "нум ",
        -8.855232353233632
      ],
      [
        "адыгэхэм ",
        -8.855281826565964
      ],
      [
        "еджапӀэ",
        -8.85547815357141
      ],
      [
        "гъэсэбэп",
        -8.85698610014728
      ],
      [
        "2Ӏ ",
        -8.85772306685808
      ],
      [
        "18 ",
        -8.858074334862273
      ],
      [
        "хэр зэры",
        -8.858165626960876
      ],
      [
        "шъо",
        -8.863362922746123
      ],
      [
        "гъэлъэгъуащ ",
        -8.86339518586088
      ],
      [
        "ащи ",
        -8.863948636090655
      ],
      [
        "текӀуэныгъэ",
        -8.864167505227075
      ],
      [
        "уэри ",
        -8.865185343422722
      ],
      [
        "къысхуэ",
        -8.865412593511795
      ],
      [
        "ынур ",
        -8.867693392425611
      ],
      [
        "щӀигъу",
        -8.868303228094334
      ],
      [
        "и унафэщӀ",
        -8.868481011486052
      ],
      [
        "парт",
        -8.868594103372049
      ],
      [
        "гугъа",
        -8.86930310782231
      ],
      [
        "лӀыгъэ",
        -8.869494178812987
      ],
      [
        "хъунщ ",
        -8.869572450211153
      ],
      [
        "ãúý",
        -8.87041784800321
      ],
      [
        "и гур ",
        -8.870505936006518
      ],
      [
        "жылагъуэ",
        -8.870665316614534
      ],
      [
        "зэхуэс",
        -8.871031763411912
      ],
      [
        "хъа",
        -8.871119130156705
      ],
      [
        "хуагъэ",
        -8.871278605373165
      ],
      [
        "и цӀэр ",
        -8.871486656853856
      ],
      [
        "гур ",
        -8.871646486836402
      ],
      [
        "нал",
        -8.871780616549739
      ],
      [
        " цӀыкӀу ",
        -8.872362027221103
      ],
      [
        "утыку ",
        -8.87270883588005
      ],
      [
        "нэхъри ",
        -8.875871949702939
      ],
      [
        "ары ",
        -8.876785021245109
      ],
      [
        "хъулӀэ",
        -8.877976232457515
      ],
      [
        "хуэзэ",
        -8.879359398224562
      ],
      [
        "дунейр ",
        -8.879421248142878
      ],
      [
        "лу",
        -8.879573902475878
      ],
      [
        "ын хуей",
        -8.880132318305675
      ],
      [
        "шу ",
        -8.88247334090485
      ],
      [
        "дэӀэпыкъу",
        -8.88278893011196
      ],
      [
        "плъ ",
        -8.88379737120234
      ],
      [
        "жьыгъ ",
        -8.884235844376041
      ],
      [
        "щӀыӀэ",
        -8.884327305163708
      ],
      [
        "благъэ",
        -8.885283985250556
      ],
      [
        "хэр я",
        -8.886530271491338
      ],
      [
        "î",
        -8.887216357594182
      ],
      [
        "кӀуэд",
        -8.887584354583504
      ],
      [
        "лан",
        -8.888047236489593
      ],
      [
        "ак",
        -8.888245479520304
      ],
      [
        "утӀыпщ",
        -8.888592170634961
      ],
      [
        "ыну",
        -8.889119327346952
      ],
      [
        "щӀыналъэ ",
        -8.890013168034928
      ],
      [
        "сыту ",
        -8.890051137789778
      ],
      [
        "щӀыкӀэ",
        -8.890329520645016
      ],
      [
        "фӀыщӀэ ",
        -8.891089301245604
      ],
      [
        "зэпеуэ",
        -8.891439296432443
      ],
      [
        "жырт ",
        -8.891838046642889
      ],
      [
        "ес",
        -8.892503842190388
      ],
      [
        "ие ",
        -8.892859175729056
      ],
      [
        "м къи",
        -8.893444601839025
      ],
      [
        "дамыгъэ",
        -8.89470781539836
      ],
      [
        "щхь",
        -8.896218866273202
      ],
      [
        "у у",
        -8.896566867866213
      ],
      [
        "щри",
        -8.89693579154726
      ],
      [
        "дин ",
        -8.897362383354324
      ],
      [
        "тепсэлъыхь",
        -8.897941873471959
      ],
      [
        "бгъэдэ",
        -8.898444372375351
      ],
      [
        "сыхьэт",
        -8.899479218112836
      ],
      [
        "жэщ",
        -8.899595921103355
      ],
      [
        "хьэжы",
        -8.900624987859697
      ],
      [
        "хэкӀ",
        -8.900707338791479
      ],
      [
        "рей",
        -8.90142635276499
      ],
      [
        "фо",
        -8.901757440634693
      ],
      [
        "сэ с",
        -8.901933219886732
      ],
      [
        "хауэ ",
        -8.901945512277036
      ],
      [
        "щыгъуазэ",
        -8.901964617482529
      ],
      [
        "жей",
        -8.903128543395747
      ],
      [
        "абыкӀэ ",
        -8.903328118047858
      ],
      [
        "щхъуэ",
        -8.904376939640684
      ],
      [
        "гуэш",
        -8.904891830885797
      ],
      [
        "Ӏэры",
        -8.90538344011351
      ],
      [
        "щӀалэр ",
        -8.906794909907859
      ],
      [
        "алыхьым ",
        -8.907373886811973
      ],
      [
        "щӀэм ",
        -8.908932086826308
      ],
      [
        "щӀэлъ",
        -8.908997089827784
      ],
      [
        "иӀэщ ",
        -8.910200139158517
      ],
      [
        "гушыӀэ",
        -8.910308494927511
      ],
      [
        "лъандэрэ ",
        -8.910388284453427
      ],
      [
        "м е",
        -8.910923912450409
      ],
      [
        "мэхъу ",
        -8.91099387203499
      ],
      [
        "дэлъ",
        -8.911689410508755
      ],
      [
        "ыж ",
        -8.91315960334489
      ],
      [
        "псынщӀэу ",
        -8.914210082362947
      ],
      [
        "егупсыс",
        -8.914942728017515
      ],
      [
        "къэп",
        -8.915576318813244
      ],
      [
        "ț",
        -8.916903354238507
      ],
      [
        " зыбжанэ ",
        -8.917462550717856
      ],
      [
        "хьэлӀэ",
        -8.917526699042076
      ],
      [
        "ск",
        -8.917651306067278
      ],
      [
        "усакӀуэ",
        -8.92075081653167
      ],
      [
        "çý",
        -8.921132356206533
      ],
      [
        "сыт щыгъуи ",
        -8.922542258568646
      ],
      [
        "дыдэ",
        -8.923190090268246
      ],
      [
        "къыщыхъу",
        -8.924463465433197
      ],
      [
        "джэд",
        -8.925102097468047
      ],
      [
        " 1 ",
        -8.92603195295111
      ],
      [
        "роман",
        -8.926183933623681
      ],
      [
        " дыдэ ",
        -8.926251429078228
      ],
      [
        " дыдэм ",
        -8.926556396102837
      ],
      [
        "уващ ",
        -8.926695076835767
      ],
      [
        "къулыкъу",
        -8.927030736350407
      ],
      [
        "ищӀащ ",
        -8.92720893341341
      ],
      [
        "13 ",
        -8.927555912041285
      ],
      [
        "хъан ",
        -8.927583998063733
      ],
      [
        "къриубыдэу ",
        -8.927695008696112
      ],
      [
        "акӀуэ",
        -8.928335500527115
      ],
      [
        "къыб",
        -8.928794460835604
      ],
      [
        "зэхуэ",
        -8.929465925665612
      ],
      [
        "лэжь",
        -8.930058341334266
      ],
      [
        "унагъуэм ",
        -8.930924251721144
      ],
      [
        "эгъу",
        -8.931042281192703
      ],
      [
        "хэрщ ",
        -8.9310924488461
      ],
      [
        "блэкӀа",
        -8.932476830217746
      ],
      [
        "хужь",
        -8.933146454268234
      ],
      [
        "хъун ",
        -8.933503925727333
      ],
      [
        "ìû",
        -8.933934892979034
      ],
      [
        "зэрыщы",
        -8.934823918010819
      ],
      [
        "анэдэлъхубзэ",
        -8.935247693106872
      ],
      [
        "Ӏэджэ",
        -8.935311297008166
      ],
      [
        "зэхыхьэ",
        -8.938129946974257
      ],
      [
        "машинэ",
        -8.939178253497706
      ],
      [
        "кӀуэт",
        -8.939292552726346
      ],
      [
        " хъунущ ",
        -8.939384338502771
      ],
      [
        "бжьы",
        -8.940507870139824
      ],
      [
        "ен",
        -8.94162089002523
      ],
      [
        "ещанэ",
        -8.942002014661439
      ],
      [
        "бахъсэн ",
        -8.942484640657687
      ],
      [
        "хэс",
        -8.943213598731349
      ],
      [
        "ɝɴɷ",
        -8.943299864718396
      ],
      [
        "çû",
        -8.943912152478866
      ],
      [
        "еплъы",
        -8.944339131182053
      ],
      [
        "тхьэмадэ",
        -8.944705174780786
      ],
      [
        "макъ",
        -8.944709142818578
      ],
      [
        "езым и ",
        -8.9467763946049
      ],
      [
        "куэ",
        -8.946851506945569
      ],
      [
        "l",
        -8.946965622861853
      ],
      [
        "щӀу ",
        -8.946988737681318
      ],
      [
        "кӀыр ",
        -8.94734583986132
      ],
      [
        "тӀэкӀу",
        -8.948106675723887
      ],
      [
        "и деж ",
        -8.948196335477896
      ],
      [
        "гъуэр ",
        -8.948317091739742
      ],
      [
        "нщи ",
        -8.948938328345445
      ],
      [
        "къригъэ",
        -8.949594062398422
      ],
      [
        "тырку",
        -8.950861230410991
      ],
      [
        "занщӀэу ",
        -8.951234064171976
      ],
      [
        "лъэ ",
        -8.952160251994975
      ],
      [
        "гра",
        -8.952544905360124
      ],
      [
        "ыпӀэ",
        -8.953443615609011
      ],
      [
        "ныбжьыщӀэ",
        -8.953593715818817
      ],
      [
        "ещхь",
        -8.953849423206108
      ],
      [
        "ск ",
        -8.953971639978894
      ],
      [
        "гъуэгуанэ",
        -8.954135276671758
      ],
      [
        "м зэры",
        -8.954429203354472
      ],
      [
        "мин ",
        -8.955395092272415
      ],
      [
        "щекӀуэкӀ",
        -8.955911699153237
      ],
      [
        "жаӀэу ",
        -8.956204387958218
      ],
      [
        "гъуей",
        -8.956346948428635
      ],
      [
        "пэжщ ",
        -8.956941436752759
      ],
      [
        "цэ ",
        -8.957335498544358
      ],
      [
        "хри ",
        -8.957624724363948
      ],
      [
        "22 ",
        -8.958859347093748
      ],
      [
        "ы ",
        -8.960348699265246
      ],
      [
        "кӀауэ ",
        -8.960544050254406
      ],
      [
        "шъэ",
        -8.96101125461468
      ],
      [
        "институтым ",
        -8.961096378038699
      ],
      [
        "мыхьэ",
        -8.961476371335124
      ],
      [
        "сыщы",
        -8.961785744390296
      ],
      [
        "эрым и ",
        -8.961936953179318
      ],
      [
        "щӀар ",
        -8.962015444672973
      ],
      [
        "хъан",
        -8.962573956964874
      ],
      [
        "фӀа",
        -8.962980377983508
      ],
      [
        "рэп ",
        -8.963200419554317
      ],
      [
        "напэ",
        -8.964590000977726
      ],
      [
        "ɠ",
        -8.96477459353956
      ],
      [
        "анэм ",
        -8.964829022747104
      ],
      [
        "республикэ",
        -8.966497925425575
      ],
      [
        "бгъэдэлъ",
        -8.966568816471083
      ],
      [
        "ым и",
        -8.968341002223529
      ],
      [
        "êúû",
        -8.969061468988578
      ],
      [
        "псыр ",
        -8.969399039223434
      ],
      [
        "ë",
        -8.969901684013939
      ],
      [
        "и япэ ",
        -8.969975664676408
      ],
      [
        "гугъуехь",
        -8.970357111046495
      ],
      [
        "ней",
        -8.970906174630807
      ],
      [
        "хъуэпсэгъуэ нур ",
        -8.9718922382593
      ],
      [
        "гэ",
        -8.972864890287513
      ],
      [
        "нэмыщӀ",
        -8.973723032010835
      ],
      [
        "ӀӀ ",
        -8.975455477044717
      ],
      [
        "зэхьэзэхуэ",
        -8.975847232659612
      ],
      [
        "щыпсэу ",
        -8.976073207810751
      ],
      [
        "чи",
        -8.976213454019907
      ],
      [
        "зэхьэзэхуэм ",
        -8.976288592041383
      ],
      [
        "къалэн",
        -8.976511436601097
      ],
      [
        "артист",
        -8.97669641509269
      ],
      [
        "зри",
        -8.976753078124306
      ],
      [
        "алий ",
        -8.976898755077288
      ],
      [
        "университетым ",
        -8.976900337579313
      ],
      [
        " сэ ",
        -8.97693438123247
      ],
      [
        "махуэр ",
        -8.977083577916924
      ],
      [
        "федералънэ ",
        -8.977303140789973
      ],
      [
        "театр",
        -8.978254387659291
      ],
      [
        "35 ",
        -8.978977962958316
      ],
      [
        "тре",
        -8.979200534479096
      ],
      [
        "мыщӀ",
        -8.979542242168696
      ],
      [
        "бэч ",
        -8.979839202661369
      ],
      [
        "ят",
        -8.981828168068638
      ],
      [
        "щыщу ",
        -8.982118436830099
      ],
      [
        "адрей",
        -8.982172002291748
      ],
      [
        "и нэ",
        -8.982302374284023
      ],
      [
        "зыгуэр",
        -8.982746846437786
      ],
      [
        "арэзы",
        -8.983064622713345
      ],
      [
        "зэрызэ",
        -8.983526187044678
      ],
      [
        "хэр къы",
        -8.984182563332833
      ],
      [
        "кӀий",
        -8.984228426377799
      ],
      [
        "хъарзынэ",
        -8.984589660769199
      ],
      [
        "лъху",
        -8.984694686783499
      ],
      [
        "зауэлӀ",
        -8.98475594372327
      ],
      [
        "ков ",
        -8.985264321950057
      ],
      [
        "щӀэт",
        -8.985308133523226
      ],
      [
        "мурад ",
        -8.987301208205515
      ],
      [
        "иӀэу ",
        -8.987861512078819
      ],
      [
        "уэрэд ",
        -8.988763605605122
      ],
      [
        "скэ ",
        -8.989288400144162
      ],
      [
        " хъунукъым ",
        -8.990869101344897
      ],
      [
        "дан",
        -8.991249872256002
      ],
      [
        "тӀысхьа",
        -8.991323256170665
      ],
      [
        "еп",
        -8.991457363807905
      ],
      [
        "ș",
        -8.993167179129228
      ],
      [
        "дри",
        -8.993319490563431
      ],
      [
        "псэлъэ",
        -8.993796129056259
      ],
      [
        "пщыхьэщхьэ",
        -8.994507197129732
      ],
      [
        "та ",
        -8.995089131484027
      ],
      [
        "мен",
        -8.995391779553678
      ],
      [
        "Ӏэр ",
        -8.995587850108707
      ],
      [
        "шынагъуэ",
        -8.996057045875405
      ],
      [
        "нэпс",
        -8.996235956579472
      ],
      [
        "щхьэщы",
        -8.996323930142845
      ],
      [
        "усэ ",
        -8.998246897364725
      ],
      [
        "хъыджэбз",
        -8.99922570586661
      ],
      [
        "хуитыныгъэ",
        -9.000246724943755
      ],
      [
        "сто",
        -9.000632384711501
      ],
      [
        "хуигъэ",
        -9.00318626716978
      ],
      [
        "саугъэт",
        -9.0045568554313
      ],
      [
        "ын хуейщ ",
        -9.004804314870393
      ],
      [
        "щӀэр ",
        -9.004951418113196
      ],
      [
        "мо ",
        -9.005295484657243
      ],
      [
        "щхьэпэ",
        -9.005617419685857
      ],
      [
        "гъакӀуэ",
        -9.006377685403523
      ],
      [
        "ȗ",
        -9.006558911375274
      ],
      [
        "загъэ",
        -9.006820698151945
      ],
      [
        "жа ",
        -9.007320512315834
      ],
      [
        "ɡɷ",
        -9.008026592002043
      ],
      [
        "хъо",
        -9.00860057500057
      ],
      [
        "нэху ",
        -9.009886565072021
      ],
      [
        "упщӀэ",
        -9.011017295409305
      ],
      [
        "борис ",
        -9.012031222285543
      ],
      [
        "нырщ ",
        -9.012840697036104
      ],
      [
        "дыщэ",
        -9.013545674482693
      ],
      [
        "гъуазэ",
        -9.014107984333267
      ],
      [
        "къакӀуэ",
        -9.014143930349139
      ],
      [
        "лъхуа",
        -9.014707546774407
      ],
      [
        "эр",
        -9.015111718768315
      ],
      [
        "щӀагъэ",
        -9.01521109458544
      ],
      [
        "ɪ ",
        -9.015297919126745
      ],
      [
        "газет",
        -9.01537824802119
      ],
      [
        "тер",
        -9.015405467552101
      ],
      [
        "пса",
        -9.015695701070404
      ],
      [
        "и гум ",
        -9.017351828479955
      ],
      [
        "ыр зы",
        -9.021237734219085
      ],
      [
        "кι",
        -9.021621854163117
      ],
      [
        "рат ",
        -9.023969499543183
      ],
      [
        "губжь",
        -9.024023389180563
      ],
      [
        "уэс",
        -9.024345227443042
      ],
      [
        "лей ",
        -9.024545942309953
      ],
      [
        "къудамэ",
        -9.024937815471615
      ],
      [
        "пӀащӀэ",
        -9.025476616344985
      ],
      [
        "студент",
        -9.027365770093349
      ],
      [
        "ант",
        -9.027477842578516
      ],
      [
        "программэ",
        -9.027615039361116
      ],
      [
        "Ӏы",
        -9.02882999619591
      ],
      [
        "хэм ящыщу ",
        -9.029202379307193
      ],
      [
        "щӀыпӀэм ",
        -9.029242780681503
      ],
      [
        "ящӀэ",
        -9.029386249971731
      ],
      [
        "зэгухьэныгъэм ",
        -9.029391833151225
      ],
      [
        "правителъствэм ",
        -9.029435961179876
      ],
      [
        "ышхуэ ",
        -9.029791313527257
      ],
      [
        "гъэм и ",
        -9.029907012356004
      ],
      [
        "жаӀэ ",
        -9.030963232315012
      ],
      [
        "хуабэ",
        -9.031330247387851
      ],
      [
        "яхуэ",
        -9.031382064624562
      ],
      [
        "пӀы",
        -9.031829935147629
      ],
      [
        "къафэ",
        -9.031969498915212
      ],
      [
        "кхъухь",
        -9.032359605258117
      ],
      [
        "ынымкӀэ ",
        -9.032882046963675
      ],
      [
        "нкъым ",
        -9.033017964647506
      ],
      [
        "иужь",
        -9.033122500987542
      ],
      [
        "гъанэ",
        -9.033218200330742
      ],
      [
        "ȇ",
        -9.034042756008105
      ],
      [
        "гъэзэщӀа",
        -9.034136382652388
      ],
      [
        "пӀ",
        -9.034136659709779
      ],
      [
        "къэз",
        -9.035096363320905
      ],
      [
        "дра",
        -9.035490149937331
      ],
      [
        "сан",
        -9.036700386434928
      ],
      [
        "унагъуэ ",
        -9.037454918764169
      ],
      [
        "лъхьа",
        -9.037769733927338
      ],
      [
        "зыр ",
        -9.037818772644851
      ],
      [
        "14 ",
        -9.037973234115782
      ],
      [
        " щӀэныгъэ",
        -9.039494764996828
      ],
      [
        "гъэлъэгъу",
        -9.040567340425728
      ],
      [
        "м папщӀэ ",
        -9.040786066712375
      ],
      [
        "хъуэ ",
        -9.041389450201777
      ],
      [
        "щӀэну ",
        -9.042889752728103
      ],
      [
        "тхылъым ",
        -9.042937409233664
      ],
      [
        " цӀыкӀум ",
        -9.043079127935176
      ],
      [
        "дагъэ",
        -9.043084182596365
      ],
      [
        "ар зы",
        -9.044219856368784
      ],
      [
        "1Ӏ ",
        -9.044762909343197
      ],
      [
        "зэгъэ",
        -9.04532009514042
      ],
      [
        "шъ ",
        -9.045345495006966
      ],
      [
        "зи гугъу ",
        -9.04567940212915
      ],
      [
        "иту ",
        -9.046121562281172
      ],
      [
        "къэбэрдей",
        -9.046122685169443
      ],
      [
        "гъэп ",
        -9.046402311441234
      ],
      [
        "нэгу",
        -9.046561163226098
      ],
      [
        "дихьэх",
        -9.047499235465066
      ],
      [
        "ман",
        -9.047524730045172
      ],
      [
        "къурш",
        -9.047813320238888
      ],
      [
        "лэжьыгъэ ",
        -9.049402449015483
      ],
      [
        "зэгухьэныгъэ",
        -9.049591911605631
      ],
      [
        "акъэ ",
        -9.049732468675534
      ],
      [
        "нобэ",
        -9.050622119433728
      ],
      [
        "шы ",
        -9.053346596662735
      ],
      [
        "ров",
        -9.053844019896564
      ],
      [
        "пэрыт",
        -9.053858520912051
      ],
      [
        "мурад",
        -9.053996032431744
      ],
      [
        "нэр ",
        -9.054011591375998
      ],
      [
        "ӀэщӀагъэлӀ",
        -9.054052577203711
      ],
      [
        "м у",
        -9.054243755916158
      ],
      [
        "зэха",
        -9.054627077556278
      ],
      [
        "кӀуэцӀ",
        -9.054804017213193
      ],
      [
        "узыншагъэ",
        -9.054885766292893
      ],
      [
        "ухуэ",
        -9.055332324105848
      ],
      [
        "плӀэ",
        -9.055374607235443
      ],
      [
        "щӀэныгъэлӀ",
        -9.055699906958296
      ],
      [
        "нэхъыщӀэ",
        -9.056016867887672
      ],
      [
        "и ныбжьэгъу",
        -9.057690803270093
      ],
      [
        "ȗ ",
        -9.057808991834259
      ],
      [
        "ад",
        -9.059218664574479
      ],
      [
        "гъуэгум ",
        -9.059481763759125
      ],
      [
        "къэкӀуэж",
        -9.061269993625992
      ],
      [
        "хъуауэ ",
        -9.061741498722622
      ],
      [
        "гъэсэн",
        -9.063121918195447
      ],
      [
        "а зэманым ",
        -9.063257419213842
      ],
      [
        "адыгэбзэ",
        -9.063363110032357
      ],
      [
        "дэтхэнэ ",
        -9.063736196706566
      ],
      [
        "иужьрей ",
        -9.063916579980093
      ],
      [
        "псэу ",
        -9.064124419893249
      ],
      [
        "яху",
        -9.064153720777497
      ],
      [
        " пэтми ",
        -9.064506072671504
      ],
      [
        "ныгъэ ",
        -9.066181644699522
      ],
      [
        "совет ",
        -9.066376626765802
      ],
      [
        "гъэпсэху",
        -9.067499115094504
      ],
      [
        "спорт ",
        -9.068162369233331
      ],
      [
        "Ӏуэтэж",
        -9.068927501560996
      ],
      [
        "зей",
        -9.069238197027868
      ],
      [
        "иджырей ",
        -9.069418378472161
      ],
      [
        "бэч",
        -9.069529991014512
      ],
      [
        "ȥ",
        -9.06959989259449
      ],
      [
        "уф м и ",
        -9.06977021466293
      ],
      [
        "жыхуиӀэ",
        -9.07070771375932
      ],
      [
        "дин",
        -9.071267436454084
      ],
      [
        "пс ",
        -9.072151510337623
      ],
      [
        "зэгъ",
        -9.07271775660627
      ],
      [
        "гъатхэ",
        -9.073691462136493
      ],
      [
        "гор",
        -9.07412638765222
      ],
      [
        "жьы ",
        -9.075373654240463
      ],
      [
        "псэлъа",
        -9.075414235561517
      ],
      [
        "жыг",
        -9.075622133245023
      ],
      [
        "ейм ",
        -9.07664529039023
      ],
      [
        "зды",
        -9.07681016829524
      ],
      [
        "щым ",
        -9.077310710745916
      ],
      [
        "ɤɴ",
        -9.077469638089099
      ],
      [
        " Ӏуэхугъуэ",
        -9.077544090825509
      ],
      [
        "псэукӀэ",
        -9.077944364544411
      ],
      [
        "кавказ ",
        -9.078423733333427
      ],
      [
        "концерт",
        -9.080068630812985
      ],
      [
        "гузавэ",
        -9.080532301929855
      ],
      [
        "кӀэлъыплъ",
        -9.080781947946027
      ],
      [
        "министр",
        -9.082374213289832
      ],
      [
        "гъэгъу",
        -9.08305842255019
      ],
      [
        "хъуэж",
        -9.083152234180076
      ],
      [
        "газетым ",
        -9.084622912274298
      ],
      [
        "хэлъу ",
        -9.084686313711044
      ],
      [
        "фӀащ",
        -9.084979852493067
      ],
      [
        "нур",
        -9.085579997754191
      ],
      [
        "хуэдиз ",
        -9.085664399883159
      ],
      [
        "нэхъыщхьэ",
        -9.085784694194452
      ],
      [
        "дэт",
        -9.085903037999502
      ],
      [
        "лю",
        -9.085970009323571
      ],
      [
        "абы къы",
        -9.086116405664448
      ],
      [
        "лъхьэ ",
        -9.087960321689767
      ],
      [
        "ахэм ",
        -9.08826784184031
      ],
      [
        "ас",
        -9.09086511952545
      ],
      [
        "гъуэтыж",
        -9.09093020795592
      ],
      [
        "кон",
        -9.091800920338317
      ],
      [
        "иӀа",
        -9.092124671179787
      ],
      [
        "тыркум ",
        -9.092933738672828
      ],
      [
        " ящӀ",
        -9.095991840426732
      ],
      [
        "зэӀу",
        -9.096096324665332
      ],
      [
        "къэкӀуа",
        -9.098522146564347
      ],
      [
        "гъэм къалъхуащ ",
        -9.100468584261861
      ],
      [
        "хьэт",
        -9.100475768885348
      ],
      [
        "лъэпкъыр ",
        -9.100502557005052
      ],
      [
        "шэч ",
        -9.101264142330525
      ],
      [
        "жьей",
        -9.101598431304806
      ],
      [
        "тын ",
        -9.102307809825712
      ],
      [
        "пшыхь",
        -9.102395101052087
      ],
      [
        "щӀыну ",
        -9.103508987440598
      ],
      [
        "лъапсэ ",
        -9.103873034124643
      ],
      [
        "къэралым и ",
        -9.104217904703757
      ],
      [
        "егъэджэныгъэ",
        -9.104420547830191
      ],
      [
        "шащ ",
        -9.104597856268553
      ],
      [
        "плъа",
        -9.10504917229557
      ],
      [
        "кӀи",
        -9.106034984475857
      ],
      [
        "ара ",
        -9.106105974657092
      ],
      [
        "кхъуэ",
        -9.106165719682435
      ],
      [
        "ля",
        -9.1065968138646
      ],
      [
        "дакъикъэ",
        -9.107367486943955
      ],
      [
        "шъхьа",
        -9.10742831667301
      ],
      [
        "мыкӀ",
        -9.108320799954143
      ],
      [
        "нэхъыбэ ",
        -9.108550741444738
      ],
      [
        "шхын",
        -9.10872571010983
      ],
      [
        "къэб",
        -9.109973350240242
      ],
      [
        "ге",
        -9.110486408853095
      ],
      [
        "ɭ ",
        -9.110748050736674
      ],
      [
        "ищ",
        -9.110999860981218
      ],
      [
        "уэ щытащ ",
        -9.111138335228892
      ],
      [
        "ский ",
        -9.112149560879415
      ],
      [
        "щ ар ",
        -9.112419823734825
      ],
      [
        "цӀэр ",
        -9.112664314084759
      ],
      [
        "Ӏуэхугъуэ",
        -9.11282468299583
      ],
      [
        "уе",
        -9.11342179830852
      ],
      [
        "адыгэбзэкӀэ 12 ",
        -9.113895209443681
      ],
      [
        "итӀани ",
        -9.11399908395535
      ],
      [
        "нымрэ ",
        -9.114266292748638
      ],
      [
        "театрым ",
        -9.11491025718663
      ],
      [
        "Ӏэта",
        -9.11587517032452
      ],
      [
        "псалъэмакъ",
        -9.115939971267938
      ],
      [
        "пер",
        -9.116154570130336
      ],
      [
        "генерал",
        -9.11652282485752
      ],
      [
        "мывэ",
        -9.11691950251707
      ],
      [
        "папщӀэ ",
        -9.117487001775485
      ],
      [
        "фэеплъ",
        -9.117550007257881
      ],
      [
        "дзэм ",
        -9.119656396504922
      ],
      [
        "школым ",
        -9.1196914612271
      ],
      [
        "кӀуа ",
        -9.120173864734161
      ],
      [
        "ран",
        -9.120270126268862
      ],
      [
        "дыхьэ",
        -9.120506495622905
      ],
      [
        "ȧ ",
        -9.120527951446947
      ],
      [
        "гъунэгъу ",
        -9.12116638206839
      ],
      [
        "Ӏуэ ",
        -9.122574035715246
      ],
      [
        "имыӀэу ",
        -9.123359309302254
      ],
      [
        "\f",
        -9.124376702346572
      ],
      [
        "къу ",
        -9.124896020149334
      ],
      [
        "Ӏуащхьэмахуэ ",
        -9.125201339380178
      ],
      [
        "къуэш",
        -9.12578816345717
      ],
      [
        "лэжьы",
        -9.126407499015908
      ],
      [
        "ть",
        -9.126816951849456
      ],
      [
        "пыӀэ",
        -9.126846694863815
      ],
      [
        "нахь ",
        -9.126946976894937
      ],
      [
        "алыхь",
        -9.126955207308269
      ],
      [
        "къутэ",
        -9.12714102283553
      ],
      [
        "уафэ",
        -9.127229431739057
      ],
      [
        "фӀи",
        -9.127809581036425
      ],
      [
        "щхьэр ",
        -9.128838157504449
      ],
      [
        "къре",
        -9.12885580525127
      ],
      [
        "бер",
        -9.129444148070156
      ],
      [
        "щӀэныгъэм ",
        -9.130217561834803
      ],
      [
        "и 1",
        -9.131024206749363
      ],
      [
        "гуа",
        -9.131502526821365
      ],
      [
        "гуфӀэгъуэ",
        -9.134921947146514
      ],
      [
        "хьэблэ",
        -9.135248638565066
      ],
      [
        "щӀыж",
        -9.13539378533573
      ],
      [
        "гъэтӀылъ",
        -9.13701722062831
      ],
      [
        "кӀыну ",
        -9.137698308434276
      ],
      [
        "мурат ",
        -9.13819818652247
      ],
      [
        "щымыӀэ",
        -9.138609765963544
      ],
      [
        "ùû",
        -9.13902595772389
      ],
      [
        "жэуап",
        -9.139158158352695
      ],
      [
        "щекӀуэкӀа ",
        -9.139324812452113
      ],
      [
        "пӀа",
        -9.13988244496695
      ],
      [
        "зыкъом",
        -9.140279936207557
      ],
      [
        "у къа",
        -9.140343064800515
      ],
      [
        "кі",
        -9.140415421840972
      ],
      [
        "бзэ ",
        -9.140563663740354
      ],
      [
        "гуапэу ",
        -9.1408392769985
      ],
      [
        "цӀыхухъу",
        -9.141852690546015
      ],
      [
        "шэч",
        -9.142037942205434
      ],
      [
        "жым ",
        -9.142074929801268
      ],
      [
        "ì",
        -9.142376507167516
      ],
      [
        "0 ",
        -9.143734586967556
      ],
      [
        "зехьэ",
        -9.14422862192826
      ],
      [
        "рус",
        -9.144469433806876
      ],
      [
        "жын",
        -9.145092815803883
      ],
      [
        "ырщ ",
        -9.146237718730944
      ],
      [
        " куэдым ",
        -9.146610396782556
      ],
      [
        "ке",
        -9.147151627353875
      ],
      [
        "a",
        -9.147424079968772
      ],
      [
        "фӀэщӀ",
        -9.147543214781997
      ],
      [
        "пхъэ ",
        -9.147554422769334
      ],
      [
        "ше",
        -9.147797504583359
      ],
      [
        "джащ ",
        -9.14869717341535
      ],
      [
        "чэнджэщ",
        -9.148895731765302
      ],
      [
        "щӀигъэ",
        -9.149098508823228
      ],
      [
        "теухуа",
        -9.150588331171345
      ],
      [
        "фэр ",
        -9.151210840661689
      ],
      [
        "кӀэлъыкӀуэ",
        -9.151440465657709
      ],
      [
        "литературэм ",
        -9.151733172114547
      ],
      [
        "x",
        -9.154078623146027
      ],
      [
        "Ӏэбэ",
        -9.154360395043721
      ],
      [
        "лъэпкъым и ",
        -9.155264413694743
      ],
      [
        "хэ я ",
        -9.156302203889076
      ],
      [
        "ел",
        -9.157389929673482
      ],
      [
        "ныбжьэгъу",
        -9.157426693910784
      ],
      [
        "абыхэм я",
        -9.15901492907358
      ],
      [
        "пылъ",
        -9.159184570415128
      ],
      [
        "зрагъэ",
        -9.15962918214667
      ],
      [
        "ип",
        -9.160349005601699
      ],
      [
        "хъуж",
        -9.161060385867174
      ],
      [
        "къыхигъэщащ ",
        -9.161186009777278
      ],
      [
        "лым ",
        -9.161470717665033
      ],
      [
        "сабийхэм ",
        -9.162106205890268
      ],
      [
        "зэдэ",
        -9.162502477917059
      ],
      [
        "дыхьэшх",
        -9.162762621057142
      ],
      [
        "мыщӀэу ",
        -9.16304330378735
      ],
      [
        "убыдэ",
        -9.1630549260751
      ],
      [
        "кавказым ",
        -9.163308995722689
      ],
      [
        "хэмрэ я ",
        -9.163947063084086
      ],
      [
        "зекӀуэ",
        -9.16437435534391
      ],
      [
        "ɨ",
        -9.165269625767836
      ],
      [
        "хэтщ ",
        -9.165782509487874
      ],
      [
        "17",
        -9.165824441508597
      ],
      [
        "ɥ",
        -9.16640400119623
      ],
      [
        "иплӀ",
        -9.16655845537678
      ],
      [
        "авто",
        -9.166617609467338
      ],
      [
        "блэгъа",
        -9.166849506160995
      ],
      [
        "щигъэ",
        -9.167236327921875
      ],
      [
        "щт",
        -9.167248151556437
      ],
      [
        "ç",
        -9.168622205332243
      ],
      [
        "гуп ",
        -9.168977949142024
      ],
      [
        "щылажьэ",
        -9.169377266259966
      ],
      [
        "дэӀу",
        -9.169557721504559
      ],
      [
        "пащӀэ",
        -9.169595127006154
      ],
      [
        "кӀуэну ",
        -9.169812407416027
      ],
      [
        "апхуэдизкӀэ ",
        -9.169829133386324
      ],
      [
        "ущы",
        -9.169875557519513
      ],
      [
        "зэш",
        -9.170728608869172
      ],
      [
        "ɳ",
        -9.171299309256293
      ],
      [
        "хэта ",
        -9.171881625786105
      ],
      [
        "тхылъыр ",
        -9.172086367861468
      ],
      [
        "жэщым ",
        -9.17227200354283
      ],
      [
        "тхьэ ",
        -9.172461791262435
      ],
      [
        "пщӀантӀэм ",
        -9.173314646069226
      ],
      [
        "бзэм ",
        -9.173877943490385
      ],
      [
        "къэна",
        -9.173930741423518
      ],
      [
        "бж",
        -9.174056762485625
      ],
      [
        "арати ",
        -9.17479590990088
      ],
      [
        "6",
        -9.17544363957535
      ],
      [
        "гуауэ",
        -9.175681370676548
      ],
      [
        " лӀэужьыгъуэ",
        -9.175833961383544
      ],
      [
        "уасэ",
        -9.175888269609914
      ],
      [
        "жэ ",
        -9.17600402285088
      ],
      [
        "уна",
        -9.17632739838736
      ],
      [
        "и псэр ",
        -9.177716811086515
      ],
      [
        "щэн",
        -9.177946790237854
      ],
      [
        "не ",
        -9.17803968108111
      ],
      [
        "кӀыжащ ",
        -9.178183725417005
      ],
      [
        "щӀэж",
        -9.179285653951318
      ],
      [
        "нут ",
        -9.179650308284332
      ],
      [
        "ô",
        -9.18121907960336
      ],
      [
        "пцӀ",
        -9.181563452352842
      ],
      [
        "къэхъуа",
        -9.181769943029233
      ],
      [
        "увы",
        -9.182739221316298
      ],
      [
        "кӀухь",
        -9.183433821242959
      ],
      [
        "и къуэр ",
        -9.183616974789281
      ],
      [
        "гъэлъагъуэ ",
        -9.183630778595093
      ],
      [
        "районым ",
        -9.184630046095112
      ],
      [
        "хэмылъ",
        -9.18474436152823
      ],
      [
        "ˠ",
        -9.185719130285607
      ],
      [
        "куэдкӀэ ",
        -9.186121682951807
      ],
      [
        "даӀуэ",
        -9.186731573722524
      ],
      [
        "тыр",
        -9.186972358739924
      ],
      [
        "он ",
        -9.187796291654704
      ],
      [
        "къыхуи",
        -9.188432377250901
      ],
      [
        "ли ",
        -9.189144455404314
      ],
      [
        "хуэдэщ ",
        -9.189525151116777
      ],
      [
        "и гъусэу ",
        -9.189830937774637
      ],
      [
        "ков",
        -9.189873896301863
      ],
      [
        "къыӀу",
        -9.19019778552496
      ],
      [
        "зэхи",
        -9.190461774093764
      ],
      [
        "укӀ",
        -9.191576671751923
      ],
      [
        "рэ я ",
        -9.19195238285506
      ],
      [
        "иджыблагъэ ",
        -9.192996610969642
      ],
      [
        "пыщӀа",
        -9.193517371182214
      ],
      [
        "ахъ",
        -9.194362079346776
      ],
      [
        "щӀыкӀ",
        -9.19537898335181
      ],
      [
        "къэт",
        -9.19542090396209
      ],
      [
        "сулътӀан",
        -9.195457570461222
      ],
      [
        "хьэлэмэт",
        -9.196032016739808
      ],
      [
        "щабэ",
        -9.196065049779207
      ],
      [
        "и нэгу ",
        -9.196903356397653
      ],
      [
        "пэры",
        -9.197311923789966
      ],
      [
        "гуэр",
        -9.199089614194303
      ],
      [
        "сом ",
        -9.199225465413473
      ],
      [
        "хуэхъуа",
        -9.199264604771383
      ],
      [
        "пща",
        -9.199488289049462
      ],
      [
        "ыфӀ",
        -9.200657893971291
      ],
      [
        "пэплъэ",
        -9.20073641721665
      ],
      [
        "цӀ",
        -9.200997410643643
      ],
      [
        "55 ",
        -9.201183745358708
      ],
      [
        "хъума",
        -9.203160803783529
      ],
      [
        "яхэт",
        -9.203869607293923
      ],
      [
        "диӀэ",
        -9.203883221366056
      ],
      [
        "абхъаз",
        -9.204232037871455
      ],
      [
        "пэщ",
        -9.204636527245604
      ],
      [
        "гурыӀуэгъуэ",
        -9.204922999009115
      ],
      [
        "куу",
        -9.204943171041716
      ],
      [
        "м теухуауэ ",
        -9.204955434172817
      ],
      [
        "пэм ",
        -9.205049037656424
      ],
      [
        "но ",
        -9.206926450358123
      ],
      [
        "кар",
        -9.207244630916488
      ],
      [
        "лов",
        -9.207817846167327
      ],
      [
        "хьауэ ",
        -9.208925660487827
      ],
      [
        "зым ",
        -9.20902219245681
      ],
      [
        "íý",
        -9.209273858493248
      ],
      [
        "ùӀý",
        -9.209573749156897
      ],
      [
        "бэлыхь",
        -9.209669565619075
      ],
      [
        "анэр ",
        -9.210699678835423
      ],
      [
        "лъапэ",
        -9.210905729363121
      ],
      [
        "еджакӀуэ",
        -9.211597370515472
      ],
      [
        "щӀыгъуу ",
        -9.211738901279196
      ],
      [
        "мырзэ ",
        -9.211894649839238
      ],
      [
        "äý",
        -9.212173655342013
      ],
      [
        "ещӀ ",
        -9.212460082559435
      ],
      [
        "жэщ ",
        -9.213176579075856
      ],
      [
        "мэкъумэш ",
        -9.21375541241987
      ],
      [
        "зыхуей ",
        -9.214657444480533
      ],
      [
        "щӀэмы",
        -9.215423878415088
      ],
      [
        "мэр",
        -9.216670544794257
      ],
      [
        "пащтыхь",
        -9.217434088720655
      ],
      [
        "р щы",
        -9.217798346592923
      ],
      [
        "насып ",
        -9.217908873262163
      ],
      [
        "ëú",
        -9.218626451909135
      ],
      [
        "Ӏоф",
        -9.218939182162474
      ],
      [
        "сигу ",
        -9.21963632542218
      ],
      [
        "у зэры",
        -9.22027460823941
      ],
      [
        "къэралыгъуэ",
        -9.220279682122447
      ],
      [
        "шо",
        -9.221281746601228
      ],
      [
        "м щыщ ",
        -9.221452824378296
      ],
      [
        "мэ а",
        -9.221525979349144
      ],
      [
        "щоджэн",
        -9.22171384519582
      ],
      [
        "хьыж",
        -9.221777331633044
      ],
      [
        "егъэджакӀуэ ",
        -9.22186893842057
      ],
      [
        "кӀын ",
        -9.221959216674012
      ],
      [
        "цэм ",
        -9.222117760598035
      ],
      [
        "лӀым ",
        -9.222361723431165
      ],
      [
        "уф м ",
        -9.222737856574561
      ],
      [
        "ñû",
        -9.223109090341019
      ],
      [
        "зэригъэ",
        -9.224343504677018
      ],
      [
        "къикӀ",
        -9.224452434290836
      ],
      [
        "тхьэмыщкӀэ",
        -9.224557304377427
      ],
      [
        "мазэ",
        -9.226164994440792
      ],
      [
        "радио",
        -9.226208946806416
      ],
      [
        "советым ",
        -9.226666072478153
      ],
      [
        "у пӀэрэ ",
        -9.227079008597855
      ],
      [
        "бзаджэ",
        -9.228321522216223
      ],
      [
        "нэхъапэ",
        -9.228750975105998
      ],
      [
        "аслъэн ",
        -9.22905385064497
      ],
      [
        "щӀэкӀ",
        -9.229512942235331
      ],
      [
        "бз",
        -9.230073017862562
      ],
      [
        "фоч",
        -9.230836358417529
      ],
      [
        "лу ",
        -9.231452499407492
      ],
      [
        "стан",
        -9.231634320253328
      ],
      [
        "плъыжь",
        -9.231659584679225
      ],
      [
        "слъагъу",
        -9.232142053360807
      ],
      [
        "ɦ ",
        -9.232336337894145
      ],
      [
        "мкӀи ",
        -9.233386012945934
      ],
      [
        "Ӏущ",
        -9.233457284562679
      ],
      [
        "жьыгъэ",
        -9.2352841515434
      ],
      [
        "рей ",
        -9.235887698912016
      ],
      [
        "хьэпшып",
        -9.236497063074125
      ],
      [
        "хэкӀуэда",
        -9.236757559208593
      ],
      [
        "мыкӀуэ",
        -9.236844742407207
      ],
      [
        "ирагъэкӀуэкӀ",
        -9.23685894058935
      ],
      [
        "кӀын",
        -9.236919792133069
      ],
      [
        "ȣȫ",
        -9.237006476277688
      ],
      [
        "черкес",
        -9.237979442163915
      ],
      [
        "м къыхэкӀыу ",
        -9.237985897577502
      ],
      [
        "óý",
        -9.23997166832935
      ],
      [
        "шхуэр ",
        -9.2400592381068
      ],
      [
        "нэж",
        -9.240473227000724
      ],
      [
        "стэ",
        -9.240766431610455
      ],
      [
        "сурэтыщӀ",
        -9.241560208354503
      ],
      [
        "президент",
        -9.242214131391583
      ],
      [
        "тху",
        -9.242386663091503
      ],
      [
        " дахэ ",
        -9.24247942983871
      ],
      [
        "м теухуа ",
        -9.243061773899356
      ],
      [
        "астемыр ",
        -9.243806345222147
      ],
      [
        "ынукъым ",
        -9.245119051716392
      ],
      [
        "къару ",
        -9.245756165395516
      ],
      [
        "дыщэ ",
        -9.247533934258827
      ],
      [
        "зэрагъэ",
        -9.248581867120027
      ],
      [
        "къыщӀи",
        -9.248805870616998
      ],
      [
        "щекӀуэкӀащ ",
        -9.248951622889914
      ],
      [
        "ди республикэм ",
        -9.24944319155121
      ],
      [
        "Ӏуатэ",
        -9.249856658760304
      ],
      [
        "гъавэ",
        -9.249858311020912
      ],
      [
        "кур",
        -9.250691992029362
      ],
      [
        "кино",
        -9.250822796324485
      ],
      [
        "ȕ",
        -9.250993524615026
      ],
      [
        "фӀыщӀэ",
        -9.252074982526993
      ],
      [
        "ӀэщӀэ",
        -9.252266321588225
      ],
      [
        "абыхэм ящыщ",
        -9.252441258330624
      ],
      [
        "къыпхуэ",
        -9.252803633600793
      ],
      [
        " къэс ",
        -9.25322770567157
      ],
      [
        "тригъэ",
        -9.254641172676104
      ],
      [
        "овэ ",
        -9.255224168352612
      ],
      [
        "уей ",
        -9.255794770734601
      ],
      [
        "лъэпкъы",
        -9.256070915779532
      ],
      [
        "дэмы",
        -9.256287577458181
      ],
      [
        "псом хуэмыдэу ",
        -9.256319385799948
      ],
      [
        "н щхьэкӀэ ",
        -9.257160336251065
      ],
      [
        "дзащ ",
        -9.257910004415917
      ],
      [
        "ахъшэ ",
        -9.258543462317386
      ],
      [
        "лъэхъэнэ",
        -9.259743824111224
      ],
      [
        "жыркъым ",
        -9.259828950240088
      ],
      [
        "инал ",
        -9.261443336762772
      ],
      [
        "курыт еджапӀэ",
        -9.262649085301089
      ],
      [
        "пху",
        -9.263253328338113
      ],
      [
        "убгъу",
        -9.26366924420494
      ],
      [
        "0",
        -9.263747338810697
      ],
      [
        "Ӏэмэпсымэ",
        -9.263818376036545
      ],
      [
        "владимир ",
        -9.264083452267998
      ],
      [
        "захуэ",
        -9.264137131709822
      ],
      [
        "ухуа",
        -9.264428415473619
      ],
      [
        "жьэ ",
        -9.264732157223492
      ],
      [
        "тэрч ",
        -9.265309060687834
      ],
      [
        "благъэ ",
        -9.2653169585391
      ],
      [
        "нащ ",
        -9.2656899924528
      ],
      [
        "ящыщ",
        -9.265714525049445
      ],
      [
        "ынт ",
        -9.266031896920923
      ],
      [
        "трагъэ",
        -9.2661130109205
      ],
      [
        "урысыбзэ",
        -9.267640783396448
      ],
      [
        "ӀэщӀагъэм ",
        -9.268121841443268
      ],
      [
        "къута",
        -9.268223017278988
      ],
      [
        "ямы",
        -9.268494365732279
      ],
      [
        "дуней псом ",
        -9.268510256292148
      ],
      [
        "илъэсым ",
        -9.268575493590474
      ],
      [
        "нэхъыбэу ",
        -9.268870896544472
      ],
      [
        "къикӀы",
        -9.269226723050062
      ],
      [
        "щіэ",
        -9.269594411762546
      ],
      [
        "тыну ",
        -9.269750422225492
      ],
      [
        "нтӀэ ",
        -9.269972952728237
      ],
      [
        "60 ",
        -9.270164556797805
      ],
      [
        "ãó",
        -9.270333557709742
      ],
      [
        "пхъа",
        -9.270489983030496
      ],
      [
        "филъм",
        -9.270513709750066
      ],
      [
        "ыгъэ ",
        -9.270671280309667
      ],
      [
        "õý",
        -9.271300828463142
      ],
      [
        "лъыс",
        -9.27186031719327
      ],
      [
        "и къуэш",
        -9.271878907839378
      ],
      [
        "къэхутэныгъэ",
        -9.272282418746322
      ],
      [
        "хьэм",
        -9.272484612537523
      ],
      [
        "щ икӀи ",
        -9.273072553293048
      ],
      [
        " цӀыкӀур ",
        -9.273258602038469
      ],
      [
        "ягу ",
        -9.274510270194403
      ],
      [
        "дерс",
        -9.274554251364084
      ],
      [
        "класс",
        -9.27482627270193
      ],
      [
        "м тету ",
        -9.275197300485921
      ],
      [
        "фӀыгъуэ",
        -9.275374426792043
      ],
      [
        "укӀы",
        -9.276630841082145
      ],
      [
        "щӀэупщӀэ",
        -9.276877397099927
      ],
      [
        "жынщ ",
        -9.277388299311134
      ],
      [
        " хъуауэ ",
        -9.277641172425735
      ],
      [
        "жыхуаӀэ",
        -9.277900316646425
      ],
      [
        "Ӏуащхьэ",
        -9.278053338045101
      ],
      [
        "ест",
        -9.278463551772157
      ],
      [
        "пэш",
        -9.278712048880411
      ],
      [
        "80 ",
        -9.278965849186466
      ],
      [
        "пкъры",
        -9.279035747018314
      ],
      [
        "къудамэм ",
        -9.27911589442918
      ],
      [
        "шэс",
        -9.280916593597837
      ],
      [
        "и цӀэр зезыхьэ ",
        -9.281371189523608
      ],
      [
        "дахэу ",
        -9.281432102755515
      ],
      [
        "м и унафэщӀ ",
        -9.281910589851726
      ],
      [
        "тэдж",
        -9.282220020090175
      ],
      [
        "махуэшхуэ",
        -9.282314261688331
      ],
      [
        "итху",
        -9.283152985814773
      ],
      [
        "къэрэ",
        -9.283166961375398
      ],
      [
        "хуэныкъуэ",
        -9.283185420212153
      ],
      [
        "ɡɵ",
        -9.283703017218713
      ],
      [
        "щымыӀэу ",
        -9.283783912735604
      ],
      [
        "лъхьащ ",
        -9.283996034879909
      ],
      [
        "псалъэм папщӀэ ",
        -9.284619453189187
      ],
      [
        "ури",
        -9.285124703413526
      ],
      [
        "командэ",
        -9.285430561805878
      ],
      [
        "хьу ",
        -9.28576754766804
      ],
      [
        "александр ",
        -9.286166360229611
      ],
      [
        "и гугъэ",
        -9.286874760353586
      ],
      [
        "псалъэхэр ",
        -9.287571413090584
      ],
      [
        "къыхи",
        -9.28803587760887
      ],
      [
        "гъэсэныгъэ",
        -9.289297610656469
      ],
      [
        "дызы",
        -9.289675298213906
      ],
      [
        "и фӀэщ",
        -9.289883654138741
      ],
      [
        "гурыӀуа",
        -9.290339420150705
      ],
      [
        "ӀуэрыӀуатэ",
        -9.290360852004442
      ],
      [
        "дуней",
        -9.290814219843162
      ],
      [
        "жылэм ",
        -9.290818961318886
      ],
      [
        "къимы",
        -9.291242398334967
      ],
      [
        "мыщэ",
        -9.29134284802467
      ],
      [
        "кӀыфӀ",
        -9.291468915324362
      ],
      [
        "къызэре",
        -9.292976214299168
      ],
      [
        "шыпхъу",
        -9.2935382106473
      ],
      [
        "псэм ",
        -9.294424696561194
      ],
      [
        "м ещхьу ",
        -9.29524098799016
      ],
      [
        "хэр щы",
        -9.295868134994874
      ],
      [
        "тенджыз",
        -9.298120925453853
      ],
      [
        "текӀуэ",
        -9.298198065046657
      ],
      [
        "уӀэгъэ",
        -9.29894472194015
      ],
      [
        "вер",
        -9.299625526862307
      ],
      [
        "зэпи",
        -9.299768727130246
      ],
      [
        "щэнхабзэ",
        -9.300444507324412
      ],
      [
        "тэмэму ",
        -9.300732904128965
      ],
      [
        "къищынэмыщӀауэ ",
        -9.302177951181156
      ],
      [
        "аслъэн",
        -9.302453332185932
      ],
      [
        "ɤɴɵ",
        -9.302460437373131
      ],
      [
        "хущӀэкъу",
        -9.30247707503983
      ],
      [
        "апхуэдэуи ",
        -9.303102248128193
      ],
      [
        "щэнхабзэмкӀэ ",
        -9.30375301367201
      ],
      [
        "зыху",
        -9.30380065041376
      ],
      [
        " псор ",
        -9.304170543620454
      ],
      [
        "Ӏэпэ",
        -9.305492965471009
      ],
      [
        "ˍ ",
        -9.30582277391769
      ],
      [
        "сер",
        -9.306253952640633
      ],
      [
        "хьэх",
        -9.306292550490793
      ],
      [
        "спорт",
        -9.30634304197875
      ],
      [
        "ț ",
        -9.306381688265963
      ],
      [
        "кӀар ",
        -9.307884377298283
      ],
      [
        "мэз",
        -9.309183613678753
      ],
      [
        "ежьэ",
        -9.309601231955163
      ],
      [
        "бжыгъэр ",
        -9.309660777724282
      ],
      [
        "къиух",
        -9.309949706741914
      ],
      [
        "къуи",
        -9.310116138052535
      ],
      [
        "щэу ",
        -9.31089676758243
      ],
      [
        "къытра",
        -9.31376447621834
      ],
      [
        "зэхъуэкӀыныгъэ",
        -9.314453816560897
      ],
      [
        "гъэпщкӀу",
        -9.314775055488166
      ],
      [
        "псынщӀэ",
        -9.314894844314923
      ],
      [
        "сэбэп ",
        -9.31535916157446
      ],
      [
        "къыщӀы",
        -9.316252964539443
      ],
      [
        "къытри",
        -9.316271771290971
      ],
      [
        "хадэ",
        -9.317338112327963
      ],
      [
        "бэр",
        -9.317436397679373
      ],
      [
        "щыхьэт",
        -9.317692027382698
      ],
      [
        "ус",
        -9.317828158108796
      ],
      [
        "кърагъэ",
        -9.318015497493112
      ],
      [
        "и къуэ ",
        -9.31972722852739
      ],
      [
        "итщ ",
        -9.319845415246172
      ],
      [
        "инджылыз",
        -9.319852556293045
      ],
      [
        "м щӀигъу ",
        -9.320273419156988
      ],
      [
        "дыщы",
        -9.320380696517688
      ],
      [
        "тхьэмахуэ",
        -9.32076625050083
      ],
      [
        "зыщи",
        -9.321320034603703
      ],
      [
        "ɡ",
        -9.322008868035711
      ],
      [
        "и бын",
        -9.322662274133945
      ],
      [
        "чъэ",
        -9.32306652895152
      ],
      [
        "шэрджэс",
        -9.323324164496979
      ],
      [
        "хым ",
        -9.323455570633204
      ],
      [
        "тхъу",
        -9.323574254762661
      ],
      [
        "дигъэкӀ",
        -9.323589870651075
      ],
      [
        "ыртэкъым ",
        -9.324649988505726
      ],
      [
        "жери ",
        -9.32513808560413
      ],
      [
        "гъагъэ",
        -9.325769355905724
      ],
      [
        "сщӀэ",
        -9.32624146535202
      ],
      [
        "ипэкӀэ ",
        -9.32738348894947
      ],
      [
        "це",
        -9.327957833873727
      ],
      [
        "ɭɷ",
        -9.328421727039633
      ],
      [
        "псалъэр ",
        -9.329618914498411
      ],
      [
        "ибл",
        -9.330391355362682
      ],
      [
        "цӀыхубз ",
        -9.33058211741803
      ],
      [
        "хъуа ",
        -9.331436439221747
      ],
      [
        "lэ",
        -9.331677402107276
      ],
      [
        "фызыжь",
        -9.33186329786058
      ],
      [
        "адыгэхэр ",
        -9.332848635878246
      ],
      [
        "пх",
        -9.333436591412562
      ],
      [
        "бийм ",
        -9.333970407812263
      ],
      [
        "õó",
        -9.335177095140121
      ],
      [
        "зэрагъэпэщ",
        -9.337181880992578
      ],
      [
        "иух",
        -9.33723671476979
      ],
      [
        "мазэ ныкъуэ ",
        -9.337520246161027
      ],
      [
        "e",
        -9.338169060718798
      ],
      [
        "мрэ",
        -9.338374994122136
      ],
      [
        "õüý",
        -9.338523977176331
      ],
      [
        "хэм ящыщ",
        -9.342123881539527
      ],
      [
        "дэтхэнэми ",
        -9.34294600864555
      ],
      [
        "блы",
        -9.342968717692887
      ],
      [
        "Ӏэщ",
        -9.343706729629059
      ],
      [
        "тыгъэ",
        -9.345250658156159
      ],
      [
        "къахэ",
        -9.346001840123266
      ],
      [
        "об",
        -9.346726921288655
      ],
      [
        "70 ",
        -9.346873188085967
      ],
      [
        "тхьа",
        -9.347993299909112
      ],
      [
        "эр республикэм ",
        -9.348883011433989
      ],
      [
        "сызэры",
        -9.348967029902179
      ],
      [
        "илъэгъуа",
        -9.349990589192744
      ],
      [
        "унафэ",
        -9.350236526091994
      ],
      [
        "жыф",
        -9.352064183182284
      ],
      [
        "утыкум ",
        -9.35210269161996
      ],
      [
        "щӀидзащ ",
        -9.352483855069913
      ],
      [
        "лъыр ",
        -9.352532863315849
      ],
      [
        "êӀ",
        -9.352705437358571
      ],
      [
        "хасэ",
        -9.353799549760902
      ],
      [
        "пщым ",
        -9.354389744079654
      ],
      [
        "жыг ",
        -9.354425069058724
      ],
      [
        "ɪ",
        -9.355412788577166
      ],
      [
        "уз ",
        -9.355985441709802
      ],
      [
        "убыды",
        -9.356166103080067
      ],
      [
        "щыгъупщэ",
        -9.356629957042657
      ],
      [
        "имыӀэ",
        -9.356820782857485
      ],
      [
        "кавказ ищхъэрэм ",
        -9.356837508842348
      ],
      [
        "Ӏуры",
        -9.357102261140977
      ],
      [
        "нэрылъагъу",
        -9.357201326001746
      ],
      [
        "унэтӀ",
        -9.35949572946785
      ],
      [
        " зэпыт",
        -9.360159148686108
      ],
      [
        "къыдо",
        -9.361059695347473
      ],
      [
        "и къуэм ",
        -9.36160397960934
      ],
      [
        "къапщтэмэ ",
        -9.361796239154915
      ],
      [
        "хъуэхъу ",
        -9.363170041636861
      ],
      [
        "хэхъуэ",
        -9.363359342911775
      ],
      [
        "зэхэт",
        -9.363406120635702
      ],
      [
        "ɧɷ",
        -9.364322833298983
      ],
      [
        "орден",
        -9.364371988978721
      ],
      [
        "зыхуейр ",
        -9.364410886671989
      ],
      [
        "администрацэм ",
        -9.365319428644789
      ],
      [
        "кра",
        -9.365677015974027
      ],
      [
        "ологие",
        -9.366027109094317
      ],
      [
        "илъагъу",
        -9.366206017775772
      ],
      [
        "иужь ",
        -9.367170740369808
      ],
      [
        "тепщэ",
        -9.36731871157572
      ],
      [
        "ауэ",
        -9.36740320675222
      ],
      [
        "нэхърэ нэхъ ",
        -9.367759653258954
      ],
      [
        "парламентым ",
        -9.368213504214662
      ],
      [
        "ныбжьыщӀэхэм ",
        -9.368892082081437
      ],
      [
        "ȕȫ",
        -9.370662615342631
      ],
      [
        "ират",
        -9.37099757404709
      ],
      [
        "хъуар ",
        -9.371428611236349
      ],
      [
        "ɬ ",
        -9.371705746622158
      ],
      [
        "макъыр ",
        -9.371874631210293
      ],
      [
        "регъэ",
        -9.37214364636925
      ],
      [
        "еуэ",
        -9.372556838539847
      ],
      [
        "и Ӏэтащхьэ ",
        -9.372775021615723
      ],
      [
        "хуэза",
        -9.373179963200572
      ],
      [
        "жэрдэм",
        -9.374193083839778
      ],
      [
        "мазэм ",
        -9.374470607397143
      ],
      [
        "суд",
        -9.374530723511558
      ],
      [
        "нарт ",
        -9.374566439355185
      ],
      [
        "иригъэкӀуэкӀ",
        -9.374765870006229
      ],
      [
        "къэтэдж",
        -9.374791977579285
      ],
      [
        "м щхьэкӀэ ",
        -9.376144955705756
      ],
      [
        "ау ",
        -9.376360584357473
      ],
      [
        "хэта",
        -9.376709514613946
      ],
      [
        "ухы",
        -9.377860810513605
      ],
      [
        "мывэ ",
        -9.377977351559839
      ],
      [
        "õóý",
        -9.378112500088795
      ],
      [
        "хэп",
        -9.378680794852736
      ],
      [
        "плъэкӀ",
        -9.380152683510017
      ],
      [
        "и гугъу ",
        -9.380305254186268
      ],
      [
        "гъасэ",
        -9.380474860256324
      ],
      [
        "хутэ",
        -9.380662741903482
      ],
      [
        "щыгъын",
        -9.380790019552009
      ],
      [
        "сей",
        -9.380817925927918
      ],
      [
        "щытыкӀэ",
        -9.380891755779498
      ],
      [
        "хьэл",
        -9.380943139199331
      ],
      [
        "ыныгъэ",
        -9.381004730277926
      ],
      [
        "балигъ",
        -9.381022949460116
      ],
      [
        "ӀуэхущӀапӀэм ",
        -9.381043021808978
      ],
      [
        "нысэ",
        -9.381186633967205
      ],
      [
        "тӀысы",
        -9.38140727308909
      ],
      [
        "ныгъэр ",
        -9.381509658671636
      ],
      [
        "спектакл",
        -9.381920860449256
      ],
      [
        "ххэ",
        -9.38216134266643
      ],
      [
        "щыгъуазэ ",
        -9.382263974355174
      ],
      [
        "цӀыхугъэ",
        -9.382557483379438
      ],
      [
        "бар",
        -9.382728668291415
      ],
      [
        "граф",
        -9.382833778209882
      ],
      [
        "увыӀа",
        -9.383068689598193
      ],
      [
        "халъхьэ",
        -9.383152074581554
      ],
      [
        "гулъытэ",
        -9.383332043046966
      ],
      [
        "уэркъ",
        -9.383441860352406
      ],
      [
        "пщэдей",
        -9.383463467798887
      ],
      [
        "и Ӏэтащхьэм ",
        -9.383692195400585
      ],
      [
        "къыхуа",
        -9.384331809989245
      ],
      [
        "ù",
        -9.384676672118012
      ],
      [
        "хэти ",
        -9.384689349405601
      ],
      [
        "къысху",
        -9.385620789075293
      ],
      [
        "Ӏуих",
        -9.38585309503943
      ],
      [
        "кърат",
        -9.385920732353629
      ],
      [
        "сэлэт",
        -9.386025650618354
      ],
      [
        "район",
        -9.38622966250567
      ],
      [
        " щыӀэкъым ",
        -9.38730379591139
      ],
      [
        "къэд",
        -9.387812390057832
      ],
      [
        "нь",
        -9.387868904417811
      ],
      [
        "Ӏэпкълъэпкъ",
        -9.388382378180669
      ],
      [
        "мари",
        -9.38873821618574
      ],
      [
        "щэнхабзэ ",
        -9.388782166818842
      ],
      [
        "сытми ",
        -9.389477560470542
      ],
      [
        "гукъыдэж",
        -9.389941711276482
      ],
      [
        "езгъэ",
        -9.390127435157904
      ],
      [
        "ȉ",
        -9.390427205936227
      ],
      [
        "совет",
        -9.390541080972628
      ],
      [
        "арэзы ",
        -9.390816844715212
      ],
      [
        "мал",
        -9.39084158678915
      ],
      [
        "ðè ",
        -9.39124986556683
      ],
      [
        "къагъэсэбэп",
        -9.391271168504261
      ],
      [
        "мелуан",
        -9.391367097758222
      ],
      [
        "щӀидзэ",
        -9.391724310456233
      ],
      [
        "23 ",
        -9.391785219040646
      ],
      [
        "жьэу ",
        -9.392504044172165
      ],
      [
        "зыбжанэ",
        -9.392666653110659
      ],
      [
        "пэщӀэт",
        -9.392706111895688
      ],
      [
        "шъхьэ",
        -9.393415930713203
      ],
      [
        "гупыр ",
        -9.393503069111684
      ],
      [
        "кавказ",
        -9.393647779706056
      ],
      [
        "ов",
        -9.39380491355865
      ],
      [
        "гъунэ",
        -9.394228502186461
      ],
      [
        "шъхьэ ",
        -9.394680473828632
      ],
      [
        "хабзэ ",
        -9.395445021440915
      ],
      [
        "щытхъу",
        -9.396246816554676
      ],
      [
        "и щхьэм ",
        -9.39635841777174
      ],
      [
        "алыдж",
        -9.396499052971624
      ],
      [
        "хэлъщ ",
        -9.398674668887253
      ],
      [
        "ич",
        -9.399412707411066
      ],
      [
        "жагъуэ",
        -9.399466334033768
      ],
      [
        "псэр ",
        -9.399836261573274
      ],
      [
        "енкэ ",
        -9.400932351270002
      ],
      [
        "слъэгъуа",
        -9.400962250603598
      ],
      [
        "тхыгъэ ",
        -9.401109831406487
      ],
      [
        "гъэса",
        -9.401373464038405
      ],
      [
        "лэжьащ ",
        -9.402442204376168
      ],
      [
        "абдеж ",
        -9.402628897856015
      ],
      [
        "90 ",
        -9.403119253623641
      ],
      [
        "хэплъэ",
        -9.40349408696855
      ],
      [
        "мер",
        -9.40415670552003
      ],
      [
        "лин",
        -9.404726465882362
      ],
      [
        "къытхуэ",
        -9.404914276017958
      ],
      [
        "сабии",
        -9.40503507375787
      ],
      [
        "мэз ",
        -9.405146527107235
      ],
      [
        "пщы ",
        -9.405297802159591
      ],
      [
        "ын папщӀэ ",
        -9.405384476611488
      ],
      [
        "гузэвэгъуэ",
        -9.405507493103288
      ],
      [
        "и къуэ",
        -9.405812077719151
      ],
      [
        "къызо",
        -9.405911865820672
      ],
      [
        "Ӏэтащхьэ",
        -9.406065446383927
      ],
      [
        "хьар ",
        -9.406228213808877
      ],
      [
        "хъурт ",
        -9.406425341452838
      ],
      [
        "щеджэ",
        -9.406581458528247
      ],
      [
        "гъэнщӀ",
        -9.40663947274047
      ],
      [
        "8",
        -9.407141607408565
      ],
      [
        "ñý",
        -9.40714213868898
      ],
      [
        "хэмы",
        -9.407511401308838
      ],
      [
        "жриӀэ",
        -9.4081995188531
      ],
      [
        "лӀэщӀыгъуэ",
        -9.4082473259173
      ],
      [
        "Ӏыхьлы",
        -9.408897131675962
      ],
      [
        "мыпхуэдэ ",
        -9.409166907324565
      ],
      [
        "ю ",
        -9.40922874075105
      ],
      [
        "хабзэр ",
        -9.409352638958742
      ],
      [
        "зэуа",
        -9.409679387260413
      ],
      [
        "иным ",
        -9.410067499317957
      ],
      [
        "од",
        -9.410306255343182
      ],
      [
        "икӀ",
        -9.410310354297916
      ],
      [
        "упчӀ",
        -9.410823942503772
      ],
      [
        "кӀуэу ",
        -9.41100059231449
      ],
      [
        " зиӀэ",
        -9.41147032297536
      ],
      [
        "ȁ",
        -9.411491520466388
      ],
      [
        "къегъэ",
        -9.411861696544378
      ],
      [
        "губгъуэ",
        -9.41209399595025
      ],
      [
        "гущыӀэ",
        -9.412395823116514
      ],
      [
        "кӀырт ",
        -9.412528788794251
      ],
      [
        "ê",
        -9.412819719975618
      ],
      [
        "хьэлэл",
        -9.413620616099847
      ],
      [
        "ягъэув",
        -9.41484859743042
      ],
      [
        " хъуа ",
        -9.415181540483381
      ],
      [
        "хамэ къэрал",
        -9.415609110817694
      ],
      [
        "ка ",
        -9.415624421606804
      ],
      [
        "тхьэкӀумэ",
        -9.41678271484431
      ],
      [
        "тхъэ",
        -9.418082295469521
      ],
      [
        "си адэ",
        -9.41847992456131
      ],
      [
        " щӀыкӀэ ",
        -9.419178467806727
      ],
      [
        "тырку ",
        -9.419225805117225
      ],
      [
        "и мурад",
        -9.41931330267679
      ],
      [
        "ныбэ",
        -9.41945024504004
      ],
      [
        "цен",
        -9.419970978155174
      ],
      [
        "жмэ ",
        -9.420286995401735
      ],
      [
        "узыншэ",
        -9.42127733991889
      ],
      [
        "цӀыхухэм я ",
        -9.421290171200347
      ],
      [
        "бжьыхьэ",
        -9.421573905125284
      ],
      [
        "ет ",
        -9.421818052664555
      ],
      [
        "тэу ",
        -9.422357440408218
      ],
      [
        "õúó",
        -9.422664536497592
      ],
      [
        "лъэужь",
        -9.422690925186465
      ],
      [
        "мазэ ",
        -9.423135737039962
      ],
      [
        "хэкӀыпӀэ",
        -9.424169691875047
      ],
      [
        "ɳɵ",
        -9.425025472561732
      ],
      [
        "лъэт",
        -9.425342728138272
      ],
      [
        "зигъэ",
        -9.425425563578068
      ],
      [
        "202Ӏ ",
        -9.425954713368057
      ],
      [
        "бгырыс",
        -9.426359876673157
      ],
      [
        "сэбэп",
        -9.426362013470019
      ],
      [
        "гъущӀ ",
        -9.426838703236111
      ],
      [
        "кӀэщ ",
        -9.42750243106077
      ],
      [
        "ди лъэпкъэгъу",
        -9.427944198592353
      ],
      [
        "тикэ",
        -9.428353558640623
      ],
      [
        "Ӏэпхъуэ",
        -9.42836544014509
      ],
      [
        "къызэрагъэпэщ",
        -9.42857003888789
      ],
      [
        "мы гъэм ",
        -9.429142645619383
      ],
      [
        "депутат",
        -9.42980519142644
      ],
      [
        "убыда",
        -9.430495371690998
      ],
      [
        "щӀалэгъуалэм ",
        -9.430588604113666
      ],
      [
        "шэр ",
        -9.431127680641586
      ],
      [
        "быр",
        -9.43187483538021
      ],
      [
        "дзыхь ",
        -9.432561897663877
      ],
      [
        "24 ",
        -9.433674059923208
      ],
      [
        " хъуну",
        -9.433801029414026
      ],
      [
        "зан",
        -9.43392390926784
      ],
      [
        "теплъэ",
        -9.43426850102709
      ],
      [
        "чэзу",
        -9.434365128596589
      ],
      [
        "ой ",
        -9.434945331316662
      ],
      [
        "хъурей",
        -9.435055919091088
      ],
      [
        "ейуэ ",
        -9.435188358860069
      ],
      [
        "Ӏуащ ",
        -9.435873451839269
      ],
      [
        "фынущ ",
        -9.436256406541872
      ],
      [
        "19 ",
        -9.436398456720791
      ],
      [
        "сымы",
        -9.436891355888626
      ],
      [
        "ист ",
        -9.43691622811803
      ],
      [
        "фӀэкӀ ",
        -9.437014944746352
      ],
      [
        "хэращ ",
        -9.437903450668067
      ],
      [
        "къаз",
        -9.43870231443151
      ],
      [
        "бзы",
        -9.4388138934481
      ],
      [
        "дэри ",
        -9.43891662078181
      ],
      [
        "7",
        -9.440152282588645
      ],
      [
        "адыгэхэм я ",
        -9.440418310286528
      ],
      [
        "мыхъуу ",
        -9.440866106157063
      ],
      [
        "бгъа",
        -9.441537475166388
      ],
      [
        "мыгъуэ",
        -9.441634389565724
      ],
      [
        "балъкъэр ",
        -9.441686126600075
      ],
      [
        "кэм ",
        -9.441927465699273
      ],
      [
        "зауэр ",
        -9.444154676238082
      ],
      [
        "къыщӀо",
        -9.444242952739629
      ],
      [
        "лӀ ",
        -9.44517620343456
      ],
      [
        "муслъымэн",
        -9.445567592557941
      ],
      [
        "ирикъу",
        -9.445737705100207
      ],
      [
        "хьэкӀ",
        -9.446462367787243
      ],
      [
        "республикэ ",
        -9.446998524842282
      ],
      [
        "тхыгъэхэр ",
        -9.447397501303165
      ],
      [
        "лэжьыгъэхэр ",
        -9.44771537028782
      ],
      [
        "спортсмен",
        -9.447737359874978
      ],
      [
        "ɚɳ ",
        -9.447894472788876
      ],
      [
        "зэда",
        -9.44912448031172
      ],
      [
        "хуэгъэза",
        -9.449195041827533
      ],
      [
        "мэзкуу ",
        -9.449214527266548
      ],
      [
        "ащ икӀи ",
        -9.449784688822962
      ],
      [
        "джэр",
        -9.45004957952403
      ],
      [
        "ыжа",
        -9.45022818799048
      ],
      [
        "грамм",
        -9.450397258142715
      ],
      [
        "ù ",
        -9.450722222436582
      ],
      [
        "ɥɴ",
        -9.451606634008236
      ],
      [
        "щхъу",
        -9.452386429451927
      ],
      [
        "адыгэм ",
        -9.452458005014805
      ],
      [
        "дахагъэ",
        -9.452527111734062
      ],
      [
        " гуэрхэр ",
        -9.452592403106722
      ],
      [
        "удз",
        -9.45381165687828
      ],
      [
        "ɯɭ",
        -9.454275835307666
      ],
      [
        "абы щыгъуэ ",
        -9.454392888739282
      ],
      [
        "ɮ",
        -9.45463546601093
      ],
      [
        "пэщӀэдзэ",
        -9.454878585959833
      ],
      [
        "хьэрып",
        -9.455199420653681
      ],
      [
        "ырти ",
        -9.45679702224333
      ],
      [
        "афэ",
        -9.456834041857677
      ],
      [
        "пол",
        -9.457209356185828
      ],
      [
        " закъуэ ",
        -9.458746834055908
      ],
      [
        "цӀыхубэм ",
        -9.461071583934146
      ],
      [
        "ыншэ",
        -9.462239626997128
      ],
      [
        "1Ӏ",
        -9.462976622869656
      ],
      [
        "кърихьэлӀа",
        -9.463158716179905
      ],
      [
        "мэзым ",
        -9.463502802915114
      ],
      [
        "зыхь",
        -9.463579437384633
      ],
      [
        "щытекӀуа",
        -9.463666262181043
      ],
      [
        "тэмэм",
        -9.4643207067585
      ],
      [
        "урысейпсо ",
        -9.464973059245075
      ],
      [
        "къикӀа ",
        -9.465293991520998
      ],
      [
        "хэку ",
        -9.465305839411045
      ],
      [
        "нэрэ ",
        -9.46644464964465
      ],
      [
        "къыпху",
        -9.46672150571931
      ],
      [
        "адэм ",
        -9.46687875118112
      ],
      [
        "хуэкӀуэ",
        -9.467269077030581
      ],
      [
        "лъакъуэ",
        -9.46754462035211
      ],
      [
        "бгъэдыхьэ",
        -9.468004702028564
      ],
      [
        "șȩ",
        -9.469171507828413
      ],
      [
        "зырыз",
        -9.469281366459667
      ],
      [
        "михаил ",
        -9.469317350637375
      ],
      [
        "нэгъуэщӀхэри ",
        -9.470020621768715
      ],
      [
        "Ӏуэхухэр ",
        -9.470304458983613
      ],
      [
        "къэбэрдейм ",
        -9.470591915727857
      ],
      [
        "увыпӀэ",
        -9.470816325715816
      ],
      [
        "ращи ",
        -9.471433555458878
      ],
      [
        "тхыдэ ",
        -9.471730848253372
      ],
      [
        "евэ ",
        -9.47174660170037
      ],
      [
        "уэ щыт",
        -9.472139780122824
      ],
      [
        "ерыскъы",
        -9.472310680542993
      ],
      [
        "каз",
        -9.472339850053718
      ],
      [
        "унэтӀыныгъэ",
        -9.472380768758946
      ],
      [
        "хъуэхъу",
        -9.472745281089566
      ],
      [
        "щекӀуэкӀ ",
        -9.472815894413037
      ],
      [
        "зэуэ ",
        -9.473016157112959
      ],
      [
        "уо",
        -9.47358061665852
      ],
      [
        "медал",
        -9.47427196174796
      ],
      [
        "Ӏуагъэ",
        -9.474429159710024
      ],
      [
        "быдэу ",
        -9.475185734517815
      ],
      [
        "ген",
        -9.47650042808717
      ],
      [
        "зэманыр ",
        -9.47678347881298
      ],
      [
        "кӀапэ",
        -9.476844584335808
      ],
      [
        "къыдэкӀ",
        -9.477108510132553
      ],
      [
        "кол",
        -9.4776275120705
      ],
      [
        "гъо ",
        -9.478293068276447
      ],
      [
        "къызди",
        -9.478356279076664
      ],
      [
        "дигъэ",
        -9.479129135715095
      ],
      [
        "и псэм ",
        -9.479238879333112
      ],
      [
        "плъащ ",
        -9.47935162677145
      ],
      [
        "укӀытэ",
        -9.479863376987172
      ],
      [
        "курыт школ",
        -9.4799313806131
      ],
      [
        "кърым",
        -9.480557160143128
      ],
      [
        "гъи ",
        -9.48124713391703
      ],
      [
        "зэщӀи",
        -9.481298230724569
      ],
      [
        "ɯ",
        -9.481348827863178
      ],
      [
        "и адэм ",
        -9.481517398920595
      ],
      [
        "лӀащ ",
        -9.481851124314204
      ],
      [
        "ист",
        -9.48250775230008
      ],
      [
        "ца",
        -9.48268000722184
      ],
      [
        "27 ",
        -9.483505270114254
      ],
      [
        "щымыт",
        -9.483813630486093
      ],
      [
        "сабийхэр ",
        -9.483818601477445
      ],
      [
        "иӀэ ",
        -9.48410390803288
      ],
      [
        "ссср м и ",
        -9.484581997977727
      ],
      [
        "хуит ",
        -9.484987225976097
      ],
      [
        "28 ",
        -9.48587039645323
      ],
      [
        "ȧ",
        -9.486656655225808
      ],
      [
        "нартыху",
        -9.48675678387022
      ],
      [
        "кӀуэкӀ",
        -9.487181713448383
      ],
      [
        "жриӀащ ",
        -9.48732785037792
      ],
      [
        "кум ",
        -9.48748936526034
      ],
      [
        "сыкъэ",
        -9.487911268202234
      ],
      [
        "Ӏыхьэ ",
        -9.488821718424553
      ],
      [
        "щэнхабзэм ",
        -9.489492534064434
      ],
      [
        "апхуэдизу ",
        -9.489700716113155
      ],
      [
        "пхъэщ ",
        -9.489835810157729
      ],
      [
        "зэныбжьэгъу",
        -9.489955277714913
      ],
      [
        "псэлъы",
        -9.489998259433332
      ],
      [
        "къаху",
        -9.49036658315428
      ],
      [
        "баш",
        -9.491085317292029
      ],
      [
        "хыхьа",
        -9.491188492084285
      ],
      [
        "àù ",
        -9.49241778686958
      ],
      [
        "и министерствэм ",
        -9.49257852521191
      ],
      [
        "еиж",
        -9.49258789281541
      ],
      [
        "уэрам",
        -9.493056452940298
      ],
      [
        "цӀыхум и ",
        -9.49350417394411
      ],
      [
        "агъыр ",
        -9.493819419953581
      ],
      [
        "фор",
        -9.493936406911168
      ],
      [
        "гъэува",
        -9.494284374347219
      ],
      [
        "къыда",
        -9.494669515877405
      ],
      [
        "ди адэ",
        -9.495411423620235
      ],
      [
        "щӀын ",
        -9.495693841820362
      ],
      [
        "сурэт ",
        -9.49643231556922
      ],
      [
        "хэку зауэшхуэм ",
        -9.496660448007827
      ],
      [
        "губгъуэм ",
        -9.497087215205552
      ],
      [
        "псо",
        -9.497420382356012
      ],
      [
        "зимыӀэ",
        -9.497729354785038
      ],
      [
        "нобэрей ",
        -9.497994031539026
      ],
      [
        "хьэдэ",
        -9.498465060422642
      ],
      [
        "ɲ",
        -9.498963020410148
      ],
      [
        "зэрыхуэ",
        -9.499221263794485
      ],
      [
        "ахьмэд",
        -9.49934449741096
      ],
      [
        "нэужь",
        -9.499445049599217
      ],
      [
        "Ӏуфэм ",
        -9.499466659525105
      ],
      [
        "пэжу ",
        -9.499716155927157
      ],
      [
        "гулъытэ ",
        -9.499903755771548
      ],
      [
        "сабийм ",
        -9.499948252068034
      ],
      [
        "цӀа",
        -9.500310359606615
      ],
      [
        "щӀыкӀа",
        -9.502138822058557
      ],
      [
        "фэеплъ ",
        -9.503000931536633
      ],
      [
        "хъыджэбз цӀыкӀу",
        -9.503151821472159
      ],
      [
        "бза",
        -9.503668192211041
      ],
      [
        "ищхъэрэ",
        -9.504187757788998
      ],
      [
        "и лъэныкъуэкӀэ ",
        -9.505336712526173
      ],
      [
        "гъэх ",
        -9.505728575321008
      ],
      [
        "ди къэралым ",
        -9.506532004105694
      ],
      [
        "хущхъуэ",
        -9.506559687004009
      ],
      [
        "хэмыт",
        -9.506665921124345
      ],
      [
        "ыпхъэ",
        -9.507289755346143
      ],
      [
        "гъэунэху",
        -9.507515490345973
      ],
      [
        "бэрэ",
        -9.508867078217676
      ],
      [
        "хыну ",
        -9.50958956000012
      ],
      [
        "ша ",
        -9.509690297670135
      ],
      [
        "ðý ",
        -9.509712527603373
      ],
      [
        "зыха",
        -9.510018947708943
      ],
      [
        "гер",
        -9.510023400899042
      ],
      [
        "ехьэлӀа ",
        -9.510027581980316
      ],
      [
        "ɳ ɷ",
        -9.511466652488167
      ],
      [
        "гущӀэгъу",
        -9.511548690439575
      ],
      [
        "ɠɶ",
        -9.511647804039832
      ],
      [
        "гупсысэ ",
        -9.511849817199371
      ],
      [
        "и тхьэмадэ ",
        -9.51195173424912
      ],
      [
        "нэсу ",
        -9.512947051943884
      ],
      [
        "бал",
        -9.513367625256613
      ],
      [
        "r",
        -9.513542215735605
      ],
      [
        "а псори ",
        -9.513787191963534
      ],
      [
        "o",
        -9.51392876386085
      ],
      [
        "пщӀа",
        -9.5142432668416
      ],
      [
        "кӀуэдыж",
        -9.514293315497273
      ],
      [
        "зыщӀ",
        -9.515322500032562
      ],
      [
        "и къару",
        -9.515396252090294
      ],
      [
        "гъэкӀыж",
        -9.515655860906527
      ],
      [
        "щӀэж ",
        -9.51604273990825
      ],
      [
        "линэ ",
        -9.51619339949641
      ],
      [
        "быдэ ",
        -9.51687092667099
      ],
      [
        "ыжри ",
        -9.516964712219664
      ],
      [
        "шей",
        -9.517021445054278
      ],
      [
        "къыди",
        -9.517104236900419
      ],
      [
        "ÿ",
        -9.517414437369705
      ],
      [
        "къызэрыгуэкӀ",
        -9.517517572582783
      ],
      [
        "ɝɭ",
        -9.517903178858626
      ],
      [
        " дыдэр ",
        -9.5186411548301
      ],
      [
        "зыща",
        -9.51916103541285
      ],
      [
        "шӀ",
        -9.519700126500837
      ],
      [
        "къыщо",
        -9.519918786867539
      ],
      [
        "хъыджэбзым ",
        -9.52059047284314
      ],
      [
        "кӀуэцӀы",
        -9.52060830013657
      ],
      [
        "мащӀэу ",
        -9.520990315471899
      ],
      [
        "пшынэ",
        -9.521106966069851
      ],
      [
        "щыӀащ ",
        -9.52127555348545
      ],
      [
        "щыгъ",
        -9.522078700606816
      ],
      [
        "урысыбзэкӀэ ",
        -9.522117789897791
      ],
      [
        "унафэр ",
        -9.522596242404308
      ],
      [
        "фӀэщыгъэ",
        -9.522599014003152
      ],
      [
        "15",
        -9.522609969668483
      ],
      [
        "союз",
        -9.522673873072318
      ],
      [
        "емыкӀу",
        -9.52293479344656
      ],
      [
        "елъэӀу",
        -9.523670793827652
      ],
      [
        "мысыр",
        -9.523732948854999
      ],
      [
        "фыну",
        -9.523763668305815
      ],
      [
        "пре",
        -9.52423020789318
      ],
      [
        "тэкъэ ",
        -9.524894986741716
      ],
      [
        "цӀыхубэ артист ",
        -9.52522161366098
      ],
      [
        "тхылъхэр ",
        -9.526178970685034
      ],
      [
        " цӀыкӀухэр ",
        -9.526738320932377
      ],
      [
        "уэ щыта",
        -9.527881140631578
      ],
      [
        "хабзэм ",
        -9.529218790083227
      ],
      [
        "н хуейуэ ",
        -9.530370211473356
      ],
      [
        "зра",
        -9.530587975200426
      ],
      [
        "яужь ",
        -9.530649192858995
      ],
      [
        "гуфӀэгъуэ ",
        -9.53068649001178
      ],
      [
        "хэлъ ",
        -9.530689740203016
      ],
      [
        "екӀу",
        -9.530774356551404
      ],
      [
        "пащтыхьым ",
        -9.532156746740638
      ],
      [
        "ɦɵ",
        -9.532187001405461
      ],
      [
        "тепсэлъыхьащ ",
        -9.532705788129878
      ],
      [
        "пщэдджыжь",
        -9.533727038619709
      ],
      [
        "мыхь",
        -9.534307588581099
      ],
      [
        "къудей",
        -9.53441520582156
      ],
      [
        "къулыкъу ",
        -9.534507230522106
      ],
      [
        "щауэ",
        -9.534792071463457
      ],
      [
        "и анэ",
        -9.53530284825549
      ],
      [
        "урысей",
        -9.535349566075551
      ],
      [
        "жыраслъэн ",
        -9.535425860166477
      ],
      [
        "зэкӀэ",
        -9.535453463477548
      ],
      [
        "щыгуфӀыкӀ",
        -9.536475770349988
      ],
      [
        "жэх",
        -9.53695453784537
      ],
      [
        "делэ",
        -9.537085857172318
      ],
      [
        "удын",
        -9.537238350628318
      ],
      [
        "щӀэщыгъуэ",
        -9.537244471946966
      ],
      [
        "æü",
        -9.537641445296103
      ],
      [
        "пэжыр ",
        -9.537682201652533
      ],
      [
        "псэупӀэ",
        -9.537798761925924
      ],
      [
        "тӀощӀ",
        -9.538908574010112
      ],
      [
        "зыхуи",
        -9.53914875763348
      ],
      [
        "гъэлъагъу",
        -9.539184913240955
      ],
      [
        "29 ",
        -9.540874380826406
      ],
      [
        "къалэн ",
        -9.541819965129047
      ],
      [
        "н хуей ",
        -9.54230948962956
      ],
      [
        "ауэ щыта ",
        -9.542431178111812
      ],
      [
        "къалэнхэр ",
        -9.543171268554568
      ],
      [
        "зэримы",
        -9.543359593654523
      ],
      [
        "зэпэ",
        -9.543482760968814
      ],
      [
        "хуейт ",
        -9.543584652016762
      ],
      [
        "апхуэдиз ",
        -9.543740498832596
      ],
      [
        "щӀэблэм ",
        -9.543837113740802
      ],
      [
        "и ӀэдакъэщӀэкӀ",
        -9.543845722682313
      ],
      [
        "цӀыф",
        -9.545421032615025
      ],
      [
        "щӀагъ",
        -9.545658194757964
      ],
      [
        "щӀри ",
        -9.546403874837365
      ],
      [
        "блэкӀ",
        -9.546700410706114
      ],
      [
        "адрейм ",
        -9.54681685130937
      ],
      [
        "сэ си ",
        -9.54683014350546
      ],
      [
        "хэгъэгу",
        -9.547267948404574
      ],
      [
        "уэрэджыӀакӀуэ ",
        -9.547342698456173
      ],
      [
        "хуагъэфэща",
        -9.5477631355582
      ],
      [
        "иӀэкъым ",
        -9.548944712308643
      ],
      [
        "адэжь ",
        -9.550623363773635
      ],
      [
        "къыф",
        -9.551382896432399
      ],
      [
        "зэхихы",
        -9.551559055124084
      ],
      [
        "щӀалэгъуэ",
        -9.552331594138632
      ],
      [
        "ринэ ",
        -9.552333073620165
      ],
      [
        "ø",
        -9.552376617473499
      ],
      [
        "рихьэлӀэ",
        -9.552406337712522
      ],
      [
        "къахуэ",
        -9.55241112900964
      ],
      [
        "уэлэхьи ",
        -9.552956580868539
      ],
      [
        "зыхуа",
        -9.55298935185154
      ],
      [
        "ɞɷ",
        -9.55299790351015
      ],
      [
        "хын ",
        -9.553102955741682
      ],
      [
        "ˏ",
        -9.553298315396805
      ],
      [
        "купщӀафӀэ",
        -9.553761376123418
      ],
      [
        "техьэ",
        -9.55387636808339
      ],
      [
        "зэран ",
        -9.553880083701744
      ],
      [
        "хьэлӀа",
        -9.554034546285688
      ],
      [
        "м ирихьэлӀэу ",
        -9.554461989438185
      ],
      [
        "щӀакӀуэ",
        -9.554749204887814
      ],
      [
        "нэкӀэ ",
        -9.55509088271442
      ],
      [
        "ыдзэ",
        -9.55589467019788
      ],
      [
        "сти",
        -9.556297459148588
      ],
      [
        "унэр ",
        -9.556832969930937
      ],
      [
        "умыгъэ",
        -9.557443616782892
      ],
      [
        "хэм ящыщ ",
        -9.557738921798858
      ],
      [
        "май",
        -9.558082801345897
      ],
      [
        "власт",
        -9.558213758336564
      ],
      [
        "гъащӀэм и ",
        -9.558764700145304
      ],
      [
        "щӀэныгъэлӀ ",
        -9.55893859683447
      ],
      [
        "журиалист",
        -9.55896437254512
      ],
      [
        "усыгъэ",
        -9.559368375252939
      ],
      [
        "ншагъэ",
        -9.559475110607552
      ],
      [
        " нэхъыщхьэм ",
        -9.56120513848101
      ],
      [
        "здэкӀуэ",
        -9.562238278544642
      ],
      [
        "къыхо",
        -9.563538733487906
      ],
      [
        "хьыр ",
        -9.563886359570027
      ],
      [
        "щιэ",
        -9.564931295965117
      ],
      [
        "куууэ ",
        -9.564938450705863
      ],
      [
        "гъэлъэгъуэныгъэ",
        -9.565112849423011
      ],
      [
        "комитетым ",
        -9.565210075526014
      ],
      [
        "усакӀуэм ",
        -9.565597387934965
      ],
      [
        "тету ",
        -9.566092517645455
      ],
      [
        "мыгъуэт",
        -9.567269602259284
      ],
      [
        "ныгъэм ",
        -9.567607673473539
      ],
      [
        "мухьэ",
        -9.567742849366512
      ],
      [
        " нэужь ",
        -9.568256249673228
      ],
      [
        "икъукӀэ ",
        -9.568759183092116
      ],
      [
        "залым",
        -9.569366425773634
      ],
      [
        "хуэмей",
        -9.570804373831983
      ],
      [
        "щӀыгъу",
        -9.571204093156847
      ],
      [
        "лъэф",
        -9.571204320699778
      ],
      [
        "ацэ",
        -9.571466117140169
      ],
      [
        "элъ",
        -9.57158583838423
      ],
      [
        "ãúó",
        -9.571853814315622
      ],
      [
        "еплъ ",
        -9.572139099274601
      ],
      [
        "ɷɪ",
        -9.572208833701431
      ],
      [
        "гы",
        -9.573410836637478
      ],
      [
        "жиӀэрт ",
        -9.573595087516805
      ],
      [
        "ноби ",
        -9.573701547754201
      ],
      [
        "хэм ящыщ зы",
        -9.573728869268793
      ],
      [
        "дэ ды",
        -9.573736706011552
      ],
      [
        "и щхьэ ",
        -9.574503573124609
      ],
      [
        "дэӀэпыкъуэгъу",
        -9.57477206210146
      ],
      [
        "дзэр ",
        -9.575295228027613
      ],
      [
        "экономикэ",
        -9.575700036123033
      ],
      [
        "рихьэлӀа",
        -9.5757953623194
      ],
      [
        "щрагъэкӀуэкӀ",
        -9.576016029965563
      ],
      [
        "ищӀа",
        -9.576283014700921
      ],
      [
        "сыту жыпӀэмэ ",
        -9.576689270771535
      ],
      [
        "метр",
        -9.576697717252516
      ],
      [
        "олог",
        -9.57714023357227
      ],
      [
        "иӀыгъ",
        -9.577200379891273
      ],
      [
        "куэду ",
        -9.577535363687689
      ],
      [
        "еш",
        -9.578211271117361
      ],
      [
        "щхьэгъубжэ",
        -9.5786286676656
      ],
      [
        "м нэс ",
        -9.579097150380614
      ],
      [
        "бзу",
        -9.579357401607338
      ],
      [
        "хамэ",
        -9.579408676922675
      ],
      [
        "ӀуэхукӀэ ",
        -9.579759279036285
      ],
      [
        "ящӀ",
        -9.580255925358186
      ],
      [
        "руслан ",
        -9.580282100211848
      ],
      [
        "итха",
        -9.580384341867106
      ],
      [
        "профессор ",
        -9.580872837766426
      ],
      [
        "20Ӏ9 ",
        -9.58149075478389
      ],
      [
        "зэхуаку",
        -9.581665141622473
      ],
      [
        "къыщӀэкӀынщ ",
        -9.582028650207455
      ],
      [
        "къыхэкӀ",
        -9.584376334110225
      ],
      [
        "шэрджэс ",
        -9.5844497091712
      ],
      [
        "кӀэрэ ",
        -9.584685652413556
      ],
      [
        "жат ",
        -9.584969688256118
      ],
      [
        "æû",
        -9.585174603045525
      ],
      [
        "адыгэ хасэм ",
        -9.585220231168744
      ],
      [
        "а Ӏуэхум ",
        -9.585283590385673
      ],
      [
        "абазэ",
        -9.585857140740098
      ],
      [
        "щрагъэ",
        -9.586653839768559
      ],
      [
        "ɯɭɷ",
        -9.587112643410263
      ],
      [
        "мафӀэ ",
        -9.587785517071802
      ],
      [
        "къигъэзэж",
        -9.587797174921043
      ],
      [
        "теле",
        -9.58810217399493
      ],
      [
        "къыпэ",
        -9.589416518488921
      ],
      [
        "ыкӀэ",
        -9.590602175170831
      ],
      [
        "хьэсэн ",
        -9.591586323554303
      ],
      [
        "жыхь",
        -9.591627660135199
      ],
      [
        "Ӏэпхъуа",
        -9.59205260253687
      ],
      [
        "сщӀы",
        -9.592779169255579
      ],
      [
        "нэс ",
        -9.5928268807815
      ],
      [
        "нэхъ",
        -9.592852421211102
      ],
      [
        "къэзыгъэ",
        -9.593002492138204
      ],
      [
        "26 ",
        -9.593156657943954
      ],
      [
        "пэшым ",
        -9.593384291278324
      ],
      [
        "журиалист ",
        -9.594565713713981
      ],
      [
        "бли",
        -9.594979515967614
      ],
      [
        "кӀуэну",
        -9.595379859889182
      ],
      [
        "журиал",
        -9.595542309082607
      ],
      [
        "s",
        -9.595664377553465
      ],
      [
        "рос",
        -9.596994705757378
      ],
      [
        "политикэ",
        -9.597959235886687
      ],
      [
        "зэгуэр ",
        -9.598058549954679
      ],
      [
        "нэхъ ин",
        -9.598218696427399
      ],
      [
        "тэкъыми ",
        -9.599193117919324
      ],
      [
        "сирием ",
        -9.59949903486075
      ],
      [
        "пасэрей ",
        -9.599598405243785
      ],
      [
        "t",
        -9.599868714145044
      ],
      [
        "шху",
        -9.600809481226154
      ],
      [
        "ыкӀ",
        -9.60097627252203
      ],
      [
        "ǽ",
        -9.601555410703746
      ],
      [
        "v",
        -9.602716240392537
      ],
      [
        "быдапӀэ",
        -9.603496378026392
      ],
      [
        "ыххэ",
        -9.603870817009351
      ],
      [
        "гъэкӀуэд",
        -9.604348003535677
      ],
      [
        "щегъэжьауэ ",
        -9.604514483866629
      ],
      [
        "убыдащ ",
        -9.604702408353598
      ],
      [
        "еджэн",
        -9.60485589320719
      ],
      [
        "и къуэдзэ",
        -9.604877993369817
      ],
      [
        "жыпӀэмэ ",
        -9.604920679904506
      ],
      [
        "лӀыр ",
        -9.605210618569647
      ],
      [
        "ǳ",
        -9.606208549317696
      ],
      [
        "кор",
        -9.607537647732254
      ],
      [
        "хэм я деж ",
        -9.607727738209908
      ],
      [
        "зэрахьэ",
        -9.608318346446078
      ],
      [
        "ɯɴɭ",
        -9.608388464758637
      ],
      [
        "политикэ ",
        -9.60868220182202
      ],
      [
        "бжь",
        -9.608910558089455
      ],
      [
        "дунейм тет",
        -9.608995330366472
      ],
      [
        "кӀуам ",
        -9.609774213450237
      ],
      [
        "лъэныкъуэкӀэ ",
        -9.609983611841198
      ],
      [
        "бажэ",
        -9.610507823142312
      ],
      [
        "творчествэ",
        -9.610883440889243
      ],
      [
        "гъэзащ ",
        -9.611139113646416
      ],
      [
        "гъуэгур ",
        -9.611480985135282
      ],
      [
        "языныкъуэ",
        -9.611531182059952
      ],
      [
        "лек",
        -9.612088717289407
      ],
      [
        "нэхъ мащӀэ",
        -9.612410649656601
      ],
      [
        "нутэкъым ",
        -9.61261095073953
      ],
      [
        " ӀуэхухэмкӀэ ",
        -9.612872540354434
      ],
      [
        "сабийр ",
        -9.613043352650259
      ],
      [
        "балъкъэр",
        -9.613310935194596
      ],
      [
        "къэзакъ",
        -9.613422080572063
      ],
      [
        "лъэкӀ",
        -9.613640568584003
      ],
      [
        "художественнэ ",
        -9.613869791186467
      ],
      [
        "джатэ",
        -9.614214033677175
      ],
      [
        "абыи ",
        -9.61451335669148
      ],
      [
        "кӀыжа",
        -9.614848207902424
      ],
      [
        "жыгы",
        -9.615683810217138
      ],
      [
        "хъууэ ",
        -9.61572341453477
      ],
      [
        "щӀэблэ",
        -9.61573100395108
      ],
      [
        "лэжьапӀэ",
        -9.616167861916892
      ],
      [
        "рий",
        -9.617165388490566
      ],
      [
        "и гъащӀэр ",
        -9.617630624338837
      ],
      [
        "хъуэпсапӀэ",
        -9.617726466284964
      ],
      [
        "щӀалэгъуалэ ",
        -9.618184255566257
      ],
      [
        "сатыр",
        -9.618480671063281
      ],
      [
        "сен",
        -9.620484589590525
      ],
      [
        "тов",
        -9.621289744535435
      ],
      [
        "мей",
        -9.621294372432004
      ],
      [
        "прав",
        -9.62139968290461
      ],
      [
        "ȣȡ",
        -9.621827102495917
      ],
      [
        "лӀыжьым ",
        -9.622115528180434
      ],
      [
        "зэтри",
        -9.6224113076327
      ],
      [
        "зыщӀа",
        -9.622928685816103
      ],
      [
        "Ӏэнэ",
        -9.623138393625322
      ],
      [
        "бра",
        -9.624498252782974
      ],
      [
        "êӀý ",
        -9.626144363616117
      ],
      [
        "си анэ",
        -9.627186146663885
      ],
      [
        "щакӀуэ",
        -9.628962057390787
      ],
      [
        "ым деж ",
        -9.629249015302328
      ],
      [
        "упс",
        -9.629566014429923
      ],
      [
        "къалъытэ",
        -9.629636399979262
      ],
      [
        "ркъэ ",
        -9.629906796957195
      ],
      [
        "иӀэж",
        -9.630054762662319
      ],
      [
        "франджы",
        -9.630240315214174
      ],
      [
        "къыпы",
        -9.63030050357858
      ],
      [
        "аращи ",
        -9.630797801029102
      ],
      [
        "эр республикэм и",
        -9.631187324638496
      ],
      [
        "нос",
        -9.631793514635422
      ],
      [
        "шта",
        -9.632309129027162
      ],
      [
        "пэлъэщ",
        -9.632703559793022
      ],
      [
        "зэгурыӀуэныгъэ",
        -9.632961634693238
      ],
      [
        "жаӀа",
        -9.634386085282387
      ],
      [
        "ǹ",
        -9.635027747648401
      ],
      [
        "жаӀэри ",
        -9.63532841740712
      ],
      [
        "джэн",
        -9.635394935780228
      ],
      [
        "нэхъыфӀу ",
        -9.635434212776293
      ],
      [
        "кхъухьлъатэ",
        -9.635550686822608
      ],
      [
        "сэлам ",
        -9.635865659865438
      ],
      [
        "техуэ",
        -9.636196754502427
      ],
      [
        "кl",
        -9.636484846838355
      ],
      [
        "зэхуэмыдэ",
        -9.638149471612447
      ],
      [
        "шыгъу",
        -9.638510119649393
      ],
      [
        "зыӀыгъ",
        -9.639139140020117
      ],
      [
        "ана",
        -9.639959318783104
      ],
      [
        "гъуазджэ",
        -9.640085881555837
      ],
      [
        "ɹ",
        -9.64071704080284
      ],
      [
        "сиӀэ",
        -9.640913948395191
      ],
      [
        "ижь",
        -9.640973733049844
      ],
      [
        "мэкъу",
        -9.640994470960806
      ],
      [
        "9",
        -9.642330797343337
      ],
      [
        "зэгъусэу ",
        -9.642436845648177
      ],
      [
        "режиссёр",
        -9.643353825415414
      ],
      [
        "къыздэ",
        -9.64406847003594
      ],
      [
        "управленэ",
        -9.644674882704235
      ],
      [
        "телефон",
        -9.644741877467496
      ],
      [
        "хуэдэт ",
        -9.645104485791776
      ],
      [
        "êú",
        -9.645286381001867
      ],
      [
        "гурымыӀуэ",
        -9.645568873571158
      ],
      [
        "жыным ",
        -9.64660653585941
      ],
      [
        "лъэхъэнэм ",
        -9.64724819034231
      ],
      [
        "бей",
        -9.64743086273899
      ],
      [
        "фӀэкӀ",
        -9.648220600944484
      ],
      [
        "ину ",
        -9.651132493979775
      ],
      [
        "езыри ",
        -9.652231313076664
      ],
      [
        "таурыхъ",
        -9.653082251207085
      ],
      [
        "ерыщ",
        -9.653596989679556
      ],
      [
        "щхьэж ",
        -9.653900371849545
      ],
      [
        "Ӏув",
        -9.65401200962281
      ],
      [
        "тхыдэр ",
        -9.654169881848262
      ],
      [
        "ско",
        -9.654390521646945
      ],
      [
        "ухуэныгъэ",
        -9.654749774052192
      ],
      [
        "ɦ",
        -9.655086547438806
      ],
      [
        "ȃ",
        -9.655306158741354
      ],
      [
        "дэкӀа",
        -9.655383901354284
      ],
      [
        "тал",
        -9.655389928444606
      ],
      [
        "налшык къалэ ",
        -9.656151243034206
      ],
      [
        "ɯɷ",
        -9.656420136299532
      ],
      [
        "лъэбакъуэ",
        -9.656716566420423
      ],
      [
        "колхоз",
        -9.657088775909223
      ],
      [
        "уэрамым ",
        -9.65727048080743
      ],
      [
        "жакъым ",
        -9.657725393676007
      ],
      [
        "хуейщ ",
        -9.658310274710445
      ],
      [
        "олимп ",
        -9.659095591243252
      ],
      [
        "хэм папщӀэ ",
        -9.660278728179696
      ],
      [
        "мухьэдин ",
        -9.6608340314555
      ],
      [
        "и нэр ",
        -9.661108884122555
      ],
      [
        "тренер",
        -9.66119257745084
      ],
      [
        "лъэкӀы",
        -9.661519176756713
      ],
      [
        "къищтэ",
        -9.661802492531269
      ],
      [
        "академием ",
        -9.661868891542177
      ],
      [
        "нэщӀ",
        -9.662264351027476
      ],
      [
        "кӀуалӀэ",
        -9.66370955834685
      ],
      [
        "зэӀущӀэр ",
        -9.66495140470319
      ],
      [
        "ɪɢ ",
        -9.665088693915417
      ],
      [
        "и шыпхъу",
        -9.666253110903831
      ],
      [
        "щтыр ",
        -9.666408659499368
      ],
      [
        "тӀури ",
        -9.666798410040524
      ],
      [
        "зэкъуэт",
        -9.666819944821299
      ],
      [
        "ȫț",
        -9.666932324415551
      ],
      [
        "илъэсхэм ",
        -9.667647071812944
      ],
      [
        "къэрэшей шэрджэс",
        -9.668756264470712
      ],
      [
        "секретар",
        -9.668756270634328
      ],
      [
        "3Ӏ ",
        -9.670298896725217
      ],
      [
        "а махуэм ",
        -9.670611765111387
      ],
      [
        "къащтэ",
        -9.67191406226583
      ],
      [
        "цӀыхубзым ",
        -9.671958467664478
      ],
      [
        "къыщалъхуащ ",
        -9.672083405041997
      ],
      [
        "центрым ",
        -9.672632997345875
      ],
      [
        "пщӀантӀэ",
        -9.674587328693065
      ],
      [
        "щӀат ",
        -9.675228949272526
      ],
      [
        "зыкӀи ",
        -9.675514579866604
      ],
      [
        "бгъэдэт",
        -9.675534992305494
      ],
      [
        "макъым ",
        -9.675622047125536
      ],
      [
        "уиӀэ",
        -9.675795609551557
      ],
      [
        " увыпӀэр ",
        -9.676720554571105
      ],
      [
        "жып",
        -9.679521442584608
      ],
      [
        "и Ӏэр ",
        -9.67988917965128
      ],
      [
        "мед",
        -9.680211026397185
      ],
      [
        "зиужь",
        -9.680435667431993
      ],
      [
        "хилъхьэ",
        -9.680604901495094
      ],
      [
        "куэд щӀауэ ",
        -9.681215577822517
      ],
      [
        "убзыху",
        -9.681579375035241
      ],
      [
        "екӀуэкӀа ",
        -9.68267777634951
      ],
      [
        "под",
        -9.682727389599036
      ],
      [
        "Ӏуфэ",
        -9.683033982435887
      ],
      [
        "кӀуар ",
        -9.683376737217808
      ],
      [
        "накӀуэ ",
        -9.683722289084798
      ],
      [
        "щӀыуэпс",
        -9.684569364938753
      ],
      [
        "щӀакъым ",
        -9.685957523338299
      ],
      [
        "къытху",
        -9.686183400150842
      ],
      [
        "кан",
        -9.688742328552822
      ],
      [
        "ветеран",
        -9.68927844039125
      ],
      [
        "ефэ",
        -9.689352847293748
      ],
      [
        "тхыгъэм ",
        -9.689471391916078
      ],
      [
        "нкӀи ",
        -9.689872454077289
      ],
      [
        "композитор",
        -9.690198687619926
      ],
      [
        "курс",
        -9.690807738226589
      ],
      [
        "м щыгъуэ ",
        -9.691350051760834
      ],
      [
        "шэж",
        -9.692161978789668
      ],
      [
        "наӀуэ ",
        -9.692411838282368
      ],
      [
        "ынут ",
        -9.69316456039276
      ],
      [
        "гуфӀыкӀ",
        -9.693213075863103
      ],
      [
        "ыгу ",
        -9.693349504451588
      ],
      [
        "бгъуэт",
        -9.693465790377932
      ],
      [
        "шэджэм ",
        -9.69376689010642
      ],
      [
        "стра",
        -9.69457132718315
      ],
      [
        "щохъу ",
        -9.695662236423235
      ],
      [
        "процент ",
        -9.695750260679361
      ],
      [
        "ым хуэдэу ",
        -9.696469485355333
      ],
      [
        "лъадэ",
        -9.698648918919465
      ],
      [
        "пха",
        -9.699826803182297
      ],
      [
        "къыщалъхуа",
        -9.700282610925186
      ],
      [
        "мэлы",
        -9.70043873306408
      ],
      [
        "хозяйствэ",
        -9.701327946515526
      ],
      [
        "кӀапсэ",
        -9.702687295952916
      ],
      [
        "и унафэщӀым ",
        -9.702939864140319
      ],
      [
        "åé",
        -9.703281643202818
      ],
      [
        "нысащӀэ",
        -9.703346857682913
      ],
      [
        "атэмэ ",
        -9.70340175021432
      ],
      [
        "щӀэхъуэпс",
        -9.703536670747788
      ],
      [
        "мон",
        -9.70493524403604
      ],
      [
        "бысым",
        -9.705048401824982
      ],
      [
        "абдежым ",
        -9.706004827987506
      ],
      [
        "бург",
        -9.706166550334602
      ],
      [
        "куэбжэ",
        -9.707499189776529
      ],
      [
        "нэщхъей",
        -9.707532200273308
      ],
      [
        "пщӀэн",
        -9.70810747172148
      ],
      [
        "еджапӀэм ",
        -9.708680334342887
      ],
      [
        "фӀо",
        -9.710188149034856
      ],
      [
        "хъуакъым ",
        -9.7106149799206
      ],
      [
        "гъэзэщӀэ",
        -9.710790225960302
      ],
      [
        "институт",
        -9.710827303427724
      ],
      [
        "фӀыкӀэ ",
        -9.711396945524957
      ],
      [
        "си гугъэ",
        -9.711424268422839
      ],
      [
        "Ӏуэхухэм ",
        -9.711622483664259
      ],
      [
        "къулей",
        -9.711720095452808
      ],
      [
        "иджы",
        -9.711822672436456
      ],
      [
        "министерствэ",
        -9.71391138754774
      ],
      [
        "щтыгъэ ",
        -9.714113458546034
      ],
      [
        "пасэу ",
        -9.71420990163293
      ],
      [
        "фӀагъ",
        -9.714602451613015
      ],
      [
        "ɯɶɷ",
        -9.71566397032343
      ],
      [
        "адыг",
        -9.716076114857628
      ],
      [
        "елэжь",
        -9.716445010422788
      ],
      [
        "тех",
        -9.717197784770494
      ],
      [
        "зыхы",
        -9.718140070608722
      ],
      [
        "лъапсэ",
        -9.718807484810473
      ],
      [
        "махуэ къэс ",
        -9.719149470141467
      ],
      [
        "Ӏыгъы",
        -9.719322104129613
      ],
      [
        "хуищӀащ ",
        -9.719796095747942
      ],
      [
        "завод",
        -9.719843467355172
      ],
      [
        "гурыщӀэ",
        -9.720869869688032
      ],
      [
        "хах",
        -9.720971662715442
      ],
      [
        "зыужьыныгъэ",
        -9.72126737639817
      ],
      [
        "бгъэдэс",
        -9.721535881631953
      ],
      [
        "мылъ",
        -9.721813163955112
      ],
      [
        "пасэ",
        -9.72216846621151
      ],
      [
        "хъыбарыр ",
        -9.722944564946836
      ],
      [
        "гъэбыдэ",
        -9.72308919104786
      ],
      [
        "и пащхьэ ",
        -9.723836426913227
      ],
      [
        "унагъуэр ",
        -9.724917577085348
      ],
      [
        "дэкӀуэ",
        -9.727176851563009
      ],
      [
        "къызэрэ",
        -9.728713939647566
      ],
      [
        "ублэ",
        -9.728913331461468
      ],
      [
        " яхуэхъу",
        -9.729294605689745
      ],
      [
        "къулыкъущӀэ",
        -9.729316035096648
      ],
      [
        "\t\t",
        -9.729424478119702
      ],
      [
        "n",
        -9.729705352622549
      ],
      [
        "зэрекӀуэкӀ",
        -9.730681781698305
      ],
      [
        "си гум ",
        -9.730775189248666
      ],
      [
        "банэ",
        -9.73122231591638
      ],
      [
        "хилъхьа",
        -9.732287436183313
      ],
      [
        "и анэм ",
        -9.73303943502375
      ],
      [
        "м и лэжьакӀуэ",
        -9.733095166250141
      ],
      [
        "кӀэрахъуэ",
        -9.733112283990707
      ],
      [
        "нэщхъ",
        -9.733469701952455
      ],
      [
        "анзор",
        -9.733586260227915
      ],
      [
        "ауан",
        -9.733724576711833
      ],
      [
        "шӀагъэ",
        -9.733762723286805
      ],
      [
        "псэущхьэ",
        -9.734097726464551
      ],
      [
        "и уасэ",
        -9.734350585250397
      ],
      [
        "ищэ",
        -9.735208907208724
      ],
      [
        "ухуэн",
        -9.73538424144522
      ],
      [
        "Ӏэпы",
        -9.73552749066245
      ],
      [
        "хъуапсэ",
        -9.735540457264683
      ],
      [
        "ный ",
        -9.736273511103139
      ],
      [
        "гъунапкъэ",
        -9.736444564815667
      ],
      [
        "зэкъуэш",
        -9.736499899151447
      ],
      [
        "гъуэзэджэ",
        -9.736532966309653
      ],
      [
        "бжы",
        -9.73718282529379
      ],
      [
        "тӀо",
        -9.73744163871104
      ],
      [
        "ː",
        -9.737894222887189
      ],
      [
        "08 ",
        -9.738626165603275
      ],
      [
        "къеджэ",
        -9.738638044943258
      ],
      [
        "зэрырикъу",
        -9.738972013830221
      ],
      [
        "дзэкӀ",
        -9.739714706247444
      ],
      [
        "бжьа",
        -9.740217943473759
      ],
      [
        "щӀэныгъэхэмкӀэ ",
        -9.7408824909711
      ],
      [
        "и адэр ",
        -9.741199184054581
      ],
      [
        "жыджэру ",
        -9.741207632596343
      ],
      [
        "а лъэхъэнэм ",
        -9.741684169374842
      ],
      [
        "агъым ",
        -9.741776204237198
      ],
      [
        "дэтхэнэ",
        -9.741792354892421
      ],
      [
        "кіэ ",
        -9.741792889190382
      ],
      [
        "фӀы дыдэу ",
        -9.742374465996747
      ],
      [
        "щӀыналъэхэм ",
        -9.742711345808662
      ],
      [
        " щӀэныгъэхэм я д",
        -9.742907739232994
      ],
      [
        "гу лъы",
        -9.74308773721617
      ],
      [
        "актёр",
        -9.743715483473462
      ],
      [
        "плӀы",
        -9.744352107686861
      ],
      [
        "сь",
        -9.745235129776763
      ],
      [
        "мардэ",
        -9.745371086718293
      ],
      [
        "жэмы",
        -9.745887009896954
      ],
      [
        "лъагапӀэ",
        -9.746167337167524
      ],
      [
        "къущхьэ",
        -9.747257765744745
      ],
      [
        "гъажьэ",
        -9.747526915951472
      ],
      [
        "социалънэ ",
        -9.747615005612474
      ],
      [
        "и нэгум ",
        -9.748066277018264
      ],
      [
        "хэкур ",
        -9.74892428737752
      ],
      [
        "ирокъу",
        -9.749368115410704
      ],
      [
        "къыщӀэкӀащ ",
        -9.749517965038475
      ],
      [
        "ссср м ",
        -9.749719570263295
      ],
      [
        "мыкӀыу ",
        -9.74998525474145
      ],
      [
        "щι",
        -9.750253822032025
      ],
      [
        "лэжьэну ",
        -9.751241779554489
      ],
      [
        "зезыхьэ",
        -9.751377653781796
      ],
      [
        "16",
        -9.75178348826045
      ],
      [
        "рассказ",
        -9.752021533891298
      ],
      [
        "ìý",
        -9.752837264908834
      ],
      [
        "кӀуадэ",
        -9.753235117763243
      ],
      [
        "къыкӀэлъыкӀуэ ",
        -9.753243296201266
      ],
      [
        "тхылъымпӀэ",
        -9.753990552280134
      ],
      [
        "нанэ ",
        -9.754849257095302
      ],
      [
        "и усэ",
        -9.755076131215791
      ],
      [
        "екӀуэкӀащ ",
        -9.75530987924388
      ],
      [
        "щӀэгъэкъуэн",
        -9.75569615209068
      ],
      [
        "àóý ",
        -9.755705367755251
      ],
      [
        "шхо",
        -9.755916320670448
      ],
      [
        "раз",
        -9.756345092941066
      ],
      [
        "гъэщӀагъуэ",
        -9.756998565390097
      ],
      [
        "ехьэлӀауэ ",
        -9.757556003342014
      ],
      [
        "ыжыну ",
[...]
