{
  "version": "1.0",
  "truncation": null,
  "padding": null,
  "added_tokens": [
    {
      "id": 1,
      "content": "[PAD]",
      "single_word": false,
      "lstrip": false,
      "rstrip": false,
      "normalized": false,
      "special": true
    },
    {
      "id": 2,
      "content": "[UNK]",
      "single_word": false,
      "lstrip": false,
      "rstrip": false,
      "normalized": false,
      "special": true
    },
    {
      "id": 3,
      "content": "[CLS]",
      "single_word": false,
      "lstrip": false,
      "rstrip": false,
      "normalized": false,
      "special": true
    },
    {
      "id": 4,
      "content": "[SEP]",
      "single_word": false,
      "lstrip": false,
      "rstrip": false,
      "normalized": false,
      "special": true
    },
    {
      "id": 5,
      "content": "[MASK]",
      "single_word": false,
      "lstrip": false,
      "rstrip": false,
      "normalized": false,
      "special": true
    },
    {
      "id": 6,
      "content": "жь",
      "single_word": false,
      "lstrip": false,
      "rstrip": false,
      "normalized": true,
      "special": false
    },
    {
      "id": 7,
      "content": "ку",
      "single_word": false,
      "lstrip": false,
      "rstrip": false,
      "normalized": true,
      "special": false
    },
    {
      "id": 8,
      "content": "кӀ",
      "single_word": false,
      "lstrip": false,
      "rstrip": false,
      "normalized": true,
      "special": false
    },
    {
      "id": 9,
      "content": "кIу",
      "single_word": false,
      "lstrip": false,
      "rstrip": false,
      "normalized": true,
      "special": false
    },
    {
      "id": 10,
      "content": "къ",
      "single_word": false,
      "lstrip": false,
      "rstrip": false,
      "normalized": true,
      "special": false
    },
    {
      "id": 11,
      "content": "къу",
      "single_word": false,
      "lstrip": false,
      "rstrip": false,
      "normalized": true,
      "special": false
    },
    {
      "id": 12,
      "content": "кхъ",
      "single_word": false,
      "lstrip": false,
      "rstrip": false,
      "normalized": true,
      "special": false
    },
    {
      "id": 13,
      "content": "кхъу",
      "single_word": false,
      "lstrip": false,
      "rstrip": false,
      "normalized": true,
      "special": false
    },
    {
      "id": 14,
      "content": "лъ",
      "single_word": false,
      "lstrip": false,
      "rstrip": false,
      "normalized": true,
      "special": false
    },
    {
      "id": 15,
      "content": "лI",
      "single_word": false,
      "lstrip": false,
      "rstrip": false,
      "normalized": true,
      "special": false
    },
    {
      "id": 16,
      "content": "пI",
      "single_word": false,
      "lstrip": false,
      "rstrip": false,
      "normalized": true,
      "special": false
    },
    {
      "id": 17,
      "content": "тI",
      "single_word": false,
      "lstrip": false,
      "rstrip": false,
      "normalized": true,
      "special": false
    },
    {
      "id": 18,
      "content": "фI",
      "single_word": false,
      "lstrip": false,
      "rstrip": false,
      "normalized": true,
      "special": false
    },
    {
      "id": 19,
      "content": "ху",
      "single_word": false,
      "lstrip": false,
      "rstrip": false,
      "normalized": true,
      "special": false
    },
    {
      "id": 20,
      "content": "хь",
      "single_word": false,
      "lstrip": false,
      "rstrip": false,
      "normalized": true,
      "special": false
    },
    {
      "id": 21,
      "content": "хъ",
      "single_word": false,
      "lstrip": false,
      "rstrip": false,
      "normalized": true,
      "special": false
    },
    {
      "id": 22,
      "content": "хъу",
      "single_word": false,
      "lstrip": false,
      "rstrip": false,
      "normalized": true,
      "special": false
    },
    {
      "id": 23,
      "content": "цI",
      "single_word": false,
      "lstrip": false,
      "rstrip": false,
      "normalized": true,
      "special": false
    },
    {
      "id": 24,
      "content": "щI",
      "single_word": false,
      "lstrip": false,
      "rstrip": false,
      "normalized": true,
      "special": false
    },
    {
      "id": 25,
      "content": "Ӏу",
      "single_word": false,
      "lstrip": false,
      "rstrip": false,
      "normalized": true,
      "special": false
    },
    {
      "id": 26,
      "content": "хуэ",
      "single_word": false,
      "lstrip": false,
      "rstrip": false,
      "normalized": true,
      "special": false
    },
    {
      "id": 27,
      "content": "во",
      "single_word": false,
      "lstrip": false,
      "rstrip": false,
      "normalized": true,
      "special": false
    },
    {
      "id": 28,
      "content": "рэ",
      "single_word": false,
      "lstrip": false,
      "rstrip": false,
      "normalized": true,
      "special": false
    },
    {
      "id": 29,
      "content": "зэ",
      "single_word": false,
      "lstrip": false,
      "rstrip": false,
      "normalized": true,
      "special": false
    },
    {
      "id": 30,
      "content": "де",
      "single_word": false,
      "lstrip": false,
      "rstrip": false,
      "normalized": true,
      "special": false
    },
    {
      "id": 31,
      "content": "зо",
      "single_word": false,
      "lstrip": false,
      "rstrip": false,
      "normalized": true,
      "special": false
    },
    {
      "id": 32,
      "content": "ар",
      "single_word": false,
      "lstrip": false,
      "rstrip": false,
      "normalized": true,
      "special": false
    },
    {
      "id": 33,
      "content": "ди",
      "single_word": false,
      "lstrip": false,
      "rstrip": false,
      "normalized": true,
      "special": false
    },
    {
      "id": 34,
      "content": "ремы",
      "single_word": false,
      "lstrip": false,
      "rstrip": false,
      "normalized": true,
      "special": false
    },
    {
      "id": 35,
      "content": "эрэ",
      "single_word": false,
      "lstrip": false,
      "rstrip": false,
      "normalized": true,
      "special": false
    },
    {
      "id": 36,
      "content": "дэ",
      "single_word": false,
      "lstrip": false,
      "rstrip": false,
      "normalized": true,
      "special": false
    },
    {
      "id": 37,
      "content": "ры",
      "single_word": false,
      "lstrip": false,
      "rstrip": false,
      "normalized": true,
      "special": false
    },
    {
      "id": 38,
      "content": "эж",
      "single_word": false,
      "lstrip": false,
      "rstrip": false,
      "normalized": true,
      "special": false
    },
    {
      "id": 39,
      "content": "ри",
      "single_word": false,
      "lstrip": false,
      "rstrip": false,
      "normalized": true,
      "special": false
    },
    {
      "id": 40,
      "content": "ыж",
      "single_word": false,
      "lstrip": false,
      "rstrip": false,
      "normalized": true,
      "special": false
    },
    {
      "id": 41,
      "content": "фы",
      "single_word": false,
      "lstrip": false,
      "rstrip": false,
      "normalized": true,
      "special": false
    },
    {
      "id": 42,
      "content": "мы",
      "single_word": false,
      "lstrip": false,
      "rstrip": false,
      "normalized": true,
      "special": false
    },
    {
      "id": 43,
      "content": "ау",
      "single_word": false,
      "lstrip": false,
      "rstrip": false,
      "normalized": true,
      "special": false
    },
    {
      "id": 44,
      "content": "щы",
      "single_word": false,
      "lstrip": false,
      "rstrip": false,
      "normalized": true,
      "special": false
    },
    {
      "id": 45,
      "content": "къым",
      "single_word": false,
      "lstrip": false,
      "rstrip": false,
      "normalized": true,
      "special": false
    },
    {
      "id": 46,
      "content": "хуа",
      "single_word": false,
      "lstrip": false,
      "rstrip": false,
      "normalized": true,
      "special": false
    },
    {
      "id": 47,
      "content": "эм",
      "single_word": false,
      "lstrip": false,
      "rstrip": false,
      "normalized": true,
      "special": false
    },
    {
      "id": 48,
      "content": "ат",
      "single_word": false,
      "lstrip": false,
      "rstrip": false,
      "normalized": true,
      "special": false
    },
    {
      "id": 49,
      "content": "хэ",
      "single_word": false,
      "lstrip": false,
      "rstrip": false,
      "normalized": true,
      "special": false
    },
    {
      "id": 50,
      "content": "нщ",
      "single_word": false,
      "lstrip": false,
      "rstrip": false,
      "normalized": true,
      "special": false
    },
    {
      "id": 51,
      "content": "зы",
      "single_word": false,
      "lstrip": false,
      "rstrip": false,
      "normalized": true,
      "special": false
    },
    {
      "id": 52,
      "content": "жы",
      "single_word": false,
      "lstrip": false,
      "rstrip": false,
      "normalized": true,
      "special": false
    },
    {
      "id": 53,
      "content": "тэ",
      "single_word": false,
      "lstrip": false,
      "rstrip": false,
      "normalized": true,
      "special": false
    },
    {
      "id": 54,
      "content": "ро",
      "single_word": false,
      "lstrip": false,
      "rstrip": false,
      "normalized": true,
      "special": false
    },
    {
      "id": 55,
      "content": "ды",
      "single_word": false,
      "lstrip": false,
      "rstrip": false,
      "normalized": true,
      "special": false
    },
    {
      "id": 56,
      "content": "хы",
      "single_word": false,
      "lstrip": false,
      "rstrip": false,
      "normalized": true,
      "special": false
    },
    {
      "id": 57,
      "content": "къэ",
      "single_word": false,
      "lstrip": false,
      "rstrip": false,
      "normalized": true,
      "special": false
    },
    {
      "id": 58,
      "content": "рызы",
      "single_word": false,
      "lstrip": false,
      "rstrip": false,
      "normalized": true,
      "special": false
    },
    {
      "id": 59,
      "content": "ащ",
      "single_word": false,
      "lstrip": false,
      "rstrip": false,
      "normalized": true,
      "special": false
    },
    {
      "id": 60,
      "content": "ре",
      "single_word": false,
      "lstrip": false,
      "rstrip": false,
      "normalized": true,
      "special": false
    },
    {
      "id": 61,
      "content": "да",
      "single_word": false,
      "lstrip": false,
      "rstrip": false,
      "normalized": true,
      "special": false
    },
    {
      "id": 62,
      "content": "до",
      "single_word": false,
      "lstrip": false,
      "rstrip": false,
      "normalized": true,
      "special": false
    },
    {
      "id": 63,
      "content": "ам",
      "single_word": false,
      "lstrip": false,
      "rstrip": false,
      "normalized": true,
      "special": false
    },
    {
      "id": 64,
      "content": "гъэ",
      "single_word": false,
      "lstrip": false,
      "rstrip": false,
      "normalized": true,
      "special": false
    },
    {
      "id": 65,
      "content": "вэ",
      "single_word": false,
      "lstrip": false,
      "rstrip": false,
      "normalized": true,
      "special": false
    },
    {
      "id": 66,
      "content": "ми",
      "single_word": false,
      "lstrip": false,
      "rstrip": false,
      "normalized": true,
      "special": false
    },
    {
      "id": 67,
      "content": "къы",
      "single_word": false,
      "lstrip": false,
      "rstrip": false,
      "normalized": true,
      "special": false
    },
    {
      "id": 68,
      "content": "ын",
      "single_word": false,
      "lstrip": false,
      "rstrip": false,
      "normalized": true,
      "special": false
    },
    {
      "id": 69,
      "content": "ха",
      "single_word": false,
      "lstrip": false,
      "rstrip": false,
      "normalized": true,
      "special": false
    },
    {
      "id": 70,
      "content": "эн",
      "single_word": false,
      "lstrip": false,
      "rstrip": false,
      "normalized": true,
      "special": false
    },
    {
      "id": 71,
      "content": "фӀэ",
      "single_word": false,
      "lstrip": false,
      "rstrip": false,
      "normalized": true,
      "special": false
    },
    {
      "id": 72,
      "content": "ущ",
      "single_word": false,
      "lstrip": false,
      "rstrip": false,
      "normalized": true,
      "special": false
    },
    {
      "id": 73,
      "content": "ра",
      "single_word": false,
      "lstrip": false,
      "rstrip": false,
      "normalized": true,
      "special": false
    }
  ],
  "normalizer": null,
  "pre_tokenizer": null,
  "post_processor": null,
  "decoder": null,
  "model": {
    "type": "Unigram",
    "unk_id": 0,
    "vocab": [
      [
        "UNK",
        0.0
      ],
      [
        "[PAD]",
        0.0
      ],
      [
        "[UNK]",
        0.0
      ],
      [
        "[CLS]",
        0.0
      ],
      [
        "[SEP]",
        0.0
      ],
      [
        "[MASK]",
        0.0
      ],
      [
        "\n",
        -2.979638839021348
      ],
      [
        ".",
        -3.6665892829831623
      ],
      [
        " ",
        -3.9293740660303644
      ],
      [
        ",",
        -4.279873280969866
      ],
      [
        "у",
        -4.66571034991064
      ],
      [
        "р",
        -4.687535632099106
      ],
      [
        "м",
        -4.7749234507939455
      ],
      [
        "и",
        -5.061169292890119
      ],
      [
        " и",
        -5.198983855474927
      ],
      [
        "рэ",
        -5.336393381204177
      ],
      [
        "щ.",
        -5.3730242221711695
      ],
      [
        "хэр",
        -5.376903942213289
      ],
      [
        ", ",
        -5.436021979540866
      ],
      [
        "а",
        -5.493137081957265
      ],
      [
        "кIэ",
        -5.495475991541644
      ],
      [
        "хэм",
        -5.526877033746933
      ],
      [
        "щ",
        -5.555188406994656
      ],
      [
        "т",
        -5.662557232603088
      ],
      [
        "-",
        -5.696759817571111
      ],
      [
        "ыр",
        -5.751119932796115
      ],
      [
        "ри",
        -5.777042493221172
      ],
      [
        "ым",
        -5.783504635092326
      ],
      [
        " я",
        -6.005396623090805
      ],
      [
        " зы",
        -6.212189148901752
      ],
      [
        "хэм я",
        -6.243392796502256
      ],
      [
        "»",
        -6.260707511612399
      ],
      [
        " «",
        -6.352758209609014
      ],
      [
        "уэ",
        -6.3973374653097785
      ],
      [
        "м и",
        -6.408747015832947
      ],
      [
        "н",
        -6.445734642225441
      ],
      [
        "ащ.",
        -6.447489369429446
      ],
      [
        "Абы",
        -6.516861219736816
      ],
      [
        "ри,",
        -6.520031996496288
      ],
      [
        "ми",
        -6.533701446664658
      ],
      [
        "Ар",
        -6.53502023241389
      ],
      [
        "т.",
        -6.539473083624511
      ],
      [
        "А",
        -6.583173442790244
      ],
      [
        " абы",
        -6.58586412222
      ],
      [
        "э",
        -6.589049882779346
      ],
      [
        "е",
        -6.6199399425122785
      ],
      [
        "с",
        -6.641893134874323
      ],
      [
        " -",
        -6.642364657627166
      ],
      [
        "ы",
        -6.666797487694085
      ],
      [
        " (",
        -6.687789712671263
      ],
      [
        "р.",
        -6.687821405725073
      ],
      [
        "щ,",
        -6.688596842132647
      ],
      [
        "- ",
        -6.741718451441978
      ],
      [
        " ар",
        -6.753345245488578
      ],
      [
        "Къэбэрдей-Балъкъ",
        -6.756823832962931
      ],
      [
        " зэры",
        -6.75868556137992
      ],
      [
        "хэмрэ",
        -6.7855764441910935
      ],
      [
        "мэ,",
        -6.809424251845533
      ],
      [
        "«",
        -6.809527572692069
      ],
      [
        "ащ",
        -6.823293656870183
      ],
      [
        "м ",
        -6.84326396822523
      ],
      [
        ")",
        -6.849344820590945
      ],
      [
        " ди",
        -6.856863320799498
      ],
      [
        "мрэ",
        -6.8822948925703855
      ],
      [
        "у,",
        -6.8976626083161
      ],
      [
        "И",
        -6.89785491064567
      ],
      [
        " а",
        -6.9028807743359035
      ],
      [
        " щы",
        -6.909012065553046
      ],
      [
        "!",
        -6.916869518166438
      ],
      [
        " с",
        -6.937975457034538
      ],
      [
        " къы",
        -6.948453854895828
      ],
      [
        "р ",
        -6.969611802398881
      ],
      [
        "я",
        -6.9745413014584114
      ],
      [
        "ар",
        -6.985957868617596
      ],
      [
        "?",
        -7.001269979815604
      ],
      [
        " - ",
        -7.012130750287499
      ],
      [
        "ж",
        -7.0232929688411545
      ],
      [
        " куэд",
        -7.039665020668101
      ],
      [
        " икIи",
        -7.042981061425139
      ],
      [
        "щIэ",
        -7.0810344482620105
      ],
      [
        "ыну",
        -7.102400935517418
      ],
      [
        "д",
        -7.1037360609512605
      ],
      [
        "ну",
        -7.111459832748802
      ],
      [
        " нэхъ",
        -7.131139829820888
      ],
      [
        ":",
        -7.142438077708993
      ],
      [
        " цIыху",
        -7.143582573166878
      ],
      [
        " е",
        -7.1437362059030365
      ],
      [
        " у",
        -7.168455052287663
      ],
      [
        "хэ",
        -7.168792841183486
      ],
      [
        " сы",
        -7.169739902083447
      ],
      [
        "о",
        -7.1713451691871954
      ],
      [
        " и ",
        -7.199434163818158
      ],
      [
        "ым и",
        -7.204439143132338
      ],
      [
        "нэ",
        -7.2099041947576525
      ],
      [
        "х",
        -7.216173120620174
      ],
      [
        " адыгэ",
        -7.224545917201164
      ],
      [
        " си",
        -7.227264936987685
      ],
      [
        " мы",
        -7.239073383871055
      ],
      [
        "♦",
        -7.2474215942104365
      ],
      [
        "ф",
        -7.2510107105270825
      ],
      [
        "ху",
        -7.2564364606745
      ],
      [
        "мэ",
        -7.274886187699016
      ],
      [
        "ми,",
        -7.282141271009131
      ],
      [
        "м,",
        -7.287628488823382
      ],
      [
        " зэ",
        -7.298370398511464
      ],
      [
        " п",
        -7.304211792403642
      ],
      [
        "з",
        -7.359856109913128
      ],
      [
        "1",
        -7.360651714911591
      ],
      [
        "п",
        -7.371265626240894
      ],
      [
        " лъэпкъ",
        -7.374605787810738
      ],
      [
        "у ",
        -7.3765576359302525
      ],
      [
        "в",
        -7.380479300991322
      ],
      [
        "ш",
        -7.382394759058751
      ],
      [
        " ды",
        -7.397259983957326
      ],
      [
        "ауэ",
        -7.399310925602424
      ],
      [
        "м.",
        -7.404500929850998
      ],
      [
        "у.",
        -7.405816320715323
      ],
      [
        " къэрал",
        -7.407334456457911
      ],
      [
        " в",
        -7.4167903593440565
      ],
      [
        "къым.",
        -7.418883244147074
      ],
      [
        "Ауэ",
        -7.426128825939601
      ],
      [
        "ын",
        -7.436185328400728
      ],
      [
        "мы",
        -7.438836897632096
      ],
      [
        " щыIэ",
        -7.456679589850886
      ],
      [
        "».",
        -7.464432746949925
      ],
      [
        " зи",
        -7.47309821099829
      ],
      [
        "л",
        -7.478637212333658
      ],
      [
        "2",
        -7.479411927524957
      ],
      [
        "к",
        -7.490067160115145
      ],
      [
        "гъэ",
        -7.497802603667339
      ],
      [
        "хэр,",
        -7.499560530053583
      ],
      [
        " къа",
        -7.504119467362089
      ],
      [
        "б",
        -7.506431381601785
      ],
      [
        "дэ",
        -7.51208058023563
      ],
      [
        " щIэныгъэ",
        -7.5163850738398725
      ],
      [
        "кIи",
        -7.521667874416209
      ],
      [
        " –",
        -7.535829961748962
      ],
      [
        "рэ ",
        -7.544413595474626
      ],
      [
        "мкIэ",
        -7.552172090220786
      ],
      [
        "т,",
        -7.561503878326554
      ],
      [
        "», «",
        -7.562318180434269
      ],
      [
        "и,",
        -7.565943246519012
      ],
      [
        "гу",
        -7.568459212045099
      ],
      [
        ", абы",
        -7.569734030113975
      ],
      [
        "Жылагъуэ",
        -7.574434136498926
      ],
      [
        " Iуэху",
        -7.579333516538269
      ],
      [
        "рт.",
        -7.582339899219996
      ],
      [
        "зы",
        -7.613295494583378
      ],
      [
        " апхуэдэ",
        -7.614959464132861
      ],
      [
        "урэ",
        -7.627186189658949
      ],
      [
        "р,",
        -7.630370461816116
      ],
      [
        "хэри",
        -7.632891667667505
      ],
      [
        "У",
        -7.642580016805399
      ],
      [
        " псори",
        -7.642690519792571
      ],
      [
        "Урысей Федерацэм",
        -7.646370009418935
      ],
      [
        "хэр.",
        -7.654405635500177
      ],
      [
        "С",
        -7.6569966859899505
      ],
      [
        "у щыта",
        -7.665266430089045
      ],
      [
        "къым",
        -7.672448945168014
      ],
      [
        " уи",
        -7.677645383858845
      ],
      [
        " къыщы",
        -7.684522646164288
      ],
      [
        "Ди",
        -7.685760053198778
      ],
      [
        " Къэбэрдей",
        -7.695343561427621
      ],
      [
        "ей",
        -7.703608522327721
      ],
      [
        "Апхуэдэ",
        -7.716968038343716
      ],
      [
        "ти,",
        -7.724895533270767
      ],
      [
        "Iэ",
        -7.725324546686456
      ],
      [
        "шхуэ",
        -7.725966009338427
      ],
      [
        "… ",
        -7.73731370875154
      ],
      [
        "хэр ",
        -7.737876987757902
      ],
      [
        "хэм,",
        -7.7386308156640915
      ],
      [
        "хэм ",
        -7.743902556201318
      ],
      [
        " къи",
        -7.744342928279787
      ],
      [
        " хэт",
        -7.758048916379056
      ],
      [
        "ат",
        -7.760074562724053
      ],
      [
        "П",
        -7.772993652889721
      ],
      [
        " сэ",
        -7.784091615166262
      ],
      [
        "эр Республикэм ",
        -7.787386186352431
      ],
      [
        "ымрэ",
        -7.791804784416433
      ],
      [
        "ов",
        -7.792649622377924
      ],
      [
        "кIэ,",
        -7.79462352834532
      ],
      [
        "ыр.",
        -7.811498728779199
      ],
      [
        "хуэ",
        -7.81165660572912
      ],
      [
        "рт",
        -7.8159220914612835
      ],
      [
        "хэу",
        -7.823813552777094
      ],
      [
        " дэ",
        -7.825054778694158
      ],
      [
        "на",
        -7.827156102027659
      ],
      [
        "й",
        -7.828908483319282
      ],
      [
        "Зы",
        -7.832117598903901
      ],
      [
        " гуэр",
        -7.834177001427954
      ],
      [
        ", ауэ",
        -7.835476245051432
      ],
      [
        "жь",
        -7.844143709771047
      ],
      [
        ": ",
        -7.845770814791301
      ],
      [
        " япэ",
        -7.846596514042873
      ],
      [
        " щыщ",
        -7.84941166883591
      ],
      [
        "зэ",
        -7.850150442494382
      ],
      [
        "хэми",
        -7.862865405861815
      ],
      [
        "Е",
        -7.866072826069188
      ],
      [
        " къызэры",
        -7.8667541047485905
      ],
      [
        " щIы",
        -7.867527734217525
      ],
      [
        ": «",
        -7.873861551854276
      ],
      [
        "и ",
        -7.877726973981122
      ],
      [
        "ыж",
        -7.878939167804635
      ],
      [
        "ь",
        -7.886609040781284
      ],
      [
        "Я",
        -7.887618150711613
      ],
      [
        "ым ",
        -7.890133821045757
      ],
      [
        ", «",
        -7.8931616122538095
      ],
      [
        "хэмкIэ",
        -7.895638752647114
      ],
      [
        "ырт.",
        -7.9002653208588836
      ],
      [
        "хьэ",
        -7.908096604706914
      ],
      [
        "К",
        -7.914135615587802
      ],
      [
        ", ар",
        -7.914471542180086
      ],
      [
        " по",
        -7.924601237692834
      ],
      [
        " зэра",
        -7.929903964062408
      ],
      [
        "ю",
        -7.931385593861853
      ],
      [
        "ди",
        -7.93250815800621
      ],
      [
        "ащ,",
        -7.936020418445306
      ],
      [
        "В",
        -7.948437550204144
      ],
      [
        "кIэ ",
        -7.964115419905766
      ],
      [
        "гъу",
        -7.965876574895961
      ],
      [
        " ахэр",
        -7.967013644164764
      ],
      [
        "ий",
        -7.972374783868419
      ],
      [
        "шэ",
        -7.986551600965122
      ],
      [
        " за",
        -7.987315816922024
      ],
      [
        " илъэс",
        -7.988235496831064
      ],
      [
        " и унафэщI",
        -7.990947981941332
      ],
      [
        "щI",
        -7.998008074961937
      ],
      [
        " на",
        -8.00153065636547
      ],
      [
        "Сэ",
        -8.003903336787362
      ],
      [
        " къе",
        -8.01294235201247
      ],
      [
        "хь",
        -8.017572545933035
      ],
      [
        "Мы",
        -8.03132639574561
      ],
      [
        "къалъхуащ",
        -8.037629784315609
      ],
      [
        "сэ",
        -8.03798168289019
      ],
      [
        " дахэ",
        -8.038317328072965
      ],
      [
        " цIэрыIуэ",
        -8.04106680672626
      ],
      [
        "Ахэр",
        -8.04437208669664
      ],
      [
        " псы",
        -8.044699514651322
      ],
      [
        "гъуэ",
        -8.045045917234543
      ],
      [
        "ч",
        -8.045851598870714
      ],
      [
        "щи,",
        -8.053746910558198
      ],
      [
        " хабзэ",
        -8.054657980900396
      ],
      [
        " къалэм",
        -8.054762603696373
      ],
      [
        "Си",
        -8.058834490042065
      ],
      [
        "та",
        -8.060133390515482
      ],
      [
        "хэм.",
        -8.060423414434773
      ],
      [
        ", я",
        -8.061757259535682
      ],
      [
        " ща",
        -8.065207548659558
      ],
      [
        " нэгъуэщI",
        -8.07263694722846
      ],
      [
        "Iу",
        -8.07375238396839
      ],
      [
        ", и",
        -8.075299086216742
      ],
      [
        "у, ",
        -8.076921080663809
      ],
      [
        "ри.",
        -8.080200951285226
      ],
      [
        "ыр ",
        -8.088182283831072
      ],
      [
        "Т",
        -8.089624761807881
      ],
      [
        "ха",
        -8.08996931165036
      ],
      [
        " гъуэгу",
        -8.091271978137156
      ],
      [
        "пэ",
        -8.093988916484168
      ],
      [
        " къэс",
        -8.095037884900211
      ],
      [
        " цIыкIу",
        -8.10077159228712
      ],
      [
        "къэ",
        -8.105915656280564
      ],
      [
        " къэ",
        -8.115538575454483
      ],
      [
        " нэхъыщхьэ",
        -8.115697220090496
      ],
      [
        "Б",
        -8.12006897640172
      ],
      [
        " лэжьыгъэ",
        -8.123097596550874
      ],
      [
        " хъуа",
        -8.124077279883828
      ],
      [
        " псоми",
        -8.133656311755573
      ],
      [
        " абы и",
        -8.142538907085791
      ],
      [
        " цIыхухэм",
        -8.146820376655072
      ],
      [
        "и Правительствэм",
        -8.152958173667518
      ],
      [
        "рэ я",
        -8.155015986646815
      ],
      [
        "ев",
        -8.155300395263513
      ],
      [
        " Налшык",
        -8.157151549250823
      ],
      [
        " абыхэм",
        -8.157423969504707
      ],
      [
        "ом",
        -8.157877429549696
      ],
      [
        "м, ",
        -8.160121486532834
      ],
      [
        "Апхуэдэу",
        -8.165311428095226
      ],
      [
        " псалъэ",
        -8.166039775538774
      ],
      [
        " к",
        -8.167263604516936
      ],
      [
        "къуэ",
        -8.16809557677785
      ],
      [
        " д",
        -8.168975079898036
      ],
      [
        " А",
        -8.169280069429579
      ],
      [
        " зэмылIэужьыгъуэ",
        -8.169696321568203
      ],
      [
        "эр",
        -8.170942495074376
      ],
      [
        " зиIэ",
        -8.171551738324684
      ],
      [
        "ли",
        -8.174137421155162
      ],
      [
        "фI",
        -8.183239885214014
      ],
      [
        "ым,",
        -8.184436910495348
      ],
      [
        "да",
        -8.185707958593177
      ],
      [
        "цIыху",
        -8.187005115795396
      ],
      [
        "но",
        -8.189309865282812
      ],
      [
        "ам",
        -8.191996470155544
      ],
      [
        "хъу",
        -8.192029542090763
      ],
      [
        "I",
        -8.192277050916855
      ],
      [
        " фIэкIа",
        -8.195666110694932
      ],
      [
        "ие",
        -8.197719008896357
      ],
      [
        "Абы и",
        -8.19851244337844
      ],
      [
        " щыпсэу",
        -8.199584643529537
      ],
      [
        "лъ",
        -8.202020861244801
      ],
      [
        " щызэ",
        -8.204613383674365
      ],
      [
        " Iэмал",
        -8.206492067896082
      ],
      [
        " щхьэ",
        -8.207466191311047
      ],
      [
        "ным",
        -8.211148375651238
      ],
      [
        "щIа",
        -8.212306894663964
      ],
      [
        "Д",
        -8.21310984373077
      ],
      [
        " дэт",
        -8.213695355952837
      ],
      [
        "ыу",
        -8.217993926384999
      ],
      [
        "Спорт",
        -8.218219666653578
      ],
      [
        "ыным",
        -8.224787758822968
      ],
      [
        " С",
        -8.226532365547154
      ],
      [
        " куэдым",
        -8.22674756085887
      ],
      [
        "щ, ",
        -8.23017000981634
      ],
      [
        "акъым.",
        -8.230716284294221
      ],
      [
        " дыдэ",
        -8.231460225214093
      ],
      [
        " ин",
        -8.234303095317536
      ],
      [
        " тхылъ",
        -8.23858379767291
      ],
      [
        " дунейпсо",
        -8.23916063092108
      ],
      [
        "Махуэгъэпс",
        -8.240181511029093
      ],
      [
        ").",
        -8.244037563972714
      ],
      [
        "м и ",
        -8.24784331073641
      ],
      [
        "ку",
        -8.260513466944701
      ],
      [
        "АрщхьэкIэ",
        -8.263620735364723
      ],
      [
        "лэ",
        -8.263990727451763
      ],
      [
        " зыбжанэ",
        -8.264906401379603
      ],
      [
        " хъуащ.",
        -8.266018505968159
      ],
      [
        " цIыхухэр",
        -8.269577823029117
      ],
      [
        " унафэ",
        -8.270849173506097
      ],
      [
        " щIыпIэ",
        -8.27302123984444
      ],
      [
        " ири",
        -8.274779122336533
      ],
      [
        "ой",
        -8.275848982805584
      ],
      [
        "Абыхэм",
        -8.277361549265658
      ],
      [
        "щэ",
        -8.279249065211676
      ],
      [
        " япэу",
        -8.283991114313821
      ],
      [
        "ра",
        -8.284951292022189
      ],
      [
        " не",
        -8.285083124200721
      ],
      [
        "итI",
        -8.288601867435428
      ],
      [
        "ырт",
        -8.289541784608986
      ],
      [
        "рэ.",
        -8.290717990152386
      ],
      [
        " Iэ",
        -8.29144124136894
      ],
      [
        "бэ",
        -8.293005980982894
      ],
      [
        "Илъэс",
        -8.293354491377023
      ],
      [
        " иджыри",
        -8.29348387782369
      ],
      [
        " зэри",
        -8.293810842251649
      ],
      [
        "М",
        -8.29407855830701
      ],
      [
        " махуэ",
        -8.297688566413346
      ],
      [
        " къуажэ",
        -8.298945575798676
      ],
      [
        " щIыналъэ",
        -8.301041869260711
      ],
      [
        " гу",
        -8.301884553481855
      ],
      [
        "ым.",
        -8.305910583632048
      ],
      [
        " со",
        -8.309077121835562
      ],
      [
        "ц",
        -8.31034873738228
      ],
      [
        " зэи",
        -8.311620830187943
      ],
      [
        " гугъу",
        -8.325905652504023
      ],
      [
        "их",
        -8.327894493319986
      ],
      [
        " щхьэкIэ",
        -8.332469555104801
      ],
      [
        " з",
        -8.333065991531216
      ],
      [
        "Щэнхабзэ",
        -8.33403130159204
      ],
      [
        "Адыгэ",
        -8.335393002202789
      ],
      [
        " зэхьэзэхуэм",
        -8.3379473831899
      ],
      [
        "…",
        -8.33797855232751
      ],
      [
        ", а",
        -8.338952178253518
      ],
      [
        "ат.",
        -8.341695632459487
      ],
      [
        " хуэдэу",
        -8.34318778115722
      ],
      [
        " куэдрэ",
        -8.345521879151761
      ],
      [
        ", нэгъуэщI",
        -8.348199143652515
      ],
      [
        " гуп",
        -8.348374016850594
      ],
      [
        " Iуэхур",
        -8.348808186955116
      ],
      [
        "до",
        -8.349098268484578
      ],
      [
        " деж",
        -8.351487572064443
      ],
      [
        " зэман",
        -8.352244577433176
      ],
      [
        "ре",
        -8.354079159025243
      ],
      [
        "м деж",
        -8.354333461473889
      ],
      [
        " щIыналъэм",
        -8.354497608921715
      ],
      [
        "Зэ",
        -8.356546024396845
      ],
      [
        " къызэ",
        -8.35851400417548
      ],
      [
        "хэм ящыщщ",
        -8.359527927692836
      ],
      [
        " къэралым",
        -8.36094491143697
      ],
      [
        "ни",
        -8.362237612996442
      ],
      [
        "ша",
        -8.365379009758588
      ],
      [
        " нобэ",
        -8.366824164788834
      ],
      [
        " къуажэм",
        -8.368571988130249
      ],
      [
        "3",
        -8.369186426865998
      ],
      [
        " щIалэ",
        -8.372904094589906
      ],
      [
        "4",
        -8.378227194854091
      ],
      [
        " щи",
        -8.381888611527494
      ],
      [
        "Ф",
        -8.386078215505687
      ],
      [
        " т",
        -8.386271299387545
      ],
      [
        "рт,",
        -8.386561755325006
      ],
      [
        " иужькIэ",
        -8.386825356861163
      ],
      [
        " иджы",
        -8.387242358665972
      ],
      [
        " щIэ",
        -8.38881875882222
      ],
      [
        " хъу",
        -8.389702927612792
      ],
      [
        " сабий",
        -8.391782370347848
      ],
      [
        "росмотров",
        -8.395421262494441
      ],
      [
        " К",
        -8.397914700768489
      ],
      [
        " те",
        -8.40162212774274
      ],
      [
        "са",
        -8.4046501442789
      ],
      [
        " дунейм",
        -8.404829135693475
      ],
      [
        " нэс",
        -8.405320771523446
      ],
      [
        " фIыуэ",
        -8.405840294604975
      ],
      [
        "р зы",
        -8.406114919049248
      ],
      [
        "щ ",
        -8.406235197956962
      ],
      [
        "дж",
        -8.4107958256402
      ],
      [
        " И",
        -8.41158393503487
      ],
      [
        " щекIуэкIа",
        -8.413129678678397
      ],
      [
        " гъащIэм",
        -8.413381904927746
      ],
      [
        "Иджы",
        -8.415008431654137
      ],
      [
        " нэхъыбэ",
        -8.41546172399315
      ],
      [
        "акъым",
        -8.416192547872237
      ],
      [
        " гъэщIэгъуэн",
        -8.41732925008451
      ],
      [
        "хэм ящыщу",
        -8.418851545130236
      ],
      [
        "ныр",
        -8.420784546558156
      ],
      [
        " хъыбар",
        -8.430075117499335
      ],
      [
        " Мухьэмэд",
        -8.43011106102911
      ],
      [
        "ла",
        -8.430245885028361
      ],
      [
        "ымкIэ",
        -8.430520743950897
      ],
      [
        "пIэ",
        -8.4318538644551
      ],
      [
        " да",
        -8.43662657831586
      ],
      [
        "г",
        -8.436981230223981
      ],
      [
        "р?",
        -8.437570081684877
      ],
      [
        ";",
        -8.440644285695123
      ],
      [
        "7",
        -8.441270196261215
      ],
      [
        " Iуэхум",
        -8.443837279759634
      ],
      [
        " къып",
        -8.447830237942
      ],
      [
        "лъэ",
        -8.450834134970755
      ],
      [
        "ды",
        -8.458143839944592
      ],
      [
        "ка",
        -8.458607203203277
      ],
      [
        " пщIэ",
        -8.460405776240757
      ],
      [
        " унэ",
        -8.460626776547894
      ],
      [
        "Зи",
        -8.461159871093116
      ],
      [
        ", -",
        -8.46253294941188
      ],
      [
        " унагъуэ",
        -8.464439263755356
      ],
      [
        "ри, ",
        -8.465898858853329
      ],
      [
        "уи",
        -8.465997941014606
      ],
      [
        " зэманым",
        -8.467294719184071
      ],
      [
        " хуэдэ",
        -8.469392707184104
      ],
      [
        "ин",
        -8.469738249765285
      ],
      [
        " хъуну",
        -8.471606897949687
      ],
      [
        "жу",
        -8.472561727798205
      ],
      [
        "кI",
        -8.478910761993568
      ],
      [
        "кIуэ",
        -8.47895903789425
      ],
      [
        " сыт",
        -8.481441694846765
      ],
      [
        "кэ",
        -8.481464846271578
      ],
      [
        "жа",
        -8.482605033825536
      ],
      [
        " шы",
        -8.482786940643233
      ],
      [
        "ем",
        -8.485498090344173
      ],
      [
        "ыныр",
        -8.485971150725167
      ],
      [
        "тэкъым",
        -8.486016555796544
      ],
      [
        " лэжьакIуэ",
        -8.486324038585153
      ],
      [
        "ар.",
        -8.48724558345818
      ],
      [
        ", ди",
        -8.489935263687142
      ],
      [
        " езы",
        -8.492564563351102
      ],
      [
        " къару",
        -8.497600138009028
      ],
      [
        " Урысейм",
        -8.498974325667959
      ],
      [
        " зэхьэзэхуэ",
        -8.501943442702142
      ],
      [
        " ехъулIэныгъэ",
        -8.503060089823638
      ],
      [
        "м я",
        -8.504319414989535
      ],
      [
        "; ",
        -8.506812358930336
      ],
      [
        "и.",
        -8.507809415194213
      ],
      [
        " зыри",
        -8.508269335017998
      ],
      [
        "жэ",
        -8.509794369609242
      ],
      [
        " зэIущIэ",
        -8.509918222472507
      ],
      [
        " хуабжьу",
        -8.51205045767686
      ],
      [
        "Сыт",
        -8.512792981117489
      ],
      [
        " «Спартак-Налшык",
        -8.514482279327101
      ],
      [
        " зэхъуэкIыныгъэ",
        -8.514680230665267
      ],
      [
        "ышхуэ",
        -8.516876495935694
      ],
      [
        "Л",
        -8.51745165032763
      ],
      [
        "Дэ",
        -8.519055516136397
      ],
      [
        "ет",
        -8.521272359987655
      ],
      [
        "-Балъкъэрым",
        -8.522245804410336
      ],
      [
        "дзэ",
        -8.522603178913556
      ],
      [
        "къым,",
        -8.522846046630397
      ],
      [
        " къалэн",
        -8.524154242922664
      ],
      [
        "ых",
        -8.52450229226488
      ],
      [
        "ры",
        -8.525267106702668
      ],
      [
        "те",
        -8.526658182784512
      ],
      [
        "къу",
        -8.530203493079071
      ],
      [
        " гупым",
        -8.53577920459689
      ],
      [
        " къалэ",
        -8.536516973118044
      ],
      [
        "эр Республикэм и",
        -8.538089692196452
      ],
      [
        "5",
        -8.54355259436058
      ],
      [
        "джэ",
        -8.547786260860544
      ],
      [
        "» ",
        -8.5492982362234
      ],
      [
        "Н",
        -8.55077300920216
      ],
      [
        " къо",
        -8.550938408855814
      ],
      [
        "Скач",
        -8.55257134514593
      ],
      [
        " къыт",
        -8.559006052227954
      ],
      [
        " из",
        -8.560110690414449
      ],
      [
        " къызэри",
        -8.56429351270938
      ],
      [
        ": - ",
        -8.56505378903207
      ],
      [
        " уэрэд",
        -8.566945860580873
      ],
      [
        "Iуэ",
        -8.567247020463572
      ],
      [
        "З",
        -8.567646328639412
      ],
      [
        "» (",
        -8.568195700421636
      ],
      [
        "фэ",
        -8.569217469197495
      ],
      [
        ", си",
        -8.570354929049374
      ],
      [
        " и къуэ",
        -8.570559843975596
      ],
      [
        "Тхыдэ",
        -8.571728838756911
      ],
      [
        " фи",
        -8.572360249407158
      ],
      [
        "хьа",
        -8.573647143694862
      ],
      [
        "Р",
        -8.574502907035578
      ],
      [
        ", зы",
        -8.57722266495981
      ],
      [
        " къыс",
        -8.579482850178087
      ],
      [
        " б",
        -8.581476699748855
      ],
      [
        " Iуэхугъуэ",
        -8.58542316258128
      ],
      [
        "19",
        -8.58559879004439
      ],
      [
        " уэ",
        -8.586610730974146
      ],
      [
        "хэт",
        -8.589324466172084
      ],
      [
        "ки",
        -8.592536700366422
      ],
      [
        "ыну.",
        -8.59366632494126
      ],
      [
        " хъуащ",
        -8.594668295580105
      ],
      [
        "за",
        -8.598635610285163
      ],
      [
        "тэкъым.",
        -8.603149951955489
      ],
      [
        " иджыблагъэ",
        -8.60544238627007
      ],
      [
        " сыт щыгъуи",
        -8.605794280410397
      ],
      [
        "ны",
        -8.605854904621117
      ],
      [
        "р, ",
        -8.609162649523595
      ],
      [
        "м хуэдэу",
        -8.611123435381149
      ],
      [
        "Уи",
        -8.615207644328969
      ],
      [
        "0",
        -8.61805460943264
      ],
      [
        "де",
        -8.618363546970869
      ],
      [
        " до",
        -8.618384448792856
      ],
      [
        "зи",
        -8.620849689703629
      ],
      [
        "къалъхуащ ",
        -8.626227944962835
      ],
      [
        "Литературэ",
        -8.626802039239152
      ],
      [
        "а нэужь",
        -8.627259992350226
      ],
      [
        " П",
        -8.627279849615082
      ],
      [
        "эн",
        -8.627496159976598
      ],
      [
        "хъ",
        -8.62827281079101
      ],
      [
        " хъуауэ",
        -8.630076433057905
      ],
      [
        " – ",
        -8.63265607274737
      ],
      [
        "лъагъу",
        -8.63332050828161
      ],
      [
        "ыф",
        -8.633640638412793
      ],
      [
        " гуэрым",
        -8.633645754649574
      ],
      [
        " от",
        -8.633694909877779
      ],
      [
        " гъэм",
        -8.635926904201906
      ],
      [
        " и «",
        -8.636719694384052
      ],
      [
        " лъандэрэ",
        -8.636899237528514
      ],
      [
        " зыгуэр",
        -8.636959831650806
      ],
      [
        ", ахэр",
        -8.63947479454379
      ],
      [
        " зэфIэкI",
        -8.640054817091507
      ],
      [
        " тхыгъэ",
        -8.6426150786579
      ],
      [
        " щекIуэкI",
        -8.644317256462443
      ],
      [
        " де",
        -8.644900956323845
      ],
      [
        " ис",
        -8.645428537789172
      ],
      [
        "окъуэ",
        -8.649234351779144
      ],
      [
        "-м",
        -8.655867475972924
      ],
      [
        "у щытащ",
        -8.656316724070711
      ],
      [
        "Г",
        -8.65727387077576
      ],
      [
        "къ",
        -8.657919862791688
      ],
      [
        " усакIуэ",
        -8.65812428594644
      ],
      [
        "Къы",
        -8.658972019104203
      ],
      [
        "хэм ящыщ",
        -8.659236782404262
      ],
      [
        " лъэпкъым",
        -8.660227228312891
      ],
      [
        " зэре",
        -8.66269744789938
      ],
      [
        "уэ щытащ",
        -8.663401048755762
      ],
      [
        "щы",
        -8.667921248233508
      ],
      [
        " унэм",
        -8.668048061156377
      ],
      [
        " ху",
        -8.668381359125043
      ],
      [
        " жылагъуэ",
        -8.668648856995738
      ],
      [
        "хуа",
        -8.66877105430352
      ],
      [
        " щIалэм",
        -8.6697647151501
      ],
      [
        " бзэ",
        -8.671326441690937
      ],
      [
        " къра",
        -8.673601504924655
      ],
      [
        " щыIа",
        -8.674870703799197
      ],
      [
        "),",
        -8.675586201584345
      ],
      [
        "ко",
        -8.677365620972747
      ],
      [
        " закъуэ",
        -8.678685556137566
      ],
      [
        " гъэ",
        -8.679130933588608
      ],
      [
        " цIыхум",
        -8.680266261333552
      ],
      [
        "пс",
        -8.685935164627699
      ],
      [
        "гъуэт",
        -8.686132643155315
      ],
      [
        "рей",
        -8.686900965039115
      ],
      [
        " къэралым и",
        -8.689504036184537
      ],
      [
        " г",
        -8.690966583801938
      ],
      [
        "Хьэ",
        -8.691004741681802
      ],
      [
        " езым",
        -8.69309110280982
      ],
      [
        " федеральнэ",
        -8.69486428802157
      ],
      [
        "гъащIэ",
        -8.695281402248927
      ],
      [
        "ах",
        -8.695415321117189
      ],
      [
        "Сы",
        -8.698835270470454
      ],
      [
        "анэ",
        -8.699075877468186
      ],
      [
        " щхьэусыгъуэ",
        -8.701127266676556
      ],
      [
        ", абы и",
        -8.701965119603628
      ],
      [
        " хуэ",
        -8.702094665789751
      ],
      [
        " усэ",
        -8.704209010050153
      ],
      [
        " адрей",
        -8.70462480843602
      ],
      [
        "ыр,",
        -8.705205801673264
      ],
      [
        "кIа",
        -8.705845852807345
      ],
      [
        "ауэ,",
        -8.708751315971476
      ],
      [
        "ст",
        -8.71157913716248
      ],
      [
        " ще",
        -8.711652582166487
      ],
      [
        " ф",
        -8.712253504716587
      ],
      [
        " апхуэдэу",
        -8.719390257782312
      ],
      [
        " тхакIуэ",
        -8.72199984723373
      ],
      [
        "дз",
        -8.724868553096702
      ],
      [
        " ахъшэ",
        -8.725812902203222
      ],
      [
        " лэжьыгъэм",
        -8.726707979577291
      ],
      [
        "ым»",
        -8.729224142656626
      ],
      [
        " нэхъыфI",
        -8.729433325728873
      ],
      [
        "Э",
        -8.732772796561509
      ],
      [
        "уэ щыта",
        -8.73620634680764
      ],
      [
        " нэхъыщхьэр",
        -8.739263636316931
      ],
      [
        " абы ",
        -8.739550151868283
      ],
      [
        "6",
        -8.740510942778453
      ],
      [
        "н папщIэ",
        -8.741207807326132
      ],
      [
        " утыку",
        -8.742640542200704
      ],
      [
        " жиIащ",
        -8.743743810256836
      ],
      [
        " телъыджэ",
        -8.74391320131176
      ],
      [
        " зэрызэ",
        -8.744408478606326
      ],
      [
        " тет",
        -8.744610646299906
      ],
      [
        "шы",
        -8.746424170624312
      ],
      [
        " Iу",
        -8.7470625780964
      ],
      [
        " иджыпсту",
        -8.748806490053635
      ],
      [
        "Ш",
        -8.751170456302436
      ],
      [
        "къы",
        -8.751752875115638
      ],
      [
        " фы",
        -8.75203785075514
      ],
      [
        "Х",
        -8.755829869488927
      ],
      [
        " ира",
        -8.75664214876495
      ],
      [
        " IэнатIэ",
        -8.75820819459755
      ],
      [
        " фIы",
        -8.758811197241076
      ],
      [
        "пщэ",
        -8.761339003575024
      ],
      [
        "ращ",
        -8.761858968777084
      ],
      [
        " спорт",
        -8.763282540172503
      ],
      [
        "м теухуауэ",
        -8.763314761369855
      ],
      [
        " макъ",
        -8.765633342868627
      ],
      [
        " пщы",
        -8.765866092192988
      ],
      [
        "щ икIи",
        -8.766299715838173
      ],
      [
        " У",
        -8.766630641180472
      ],
      [
        " IуэхущIапIэ",
        -8.766686934570476
      ],
      [
        " зауэ",
        -8.767059099844609
      ],
      [
        " гъащIэ",
        -8.767538699300486
      ],
      [
        "ло",
        -8.768345955146106
      ],
      [
        "ти",
        -8.770174702536279
      ],
      [
        " къыщи",
        -8.7706776369131
      ],
      [
        "ынущ.",
        -8.77421477409376
      ],
      [
        " щапхъэ",
        -8.775984280298928
      ],
      [
        "уэ,",
        -8.77830047504014
      ],
      [
        " жэуап",
        -8.778732313538868
      ],
      [
        "р и",
        -8.781121982754485
      ],
      [
        " лэжьыгъэр",
        -8.781740569535138
      ],
      [
        " тхыдэм",
        -8.781817630319246
      ],
      [
        " ипэкIэ",
        -8.782979044541975
      ],
      [
        "Аращ",
        -8.787675968229806
      ],
      [
        " Алий",
        -8.788558153715655
      ],
      [
        " сыт хуэдэ",
        -8.788615386364668
      ],
      [
        "ИужькIэ",
        -8.789154413163038
      ],
      [
        "эм",
        -8.790108497228083
      ],
      [
        " къикIа",
        -8.791206818892011
      ],
      [
        "тэ",
        -8.791359569784339
      ],
      [
        " мэхъу",
        -8.793340054787702
      ],
      [
        " хъунущ",
        -8.793540505811018
      ],
      [
        "то",
        -8.795269060429877
      ],
      [
        "Япэ",
        -8.796329480513618
      ],
      [
        " мэхъу.",
        -8.796768232298014
      ],
      [
        " еджапIэ",
        -8.796938334142233
      ],
      [
        "ами,",
        -8.79776356655735
      ],
      [
        " иIэ",
        -8.798842161724792
      ],
      [
        " Хьэ",
        -8.80051954453576
      ],
      [
        "ЦIыху",
        -8.802351403552708
      ],
      [
        " республикэм",
        -8.802797869552283
      ],
      [
        "ншэ",
        -8.803570191704278
      ],
      [
        ", зи",
        -8.803842935426676
      ],
      [
        " зэIущIэм",
        -8.803993927522104
      ],
      [
        "ва",
        -8.80466739454737
      ],
      [
        " урыс",
        -8.804962654298327
      ],
      [
        " аргуэру",
        -8.806460838676175
      ],
      [
        "ри ",
        -8.807658524339205
      ],
      [
        " теухуауэ",
        -8.807871241863754
      ],
      [
        " мин",
        -8.808209607356861
      ],
      [
        " фIыщIэ",
        -8.808515287393906
      ],
      [
        " лъэхъэнэм",
        -8.809079099737907
      ],
      [
        ", И",
        -8.809591153591718
      ],
      [
        "фIэ",
        -8.812946331046641
      ],
      [
        " щхьэхуэ",
        -8.814388412445677
      ],
      [
        "нур",
        -8.814696370387688
      ],
      [
        " при",
        -8.816731331067452
      ],
      [
        "», -",
        -8.821619225179099
      ],
      [
        " тIэкIу",
        -8.821623614274593
      ],
      [
        "О",
        -8.822879005358551
      ],
      [
        "Ж",
        -8.824417643944749
      ],
      [
        " мылъку",
        -8.825031102844061
      ],
      [
        " щIалэр",
        -8.827550044333627
      ],
      [
        " университетым",
        -8.828387975616131
      ],
      [
        " хьэ",
        -8.8285943350368
      ],
      [
        " къри",
        -8.830195603009894
      ],
      [
        " Владимир",
        -8.830267345940834
      ],
      [
        "ба",
        -8.830626050202536
      ],
      [
        "он",
        -8.831499010210576
      ],
      [
        " Мэзкуу",
        -8.8320958337233
      ],
      [
        "ого",
        -8.833077259787913
      ],
      [
        "рэ,",
        -8.834607902535016
      ],
      [
        " лIы",
        -8.834677064056
      ],
      [
        "щIы",
        -8.835320238149812
      ],
      [
        "8",
        -8.836652323518628
      ],
      [
        " къыхэ",
        -8.83816044314639
      ],
      [
        "Уэ",
        -8.83957885539299
      ],
      [
        " Москва",
        -8.839669744358922
      ],
      [
        "гъа",
        -8.841320183393611
      ],
      [
        "бгъэ",
        -8.844141964193389
      ],
      [
        " дыдэу",
        -8.844458335022471
      ],
      [
        " Аслъэн",
        -8.84554296006497
      ],
      [
        "по",
        -8.847021416740553
      ],
      [
        "акIуэ",
        -8.849324186043056
      ],
      [
        " нэ",
        -8.850491041747588
      ],
      [
        "ужь",
        -8.851468974631588
      ],
      [
        "ия",
        -8.851608718139435
      ],
      [
        " гулъытэ",
        -8.851721480712659
      ],
      [
        " унагъуэм",
        -8.853432759549744
      ],
      [
        "?!",
        -8.854337254667922
      ],
      [
        " мащIэ",
        -8.855328042841467
      ],
      [
        "щхьэ",
        -8.858925695747562
      ],
      [
        "... ",
        -8.859441669271467
      ],
      [
        "щи",
        -8.861238511664553
      ],
      [
        "хи",
        -8.861245370642665
      ],
      [
        "ащ икIи",
        -8.864994568635563
      ],
      [
        "дгъэ",
        -8.865268742722872
      ],
      [
        "Лъэпкъ",
        -8.865452089742535
      ],
      [
        "кIэ щIыхь зиIэ ",
        -8.867159956876733
      ],
      [
        "ркъым.",
        -8.868767795252712
      ],
      [
        ") ",
        -8.870075705627862
      ],
      [
        " цIыхубз",
        -8.870457405243926
      ],
      [
        " мэ",
        -8.871784373782937
      ],
      [
        " гъащIэр",
        -8.871920262665173
      ],
      [
        "ыкъуэ",
        -8.873103419878893
      ],
      [
        " республикэм и",
        -8.87464345544882
      ],
      [
        "кIу",
        -8.874982513537176
      ],
      [
        "хэр я",
        -8.877783364463873
      ],
      [
        " и министерствэм",
        -8.878198908441304
      ],
      [
        "ащи,",
        -8.878242183083225
      ],
      [
        " адыгэхэм",
        -8.8790265868622
      ],
      [
        " дуней псом",
        -8.883653161215777
      ],
      [
        "ан",
        -8.88431140129221
      ],
      [
        " гупсысэ",
        -8.884752738896776
      ],
      [
        " Г",
        -8.885127777907835
      ],
      [
        " и УнафэщI",
        -8.886699890331837
      ],
      [
        "нущ",
        -8.887263990039642
      ],
      [
        "и лэжьакIуэ",
        -8.888466588489802
      ],
      [
        "ым и къуэдзэ",
        -8.889134543958473
      ],
      [
        " ирагъэ",
        -8.892713439663321
      ],
      [
        " щекIуэкIащ",
        -8.89280099569709
      ],
      [
        "ащ ",
        -8.892892257803318
      ],
      [
        " Александр",
        -8.893580817165052
      ],
      [
        "ынущ",
        -8.894245655510982
      ],
      [
        "м теухуа",
        -8.896647154906077
      ],
      [
        " щылажьэ",
        -8.897852344953975
      ],
      [
        "ск",
        -8.897917962407792
      ],
      [
        "17",
        -8.899208880924549
      ],
      [
        " къызы",
        -8.902097966195537
      ],
      [
        "эну",
        -8.902345394147268
      ],
      [
        " къыщIэ",
        -8.904927154961003
      ],
      [
        " папщIэ",
        -8.905256338639768
      ],
      [
        " се",
        -8.906795320589737
      ],
      [
        " щIэныгъэлI",
        -8.90751886708712
      ],
      [
        "ик",
        -8.907841960703761
      ],
      [
        "ыжащ.",
        -8.910358489929687
      ],
      [
        "i",
        -8.9104134616999
      ],
      [
        " аращ.",
        -8.910605584957537
      ],
      [
        ", адыгэ",
        -8.910907529594919
      ],
      [
        " кIуэ",
        -8.912462433248518
      ],
      [
        "н хуейщ",
        -8.914913022038725
      ],
      [
        " гуапэ",
        -8.915635929937416
      ],
      [
        " абыхэм я",
        -8.91766122000148
      ],
      [
        " дуней",
        -8.921495501364113
      ],
      [
        "пи",
        -8.922632066453158
      ],
      [
        " Т",
        -8.923748032188897
      ],
      [
        " щIыкIэ",
        -8.924094441765385
      ],
      [
        "кІэ",
        -8.924153694973988
      ],
      [
        "»-м",
        -8.925071456101586
      ],
      [
        "уд",
        -8.925166121328992
      ],
      [
        "Зэры",
        -8.92663448762421
      ],
      [
        " зэрыщы",
        -8.928307468746077
      ],
      [
        ", уеблэмэ",
        -8.931579378308584
      ],
      [
        "ын папщIэ",
        -8.93246817460731
      ],
      [
        " къыдэ",
        -8.932775180904656
      ],
      [
        " ди лъэпкъэгъу",
        -8.932958769765918
      ],
      [
        " Тхьэм",
        -8.933412699360154
      ],
      [
        "джа",
        -8.933427957544655
      ],
      [
        "лы",
        -8.934190915578906
      ],
      [
        " иIэу",
        -8.934659391175135
      ],
      [
        "Ды",
        -8.936000289417928
      ],
      [
        " зауэм",
        -8.93730830328218
      ],
      [
        "ус",
        -8.93751974156756
      ],
      [
        "18",
        -8.939714360443684
      ],
      [
        " нэхъыжь",
        -8.93999337905716
      ],
      [
        "м щыщ",
        -8.940274746611685
      ],
      [
        "зыгъэ",
        -8.9412280606464
      ],
      [
        " егъэджакIуэ",
        -8.94163241973483
      ],
      [
        " про",
        -8.942058659331362
      ],
      [
        " етIуанэ",
        -8.942241708412759
      ],
      [
        " республикэ",
        -8.942335138901413
      ],
      [
        " хыхьэ",
        -8.942390290129218
      ],
      [
        " къыщалъхуа",
        -8.942607407248595
      ],
      [
        "мкIэ,",
        -8.943353084562814
      ],
      [
        ", абыхэм",
        -8.943952326329347
      ],
      [
        "ник",
        -8.944260173107999
      ],
      [
        "Гу",
        -8.944340891967716
      ],
      [
        "ле",
        -8.94554685663862
      ],
      [
        "ыжь",
        -8.946807876872352
      ],
      [
        " гъунэгъу",
        -8.947107276086513
      ],
      [
        " футболист",
        -8.947792338063987
      ],
      [
        " фэ",
        -8.947806199052273
      ],
      [
        "гъ",
        -8.949545658131989
      ],
      [
        " насып",
        -8.9510563665919
      ],
      [
        " медицинэ",
        -8.951925562271235
      ],
      [
        "a",
        -8.95222366464698
      ],
      [
        "ков",
        -8.952475883222686
      ],
      [
        "– ",
        -8.952698055965847
      ],
      [
        "ро",
        -8.955086476612554
      ],
      [
        " къыхигъэщащ",
        -8.956479370420617
      ],
      [
        "ыжа",
        -8.956592016423127
      ],
      [
        " хэлъ",
        -8.960593117360819
      ],
      [
        " теухуа",
        -8.960744591471062
      ],
      [
        "щ».",
        -8.960924171843022
      ],
      [
        "хэри.",
        -8.962384450220117
      ],
      [
        " о",
        -8.965535625471315
      ],
      [
        " IэщIагъэ",
        -8.965608014729288
      ],
      [
        " са",
        -8.966016359563245
      ],
      [
        "нымкIэ",
        -8.966865598494195
      ],
      [
        " макъамэ",
        -8.96705965346914
      ],
      [
        " топ",
        -8.96940847261287
      ],
      [
        "ркъым",
        -8.970412896241577
      ],
      [
        "м у",
        -8.971242278909896
      ],
      [
        " щIэс",
        -8.973319502941193
      ],
      [
        " Iуэхухэр",
        -8.976551791637068
      ],
      [
        " щэнхабзэ",
        -8.97714440927884
      ],
      [
        "Нэхъ",
        -8.977227620157885
      ],
      [
        " IэнатIэм",
        -8.979580716323733
      ],
      [
        "Иджыпсту",
        -8.979995085847774
      ],
      [
        " цIыхухэм я",
        -8.98363711034382
      ],
      [
        " къыд",
        -8.984104143492878
      ],
      [
        "ын хуейщ",
        -8.984300092288274
      ],
      [
        " сыщы",
        -8.984880353100959
      ],
      [
        "15",
        -8.984957660761145
      ],
      [
        "хыу",
        -8.984972079435732
      ],
      [
        " нэхъыбэу",
        -8.98586896965772
      ],
      [
        "ну.",
        -8.98627548892344
      ],
      [
        "хэм я деж",
        -8.98662125540118
      ],
      [
        " мывэ",
        -8.986714284136738
      ],
      [
        " езыр",
        -8.98817160771052
      ],
      [
        " зе",
        -8.98876009340637
      ],
      [
        " нэху",
        -8.988832951857008
      ],
      [
        "ыху",
        -8.989611919604226
      ],
      [
        " махуэм",
        -8.991489650064828
      ],
      [
        "лъхьэ",
        -8.991742810201401
      ],
      [
        " дызэ",
        -8.992283378613951
      ],
      [
        " Iэзэ",
        -8.992297902374542
      ],
      [
        " щыгъуазэ",
        -8.994004493814938
      ],
      [
        "вер",
        -8.995092294219548
      ],
      [
        " ящI",
        -8.995727886896113
      ],
      [
        "го",
        -8.9961589399784
      ],
      [
        " лэжьыгъэхэр",
        -8.996169010470545
      ],
      [
        " щIа",
        -8.996652720279528
      ],
      [
        "скэ",
        -8.99870892328245
      ],
      [
        " сымэ",
        -8.999208253215116
      ],
      [
        " псэ",
        -9.00069830367156
      ],
      [
        " зэгухьэныгъэм",
        -9.000985562811291
      ],
      [
        "убыд",
        -9.002989044448888
      ],
      [
        ", - жиIащ",
        -9.005074104924034
      ],
      [
        " и къуэр",
        -9.006391385213771
      ],
      [
        "ми ",
        -9.007113171891472
      ],
      [
        "ал",
        -9.008277135753575
      ],
      [
        "Іэ",
        -9.009159048884896
      ],
      [
        ", Къэбэрдей",
        -9.00941407754259
      ],
      [
        "кIыу",
        -9.009446513119073
      ],
      [
        "жащ.",
        -9.009972414539995
      ],
      [
        " дэс",
        -9.010223479670431
      ],
      [
        "дин",
        -9.010690334499357
      ],
      [
        " тхыдэ",
        -9.01091558064027
      ],
      [
        "зэры",
        -9.011604180922797
      ],
      [
        " езым и",
        -9.012924313472602
      ],
      [
        " и лъэныкъуэкIэ",
        -9.013490499447666
      ],
      [
        " дзэ",
        -9.013864785547657
      ],
      [
        "ИтIанэ",
        -9.015516059570352
      ],
      [
        "хэмрэ я",
        -9.016059341428829
      ],
      [
        "Нобэ",
        -9.017307108972116
      ],
      [
        " щыт",
        -9.018303746361154
      ],
      [
        "ен",
        -9.019265345210522
      ],
      [
        " дыщэ",
        -9.020196282591662
      ],
      [
        "Iэт",
        -9.020397532308785
      ],
      [
        "ыгъуэ",
        -9.020436815418872
      ],
      [
        "кIуа",
        -9.021205580859837
      ],
      [
        "тIэ",
        -9.021985678445475
      ],
      [
        " зэуэ",
        -9.024144301643261
      ],
      [
        " Iыхьэ",
        -9.027277808808904
      ],
      [
        "ты",
        -9.027427605605224
      ],
      [
        " иджырей",
        -9.027475280234805
      ],
      [
        "лэжьа",
        -9.028122283259409
      ],
      [
        "щ, ауэ",
        -9.028152789494309
      ],
      [
        "ая",
        -9.029668324483861
      ],
      [
        " ит",
        -9.030598859432622
      ],
      [
        "мрэ ",
        -9.03096870748942
      ],
      [
        " гуфIэгъуэ",
        -9.03109102444974
      ],
      [
        "9",
        -9.03117342494109
      ],
      [
        " бын",
        -9.031250941891646
      ],
      [
        " и цIэр зезыхьэ",
        -9.031270446516725
      ],
      [
        " КIуэкIуэ Казбек",
        -9.031473606266227
      ],
      [
        "жыну",
        -9.032933130196358
      ],
      [
        "Iа",
        -9.03344084934253
      ],
      [
        " Iуэхухэм",
        -9.033753483708384
      ],
      [
        "м и унафэщI",
        -9.035617009525275
      ],
      [
        " щиIэ",
        -9.036052753477529
      ],
      [
        "Ч",
        -9.037016816949201
      ],
      [
        "Налшык",
        -9.037169109793162
      ],
      [
        " сымэ.",
        -9.037645538156278
      ],
      [
        "ынымкIэ",
        -9.038200485028923
      ],
      [
        " уэрэджыIакIуэ",
        -9.03828963414513
      ],
      [
        " школ",
        -9.040877337275322
      ],
      [
        " пэж",
        -9.041675888787815
      ],
      [
        " мазэ",
        -9.041698260877045
      ],
      [
        "псалъэ",
        -9.041751939053958
      ],
      [
        "па",
        -9.042148353563864
      ],
      [
        "не",
        -9.042403587699825
      ],
      [
        " къ",
        -9.042817354401487
      ],
      [
        " нэужь",
        -9.043321714969867
      ],
      [
        "си",
        -9.044035564256259
      ],
      [
        "ил",
        -9.044324307322503
      ],
      [
        "Ар ",
        -9.045709796902322
      ],
      [
        "зо",
        -9.046723981798468
      ],
      [
        "Щ",
        -9.047395330911375
      ],
      [
        " I",
        -9.048313791010933
      ],
      [
        "e",
        -9.04904361414325
      ],
      [
        "ля",
        -9.049793125635611
      ],
      [
        "ыжыну",
        -9.050154432712553
      ],
      [
        "На",
        -9.051444689060869
      ],
      [
        " мурад",
        -9.053393807326591
      ],
      [
        " и гъусэу",
        -9.054036412357041
      ],
      [
        "ами",
        -9.055568899553673
      ],
      [
        "м папщIэ",
        -9.056241147158596
      ],
      [
        "ыжу",
        -9.056378422468502
      ],
      [
        "o",
        -9.056517624753425
      ],
      [
        "ща",
        -9.058077302140065
      ],
      [
        "лъа",
        -9.059036973927887
      ],
      [
        " Ф",
        -9.05952447407147
      ],
      [
        "* * * ",
        -9.060222314739589
      ],
      [
        " дыдэм",
        -9.060817747016024
      ],
      [
        " дэтхэнэ",
        -9.062169880840342
      ],
      [
        " щэнхабзэм",
        -9.062278177442984
      ],
      [
        "ми.",
        -9.062894976405683
      ],
      [
        "у щыт",
        -9.06410914107903
      ],
      [
        "Архив 20",
        -9.064373759232602
      ],
      [
        "тх",
        -9.064435617676995
      ],
      [
        "ыгъэ",
        -9.065210517413572
      ],
      [
        " КъБР-м ",
        -9.06532174906177
      ],
      [
        " мыхьэнэ",
        -9.066097766426529
      ],
      [
        "рэ?",
        -9.068418349248084
      ],
      [
        " Архив газет",
        -9.0686603133733
      ],
      [
        " къэзы",
        -9.069147604673876
      ],
      [
        "Шы",
        -9.070616707575303
      ],
      [
        "Архив газет",
        -9.071366106601122
      ],
      [
        "уз",
        -9.071547817295219
      ],
      [
        "м къриубыдэу",
        -9.072969016555469
      ],
      [
        " шу",
        -9.07374496156113
      ],
      [
        "ыпIэ",
        -9.074167893454103
      ],
      [
        "бий",
        -9.074721003484152
      ],
      [
        " сурэт",
        -9.074834276754128
      ],
      [
        "пщIэ",
        -9.075320208660315
      ],
      [
        ", уи",
        -9.075556760518399
      ],
      [
        "Урысейм",
        -9.075993249678579
      ],
      [
        " лъы",
        -9.078313011083008
      ],
      [
        ", сэ",
        -9.078863985241895
      ],
      [
        " Е",
        -9.079299424401931
      ],
      [
        "* * *",
        -9.079899118517545
      ],
      [
        " къабзэ",
        -9.079907837380343
      ],
      [
        " Д",
        -9.080266614558761
      ],
      [
        "ын хуей",
        -9.080482259036213
      ],
      [
        " хэта",
        -9.080969673895144
      ],
      [
        "р я",
        -9.081761948617793
      ],
      [
        " Урысей Федерацэ",
        -9.083271860260332
      ],
      [
        "лэжь",
        -9.083279335360494
      ],
      [
        " джэгу",
        -9.08359349212718
      ],
      [
        " лъэпкъым и",
        -9.08456572174471
      ],
      [
        " IуэхущIапIэхэм",
        -9.084783847777842
      ],
      [
        "Абыхэм я",
        -9.084809332658018
      ],
      [
        "рщ.",
        -9.085230181925859
      ],
      [
        " мыбы",
        -9.088517239980458
      ],
      [
        " зыми",
        -9.089213770908644
      ],
      [
        " ди республикэм",
        -9.091171973342654
      ],
      [
        "ращ.",
        -9.092914220502974
      ],
      [
        " нэхъ ",
        -9.09406602239094
      ],
      [
        " Урысейм и",
        -9.094588569764463
      ],
      [
        " Тыркум",
        -9.096445021886309
      ],
      [
        " саугъэт",
        -9.097039222140435
      ],
      [
        "10",
        -9.097113503743657
      ],
      [
        "Ы",
        -9.09717628397637
      ],
      [
        " адэкIэ",
        -9.10182370747916
      ],
      [
        "бо",
        -9.102977740750063
      ],
      [
        " мо",
        -9.103819021118095
      ],
      [
        "ист",
        -9.104038650430333
      ],
      [
        " унафэщI",
        -9.105858386555687
      ],
      [
        " ар ",
        -9.106053354855895
      ],
      [
        " лIыгъэ",
        -9.107358912503237
      ],
      [
        " пащтыхь",
        -9.107677140998602
      ],
      [
        "плъ",
        -9.108682605138199
      ],
      [
        "хэм къа",
        -9.109462351163016
      ],
      [
        " къызэра",
        -9.109926868376348
      ],
      [
        " иужь",
        -9.11062409936649
      ],
      [
        "би",
        -9.111504563744353
      ],
      [
        "гъэлъэгъуа",
        -9.112910441057064
      ],
      [
        " жаIэ",
        -9.113048288473326
      ],
      [
        "хэр хэлъхьэн",
        -9.113349045017154
      ],
      [
        "щIэр",
        -9.114487140991832
      ],
      [
        "щІэ",
        -9.11678892295831
      ],
      [
        " Б",
        -9.117186843306566
      ],
      [
        "Къэбэрдей",
        -9.117674786349081
      ],
      [
        " урысейпсо",
        -9.118747171277942
      ],
      [
        " гупыр",
        -9.120259065025195
      ],
      [
        " зэпеуэм",
        -9.122085721644396
      ],
      [
        " псом",
        -9.12283542415026
      ],
      [
        " лIэужьыгъуэ",
        -9.123091372512281
      ],
      [
        "ви",
        -9.123264581519296
      ],
      [
        "командэ къыхэхам",
        -9.124780814268828
      ],
      [
        "м ирихьэлIэу",
        -9.125391217302061
      ],
      [
        " цIыкIухэр",
        -9.126910293294817
      ],
      [
        " бзылъхугъэ",
        -9.1269461851821
      ],
      [
        " Ка",
        -9.127169722021835
      ],
      [
        " къыщызэрагъэпэщ",
        -9.127825890628591
      ],
      [
        " 17",
        -9.128667859915335
      ],
      [
        " хуит",
        -9.129463562724588
      ],
      [
        " зыхэлъ",
        -9.129610481110351
      ],
      [
        " жэщ",
        -9.130004727429462
      ],
      [
        " ягъэ",
        -9.130054394220913
      ],
      [
        " хуэдиз",
        -9.130566384910821
      ],
      [
        "ауэ щытащ.",
        -9.130743860351155
      ],
      [
        " лей",
        -9.132332312525072
      ],
      [
        "щIэм",
        -9.133284821705985
      ],
      [
        "р зэры",
        -9.13337089166339
      ],
      [
        "лI",
        -9.133881986413556
      ],
      [
        " зыкъы",
        -9.134179712943261
      ],
      [
        " ещанэ",
        -9.134560700236207
      ],
      [
        "т, ",
        -9.135336311116777
      ],
      [
        " О",
        -9.137735590359153
      ],
      [
        " щIыпIэм",
        -9.138496099540756
      ],
      [
        "ым деж",
        -9.139052921719532
      ],
      [
        "пщ",
        -9.139293910660182
      ],
      [
        "гуэш",
        -9.139412754425326
      ],
      [
        " бжыгъэ",
        -9.139541482061633
      ],
      [
        " гъуэгум",
        -9.139928054983407
      ],
      [
        " хуа",
        -9.14134116323212
      ],
      [
        "Арати,",
        -9.141629305354162
      ],
      [
        "ЩIалэгъуэ",
        -9.141966905356746
      ],
      [
        " хуитыныгъэ",
        -9.142185074274757
      ],
      [
        "жын",
        -9.142498115478503
      ],
      [
        "гъэкI",
        -9.143190741924524
      ],
      [
        "нущ.",
        -9.143689075781378
      ],
      [
        "АдэкIэ",
        -9.14459462228243
      ],
      [
        ", - жеIэ",
        -9.145080348943658
      ],
      [
        "ман",
        -9.14525182741906
      ],
      [
        "щIэж",
        -9.147045796321528
      ],
      [
        "шхуэм",
        -9.147186994011554
      ],
      [
        " и тхьэмадэ",
        -9.147435908121816
      ],
      [
        " дызэры",
        -9.148340876291421
      ],
      [
        " арэзы",
        -9.149164094276195
      ],
      [
        "га",
        -9.151198120964047
      ],
      [
        " щыхъунущ",
        -9.151412743625489
      ],
      [
        "агъэ",
        -9.151889063442841
      ],
      [
        "уэ щытащ.",
        -9.15257749553815
      ],
      [
        "псэу",
        -9.152743213123216
      ],
      [
        " къыща",
        -9.15341584182542
      ],
      [
        "лIэ",
        -9.153635495899717
      ],
      [
        " дауэ",
        -9.154575010846767
      ],
      [
        " нэхъри",
        -9.15626209083674
      ],
      [
        "згъэ",
        -9.156657149466154
      ],
      [
        " япэ дыдэу",
        -9.157596728974003
      ],
      [
        " цIыхур",
        -9.157834176759714
      ],
      [
        " литературэ",
        -9.158158534086688
      ],
      [
        "пх",
        -9.158310858831454
      ],
      [
        "ищ",
        -9.159077304008598
      ],
      [
        "хъуэ",
        -9.159380963669186
      ],
      [
        " къэп",
        -9.15938317051998
      ],
      [
        " Iэщэ",
        -9.159707131529657
      ],
      [
        " 19",
        -9.159862933908304
      ],
      [
        " занщIэу",
        -9.160872376166097
      ],
      [
        " 3",
        -9.161135052677054
      ],
      [
        "ту",
        -9.162227919795761
      ],
      [
        " хэту",
        -9.163217123112307
      ],
      [
        "ного",
        -9.163488071446713
      ],
      [
        "у къалъытэ",
        -9.164355650421168
      ],
      [
        "ати,",
        -9.165513734816578
      ],
      [
        " зэхэ",
        -9.165808067320175
      ],
      [
        " узы",
        -9.167012863595707
      ],
      [
        "иплI",
        -9.167025871733376
      ],
      [
        " хъун",
        -9.167042916508608
      ],
      [
        " Борис",
        -9.168515934448994
      ],
      [
        "щ:",
        -9.16871133472711
      ],
      [
        "жьым",
        -9.168971435791507
      ],
      [
        "оль",
        -9.169542951424685
      ],
      [
        "псэ",
        -9.169582502719571
      ],
      [
        " щыс",
        -9.173104721182213
      ],
      [
        " апхуэдиз",
        -9.174173722868069
      ],
      [
        " 18",
        -9.174854069565125
      ],
      [
        " жыжьэ",
        -9.175516978191187
      ],
      [
        " три",
        -9.175975420783061
      ],
      [
        " уз",
        -9.176585328420169
      ],
      [
        " хэкум",
        -9.1768325353341
      ],
      [
        "ЩIэныгъэ",
        -9.177303048989923
      ],
      [
        " икIи ",
        -9.179117515021463
      ],
      [
        "щ!",
        -9.179632613940921
      ],
      [
        "итIым",
        -9.181748798854322
      ],
      [
        " сыхьэт",
        -9.182502700350662
      ],
      [
        "ль",
        -9.183300186989012
      ],
      [
        "щ -",
        -9.184797793507375
      ],
      [
        "че",
        -9.18557334284328
      ],
      [
        " хэтащ",
        -9.186001124781725
      ],
      [
        "Сабий",
        -9.186082887817836
      ],
      [
        "20",
        -9.186799988335265
      ],
      [
        "р -",
        -9.186885513547656
      ],
      [
        "ым къриубыдэу",
        -9.187611145595291
      ],
      [
        " мафIэ",
        -9.189858827560533
      ],
      [
        " щыIэщ",
        -9.190140866257842
      ],
      [
        "хъумэ",
        -9.192724753786791
      ],
      [
        "хуэхъу",
        -9.19399412003817
      ],
      [
        "тI",
        -9.194617564175516
      ],
      [
        "Къэрэшей-Шэрджэс",
        -9.194729710269371
      ],
      [
        " лъапIэ",
        -9.195312430292676
      ],
      [
        " гуапэу",
        -9.19685998608481
      ],
      [
        "тыр",
        -9.197062710190092
      ],
      [
        "жьэ",
        -9.197244064829775
      ],
      [
        "жыр",
        -9.197553354943548
      ],
      [
        "жащ",
        -9.1981270469085
      ],
      [
        "цIыхубэ артист",
        -9.200140784211708
      ],
      [
        "сы",
        -9.200276543822948
      ],
      [
        "ух",
        -9.20091380705372
      ],
      [
        " дэтхэнэми",
        -9.201348573438906
      ],
      [
        " и цIэр",
        -9.202375641766185
      ],
      [
        "хэм ящыщ зым",
        -9.203038703763713
      ],
      [
        "Къэрал",
        -9.203959858033551
      ],
      [
        " вагъуэ",
        -9.203960055585043
      ],
      [
        "гъэхьэзыр",
        -9.20544312493827
      ],
      [
        " зыщI",
        -9.20616520938626
      ],
      [
        "агъ",
        -9.206387877786442
      ],
      [
        " йо",
        -9.207093179048181
      ],
      [
        "во",
        -9.207957759151599
      ],
      [
        " къагъэсэбэп",
        -9.208786360186028
      ],
      [
        " спортсмен",
        -9.209369246417307
      ],
      [
        " хъугъуэфIыгъуэ",
        -9.20958428855166
      ],
      [
        " къыще",
        -9.209912229094769
      ],
      [
        "у зы",
        -9.211066034884343
      ],
      [
        "итIыр",
        -9.211913450445444
      ],
      [
        "-р",
        -9.212022310258764
      ],
      [
        " къыз",
        -9.212497192707488
      ],
      [
        " къыщыгъэлъэгъуа",
        -9.21264512847673
      ],
      [
        " хъууэ",
        -9.212730270879664
      ],
      [
        " ди къэралым",
        -9.21309167851549
      ],
      [
        " IуэхущIапIэм",
        -9.213520374234935
      ],
      [
        " дохутыр",
        -9.213979509417062
      ],
      [
        " адыгэхэр",
        -9.215800913687158
      ],
      [
        "хэу ",
        -9.217613581245933
      ],
      [
        " къыщыхъуа",
        -9.217681276306154
      ],
      [
        "ауэ щытащ",
        -9.218111339355257
      ],
      [
        "кIухь",
        -9.218158101364239
      ],
      [
        " зэпеуэ",
        -9.218348164664206
      ],
      [
        " Кавказ",
        -9.218377644951339
      ],
      [
        "ча",
        -9.219005923183879
      ],
      [
        " шынагъуэ",
        -9.219822934887848
      ],
      [
        "кIэ и министр",
        -9.220095733257129
      ],
      [
        " зэманыр",
        -9.220729697688073
      ],
      [
        " тырку",
        -9.220966359561604
      ],
      [
        "Езы",
        -9.22175807799264
      ],
      [
        "эгъу",
        -9.222266611394085
      ],
      [
        "(",
        -9.223394765532984
      ],
      [
        "Абы ",
        -9.223546525055951
      ],
      [
        "-Балъкъэрым и",
        -9.225254293615352
      ],
      [
        " анэ",
        -9.225949337360897
      ],
      [
        "За",
        -9.226361211289742
      ],
      [
        "Щы",
        -9.226409711039784
      ],
      [
        " IуэхухэмкIэ",
        -9.22683227869422
      ],
      [
        " игъэ",
        -9.226995979317387
      ],
      [
        "овэ",
        -9.227196853275103
      ],
      [
        "ор",
        -9.227571261748132
      ],
      [
        "ИкIи",
        -9.22954201017819
      ],
      [
        ", лъэпкъ",
        -9.230755702861675
      ],
      [
        " дыщы",
        -9.235059145888243
      ],
      [
        " цIыкIум",
        -9.235260427381366
      ],
      [
        " яIэ",
        -9.235963158548156
      ],
      [
        "аль",
        -9.236313614297323
      ],
      [
        " щытекIуа",
        -9.236537817110632
      ],
      [
        "»)",
        -9.23660362073915
      ],
      [
        " ныбжьыщIэ",
        -9.236633798805066
      ],
      [
        " Европэм",
        -9.237013112707036
      ],
      [
        "ыркъым.",
        -9.237098189646098
      ],
      [
        "мыгъэ",
        -9.237117099046102
      ],
      [
        " спортым",
        -9.237267808240905
      ],
      [
        ", нэгъуэщIхэри",
        -9.237438692777872
      ],
      [
        " щIыналъэхэм",
        -9.238289358459845
      ],
      [
        "абы",
        -9.239529691553118
      ],
      [
        " зыщы",
        -9.239677739982014
      ],
      [
        " гугъуехь",
        -9.239700851419503
      ],
      [
        "щэху",
        -9.239803953376548
      ],
      [
        " тхьэ",
        -9.240240212636795
      ],
      [
        " тра",
        -9.240247439522994
      ],
      [
        " гуэрхэр",
        -9.240543965150177
      ],
      [
        " сэбэп",
        -9.241299037553915
      ],
      [
        "3-м",
        -9.244112061597466
      ],
      [
        ", жылагъуэ",
        -9.244579895064195
      ],
      [
        "ым и ",
        -9.244735517635768
      ],
      [
        "щIэн",
        -9.2448249632225
      ],
      [
        "же",
        -9.245138398493165
      ],
      [
        " цIэр",
        -9.245244177005281
      ],
      [
        "s",
        -9.24563657964525
      ],
      [
        "щIэну",
        -9.246484173761463
      ],
      [
        " лъагэ",
        -9.246563962210406
      ],
      [
        "ный",
        -9.24698829749075
      ],
      [
        " сызэры",
        -9.247173810870482
      ],
      [
        "Iыгъ",
        -9.249498103355286
      ],
      [
        " щIи",
        -9.250276335552897
      ],
      [
        " IэщIагъэм",
        -9.250841220183144
      ],
      [
        " нэхъыщхьэм",
        -9.251737188674216
      ],
      [
        "жи",
        -9.252046667311731
      ],
      [
        " Заур",
        -9.254081154451741
      ],
      [
        "кIэлъыплъ",
        -9.254647292607817
      ],
      [
        "и Парламентым",
        -9.254664058594688
      ],
      [
        "щIи",
        -9.255017411506284
      ],
      [
        "12",
        -9.256073959493868
      ],
      [
        "ым, ",
        -9.2561292379186
      ],
      [
        " жылэ",
        -9.256340976267849
      ],
      [
        "Урыс",
        -9.256781526749947
      ],
      [
        " зэран",
        -9.25794715827191
      ],
      [
        " гъэлъэгъуэныгъэ",
        -9.258300089508232
      ],
      [
        " и ныбжьыр илъэс",
        -9.259730372190186
      ],
      [
        " школым",
        -9.260511429835345
      ],
      [
        "ед",
        -9.260782021469584
      ],
      [
        "фа",
        -9.260826252522676
      ],
      [
        " псынщIэу",
        -9.26083163955467
      ],
      [
        " 20",
        -9.26162414465248
      ],
      [
        "гупсыс",
        -9.26192530551641
      ],
      [
        "кIэ я",
        -9.262911887739357
      ],
      [
        "ский",
        -9.26319809683227
      ],
      [
        " об",
        -9.26377454313949
      ],
      [
        "бзэ",
        -9.264050876842742
      ],
      [
        " институтым",
        -9.264958495535105
      ],
      [
        " вы",
        -9.2661553957623
      ],
      [
        " жыг",
        -9.267230933491142
      ],
      [
        " цIыкIур",
        -9.267319794244507
      ],
      [
        "м къы",
        -9.267382937518068
      ],
      [
        "шх",
        -9.267404313468735
      ],
      [
        "щIыкI",
        -9.26856322964321
      ],
      [
        " къудамэм",
        -9.269368931413144
      ],
      [
        "дза",
        -9.270773334016745
      ],
      [
        "ртэкъым",
        -9.27144925663473
      ],
      [
        "l",
        -9.272100701696116
      ],
      [
        "гъэув",
        -9.2747230007488
      ],
      [
        "хэм я доктор",
        -9.275343545021393
      ],
      [
        "хъуа",
        -9.275730745014403
      ],
      [
        " и ЛIыхъужь",
        -9.276107552651078
      ],
      [
        "мэ, ",
        -9.276315216123326
      ],
      [
        " хьэлъэ",
        -9.277818391000562
      ],
      [
        "хэм я бжыгъэр",
        -9.278195372783326
      ],
      [
        "гъэзэж",
        -9.278675047705963
      ],
      [
        " М",
        -9.279005339024234
      ],
      [
        " икъукIэ",
        -9.279504524820954
      ],
      [
        "ок",
        -9.279627160346369
      ],
      [
        " лъэныкъуэ",
        -9.280506832286594
      ],
      [
        " кIэщI",
        -9.281342294594458
      ],
      [
        "ЗэIущIэхэр",
        -9.281694925272795
      ],
      [
        " хэку",
        -9.283846362676663
      ],
      [
        " под",
        -9.284205053498981
      ],
      [
        " сабийхэр",
        -9.28484121402748
      ],
      [
        "ыщIэ",
        -9.285710053107731
      ],
      [
        "пхъэ",
        -9.286064699452348
      ],
      [
        "м щы",
        -9.286528076535049
      ],
      [
        "ый",
        -9.286631688781092
      ],
      [
        " Анзор",
        -9.28670423447986
      ],
      [
        " зыхэт",
        -9.287271279112428
      ],
      [
        "7-м",
        -9.287366913543904
      ],
      [
        ", сыт",
        -9.288952791718689
      ],
      [
        "гъазэ",
        -9.289078408010672
      ],
      [
        "Апхуэдэуи",
        -9.289162450594073
      ],
      [
        "гъэлъагъуэ",
        -9.289900512724323
      ],
      [
        "Ц",
        -9.291145658416198
      ],
      [
        "р къы",
        -9.291246501577973
      ],
      [
        " къыщызэIуахащ",
        -9.291732821484011
      ],
      [
        " Мурат",
        -9.293348525797857
      ],
      [
        "Къа",
        -9.2935097177543
      ],
      [
        "ян",
        -9.293625143226716
      ],
      [
        "гъакIуэ",
        -9.293712168141534
      ],
      [
        " щагъэлъапIэ",
        -9.29427390147831
      ],
      [
        "мен",
        -9.294325806232752
      ],
      [
        " тыгъэ",
        -9.29452684050234
      ],
      [
        "хэм я ",
        -9.294540924358266
      ],
      [
        "ит",
        -9.29478858176927
      ],
      [
        " гуащIэ",
        -9.295547596157741
      ],
      [
        "Уеблэмэ",
        -9.29557969949768
      ],
      [
        " Н",
        -9.295901208633872
      ],
      [
        "хуи",
        -9.29759512722995
      ],
      [
        " щIэх-щIэхыурэ",
        -9.299821837491097
      ],
      [
        "Хэт",
        -9.3003383874305
      ],
      [
        " псэупIэ",
        -9.300740212029723
      ],
      [
        "нт",
        -9.301552117553122
      ],
      [
        "КъБР-м",
        -9.301879042374555
      ],
      [
        "от",
        -9.302395317613598
      ],
      [
        "НэгъуэщI",
        -9.302422719963467
      ],
      [
        "Псы",
        -9.302759575371448
      ],
      [
        "а ",
        -9.303195025703285
      ],
      [
        "ыжащ",
        -9.303516544673116
      ],
      [
        "лъы",
        -9.303943839019691
      ],
      [
        "мер",
        -9.305193573938517
      ],
      [
        " адыгэбзэ",
        -9.305462652463127
      ],
      [
        " лъэщ",
        -9.305531684947583
      ],
      [
        " Iуащхьэмахуэ",
        -9.30578451625299
      ],
      [
        " зэрыт",
        -9.306688715994689
      ],
      [
        "пхъу",
        -9.307053687427329
      ],
      [
        "плъэ",
        -9.308183421797782
      ],
      [
        "хо",
        -9.308387006018169
      ],
      [
        "Хабзэ",
        -9.308638308746108
      ],
      [
        "гъасэ",
        -9.308836670073733
      ],
      [
        " ущы",
        -9.310044567822782
      ],
      [
        " щхьэгъусэ",
        -9.310390492501206
      ],
      [
        " фIыцIэ",
        -9.310703462758797
      ],
      [
        "су",
        -9.3118157710799
      ],
      [
        "- Сэ",
        -9.312274280654373
      ],
      [
        " мызэ-мытIэу",
        -9.313494622101661
      ],
      [
        " мы гъэм",
        -9.314579361545864
      ],
      [
        " иужьрей",
        -9.314714146260393
      ],
      [
        " къулыкъу",
        -9.314908325113661
      ],
      [
        "ней",
        -9.315256965100557
      ],
      [
        " ныбжьэгъу",
        -9.315962426342182
      ],
      [
        " щыщу",
        -9.316749134353564
      ],
      [
        "ть",
        -9.316794729127261
      ],
      [
        "ся",
        -9.317051098529202
      ],
      [
        "м сы",
        -9.317104277172902
      ],
      [
        " псым",
        -9.317475160198182
      ],
      [
        "ахэр",
        -9.317620682920865
      ],
      [
        "хэр зы",
        -9.319201883417065
      ],
      [
        " ма",
        -9.319670938229812
      ],
      [
        " в ",
        -9.319968536672771
      ],
      [
        "), ",
        -9.320167544472778
      ],
      [
        "хьащ.",
        -9.320337936124687
      ],
      [
        "ис",
        -9.320373158210767
      ],
      [
        ", иужькIэ",
        -9.320759213068644
      ],
      [
        " хэлъу",
        -9.321169366045893
      ],
      [
        "ер",
        -9.322059812255965
      ],
      [
        " дунейр",
        -9.322170629173709
      ],
      [
        " и «Спартак»-м",
        -9.322538244647841
      ],
      [
        "мрэ я",
        -9.322996272088686
      ],
      [
        "м ипкъ иткIэ",
        -9.323515241198024
      ],
      [
        "14",
        -9.324889327450347
      ],
      [
        "Къэ",
        -9.325782121329857
      ],
      [
        "ауэ.",
        -9.325901522771577
      ],
      [
        " икIи абы",
        -9.327680534662695
      ],
      [
        " щыIэкъым.",
        -9.32789678063681
      ],
      [
        " тхылъхэр",
        -9.328363294528131
      ],
      [
        "»,",
        -9.328869871850578
      ],
      [
        " блэкIа",
        -9.329109338931445
      ],
      [
        "р»",
        -9.331164143922738
      ],
      [
        "16",
        -9.331247978101374
      ],
      [
        "уш",
        -9.331856687365182
      ],
      [
        " и къуэм",
        -9.331956747847364
      ],
      [
        "ной",
        -9.332776737111468
      ],
      [
        " къыкIэлъыкIуэ",
        -9.332975179207978
      ],
      [
        ", итIанэ",
        -9.333483437487901
      ],
      [
        "ак",
        -9.333491224050423
      ],
      [
        " бзэр",
        -9.333623124881452
      ],
      [
        "Политикэ",
        -9.334080423382222
      ],
      [
        " гъэр",
        -9.334480805459393
      ],
      [
        " совет",
        -9.335138221022724
      ],
      [
        " къыхуагъэфэщащ",
        -9.335324289135862
      ],
      [
        " къудей",
        -9.336015116962646
      ],
      [
        " лъэпкъыр",
        -9.337922564309833
      ],
      [
        "ншэу",
        -9.338772179122518
      ],
      [
        " тренер",
        -9.339515625151847
      ],
      [
        "ду",
        -9.342151792387991
      ],
      [
        ", цIыху",
        -9.342424614968454
      ],
      [
        " кIыхь",
        -9.343210434957227
      ],
      [
        "лъэгъуа",
        -9.344185182393716
      ],
      [
        "Хуабэр ",
        -9.347208517137672
      ],
      [
        " иригъэ",
        -9.347498500621612
      ],
      [
        " пасэрей",
        -9.347653018490078
      ],
      [
        " На",
        -9.347867571955277
      ],
      [
        " пщащэ",
        -9.348424293755713
      ],
      [
        "рагъэ",
        -9.349955826872197
      ],
      [
        " хъыджэбз",
        -9.350098683308309
      ],
      [
        "ием",
        -9.350516998478792
      ],
      [
        "Iуэху",
        -9.350675846219481
      ],
      [
        " адыгэхэм я",
        -9.350773291953326
      ],
      [
        "увэ",
        -9.351009014134952
      ],
      [
        " фэеплъ",
        -9.351559063041769
      ],
      [
        "уэ ",
        -9.351720132994068
      ],
      [
        "блэ",
        -9.352882565238954
      ],
      [
        " хьэл",
        -9.35353288588751
      ],
      [
        " - ар",
        -9.353686080930881
      ],
      [
        " километр",
        -9.355971678975653
      ],
      [
        " ират",
        -9.356078166353978
      ],
      [
        " екIуэкIа",
        -9.358781123985151
      ],
      [
        ", что",
        -9.359009282133858
      ],
      [
        "уэ.",
        -9.360401832012485
      ],
      [
        "кIуэж",
        -9.362013370773761
      ],
      [
        " зыхуагъэфэща",
        -9.362503920650859
      ],
      [
        " нэсу",
        -9.36261725292837
      ],
      [
        " нэмыцэ",
        -9.362810932791271
      ],
      [
        "мыщI",
        -9.363435598250742
      ],
      [
        "м къыхэкIыу",
        -9.364132689593088
      ],
      [
        " Iей",
        -9.364364646087507
      ],
      [
        " щIым",
        -9.365041271827302
      ],
      [
        "т ",
        -9.366231347014459
      ],
      [
        ", мы",
        -9.36648288392716
      ],
      [
        " зытет",
        -9.36796937488393
      ],
      [
        ", у",
        -9.368071466751974
      ],
      [
        "ныкъуэ",
        -9.370341592228133
      ],
      [
        "нов",
        -9.370472336080532
      ],
      [
        " жиIэ",
        -9.37122925982041
      ],
      [
        "6-м",
        -9.371241825220505
      ],
      [
        "ос",
        -9.371300815251455
      ],
      [
        "щтэ",
        -9.372970837908209
      ],
      [
        " игу",
        -9.373002019579314
      ],
      [
        " жьы",
        -9.373045549510024
      ],
      [
        " Урысей",
        -9.373709221834659
      ],
      [
        " хэ",
        -9.373844549424994
      ],
      [
        "ель",
        -9.374666884035179
      ],
      [
        "Псом хуэмыдэу",
        -9.374899851672637
      ],
      [
        "ги",
        -9.375440587579504
      ],
      [
        " и япэ",
        -9.375589408565748
      ],
      [
        " зэгурыIуэныгъэ",
        -9.376222078878634
      ],
      [
        " къафэ",
        -9.3764340976301
      ],
      [
        "Нэ",
        -9.376769118329674
      ],
      [
        " дэнэ",
        -9.37712352890335
      ],
      [
        " къуэ",
        -9.377241315715626
      ],
      [
        " проект",
        -9.377880068653425
      ],
      [
        " псоми я",
        -9.378149945000821
      ],
      [
        " щIэныгъэм",
        -9.378382956980934
      ],
      [
        "т, ауэ",
        -9.378532802772789
      ],
      [
        " театр",
        -9.379049938117674
      ],
      [
        " администрацэм",
        -9.379431458129798
      ],
      [
        "4-м",
        -9.382208504318154
      ],
      [
        " лъабжьэ",
        -9.382391067683546
      ],
      [
        " тхыгъэхэр",
        -9.382865448680825
      ],
      [
        " Кавказым",
        -9.38319815393098
      ],
      [
        " щытыкIэ",
        -9.384415768807475
      ],
      [
        "гуэ",
        -9.384749157735197
      ],
      [
        " За",
        -9.38523653127627
      ],
      [
        "рат",
        -9.386109094142913
      ],
      [
        "ул",
        -9.386259447560082
      ],
      [
        "м зэры",
        -9.386275217835326
      ],
      [
        " нэхъыщхьэу",
        -9.386618962217664
      ],
      [
        " текIуэныгъэ",
        -9.38726180167096
      ],
      [
        " пашэ",
        -9.387504826578645
      ],
      [
        "гъэува",
        -9.387691227067723
      ],
      [
        " щопсэу",
        -9.387764771868106
      ],
      [
        " щIыхь",
        -9.388694552313943
      ],
      [
        " ирагъэкIуэкI",
        -9.389166883887025
      ],
      [
        " хабзэр",
        -9.389745340891587
      ],
      [
        " балигъ",
        -9.390190712518065
      ],
      [
        " иригъэкIуэкIа",
        -9.390899108705124
      ],
      [
        ", абыхэм я",
        -9.390912641282913
      ],
      [
        " хьэпшып",
        -9.39148882615071
      ],
      [
        "тор",
        -9.39222541752308
      ],
      [
        " къэхъу",
        -9.392359040685264
      ],
      [
        " 4",
        -9.392649895705826
      ],
      [
        " литературэм",
        -9.392879431288762
      ],
      [
        " - «",
        -9.394128721924714
      ],
      [
        "По",
        -9.394155272755675
      ],
      [
        " лъэхъэнэ",
        -9.394408057537758
      ],
      [
        " цIэ",
        -9.394794710668474
      ],
      [
        " ехьэлIа",
        -9.395451258178397
      ],
      [
        "убыда",
        -9.397145973141136
      ],
      [
        "Лъэпкъ Iущыгъэ:",
        -9.39758909861646
      ],
      [
        " ныбжьыщIэхэм",
        -9.397656386391837
      ],
      [
        " СССР-м",
        -9.397903604824545
      ],
      [
        " къыщыхъу",
        -9.39904515476566
      ],
      [
        " илъэсым",
        -9.399245396061069
      ],
      [
        " зимыIэ",
        -9.399292788787655
      ],
      [
        "итху",
        -9.399603317985717
      ],
      [
        "хэр»",
        -9.399756150915046
      ],
      [
        " хэтщ",
        -9.40030395726639
      ],
      [
        "гъэхьэ",
        -9.400429534478555
      ],
      [
        "ыр, ",
        -9.400672120043296
      ],
      [
        "хъуэж",
        -9.401685638573955
      ],
      [
        "9-м",
        -9.402076376108932
      ],
      [
        " утыкум",
        -9.403483538421288
      ],
      [
        ", А",
        -9.404626698964385
      ],
      [
        " мэз",
        -9.40516004395822
      ],
      [
        "эрым",
        -9.405257950529098
      ],
      [
        "Псалъэ",
        -9.405585368283738
      ],
      [
        "хыхьа",
        -9.405607866382596
      ],
      [
        " зыхуей",
        -9.40562258783617
      ],
      [
        "махуэщ ♦",
        -9.406164702074893
      ],
      [
        "бы",
        -9.406316972462108
      ],
      [
        " Хьэсэн",
        -9.406681582894006
      ],
      [
        "ым хуэдэу",
        -9.40731479032728
      ],
      [
        " гъэмахуэ",
        -9.407471480976803
      ],
      [
        " пэ",
        -9.40814989677853
      ],
      [
        " хэкIыпIэ",
        -9.40860911675974
      ],
      [
        "ыфI",
        -9.40976525094557
      ],
      [
        " къыхуэ",
        -9.410316156266752
      ],
      [
        "кIы",
        -9.410728934333441
      ],
      [
        "Къ",
        -9.41093977792901
      ],
      [
        " мэкъумэш",
        -9.411258656100433
      ],
      [
        " псалъэхэр",
        -9.412391621378802
      ],
      [
        "бж",
        -9.412683004051948
      ],
      [
        "т икIи",
        -9.41285524545357
      ],
      [
        " IэщIагъэлI",
        -9.413332680860929
      ],
      [
        " дзыхь",
        -9.414304225687996
      ],
      [
        " гугъэ",
        -9.414842623781013
      ],
      [
        " жылэм",
        -9.41623732287929
      ],
      [
        " актёр",
        -9.41654886603974
      ],
      [
        " ха",
        -9.416702205967498
      ],
      [
        "шу",
        -9.416704715175738
      ],
      [
        "жьыр",
        -9.418371376773258
      ],
      [
        " бий",
        -9.418393879145517
      ],
      [
        " къызэрыгуэкI",
        -9.419609806722832
      ],
      [
        " кино",
        -9.419683412498
      ],
      [
        " щыIащ",
        -9.42023449016613
      ],
      [
        " махуэр",
        -9.420256529470258
      ],
      [
        "лъытэ",
        -9.42042591052208
      ],
      [
        " гум",
        -9.420660241452588
      ],
      [
        " и Iэтащхьэ",
        -9.422423351302541
      ],
      [
        " тхылъыр",
        -9.422959033024906
      ],
      [
        " дэIэпыкъуэгъу",
        -9.423550500101463
      ],
      [
        " дахэу",
        -9.423571069014052
      ],
      [
        " щэху",
        -9.42381636571331
      ],
      [
        " гъуэзэджэ",
        -9.424018098635397
      ],
      [
        " зекIуэ",
        -9.424693380050606
      ],
      [
        " зыбжанэм",
        -9.425912566097233
      ],
      [
        " ире",
        -9.426880123072882
      ],
      [
        " къыте",
        -9.427648230311991
      ],
      [
        " сыкъы",
        -9.42813085183602
      ],
      [
        " къазэры",
        -9.428216684033389
      ],
      [
        "I9",
        -9.428329212679936
      ],
      [
        "зе",
        -9.430016647066637
      ],
      [
        " дакъикъэ",
        -9.431821708461218
      ],
      [
        " 5",
        -9.432387741396006
      ],
      [
        "н хуей",
        -9.43255831601643
      ],
      [
        "тха",
        -9.432616956487735
      ],
      [
        " щIыпIэхэм",
        -9.43371944262054
      ],
      [
        "ез",
        -9.434142674489047
      ],
      [
        "мэ.",
        -9.435941164502939
      ],
      [
        " къыхуи",
        -9.436341679814795
      ],
      [
        "гъэсэбэп",
        -9.436792576321777
      ],
      [
        " куэдкIэ",
        -9.437626910629898
      ],
      [
        " мелуан",
        -9.437960685856801
      ],
      [
        "эр къэрал",
        -9.438239832248463
      ],
      [
        " къызэрагъэпэщащ",
        -9.439222354354897
      ],
      [
        "эр Республикэм",
        -9.439541866651776
      ],
      [
        " мыпхуэдэ",
        -9.439608244129477
      ],
      [
        " чэнджэщ",
        -9.44132984461126
      ],
      [
        "а нэужь, ",
        -9.441617158318419
      ],
      [
        " уасэ",
        -9.441764681184583
      ],
      [
        "хэм папщIэ",
        -9.4420690059973
      ],
      [
        " Хэкум",
        -9.44234511324299
      ],
      [
        ", У",
        -9.444420502224215
      ],
      [
        " бэлыхь",
        -9.44483467828751
      ],
      [
        ", е",
        -9.444860934920603
      ],
      [
        " Я",
        -9.446550225874525
      ],
      [
        "кIэ и",
        -9.448348078975178
      ],
      [
        " зэгухьэныгъэ",
        -9.448576854325456
      ],
      [
        " хьэщIэ",
        -9.44925772348492
      ],
      [
        "вэ",
        -9.449475665340977
      ],
      [
        " хуи",
        -9.449676363079954
      ],
      [
        "ской",
        -9.450265160464218
      ],
      [
        "ригъэ",
        -9.4502677782482
      ],
      [
        " наIуэ",
        -9.451492449254769
      ],
      [
        "ртэкъым.",
        -9.452191444692069
      ],
      [
        "ыбзэ",
        -9.452231855338834
      ],
      [
        " бэнакIуэ",
        -9.452859392902827
      ],
      [
        " Иван",
        -9.453210295476786
      ],
      [
        "2-м",
        -9.45339132997286
      ],
      [
        "Те",
        -9.453960690201509
      ],
      [
        " зауэлI",
        -9.455142637623972
      ],
      [
        "жы",
        -9.455838498916318
      ],
      [
        " щызы",
        -9.45669740564048
      ],
      [
        " анэм",
        -9.456804574270096
      ],
      [
        "къалъхуащ совет",
        -9.457394763108129
      ],
      [
        " IэфI",
        -9.457978048087579
      ],
      [
        " зэIущIэр",
        -9.458117311744893
      ],
      [
        " Х",
        -9.45815730863457
      ],
      [
        " унэтIыныгъэ",
        -9.458525283619174
      ],
      [
        "ут",
        -9.45941526827335
      ],
      [
        " узэры",
        -9.459464127275709
      ],
      [
        "у у",
        -9.46025945048246
      ],
      [
        " гъусэ",
        -9.461243145253286
      ],
      [
        "ыпхъэ",
        -9.463054045832429
      ],
      [
        "ун",
        -9.463889401535956
      ],
      [
        "зауэ",
        -9.464025416077849
      ],
      [
        " уа",
        -9.464549444484037
      ],
      [
        "13",
        -9.46458243305469
      ],
      [
        "м»",
        -9.465561605704444
      ],
      [
        " гур",
        -9.465869711650239
      ],
      [
        " псэущхьэ",
        -9.466387577905444
      ],
      [
        " куэд щIауэ",
        -9.466458467706357
      ],
      [
        "хэр зэры",
        -9.468388547481903
      ],
      [
        ", С",
        -9.468459326015422
      ],
      [
        " лажьэ",
        -9.469077260823182
      ],
      [
        "тер",
        -9.469092825883145
      ],
      [
        "чэ",
        -9.469197654864558
      ],
      [
        " Кавказ Ищхъэрэм",
        -9.470017890571079
      ],
      [
        "КъищынэмыщIауэ",
        -9.470039991346034
      ],
      [
        " метр",
        -9.470171426851016
      ],
      [
        "мыт",
        -9.470255166772173
      ],
      [
        "р зэ",
        -9.470510826450258
      ],
      [
        " генерал",
        -9.471365511147567
      ],
      [
        " тIэунейрэ",
        -9.471778344392341
      ],
      [
        " артист",
        -9.47232182035334
      ],
      [
        "псы",
        -9.472698521859268
      ],
      [
        "эу",
        -9.472817936517579
      ],
      [
        " ирихьэлIэу",
        -9.473748550135003
      ],
      [
        " щымыIэу",
        -9.477202898946661
      ],
      [
        " лъэныкъуэмкIэ",
        -9.478009841061176
      ],
      [
        "ыфыну",
        -9.47893969333986
      ],
      [
        " Iуащхьэ",
        -9.479653602812446
      ],
      [
        " пхъэ",
        -9.480041563016865
      ],
      [
        " 15",
        -9.480364421246872
      ],
      [
        " егъэ",
        -9.481228133900183
      ],
      [
        " къыху",
        -9.48136196192294
      ],
      [
        "хэр зэ",
        -9.482162753539267
      ],
      [
        " щIэщыгъуэ",
        -9.482238966532634
      ],
      [
        "- Сыт",
        -9.483232620554311
      ],
      [
        " цIыхубэ",
        -9.48323409216193
      ],
      [
        " В",
        -9.483855691599896
      ],
      [
        " зэщIэ",
        -9.484140928010103
      ],
      [
        " къызэрагъэпэщ",
        -9.484237799889799
      ],
      [
        "гъуэм",
        -9.484452001246746
      ],
      [
        " пэрыт",
        -9.484854519381885
      ],
      [
        "гъэщI",
        -9.485070078064401
      ],
      [
        "Москва",
        -9.48569017160387
      ],
      [
        " адыгэбзэр",
        -9.486106993477359
      ],
      [
        " къызэгъэпэщыным",
        -9.486734316295479
      ],
      [
        " сымаджэ",
        -9.487093085704586
      ],
      [
        " къэралыгъуэ",
        -9.487340241008287
      ],
      [
        " куэду",
        -9.487810840000897
      ],
      [
        " щолажьэ",
        -9.48799907749093
      ],
      [
        "ынур",
        -9.48898738271001
      ],
      [
        "ить",
        -9.489194409038074
      ],
      [
        " Тимур",
        -9.490214334048154
      ],
      [
        " апхуэдизу",
        -9.492670657395715
      ],
      [
        " къэб",
        -9.493772263885521
      ],
      [
        " фIы дыдэу",
        -9.494057523270415
      ],
      [
        " 12",
        -9.494552071916731
      ],
      [
        " Михаил",
        -9.49456513436246
      ],
      [
        "у зэрыщытыр",
        -9.49494393989195
      ],
      [
        "ные",
        -9.495123119267344
      ],
      [
        "а»",
        -9.495945262384812
      ],
      [
        " 7",
        -9.496121878695696
      ],
      [
        " Ж",
        -9.496363369289858
      ],
      [
        "къалъхуащ урысей",
        -9.496659912046184
      ],
      [
        "ыхь",
        -9.496792481102762
      ],
      [
        " СулътIан",
        -9.497341416686293
      ],
      [
        "ми, ",
        -9.498283106166154
      ],
      [
        ", с",
        -9.49831698614316
      ],
      [
        ", апхуэдэ",
        -9.499614551943349
      ],
      [
        "тренер нэхъыщхьэ",
        -9.500074309972486
      ],
      [
        " а Iуэхум",
        -9.500149941392403
      ],
      [
        " зыхэта",
        -9.500412300455563
      ],
      [
        "ыр»",
        -9.501332733325174
      ],
      [
        " Истамбыл",
        -9.501503887248973
      ],
      [
        "ауэ щыта",
        -9.502283985116222
      ],
      [
        " Iэмэпсымэ",
        -9.503334869600128
      ],
      [
        "Пщы",
        -9.503726383842974
      ],
      [
        " 6",
        -9.50394103965058
      ],
      [
        "у я",
        -9.504809855929686
      ],
      [
        ", зэ",
        -9.50494870772258
      ],
      [
        "ыкI",
        -9.50517400045269
      ],
      [
        " зэхьэзэхуэхэм",
        -9.505573222343667
      ],
      [
        " зэрыхъу",
        -9.505995302442614
      ],
      [
        "Iуатэ",
        -9.50645456817037
      ],
      [
        " махуэ къэс",
        -9.506876933944515
      ],
      [
        " ныбжьыщIэхэр",
        -9.5069520431422
      ],
      [
        " Руслан",
        -9.507532029842498
      ],
      [
        " 1",
        -9.507958585313709
      ],
      [
        " же",
        -9.50840078908837
      ],
      [
        "ще",
        -9.508782636118408
      ],
      [
        " укъы",
        -9.508964355647654
      ],
      [
        "ец",
        -9.50914752192843
      ],
      [
        " дыщэ медалыр",
        -9.509263498371817
      ],
      [
        "хэмрэ ",
        -9.50989330662576
      ],
      [
        "гъэхъу",
        -9.510110352763355
      ],
      [
        " зыхуэ",
        -9.510314416818046
      ],
      [
        "щIащ",
        -9.510608437818394
      ],
      [
        "ца",
        -9.51427749496905
      ],
      [
        "ё",
        -9.514336464534917
      ],
      [
        "балъкъэрыбзэкIэ)",
        -9.515835193006737
      ],
      [
        " программэ",
        -9.51644876019958
      ],
      [
        "щхь",
        -9.517088170749489
      ],
      [
        "лъыхъуэ",
        -9.517568893959723
      ],
      [
        "м щхьэкIэ",
        -9.51786381153438
      ],
      [
        " зыщIэ",
        -9.518048759866097
      ],
      [
        "хыж",
        -9.518081251200812
      ],
      [
        "ья",
        -9.518749012338908
      ],
      [
        " а зэманым",
        -9.518752832818844
      ],
      [
        "р щы",
        -9.518783441889536
      ],
      [
        " ди лъахэгъу",
        -9.519335897502106
      ],
      [
        "Псори",
        -9.520013662645187
      ],
      [
        " ноби",
        -9.520866095630069
      ],
      [
        " чемпионатым",
        -9.521468210308432
      ],
      [
        "н щхьэкIэ",
        -9.521728054203756
      ],
      [
        "щIэу",
        -9.522017303505748
      ],
      [
        "хьащ",
        -9.522246516401221
      ],
      [
        "Iуэтэж",
        -9.522536547168858
      ],
      [
        " хъыбарегъащIэ",
        -9.522582926191665
      ],
      [
        " нэхъ мащIэ",
        -9.523395513774272
      ],
      [
        " цIыхум и",
        -9.52361803010093
      ],
      [
        " Олимп Джэгухэм",
        -9.524789682610763
      ],
      [
        " щытыкIэм",
        -9.524875085130063
      ],
      [
        "утIыпщ",
        -9.525163945275416
      ],
      [
        ", апхуэдэуи",
        -9.526128548925184
      ],
      [
        "«Спартак-Налшык»",
        -9.526536754953494
      ],
      [
        "хэми я",
        -9.526656733613626
      ],
      [
        "щIыхь",
        -9.527198099690299
      ],
      [
        "ацэ",
        -9.52750500811964
      ],
      [
        " адыгэбзэкIэ",
        -9.527900656932664
      ],
      [
        " псалъэр",
        -9.528139564463064
      ],
      [
        "u",
        -9.52873627345797
      ],
      [
        "c",
        -9.528737672388
      ],
      [
        " концерт",
        -9.528862215506248
      ],
      [
        ", арщхьэкIэ",
        -9.529095781829927
      ],
      [
        " къыщыщIэдзауэ",
        -9.529454503493536
      ],
      [
        " хужь",
        -9.529590865944726
      ],
      [
        " къэбэрдей",
        -9.530100036386877
      ],
      [
        " щIалэгъуалэм",
        -9.530135547265239
      ],
      [
        "Щхьэ",
        -9.5307041769734
      ],
      [
        " щыпсэуа",
        -9.531619960715483
      ],
      [
        " ищI",
        -9.532028717897418
      ],
      [
        " фащэ",
        -9.53289590205857
      ],
      [
        "Абы къыхэкIыу",
        -9.534182278972688
      ],
      [
        "ЕтIуанэ",
        -9.534801000180789
      ],
      [
        " урысей",
        -9.53584794909522
      ],
      [
        " нэхърэ",
        -9.536152532452709
      ],
      [
        " и чемпион",
        -9.536584569781123
      ],
      [
        "махуэ",
        -9.537532927704993
      ],
      [
        " шыр",
        -9.537978382391593
      ],
      [
        " газетым",
        -9.53811554066924
      ],
      [
        " хъунукъым",
        -9.539464648039683
      ],
      [
        "ынщ",
        -9.53989513244252
      ],
      [
        "хьэж",
        -9.540373172807543
      ],
      [
        " тыншу",
        -9.540875933768936
      ],
      [
        " къыщыс",
        -9.540993928788208
      ],
      [
        "ыр зы",
        -9.541157856967303
      ],
      [
        " зри",
        -9.541458231203357
      ],
      [
        "ма",
        -9.541826143876797
      ],
      [
        " Ко",
        -9.542171814839632
      ],
      [
        "ЩIэ",
        -9.542852851698264
      ],
      [
        " раз",
        -9.543090919747966
      ],
      [
        "м хэт",
        -9.543934146744096
      ],
      [
        " и пхъур",
        -9.54395762193148
      ],
      [
        " Къэбэрдейм",
        -9.544313391888004
      ],
      [
        " командэ",
        -9.54585568057465
      ],
      [
        "вы",
        -9.546478980414014
      ],
      [
        " Л",
        -9.54652493070512
      ],
      [
        " екIуэкI",
        -9.546705253662386
      ],
      [
        "ари",
        -9.5473772172835
      ],
      [
        "ЗэIущIэм",
        -9.547403984693295
      ],
      [
        "Адыгэ Республикэ",
        -9.54797794186936
      ],
      [
        ", езы",
        -9.54799646127049
      ],
      [
        " щIыналъэм и",
        -9.548073964322267
      ],
      [
        " тхылъым",
        -9.548646879644274
      ],
      [
        "ех",
        -9.548753732154228
      ],
      [
        " гуащэ",
        -9.548863816508018
      ],
      [
        "нщ",
        -9.549058493646669
      ],
      [
        " щIалэгъуалэ",
        -9.549295609578667
      ],
      [
        "укI",
        -9.549470117807246
      ],
      [
        " сабийхэм",
        -9.549854499076812
      ],
      [
        " тынш",
        -9.551070832963083
      ],
      [
        "эт",
        -9.551097666879041
      ],
      [
        ", КъБР-м",
        -9.551318587480448
      ],
      [
        " ФатIимэ",
        -9.551508583340988
      ],
      [
        " театрым",
        -9.552990763582583
      ],
      [
        " хьэлэмэт",
        -9.553625591945426
      ],
      [
        " абдеж",
        -9.554304344822576
      ],
      [
        " Налшык къалэ",
        -9.55431344052646
      ],
      [
        "Гъуэгу",
        -9.554710604239261
      ],
      [
        " цIыху мин",
        -9.55498592420641
      ],
      [
        "хэ я",
        -9.55525128073855
      ],
      [
        " мыпхуэдэу",
        -9.555410838220501
      ],
      [
        ", П",
        -9.555865511548827
      ],
      [
        "и, ",
        -9.556089884567863
      ],
      [
        "у зэрыщытар",
        -9.556152946225634
      ],
      [
        " бгы",
        -9.556623038068423
      ],
      [
        "ай",
        -9.556688939333181
      ],
      [
        "лъэIу",
        -9.55673680682787
      ],
      [
        "кIыр",
        -9.55776058415234
      ],
      [
        "Дзэ",
        -9.558250722344901
      ],
      [
        " иджыри къэс",
        -9.55835134118016
      ],
      [
        " узыншагъэ",
        -9.558839790490987
      ],
      [
        " хэкIуэда",
        -9.559532907584112
      ],
      [
        " Совет Союзым",
        -9.560003448019685
      ],
      [
        " композитор",
        -9.560341394786665
      ],
      [
        "5-м",
        -9.56067453269898
      ],
      [
        " къэз",
        -9.56101421765857
      ],
      [
        " 9",
        -9.561060206253105
      ],
      [
        " гупсысэр",
        -9.562117775527469
      ],
      [
        " Iэмалхэр",
        -9.56216951908185
      ],
      [
        "хыхьэ",
        -9.562251437703605
      ],
      [
        " щыцIэрыIуэ",
        -9.562291391890916
      ],
      [
        " лъэ",
        -9.562313601707714
      ],
      [
        " и IэдакъэщIэкI",
        -9.562441267880036
      ],
      [
        " къэхутэныгъэ",
        -9.562495317311265
      ],
      [
        " и щхьэр",
        -9.563028646864343
      ],
      [
        "!»",
        -9.56364334080059
      ],
      [
        " щIэблэм",
        -9.563679396794207
      ],
      [
        "ных",
        -9.564505815020892
      ],
      [
        " къу",
        -9.564750724777216
      ],
      [
        "енкэ",
        -9.565811315278786
      ],
      [
        " художественнэ",
        -9.565912441760545
      ],
      [
        " район",
        -9.566196575459934
      ],
      [
        "къутэ",
        -9.566414743131276
      ],
      [
        " хуей",
        -9.56648196196467
      ],
      [
        " Э",
        -9.566995921135184
      ],
      [
        " дыдэр",
        -9.567008245032916
      ],
      [
        " акъыл",
        -9.567158729470222
      ],
      [
        " еджэ",
        -9.567231492503598
      ],
      [
        " и ныбжьэгъу",
        -9.567782073671058
      ],
      [
        "джэгу",
        -9.567876334237104
      ],
      [
        "), «",
        -9.568822202177662
      ],
      [
        " журналист",
        -9.569455301155452
      ],
      [
        "икэ",
        -9.569629460774618
      ],
      [
        " щыIэкъым",
        -9.569814711242612
      ],
      [
        " лэжьыгъэхэм",
        -9.570043498777647
      ],
      [
        "хэм ящыщ зы",
        -9.570045578849161
      ],
      [
        "плъыхь",
        -9.57089891303892
      ],
      [
        " куэдым я",
        -9.571601560681357
      ],
      [
        " къре",
        -9.572187865077407
      ],
      [
        " къыщихьащ",
        -9.572310786085021
      ],
      [
        " къащы",
        -9.57232693436055
      ],
      [
        " иIэщ",
        -9.572966372563329
      ],
      [
        " Бахъсэн",
        -9.573827535833246
      ],
      [
        " центрым",
        -9.574212261838102
      ],
      [
        "ыртэкъым.",
        -9.575272392595167
      ],
      [
        " щIэныгъэхэм",
        -9.575478475282942
      ],
      [
        " бзэм",
        -9.575480309524186
      ],
      [
        "ибл",
        -9.575886848469985
      ],
      [
        "тет",
        -9.576480498011929
      ],
      [
        "къуа",
        -9.576720638930965
      ],
      [
        "даIуэ",
        -9.576832403414972
      ],
      [
        " Си",
        -9.577219061799124
      ],
      [
        ", Е",
        -9.578847186242754
      ],
      [
        "щ абы",
        -9.57942063197537
      ],
      [
        " щегъэжьауэ",
        -9.57944725794961
      ],
      [
        "................",
        -9.58088163540545
      ],
      [
        " сабийм",
        -9.58139106967516
      ],
      [
        "фынущ",
        -9.582492893746974
      ],
      [
        "къызэгъэпэщакIуэ",
        -9.583202130010466
      ],
      [
        "р абы",
        -9.58332332628159
      ],
      [
        "е ",
        -9.583663639022248
      ],
      [
        "хуей",
        -9.584209834521817
      ],
      [
        "щ»",
        -9.584289605605916
      ],
      [
        "лъхьа",
        -9.58454906530512
      ],
      [
        "ыркъым",
        -9.585283266556434
      ],
      [
        " и тренер",
        -9.58549350109055
      ],
      [
        "и и",
        -9.585998779416958
      ],
      [
        "гъанэ",
        -9.586160625314852
      ],
      [
        "фIы",
        -9.586754301818596
      ],
      [
        "э,",
        -9.587110455096237
      ],
      [
        " лъагапIэ",
        -9.589114710208033
      ],
      [
        " нэхъыфIу",
        -9.589252740098791
      ],
      [
        "хэми.",
        -9.590358282630135
      ],
      [
        " екIу",
        -9.590491668924878
      ],
      [
        "тым",
        -9.590553168618097
      ],
      [
        " къакIуэ",
        -9.590769346666875
      ],
      [
        " ныкъуэ",
        -9.591618603339043
      ],
      [
        ", дауи",
        -9.592416148415538
      ],
      [
        " къигъэ",
        -9.592514151428645
      ],
      [
        "бу",
        -9.592534243020005
      ],
      [
        "Псалъэм папщIэ, ",
        -9.59276218616521
      ],
      [
        " уэрэдхэр",
        -9.59318747119785
      ],
      [
        "щIэхэр",
        -9.593284530316932
      ],
      [
        ", щIэныгъэ",
        -9.593534452828361
      ],
      [
        "цIэ",
        -9.593664138704955
      ],
      [
        " хэха",
        -9.593884282897063
      ],
      [
        " пэтми",
        -9.594606165438503
      ],
      [
        ", в",
        -9.594675327287263
      ],
      [
        " нэхъапэм",
        -9.59542617676112
      ],
      [
        "- У",
        -9.596923706435698
      ],
      [
        "амэ",
        -9.598897238353882
      ],
      [
        "хы",
        -9.599858706318656
      ],
      [
        "м и Iэтащхьэ",
        -9.600059950793352
      ],
      [
        "Iуа",
        -9.600134529381224
      ],
      [
        "рэ абы",
        -9.600348106632246
      ],
      [
        "21",
        -9.600681541176549
      ],
      [
        "- Си",
        -9.60074700318583
      ],
      [
        " образ",
        -9.601219678592601
      ],
      [
        "Махуэ",
        -9.601936575665462
      ],
      [
        " Мар",
        -9.602055434995908
      ],
      [
        "адыгэ",
        -9.602166838945095
      ],
      [
        " гъуэгур",
        -9.602485550165277
      ],
      [
        " и щхьэ",
        -9.602498671453521
      ],
      [
        " зэкIэ",
        -9.603035083942054
      ],
      [
        "м зы",
        -9.603284027534418
      ],
      [
        " зырыз",
        -9.603353640843924
      ],
      [
        " що",
        -9.603768207507926
      ],
      [
        "щыхъу",
        -9.604088782555285
      ],
      [
        " яху",
        -9.604275312831287
      ],
      [
        " псэу",
        -9.604636356719922
      ],
      [
        "мыдэ",
        -9.604792183058557
      ],
      [
        " илъэс куэдкIэ",
        -9.605063977016695
      ],
      [
        "Не",
        -9.605735929567992
      ],
      [
        "28",
        -9.606783844040532
      ],
      [
        " тху",
        -9.607314702182077
      ],
      [
        " лIыжьым",
        -9.607416217939006
      ],
      [
        " Ку",
        -9.607556687677448
      ],
      [
        "жыхь",
        -9.607744628861248
      ],
      [
        "щІ",
        -9.6080629658331
      ],
      [
        "27",
        -9.60867695146668
      ],
      [
        " Путин Владимир",
        -9.608734342050532
      ],
      [
        "Мо",
        -9.609301932453274
      ],
      [
        "ение",
        -9.611442101098774
      ],
      [
        " дихьэх",
        -9.612026636098651
      ],
      [
        "0-м",
        -9.612451856288477
      ],
      [
        "из",
        -9.612643971812734
      ],
      [
        " сигу",
        -9.612704621509835
      ],
      [
        "хэри,",
        -9.612825646710592
      ],
      [
        " цIыхухъу",
        -9.613615634885424
      ],
      [
        " его",
        -9.61377872520563
      ],
      [
        "пэплъэ",
        -9.614297729316549
      ],
      [
        " лIэщIыгъуэ",
        -9.61461350995817
      ],
      [
        "акъым,",
        -9.616205835124987
      ],
      [
        " щIэлъ",
        -9.616436035773727
      ],
      [
        "ж.",
        -9.616500262111593
      ],
      [
        " иIэт",
        -9.61707949391645
      ],
      [
        "гъэпсэху",
        -9.6172305237093
      ],
      [
        "Iэта",
        -9.617943570540367
      ],
      [
        "лин",
        -9.618117804280754
      ],
      [
        " зыбгъэдэлъ",
        -9.618932116206938
      ],
      [
        " текIуэныгъэр",
        -9.61916828395156
      ],
      [
        "22",
        -9.61922776322789
      ],
      [
        "гъэкIуэд",
        -9.619254779141603
      ],
      [
        " лэжьыгъэшхуэ",
        -9.61955895955609
      ],
      [
        "СССР-м",
        -9.620035969617993
      ],
      [
        " Iэщ",
        -9.621020217521703
      ],
      [
        " сату",
        -9.621197205309118
      ],
      [
        " зэрахьэ",
        -9.621522953196065
      ],
      [
        "мо",
        -9.622077665824747
      ],
      [
        " жыпIэ",
        -9.622648224567968
      ],
      [
        " академием",
        -9.622992922955238
      ],
      [
        "щIыну",
        -9.623093579032894
      ],
      [
        "цы",
        -9.62317025147323
      ],
      [
        " бгъэдэлъ",
        -9.62416120864101
      ],
      [
        " зэгуэр",
        -9.624232329492427
      ],
      [
        "ения",
        -9.625396871658277
      ],
      [
        "Адрей",
        -9.625733204894296
      ],
      [
        "тхэ",
        -9.62597838983713
      ],
      [
        "пIэм",
        -9.626339070041102
      ],
      [
        " щытекIуащ",
        -9.626997949303993
      ],
      [
        " нэмыс",
        -9.627039527290112
      ],
      [
        " щIыхуэ",
        -9.627371217594362
      ],
      [
        "t",
        -9.627916620894565
      ],
      [
        "три",
        -9.628099804650724
      ],
      [
        "цэ",
        -9.628479785136065
      ],
      [
        "» (адыгэбзэкIэ)",
        -9.629139463898047
      ],
      [
        "ес",
        -9.63042776650899
      ],
      [
        "ЩIы",
        -9.631575472294323
      ],
      [
        " Алим",
        -9.631644522391776
      ],
      [
        " гор",
        -9.631889405597962
      ],
      [
        " имы",
        -9.632301336240415
      ],
      [
        " щытыкIэр",
        -9.632845887268651
      ],
      [
        " цIыхубэм",
        -9.632979807413335
      ],
      [
        "А зэманым",
        -9.633203501072344
      ],
      [
        " 2",
        -9.633457530533464
      ],
      [
        " къэхъуа",
        -9.633642311881012
      ],
      [
        "о-",
        -9.63413917212117
      ],
      [
        " еджапIэм",
        -9.634526162280704
      ],
      [
        "Тырку",
        -9.634606845032435
      ],
      [
        "щ)",
        -9.634806931708365
      ],
      [
        " тхыдэр",
        -9.635369773014496
      ],
      [
        " Кавказ Ищхъэрэ",
        -9.6358037201475
      ],
      [
        " Республикэм",
        -9.635987274724542
      ],
      [
        "Дунейпсо",
        -9.6366150707546
      ],
      [
        " на ",
        -9.636631463638246
      ],
      [
        "ркъым,",
        -9.637276140814588
      ],
      [
        ", как",
        -9.637481835781813
      ],
      [
        " дызы",
        -9.637908803792374
      ],
      [
        " политикэ",
        -9.63876148062345
      ],
      [
        "зу",
        -9.640188340741386
      ],
      [
        " бгъэ",
        -9.640403446290877
      ],
      [
        "Сыт хуэдэ",
        -9.640524697900021
      ],
      [
        " щIыкIэр",
        -9.640584046157514
      ],
      [
        " зэте",
        -9.64090522326028
      ],
      [
        "-тIэ",
        -9.640918771423948
      ],
      [
        " сурэтыщI",
        -9.641100440031177
      ],
      [
        " быдэу",
        -9.641243841537872
      ],
      [
        " хи",
        -9.641313151069284
      ],
      [
        " роман",
        -9.642376206213502
      ],
      [
        " хьэрып",
        -9.642845394370507
      ],
      [
        " тхьэмадэ",
        -9.644425658342325
      ],
      [
        ", СССР-м и ",
        -9.644557812123676
      ],
      [
        "афэ",
        -9.644722687615491
      ],
      [
        "ная",
        -9.645038121460683
      ],
      [
        " Iэджэ",
        -9.645161211109418
      ],
      [
        " плъыжь",
        -9.645230991910683
      ],
      [
        "ныгъэ",
        -9.645503456181487
      ],
      [
        "тар",
        -9.64555853741506
      ],
      [
        " лъахэм",
        -9.645841995515195
      ],
      [
        "къым, ауэ",
        -9.646002059180528
      ],
      [
        "8-м",
        -9.64608029276841
      ],
      [
        " командэ къыхэха",
        -9.64613093022067
      ],
      [
        " газет",
        -9.64616456770699
      ],
      [
        "ырщ.",
        -9.646807030802131
      ],
      [
        " ныбжь",
        -9.647631960510344
      ],
      [
        " цIыкIухэм",
        -9.648141097153136
      ],
      [
        " дэрэжэгъуэ",
        -9.648306790463597
      ],
      [
        " псэм",
        -9.648376144815785
      ],
      [
        "•",
        -9.648760944097308
      ],
      [
        " IэнатIэхэм",
        -9.649202237087241
      ],
      [
        " икIа",
        -9.64925192571798
      ],
      [
        " Правительствэм",
        -9.649609494435307
      ],
      [
        " щыджэгу",
        -9.650222204337494
      ],
      [
        "шынэ",
        -9.650503898791346
      ],
      [
        " зыте",
        -9.650712997006117
      ],
      [
        "м хуэдэ",
        -9.651705356290886
      ],
      [
        "лей",
        -9.651830442280056
      ],
      [
        "щIын",
        -9.651848894067959
      ],
      [
        "хуэмы",
        -9.652768185479594
      ],
      [
        "КъищынэмыщIауэ, ",
        -9.653561142872915
      ],
      [
        "дан",
        -9.653845082652815
      ],
      [
        " хэхъуэ",
        -9.654062956078803
      ],
      [
        " экономикэ",
        -9.654123960077708
      ],
      [
        " къудамэ",
        -9.654281215738
      ],
      [
        " дыжьын",
        -9.654399170141126
      ],
      [
        " пасэу",
        -9.654487989431118
      ],
      [
        "фи",
        -9.654540167243756
      ],
      [
        " аращ",
        -9.655121668290892
      ],
      [
        "м тету",
        -9.655355481928648
      ],
      [
        " и псэр",
        -9.655363306397028
      ],
      [
        " Сирием",
        -9.65555003339816
      ],
      [
        "ше",
        -9.655672363817654
      ],
      [
        " и гур",
        -9.656046195385558
      ],
      [
        " епха",
        -9.656056298472075
      ],
      [
        "м е",
        -9.656110837957755
      ],
      [
        " куу",
        -9.657059892887071
      ],
      [
        "хэкI",
        -9.657321237035273
      ],
      [
        "лен",
        -9.65756448724672
      ],
      [
        "«Спартак-Налшык",
        -9.657648678631388
      ],
      [
        " командэм",
        -9.658000135918687
      ],
      [
        " лIыжь",
        -9.658026609350554
      ],
      [
        " псэуа",
        -9.659027506201085
      ],
      [
        "/",
        -9.659394320725404
      ],
      [
        "29",
        -9.659411385062093
      ],
      [
        "30",
        -9.659626013967014
      ],
      [
        ", Урысейм",
        -9.659699816604654
      ],
      [
        "ое",
        -9.660093234426032
      ],
      [
        " ипэ",
        -9.660558468263082
      ],
      [
        " зрагъэ",
        -9.660657130837677
      ],
      [
        "» жыхуиIэ",
        -9.660829956869339
      ],
      [
        " абыкIэ",
        -9.661155656579965
      ],
      [
        " и пэкIэ",
        -9.661253193013021
      ],
      [
        " КъБР-м и ",
        -9.661678257721734
      ],
      [
        " макIуэ",
        -9.66174868311925
      ],
      [
        " къулей",
        -9.662292156908965
      ],
      [
        " кърагъэ",
        -9.662317092501583
      ],
      [
        " упщIэ",
        -9.662366762338804
      ],
      [
        " теплъэ",
        -9.662596487575215
      ],
      [
        " абы.",
        -9.663403600424964
      ],
      [
        "» зыфIища",
        -9.663685478042243
      ],
      [
        " лъапэ",
        -9.664083851532922
      ],
      [
        "пцIэ",
        -9.664460147949448
      ],
      [
        " хуабэ",
        -9.665290306287325
      ],
      [
        " Р",
        -9.666049399300192
      ],
      [
        " гукъыдэж",
        -9.666067745843613
      ],
      [
        " къызэрагъэпэща",
        -9.666291257302557
      ],
      [
        " Ан",
        -9.666888761396915
      ],
      [
        " сыкъэ",
        -9.666898024320194
      ],
      [
        "хъэ",
        -9.666928166751644
      ],
      [
        "хуэкIуэ",
        -9.667787919733865
      ],
      [
        " режиссёр",
        -9.668309901593858
      ],
      [
        " IэщIагъэр",
        -9.668505398771856
      ],
      [
        "пэщIэт",
        -9.668701288580252
      ],
      [
        " Ахьмэд",
        -9.668719331980345
      ],
      [
        " цIыхугъэ",
        -9.669069754953785
      ],
      [
        " Ли",
        -9.669439826060628
      ],
      [
        " Ха",
        -9.669751060627975
      ],
      [
        " сызы",
        -9.670008539609483
      ],
      [
        " машинэ",
        -9.67001406898061
      ],
      [
        "11",
        -9.670797880732572
      ],
      [
        "ЩIалэ",
        -9.671302473431357
      ],
      [
        "жри,",
        -9.671530149572206
      ],
      [
        "Куэд",
        -9.671754049892382
      ],
      [
        " дэIэпыкъуныгъэ",
        -9.671875756440413
      ],
      [
        " щыз",
        -9.672273095326911
      ],
      [
        "хьэх",
        -9.672580241502047
      ],
      [
        "УФ-м и Президент",
        -9.673997565872401
      ],
      [
        " пщIондэ",
        -9.674194049287994
      ],
      [
        "къыщалъхуащ.",
        -9.674425594003871
      ],
      [
        "м и деж",
        -9.674553531506483
      ],
      [
        " Iэнэ",
        -9.674645703763318
      ],
      [
        " дэлъ",
        -9.67484151990258
      ],
      [
        "эф",
        -9.67491575014548
      ],
      [
        "хьэлIэ",
        -9.674979197869307
      ],
      [
        "ым я",
        -9.675922440630767
      ],
      [
        "ыжын",
        -9.67652307800224
      ],
      [
        "ым теухуауэ",
        -9.67719335875398
      ],
      [
        "дэIэпыкъу",
        -9.677211267638038
      ],
      [
        " 8",
        -9.677478339155307
      ],
      [
        " ирагъэкIуэкIа",
        -9.677788839646169
      ],
      [
        "ахэм",
        -9.67795482971736
      ],
      [
        " Санкт-Петербург",
        -9.678929129796252
      ],
      [
        "ского",
        -9.679162748449423
      ],
      [
        " ХьэтIохъущокъуэ",
        -9.679651749474308
      ],
      [
        " дунейм ехыжащ",
        -9.679922621464002
      ],
      [
        "фыну",
        -9.680178766494063
      ],
      [
        " щIэблэр",
        -9.680546988580605
      ],
      [
        " къэкIыгъэ",
        -9.680926533268593
      ],
      [
        "ам.",
        -9.680995617574785
      ],
      [
        " пщащэм",
        -9.681142329760686
      ],
      [
        " къызэре",
        -9.681330571999112
      ],
      [
        " мыгувэу",
        -9.682128524059415
      ],
      [
        " щIалэгъуалэр",
        -9.682215878312832
      ],
      [
        "ын щхьэкIэ",
        -9.6823177394835
      ],
      [
        " хъуэпсапIэ",
        -9.682443144788214
      ],
      [
        " Ла",
        -9.682993370916883
      ],
      [
        " Сергей",
        -9.683475954803948
      ],
      [
        "мыщIэ",
        -9.683532048308457
      ],
      [
        "щ ар",
        -9.684020938131608
      ],
      [
        " Олимпиадэм",
        -9.684097631826504
      ],
      [
        "м нэс",
        -9.685040211595066
      ],
      [
        "н хуейуэ",
        -9.685058319139259
      ],
      [
        " гъуэгуанэ",
        -9.685917467678104
      ],
      [
        " къратащ",
        -9.686506779886233
      ],
      [
        " къалэхэм",
        -9.686518693352058
      ],
      [
        " губгъуэм",
        -9.686668123475096
      ],
      [
        " коронавирус",
        -9.686796877149096
      ],
      [
        "»-р",
        -9.68718439671856
      ],
      [
        " щIыкIэм",
        -9.687284735681104
      ],
      [
        " екIуу",
        -9.688210621768324
      ],
      [
        " сабийр",
        -9.68836263324856
      ],
      [
        "ФIы",
        -9.688554861240094
      ],
      [
        " егъэджэныгъэ",
        -9.68942820361009
      ],
      [
        " щIыгъуу",
        -9.689444490541097
      ],
      [
        "щ, абы",
        -9.689768985784445
      ],
      [
        " ищIа",
        -9.690208837998227
      ],
      [
        ", сыту жыпIэмэ",
        -9.69074876359258
      ],
      [
        "ри, абы",
        -9.690847947185844
      ],
      [
        "!» ",
        -9.691009464285372
      ],
      [
        "дэс",
        -9.691031731580772
      ],
      [
        "Совет",
        -9.691061431436685
      ],
      [
        "Урысейм и",
        -9.691077560393335
      ],
      [
        "Мыбы",
        -9.691786281559072
      ],
      [
        "7-рэ",
        -9.6922030401463
      ],
      [
        " хы",
        -9.692208329295816
      ],
      [
        "Кавказ",
        -9.692485168434692
      ],
      [
        ", Къы",
        -9.6935946485927
      ],
      [
        "хьэр",
        -9.693702593750736
      ],
      [
        "у сы",
        -9.694353772137031
      ],
      [
        "ят",
        -9.694360524857856
      ],
      [
        "КъБР-м ",
        -9.694479449793015
      ],
      [
        ", сы",
        -9.694850642088618
      ],
      [
        "бэч",
        -9.69510811252587
      ],
      [
        " Iэмал имыIэу",
        -9.695466239657566
      ],
      [
        "хэм, ",
        -9.69550783234914
      ],
      [
        "ой ",
        -9.695779855902442
      ],
      [
        " ансамблым",
        -9.696102735138492
      ],
      [
        " зэхуэс",
        -9.696479650308039
      ],
      [
        " во",
        -9.696546975207585
      ],
      [
        "0-м нэблагъэ",
        -9.697098287649489
      ],
      [
        "ын хуейуэ",
        -9.697137188190187
      ],
      [
        "» -",
        -9.697371560663175
      ],
      [
        " къалэныр",
        -9.697398929045537
      ],
      [
        "мэ, ар",
        -9.697461826618412
      ],
      [
        "лэжьэну",
        -9.697807099515497
      ],
      [
        " фIыгъуэ",
        -9.698154695797431
      ],
      [
        "мащIэ",
        -9.698533299912631
      ],
      [
        " щIыхь зиIэ",
        -9.698980578857327
      ],
      [
        " щащI",
        -9.699116670947218
      ],
      [
        " псори ",
        -9.699291307435814
      ],
      [
        " зэгъусэу",
        -9.699411934659636
      ],
      [
        " ерыскъы",
        -9.69997198503562
      ],
      [
        "щ, и",
        -9.700528461363827
      ],
      [
        "Iэр",
        -9.700623756217322
      ],
      [
        " хуабжьу ",
        -9.701751510315313
      ],
      [
        "», ",
        -9.701847033623283
      ],
      [
        " Олимп джэгухэм",
        -9.701875090971747
      ],
      [
        "сто",
        -9.702216682017609
      ],
      [
        "оп",
        -9.702678891606247
      ],
      [
        "р зи",
        -9.702815684185929
      ],
      [
        "кIэ у",
        -9.70284373733067
      ],
      [
        "ста",
        -9.702886807531673
      ],
      [
        "Налшык къалэ",
        -9.702985107816406
      ],
      [
        "щхьэщы",
        -9.703421209481082
      ],
      [
        "ыжри,",
        -9.703657855839877
      ],
      [
        "ЛIыхъужь",
        -9.703728220332813
      ],
      [
        "кIэрэ",
        -9.704165216344244
      ],
      [
        " Ш",
        -9.705099867961058
      ],
      [
        "Совет Нэхъыщхьэм",
        -9.705427910791055
      ],
      [
        " бжыгъэр",
        -9.70559393473778
      ],
      [
        " гъущI",
        -9.705643469995174
      ],
      [
        "пIа",
        -9.705650508507844
      ],
      [
        "м ар",
        -9.70582546985559
      ],
      [
        " щыхъу",
        -9.70644449246584
      ],
      [
        " къэт",
        -9.707608144643554
      ],
      [
        " Ра",
        -9.707715969451325
      ],
      [
        " хэтыну",
        -9.708019337200092
      ],
      [
        "00",
        -9.708701922254424
      ],
      [
        "25",
        -9.709026464639436
      ],
      [
        " уэркъ",
        -9.709593362189931
      ],
      [
        "мыхьэ",
        -9.709606070733805
      ],
      [
        "ек",
        -9.710597494221982
      ],
      [
        " дяпэкIэ",
        -9.710632834572667
      ],
      [
        "хэр, ",
        -9.710675063173143
      ],
      [
        " пэшым",
        -9.710759271051419
      ],
      [
        " шэ",
        -9.711322650248208
      ],
      [
        " мыхъу",
        -9.711469196943387
      ],
      [
        "пкъ",
        -9.711679492192609
      ],
      [
        "упс",
        -9.71311823847627
      ],
      [
        "Мис",
        -9.713683599506723
      ],
      [
        " куууэ",
        -9.714011726611147
      ],
      [
        " къыщыт",
        -9.714477672148448
      ],
      [
        "хэр - ",
        -9.714560791331163
      ],
      [
        " и гум",
        -9.714768750979115
      ],
      [
        " то",
        -9.714802126705475
      ],
      [
        ", Т",
        -9.715037861697649
      ],
      [
        " То",
        -9.71513137597847
      ],
      [
        " тхыгъэхэм",
        -9.715156220751785
      ],
      [
        " сом",
        -9.715500551193081
      ],
      [
        "» жиIэу",
        -9.715816503737372
      ],
      [
        ", Хьэ",
        -9.715873787586396
      ],
      [
        "благъэ",
        -9.716659000574149
      ],
      [
        " илъ",
        -9.716744074834
      ],
      [
        " нэхъ ин",
        -9.717327787053307
      ],
      [
        " мазэм",
        -9.717563072216079
      ],
      [
        "ую",
        -9.717568524220319
      ],
      [
        "ать газету PDF 3",
        -9.717673679759095
      ],
      [
        "у аращ",
        -9.718243966273453
      ],
      [
        "23",
        -9.71835088276058
      ],
      [
        " Ша",
        -9.718976714341572
      ],
      [
        " ерыщу",
        -9.719041222981026
      ],
      [
        " пщIантIэм",
        -9.720415294405973
      ],
      [
        " яIэщ",
        -9.720749004136316
      ],
      [
        " Гу",
        -9.72134444045885
      ],
      [
        " и президент",
        -9.722366197179706
      ],
      [
        " хущхъуэ",
        -9.722637071077376
      ],
      [
        " дыгъэ",
        -9.722860925648803
      ],
      [
        " пщэрылъ",
        -9.723002886584222
      ],
      [
        " хэлъхьэныгъэ",
        -9.723367061677855
      ],
      [
        "Абы щыгъуэми",
        -9.723496125829273
      ],
      [
        " елъытауэ",
        -9.723869431593975
      ],
      [
        ", КъБР-м ",
        -9.72391861960768
      ],
      [
        " пэш",
        -9.724815603665988
      ],
      [
        "ют",
        -9.725296237749717
      ],
      [
        " дамыгъэ",
        -9.725760296492131
      ],
      [
        " Дунейпсо",
        -9.725762040836564
      ],
      [
        " Ю",
        -9.725813809165098
      ],
      [
        " псэр",
        -9.726054438226935
      ],
      [
        "лу",
        -9.726077787601355
      ],
      [
        "жым",
        -9.726358896337679
      ],
      [
        " жеIэ",
        -9.726397803452143
      ],
      [
        " Му",
        -9.726463150394999
      ],
      [
        " унафэщIхэм",
        -9.727015159856418
      ],
      [
        " къыхуа",
        -9.727179719042791
      ],
      [
        "хутэ",
        -9.727217242193321
      ],
      [
        "м къи",
        -9.727545803621584
      ],
      [
        " ди деж",
        -9.727601200600322
      ],
      [
        "Дэнэ",
        -9.728020412325538
      ],
      [
        " щIэныгъэлIхэм",
        -9.728790321013307
      ],
      [
        " быдэ",
        -9.728872182531493
      ],
      [
        ", зэры",
        -9.730577724710873
      ],
      [
        " щIэт",
        -9.730579357598236
      ],
      [
        " анэдэлъхубзэр",
        -9.730591293108585
      ],
      [
        " хамэ",
        -9.730827632634767
      ],
      [
        "рэ (",
        -9.731109840096714
      ],
      [
        "Лъэ",
        -9.731561888128251
      ],
      [
        "лъху",
        -9.731681684896378
      ],
      [
        ", Б",
        -9.732121290448408
      ],
      [
        "1-м",
        -9.732168255458511
      ],
      [
        " зэреджэр",
        -9.73236313474055
      ],
      [
        " Ва",
        -9.73251576549615
      ],
      [
        "ыфын",
        -9.732672621697974
      ],
      [
        " Мысырым",
        -9.732835521090706
      ],
      [
        " унафэр",
        -9.733253888265539
      ],
      [
        " гъуазджэм",
        -9.733525926961867
      ],
      [
        "Iэбэ",
        -9.734189023287108
      ],
      [
        "зыгъэзащIэ",
        -9.734341776974603
      ],
      [
        "ич",
        -9.734472187928795
      ],
      [
        "Жьы",
        -9.734714129571273
      ],
      [
        "инг",
        -9.734780975491791
      ],
      [
        "Джэгу",
        -9.735411591241359
      ],
      [
        " къысхуэ",
        -9.736290238242361
      ],
      [
        " Къа",
        -9.736465205301663
      ],
      [
        "Фи",
        -9.736560381375924
      ],
      [
        "ид",
        -9.737093466717202
      ],
      [
        " щытхъу",
        -9.737607426823967
      ],
      [
        "♦18",
        -9.738030652127422
      ],
      [
        "щIыр",
        -9.738539973057739
      ],
      [
        " зегъэужьыным",
        -9.738558822390953
      ],
      [
        "убыдэ",
        -9.738644110468371
      ],
      [
        " и щIыналъэ",
        -9.738732818181013
      ],
      [
        " адэ",
        -9.73876993373474
      ],
      [
        " ипхъу",
        -9.738785024845601
      ],
      [
        " елэжь",
        -9.7389001323127
      ],
      [
        " фо",
        -9.74020634542272
      ],
      [
        "зехьэ",
        -9.740514630244409
      ],
      [
        " псалъэм",
        -9.740576059300043
      ],
      [
        ", Си",
        -9.741629840927192
      ],
      [
        "а,",
        -9.742633533104767
      ],
      [
        " Адыгэ Хасэм",
        -9.742881977015983
      ],
      [
        "къэрал программэ",
        -9.74300037402634
      ],
      [
        " тхылъ тедзапIэм",
        -9.743234767766888
      ],
      [
        " хъыджэбз цIыкIу",
        -9.743941455581641
      ],
      [
        " къыпхуэ",
        -9.744114548930414
      ],
      [
        " Хэку",
        -9.744190504186724
      ],
      [
        " хабзэм",
        -9.744325133364447
      ],
      [
        " зыгъэ",
        -9.744461818214377
      ],
      [
        " нобэрей",
        -9.744591694401489
      ],
      [
        "хьэкI",
        -9.745125706100543
      ],
      [
        " пы",
        -9.7452604142502
      ],
      [
        " къалъытэ",
        -9.745461365449367
      ],
      [
        " шэрджэс",
        -9.745623465319952
      ],
      [
        " мылъкур",
        -9.745808763335031
      ],
      [
        "гъэзэщIа",
        -9.745961541600323
      ],
      [
        "и я",
        -9.746146938746431
      ],
      [
        " Iущ",
        -9.746728616526694
      ],
      [
        " Адыгэ",
        -9.746747004923991
      ],
      [
        " сурэтхэр",
        -9.747006766358346
      ],
      [
        " щызекIуэ",
        -9.747330066981142
      ],
      [
        "рэ и",
        -9.747556862842305
      ],
      [
        " къызэрыщы",
        -9.74905554149364
      ],
      [
        "ав",
        -9.749112328447865
      ],
      [
        " къыб",
        -9.750038249231736
      ],
      [
        "нэм",
        -9.750165162481455
      ],
      [
        " Зэ",
        -9.750590334059332
      ],
      [
        "ея",
        -9.750712845151837
      ],
      [
        "иль",
        -9.751585715279877
      ],
      [
        " ящIа",
        -9.751601992468618
      ],
      [
        " тэмэм",
        -9.75166700724754
      ],
      [
        "зыр",
        -9.751733186057391
      ],
      [
        "фын",
        -9.751887692753817
      ],
      [
        ", К",
        -9.751986031408732
      ],
      [
        " 13",
        -9.752178052516125
      ],
      [
        "убла",
        -9.752295951946762
      ],
      [
        " университетым и",
        -9.752396521388356
      ],
      [
        " къахуэ",
        -9.752648513770918
      ],
      [
        " зригъэ",
        -9.753057959766215
      ],
      [
        " он",
        -9.753397688015612
      ],
      [
        " хьэзыр",
        -9.753494307217867
      ],
      [
        "p",
        -9.753523256711965
      ],
      [
        "адэ",
        -9.753837460465238
      ],
      [
        "мылъагъу",
        -9.753869880208839
      ],
      [
        "лан",
        -9.754593547673968
      ],
      [
        " фыз",
        -9.754658450063515
      ],
      [
        "кIэ, ",
        -9.755475950589979
      ],
      [
        " 16",
        -9.755725813817605
      ],
      [
        " дунейпсо махуэщ",
        -9.75608064168674
      ],
      [
        "дер",
        -9.756438278448039
      ],
      [
        "мыкI",
        -9.756604930697648
      ],
      [
        " хъыджэбзым",
        -9.756678647466453
      ],
      [
        "ран",
        -9.756779414733153
      ],
      [
        "т:",
        -9.757239928216407
      ],
      [
        " нэгъуэщI къэрал",
        -9.757623743573296
      ],
      [
        "чи",
        -9.757663804394287
      ],
      [
        " пIалъэ",
        -9.758152022790835
      ],
      [
        " Юрэ",
        -9.758469434917796
      ],
      [
        "дэлажьэ",
        -9.759372026672095
      ],
      [
        " щыуагъэ",
        -9.759391106222054
      ],
      [
        " фильм",
        -9.7597354763343
      ],
      [
        "бгъэдэт",
        -9.760034480165645
      ],
      [
        " гъэсакIуэ",
        -9.760784450727684
      ],
      [
        " абы щыгъуэ",
        -9.761017031191951
      ],
      [
        " еплъ",
        -9.761132407058852
      ],
      [
        " махуэшхуэ",
        -9.761977644218247
      ],
      [
        " я ",
        -9.762395570791892
      ],
      [
        "умы",
        -9.762459311287808
      ],
      [
        " нэщI",
        -9.763008794454588
      ],
      [
        ", тхакIуэ",
        -9.763047150010882
      ],
      [
        "инэ",
        -9.763365024134067
      ],
      [
        " лъагъуныгъэ",
        -9.764084842426065
      ],
      [
        "Совет Союзым",
        -9.764090971322059
      ],
      [
        "у и",
        -9.764542205473045
      ],
      [
        " яIэу",
        -9.764594273727406
      ],
      [
        " нэужьым",
        -9.764627622981976
      ],
      [
        " пщIы",
        -9.765044889372824
      ],
      [
        " зэриIэр",
        -9.765076951723238
      ],
      [
        " къупщхьэ",
        -9.7664055164764
      ],
      [
        "–",
        -9.766613403907186
      ],
      [
        "АтIэ",
        -9.766648046722716
      ],
      [
        " Ма",
        -9.766920981210923
      ],
      [
        " Та",
        -9.767218688960009
      ],
      [
        "ынукъым.",
        -9.767367880065695
      ],
      [
        " гъэм ",
        -9.76757826904923
      ],
      [
        " къихь",
        -9.767947342323364
      ],
      [
        "гъэпщкIу",
        -9.768747081317521
      ],
      [
        "цIыкIу",
        -9.768971871401323
      ],
      [
        "ских",
        -9.769253016066193
      ],
      [
        " Са",
        -9.76971368714423
      ],
      [
        ", УФ-м и ",
        -9.770122090389515
      ],
      [
        " къигъэсэбэп",
        -9.77070151306797
      ],
      [
        "вет",
        -9.770828610773199
      ],
      [
        "евэ",
        -9.771105460753795
      ],
      [
        " дунейм къытехьа",
        -9.771935754075537
      ],
      [
        " пщIэшхуэ",
        -9.771977229182745
      ],
      [
        ", Я",
        -9.772172088536074
      ],
      [
        "Мазэ",
        -9.773728236711651
      ],
      [
        " ди щIалэхэм",
        -9.774216189921859
      ],
      [
        " кърикIуа",
        -9.774542282754261
      ],
      [
        " комитетым",
        -9.774793930617179
      ],
      [
        " Га",
        -9.774895011475296
      ],
      [
        "ынщи, ",
        -9.774961566640858
      ],
      [
        "ком",
        -9.775168156223735
      ],
      [
        "хэр къы",
        -9.775747194937807
      ],
      [
        " къэралыр",
        -9.776295598496855
      ],
      [
        " бгым",
        -9.7767391711054
      ],
      [
        " ухуэныгъэ",
        -9.777721250343827
      ],
      [
        " щхьэхуэу",
        -9.778269018208707
      ],
      [
        ", адрей",
        -9.778529733736372
      ],
      [
        "р хъумэнымкIэ",
        -9.778858876021118
      ],
      [
        " псалъэмакъ",
        -9.778962954761539
      ],
      [
        "р (",
        -9.779092819529254
      ],
      [
        " Iуэху еплъыкIэ",
        -9.779102136084035
      ],
      [
        "цIыхубэ артисткэ",
        -9.779295946816585
      ],
      [
        " и хьэрхуэрэгъу",
        -9.77943557943366
      ],
      [
        " щэджащэ",
        -9.779732139053962
      ],
      [
        " цIыхубзым",
        -9.780034086344994
      ],
      [
        "лажьэ",
        -9.78013168286958
      ],
      [
        "Гъэ",
        -9.780446406976296
      ],
      [
        "бан",
        -9.78100095567918
      ],
      [
        " ди щIыналъэм",
        -9.782013570055707
      ],
      [
        " зыкIи",
        -9.782224226987022
      ],
      [
        " езыхэм я",
        -9.782266003719357
      ],
      [
        " жыджэру",
        -9.7824368370252
      ],
      [
        " дапщэ",
        -9.782631834952753
      ],
      [
        "олог",
        -9.782836147545797
      ],
      [
        " тэмэму",
        -9.783416840084008
      ],
      [
        "кІуэ",
        -9.783881619476956
      ],
      [
        " щеджэ",
        -9.783928865660112
      ],
      [
        ", нэхъ",
        -9.784615980768955
      ],
      [
        " Iуэхугъуэхэр",
        -9.784795680488449
      ],
      [
        "Унэ",
        -9.785128355392676
      ],
      [
        " университет",
        -9.785398463439968
      ],
      [
        " щыгъын",
        -9.785994397915154
      ],
      [
        " нэхърэ нэхъ",
        -9.787308377482425
      ],
      [
        " къэкIуэж",
        -9.787420715659895
      ],
      [
        " сри",
        -9.787900539494494
      ],
      [
        "кан",
        -9.788330085563324
      ],
      [
        " цIэрыIуэм",
        -9.789333459546194
      ],
      [
        " зи ныбжь",
        -9.789796388734427
      ],
      [
        " и адэ",
        -9.790081256494204
      ],
      [
        " лIыкIуэ",
        -9.790312005996858
      ],
      [
        " губгъуэ",
        -9.790332301738186
      ],
      [
        " гъуащхьэхъумэ",
        -9.791202616062936
      ],
      [
        " къурш",
        -9.791864372088584
      ],
      [
        " къэфакIуэ",
        -9.792275935510892
      ],
      [
        " лIыхъужь",
        -9.792918095738539
      ],
      [
        " хъыбарыр",
        -9.792926533979454
      ],
      [
        " пцIы",
        -9.7931036973587
      ],
      [
        " щIыIэ",
        -9.793334117775512
      ],
      [
        "ухуа",
        -9.793499487742329
      ],
      [
        " Европэм и",
        -9.793520566638712
      ],
      [
        " илъэс къэс",
        -9.793614159285479
      ],
      [
        " лIым",
        -9.794405701557075
      ],
      [
        ", дэ",
        -9.795170496715304
      ],
      [
        " хо",
        -9.79534487669027
      ],
      [
        "Мэ",
        -9.795416469586103
      ],
      [
        "КъыкIэлъыкIуэ",
        -9.795472396573974
      ],
      [
        " дерс",
        -9.795495753446264
      ],
      [
        "3 ",
        -9.796986795750563
      ],
      [
        " министр",
        -9.797252452275874
      ],
      [
        " Нэ",
        -9.797370467052136
      ],
      [
        "- Уэ",
        -9.79776630503573
      ],
      [
        " класс",
        -9.797821951010295
      ],
      [
        " жьэ",
        -9.798988321539792
      ],
      [
        "ищэ",
        -9.800325538956617
      ],
      [
        "щыщ",
        -9.800973505262967
      ],
      [
        "24",
        -9.801612896924134
      ],
      [
        "Дэтхэнэ",
        -9.80168611970578
      ],
      [
        " зезыхьэ",
        -9.801741726583892
      ],
      [
        "Да",
        -9.8028146625935
      ],
      [
        " Ц",
        -9.803328676348858
      ],
      [
        " къызэрыт",
        -9.803385967102543
      ],
      [
        " и лIыкIуэ",
        -9.8035778701249
      ],
      [
        "Лэжьыгъэ",
        -9.80380583102573
      ],
      [
        "лIа",
        -9.804040099158003
      ],
      [
        "у абы",
        -9.804088070501749
      ],
      [
        " къыщIэкIа",
        -9.804165719084715
      ],
      [
        " хуищI",
        -9.804457526654293
      ],
      [
        "бжьэ",
        -9.804791360737202
      ],
      [
        " жэщым",
        -9.804918951036809
      ],
      [
        "Дауэ",
        -9.80499505514874
      ],
      [
        " Уэ",
        -9.805779237988789
      ],
      [
        " все",
        -9.80583206857332
      ],
      [
        " куэд дыдэ",
        -9.806018171417016
      ],
      [
        "гъэхь",
        -9.806523406296183
      ],
      [
        " еплъыкIэ",
        -9.806880636082774
      ],
      [
        "хэр щы",
        -9.807277328939474
      ],
      [
        "Фэ",
        -9.807329701306353
      ],
      [
        " къулыкъур",
        -9.807423705788258
      ],
      [
        "Абы щыгъуэм",
        -9.807435368424915
      ],
      [
        "гурыIуэ",
        -9.807626397709022
      ],
      [
        " щIэгъэкъуэн",
        -9.80808871527543
      ],
      [
        " Па",
        -9.808276798081721
      ],
      [
        "рти",
        -9.808504607166466
      ],
      [
        "Абдеж",
        -9.808717373821663
      ],
      [
        "фIи",
        -9.808966127096877
      ],
      [
        "Псалъэм папщIэ",
        -9.809066804483649
      ],
      [
        "ье",
        -9.809480259021186
      ],
      [
        "» зыфIаща",
        -9.810064206834081
      ],
      [
        " и гъащIэр",
        -9.810084232108576
      ],
      [
        " бийм",
        -9.810116111478768
      ],
      [
        "м ды",
        -9.81033501867854
      ],
      [
        " сом мин",
        -9.810399691192004
      ],
      [
        "ухуэ",
        -9.81126970542637
      ],
      [
        "Къуажэ",
        -9.811378420640823
      ],
      [
        " хьэрхуэрэгъу",
        -9.811783767975884
      ],
      [
        " псынщIэ",
        -9.81195611659583
      ],
      [
        " удз",
        -9.812193314861357
      ],
      [
        " мащIэу",
        -9.812235864415324
      ],
      [
        "уа",
        -9.81256046544064
      ],
      [
        "ме",
        -9.81306011227726
      ],
      [
        " теплъэгъуэ",
        -9.813536847616007
      ],
      [
        " октября, 20",
        -9.814364773097466
      ],
      [
        "Ди жагъуэ",
        -9.814538525729445
      ],
      [
        "шэч",
        -9.81514495848933
      ],
      [
        "уб",
        -9.815306245952364
      ],
      [
        "м ехьэлIа",
        -9.816119942794444
      ],
      [
        " зыщи",
        -9.816641972085602
      ],
      [
        "ащ:",
        -9.816653985000658
      ],
      [
        " зра",
        -9.816696074076248
      ],
      [
        "гъуэтыж",
        -9.817133495292989
      ],
      [
        " и деж",
        -9.81744472806502
      ],
      [
        "-Балъкъэр",
        -9.817939509435373
      ],
      [
        " стадионым",
        -9.81808773653556
      ],
      [
        " хуащI",
        -9.818670248701208
      ],
      [
        " мыхьэнэшхуэ",
        -9.820068492111854
      ],
      [
        " тхыгъэм",
        -9.820250917264426
      ],
      [
        " и Iэдакъэ",
        -9.8207505863975
      ],
      [
        " адэм",
        -9.821217283201612
      ],
      [
        "Зэгуэрым",
        -9.821319884771135
      ],
      [
        "Iуэхур",
        -9.822233165823015
      ],
      [
        "лет",
        -9.822365196293418
      ],
      [
        "м зэхъуэкIыныгъэ",
        -9.822478895111391
      ],
      [
        "5 ",
        -9.82275523543946
      ],
      [
        " хагъэхьащ",
        -9.822888731172739
      ],
      [
        " пенсэ",
        -9.822910302776119
      ],
      [
        " къуажэм ",
        -9.823924587700557
      ],
      [
        "фIэкI",
        -9.824013614519826
      ],
      [
        " фондым",
        -9.824171506033917
      ],
      [
        "ынукъым",
        -9.824444581278481
      ],
      [
        "тон",
        -9.82520154182479
      ],
      [
        "ыну,",
        -9.825369344021906
      ],
      [
        " и унафэкIэ",
        -9.825711512789947
      ],
      [
        " къалэнхэр",
        -9.825912394518715
      ],
      [
        "фIэщI",
        -9.826165846872922
      ],
      [
        " къызо",
        -9.826901839124272
      ],
      [
        " так",
        -9.826918282931238
      ],
      [
        "» («",
        -9.827225068358421
      ],
      [
        " ныбжьыщIэхэм я",
        -9.827377979293104
      ],
      [
        " кIэух",
        -9.827654807248706
      ],
      [
        "бгъу",
        -9.827916847560267
      ],
      [
        " лъагъуэ",
        -9.828046600597634
      ],
      [
        "гъэкIыж",
        -9.828199218234342
      ],
      [
        "лов",
        -9.828281859691682
      ],
      [
        ", нэгъуэщIхэми",
        -9.828675619060991
      ],
      [
        " пэжыр",
        -9.828854186664874
      ],
      [
        "r",
        -9.828890292705298
      ],
      [
        " нэпс",
        -9.829565694699568
      ],
      [
        " зэпеуэхэм",
        -9.829688070986819
      ],
      [
        " къихьащ",
        -9.829793264533507
      ],
      [
        " гузэвэгъуэ",
        -9.829852593927402
      ],
      [
        "итIым я",
        -9.829921991626527
      ],
      [
        " студент",
        -9.830067430488501
      ],
      [
        " центр",
        -9.83103210712567
      ],
      [
        " зэрыща",
        -9.831380952309395
      ],
      [
        "бгъэдэс",
        -9.83194644491767
      ],
      [
        "шхуэр",
        -9.832859275000764
      ],
      [
        "ми и",
        -9.832965050461858
      ],
      [
        " футбол",
        -9.833112198929001
      ],
      [
        " къеджэ",
        -9.833301172921356
      ],
      [
        ", иджы",
        -9.833997664723935
      ],
      [
        "кIыну",
        -9.834359686297514
      ],
      [
        "ымрэ ",
        -9.834570501531955
      ],
      [
        " лъакъуэ",
        -9.834698297507812
      ],
      [
        "кIэ зэджэ",
        -9.834992226080624
      ],
      [
        " как",
        -9.835037369450003
      ],
      [
        "пхъуэ",
        -9.835208494971589
      ],
      [
        "Абы щыгъуэ",
        -9.835786172540391
      ],
      [
        " благъэ",
        -9.836206702742928
      ],
      [
        "Уэрэд",
        -9.836472960260847
      ],
      [
        "тыну",
        -9.837233457405592
      ],
      [
        " сиIэ",
        -9.837624091914213
      ],
      [
        " жиIэу",
        -9.837687197456496
      ],
      [
        " Мадинэ",
        -9.83773802014979
      ],
      [
        " купщIафIэ",
        -9.837922651016653
      ],
      [
        "Пэжщ",
        -9.83794534320002
      ],
      [
        " Къардэн",
        -9.837970535416542
      ],
      [
        " футболымкIэ и ",
        -9.837998165668655
      ],
      [
        " умы",
        -9.838505956350307
      ],
      [
        " кхъухь",
        -9.83861859766883
      ],
      [
        "рэ сэрэ",
        -9.838673133481361
      ],
      [
        "вар",
        -9.838760465923963
      ],
      [
        " Али",
        -9.839175689186426
      ],
      [
        " зэпымыууэ",
        -9.839289865334509
      ],
      [
        " еджагъэшхуэ",
        -9.839290461141445
      ],
      [
        " шапсыгъ",
        -9.839290725631447
      ],
      [
        "хь зиIэ и мастер",
        -9.839499983280376
      ],
      [
        " щекIуэкIыну",
        -9.84027439922096
      ],
      [
        "ест",
        -9.841010067543454
      ],
      [
        " щабэ",
        -9.84103089137039
      ],
      [
        "Апхуэдэ щIыкIэ",
        -9.841217606166417
      ],
      [
        "мыхьэнэшхуэ зиIэ",
        -9.841391072310548
      ],
      [
        "тхьэ",
        -9.842336125937859
      ],
      [
        "мэ, абы",
        -9.842829653379496
      ],
      [
        " ящыщ",
        -9.843305943705587
      ],
      [
        "кин",
        -9.844074630481593
      ],
      [
        " хэтащ.",
        -9.844329214694785
      ],
      [
        "ном",
        -9.844386946272266
      ],
      [
        " и къалащхьэ",
        -9.844672938090572
      ],
      [
        "кIауэ",
        -9.844905486093365
      ],
      [
        " музейм",
        -9.845190893198225
      ],
      [
        " хъурей",
        -9.845247863746188
      ],
      [
        " къыдэкIа",
        -9.845261471911732
      ],
      [
        " къуэш",
        -9.845334885193601
      ],
      [
        "- А",
        -9.846216973198924
      ],
      [
        ", хабзэ",
        -9.846313045170197
      ],
      [
        "аш",
        -9.846418887037359
      ],
      [
        " России",
        -9.846599674982514
      ],
      [
        "хэщ.",
        -9.846970046869052
      ],
      [
        "хэм я кандидат",
        -9.847007725404556
      ],
      [
        " жыхуаIэ",
        -9.8474353349451
      ],
      [
        "Шэ",
        -9.847454767670511
      ],
      [
        "нд",
        -9.847468241904632
      ],
      [
        "жауэ",
        -9.847764042218165
      ],
      [
        "тIыс",
        -9.847937850246502
      ],
      [
        " хэлъщ",
        -9.848549983456328
      ],
      [
        "- Уи",
        -9.848685064693264
      ],
      [
        " зыгъэпсэхупIэ",
        -9.848752348033448
      ],
      [
        " яхуэ",
        -9.84884843339961
      ],
      [
        " «Адыгэ",
        -9.849125296454542
      ],
      [
        "хьи",
        -9.849391787324953
      ],
      [
        " си гум",
        -9.849412319845847
      ],
      [
        " къуажэхэм",
        -9.850612982869047
      ],
      [
        "джы",
        -9.850815661487385
      ],
      [
        " хуе",
        -9.850978709404307
      ],
      [
        " и цIэр зезыхьэ ",
        -9.850986573139377
      ],
      [
        "кIуэт",
        -9.851251408604417
      ],
      [
        "21 год2021 - ",
        -9.851301964740776
      ],
      [
        " сытым дежи",
        -9.851320643724527
      ],
      [
        " дежкIэ",
        -9.851357853244831
      ],
      [
        " узыфэ",
        -9.851755077368455
      ],
      [
        " ны",
        -9.852025015541543
      ],
      [
        " къулыкъум",
        -9.85297134855765
      ],
      [
        "!» -",
        -9.85309435413529
      ],
      [
        " къалэм дэт",
        -9.853377047301182
      ],
      [
        "ние",
        -9.853671579059872
      ],
      [
        " зэфIэ",
        -9.854005551910628
      ],
      [
        " Iэзэу",
        -9.854194144237983
      ],
      [
        "ыщхьэ",
        -9.8551490022438
      ],
      [
        "Псэ",
        -9.855320376324844
      ],
      [
        " ахъшэр",
        -9.855468875316316
      ],
      [
        "Ма",
        -9.855522206949882
      ],
      [
        " уиIэ",
        -9.856103667622406
      ],
      [
        "гъуэр",
        -9.8561050421889
      ],
      [
        "у пIэрэ",
        -9.856118750120984
      ],
      [
        " хъунукъым.",
        -9.856151441275749
      ],
      [
        " инджылыз",
        -9.856672014097304
      ],
      [
        "ня",
        -9.857394559026947
      ],
      [
        " къыщагъэсэбэп",
        -9.857607818232669
      ],
      [
        " имыIэу",
        -9.857815056693838
      ],
      [
        "IукI",
        -9.858137066525327
      ],
      [
        " итха",
        -9.85817514562476
      ],
      [
        "ол",
        -9.858997973881092
      ],
      [
        " мэзым",
        -9.859188120744916
      ],
      [
        "рэ зы",
        -9.859307766011064
      ],
      [
        " къикI",
        -9.859485836022111
      ],
      [
        "Мэзкуу",
        -9.85959262876289
      ],
      [
        "вгъэ",
        -9.859794818842403
      ],
      [
        "тын",
        -9.859933313004898
      ],
      [
        "- Ди",
        -9.860289462446966
      ],
      [
        " къищынэмыщIауэ",
        -9.860682436066243
      ],
      [
        "техьэ",
        -9.860769745064779
      ],
      [
        "Вагъуэ",
        -9.860887227946659
      ],
      [
        "нур.",
        -9.860996467550915
      ],
      [
        " зи гугъу тщIы",
        -9.861438507493853
      ],
      [
        "… - ",
        -9.862125321939729
      ],
      [
        " нэхъыжьхэм",
        -9.862290252493256
      ],
      [
        "м щIигъу",
        -9.862718519441707
      ],
      [
        " зэхыхьэ",
        -9.863392360184559
      ],
      [
        "!..",
        -9.863844552918133
      ],
      [
        "щ… ",
        -9.864439640815345
      ],
      [
        "Иджыри",
        -9.865416218901583
      ],
      [
        "ЗэIущIэ",
        -9.865633647495592
      ],
      [
        "05",
        -9.865716341548783
      ],
      [
        "- Ар",
        -9.866012293912023
      ],
      [
        " къулыкъущIэ",
        -9.866193184821796
      ],
      [
        "ное",
        -9.866478433650418
      ],
      [
        "гъэн",
        -9.86649302027456
      ],
      [
        " лъэбакъуэ",
        -9.866594149663662
      ],
      [
        " лъагъуныгъэр",
        -9.867575118301922
      ],
      [
        " 11",
        -9.868018629236218
      ],
      [
        ", апхуэдэу",
        -9.868080542985394
      ],
      [
        " гъэсэныгъэ",
        -9.868103425998546
      ],
      [
        "ыртэкъым",
        -9.86832210635707
      ],
      [
        " къытхуэ",
        -9.868463973184706
      ],
      [
        " актрисэ",
        -9.869094813708287
      ],
      [
        " социальнэ",
        -9.869493476192783
      ],
      [
        " и лэжьакIуэ",
        -9.869724649290234
      ],
      [
        " Ал",
        -9.870123752463229
      ],
      [
        " Марие",
        -9.870335186729108
      ],
      [
        " дэщIыгъуу",
        -9.870523845923806
      ],
      [
        ", псы",
        -9.871030300892414
      ],
      [
        " щытащ.",
        -9.871116338752017
      ],
      [
        "къа",
        -9.871276729985262
      ],
      [
        " зауэр",
        -9.871401872205178
      ],
      [
        "со",
        -9.8723884066546
      ],
      [
        " Iэпкълъэпкъым",
        -9.872456473112347
      ],
      [
        " офицер",
        -9.873078489151373
      ],
      [
        "8-рэ",
        -9.873538039610231
      ],
      [
        "ар ",
        -9.87394226222996
      ],
      [
        " медаль",
        -9.87433710186453
      ],
      [
        "хэм щыщ",
        -9.874588136572676
      ],
      [
        " иту",
        -9.874915591326747
      ],
      [
        " техникэ",
        -9.875563933065344
      ],
      [
        " ещI",
        -9.87568155043712
      ],
      [
        "Архив 2019 год20",
        -9.875767940645645
      ],
      [
        " зэрызы",
        -9.877013575431995
      ],
      [
        " бзаджэ",
        -9.87706356238927
      ],
      [
        " Iэдэм",
        -9.877170160527587
      ],
      [
        " къызэрымыкIуэ",
        -9.877704158257862
      ],
      [
        "загъэ",
        -9.878096791097068
      ],
      [
        " зэи ",
        -9.878406129241416
      ],
      [
        "Са",
        -9.878538690619658
      ],
      [
        " зэныбжьэгъугъэ",
        -9.879189644327687
      ],
      [
        "щIыхьа",
        -9.879223623459815
      ],
      [
        "щ, - жиIащ",
        -9.879361324289333
      ],
      [
        "Тхьэ",
        -9.879450148841103
      ],
      [
        " Жан",
        -9.879940447468357
      ],
      [
        " ес",
        -9.8801332021067
      ],
      [
        "ри, и",
        -9.880142333435039
      ],
      [
        "джэр",
        -9.880148368289365
      ],
      [
        "гъэлъапIэ",
        -9.880484691026194
      ],
      [
        ", УФ-м",
        -9.880693212683827
      ],
      [
        " къыщIы",
        -9.881090935308471
      ],
      [
        " куржы",
        -9.881162395887038
      ],
      [
        "Къалэ",
        -9.883260381104257
      ],
      [
        " зыгуэрым",
        -9.88332223760641
      ],
      [
        "хэмрэ.",
        -9.884156250289747
      ],
      [
        " мамырыгъэ",
        -9.884324193650967
      ],
      [
        " гурыIуэгъуэ",
        -9.884369743413076
      ],
      [
        " щыIэу",
        -9.88475941345806
      ],
      [
        " хъуэхъу",
        -9.884798662435532
      ],
      [
        " и уасэ",
        -9.885609614016705
      ],
      [
        "м и махуэщ ♦",
        -9.88584562590106
      ],
      [
        ", - ",
        -9.886314572226183
      ],
      [
        "Хэкум",
        -9.886362390236375
      ],
      [
        ", КъБР-м и ",
        -9.886363793831432
      ],
      [
        "хэс",
        -9.886668553805183
      ],
      [
        " Виктор",
        -9.887002709804463
      ],
      [
        "кIэ зы",
        -9.887046579665796
      ],
      [
        " адрейхэм",
        -9.88718347005151
      ],
      [
        " и Iэ",
        -9.887284943931647
      ],
      [
        " щIыхьыр",
        -9.887325175437335
      ],
      [
        ", уэ",
        -9.887779737747643
      ],
      [
        "у щытар",
        -9.887905849563083
      ],
      [
        " хъарзынэу",
        -9.888037880550414
      ],
      [
        "ыу,",
        -9.88843718031707
      ],
      [
        "Къапщтэмэ, ",
        -9.888444167892843
      ],
      [
        " уэс",
        -9.888751122373765
      ],
      [
        " анэр",
        -9.888975906878795
      ],
      [
        " увыпIэ",
        -9.889203950513998
      ],
      [
        "уха",
        -9.889371663104583
      ],
      [
        "м щыгъуэ",
        -9.890245905622923
      ],
      [
        "мон",
        -9.890561368040991
      ],
      [
        " Тэрч",
        -9.890580703510473
      ],
      [
        "хущыт",
        -9.890687457214128
      ],
      [
        "ство",
        -9.89088328993913
      ],
      [
        "♦17",
        -9.891284510056355
      ],
      [
        "бз",
        -9.891382863838379
      ],
      [
        "ке",
        -9.892879926386048
      ],
      [
        "м хыхьэ",
        -9.892903272602139
      ],
      [
        " ящыщщ",
        -9.893040341528403
      ],
      [
        "Хъыбар",
        -9.894387670026203
      ],
      [
        ", псалъэм папщIэ",
        -9.895284171070006
      ],
      [
        " хабзэхэр",
        -9.895662164921248
      ],
      [
        " абы щыгъуэм",
        -9.896102554256727
      ],
      [
        " пкъыгъуэ",
        -9.896405382787965
      ],
      [
        "Зэман",
        -9.896465306089787
      ],
      [
        " дэтхэнэ зы",
        -9.89670255278511
      ],
      [
        "про",
        -9.896754735110177
      ],
      [
        " орден",
        -9.89701318269789
      ],
      [
        "бжэ",
        -9.897723061673101
      ],
      [
        "ыр?",
        -9.89813342442925
      ],
      [
        ", по",
        -9.898173488162302
      ],
      [
        " щIалэ цIыкIу",
        -9.898606717741457
      ],
      [
        " къалэр",
        -9.899008273170764
      ],
      [
        " щхьэпэ",
        -9.89956044896376
      ],
      [
        " уафэм",
        -9.899562024599156
      ],
      [
        "ЩIыналъэ",
        -9.900690949762287
      ],
      [
        "ИтIани",
        -9.900848326676886
      ],
      [
        "об",
        -9.900999630349956
      ],
      [
        "ЩIымахуэ",
        -9.901642523495466
      ],
      [
        "хъуэхъу",
        -9.902602006270865
      ],
      [
        " топыр",
        -9.902887770868027
      ],
      [
        " апхуэдизкIэ ",
        -9.903366819236794
      ],
      [
        " къихьа",
        -9.90339665249334
      ],
      [
        " дэкI",
        -9.90358041422931
      ],
      [
        " тенджыз",
        -9.904026833712422
      ],
      [
        " сам",
        -9.904696592917817
      ],
      [
        "Апхуэдиз",
        -9.904934197571988
      ],
      [
        "рихьэлIа",
        -9.90522268962038
      ],
      [
        "Шэрджэс",
        -9.905378390490228
      ],
      [
        "уан",
        -9.90570199501201
      ],
      [
        "дыгъу",
        -9.90617525663529
      ],
      [
        " зэрыхъуар",
        -9.906897806008837
      ],
      [
        " кIуэну",
        -9.906983219712998
      ],
      [
        " шэч",
        -9.907133439549614
      ],
      [
        " дзэпщ",
        -9.907254711347838
      ],
      [
        "гъэунэху",
        -9.907520967569234
      ],
      [
        ", Уи",
        -9.907639022324947
      ],
      [
        ", илъэс",
        -9.9076765196021
      ],
      [
        "кIащ.",
        -9.90808115234201
      ],
      [
        "мкIэ ",
        -9.908327429513186
      ],
      [
        " щыгъуэ",
        -9.908529379715109
      ],
      [
        "мыхъу",
        -9.90880136495645
      ],
      [
        "лъэт",
        -9.908897551757807
      ],
      [
        "гъэувэ",
        -9.90920529842882
      ],
      [
        "дэт",
        -9.90940230698388
      ],
      [
        "щIащ.",
        -9.910295113689337
      ],
      [
        " емы",
        -9.91034977137568
      ],
      [
        " щып",
        -9.910706381941544
      ],
      [
        " тепсэлъыхьащ",
        -9.910776985742691
      ],
      [
        " США-м",
        -9.910817791904647
      ],
      [
        "Сэри",
        -9.910867286989035
      ],
      [
        " фIыуэ ",
        -9.911379858754682
      ],
      [
        " уэрамым",
        -9.911769840806134
      ],
      [
        "нэхъ",
        -9.91196238465675
      ],
      [
        "щIэупщIэ",
        -9.912011745641202
      ],
      [
        " пхуэ",
        -9.912251816506835
      ],
      [
        " гъатхэ",
        -9.912360312573153
      ],
      [
        " щIэин",
        -9.912582935433147
      ],
      [
        " хасэ",
        -9.912976796882225
      ],
      [
        "тепсэлъыхь",
        -9.913209588760752
      ],
      [
        " япэщIыкIэ",
        -9.913344259753131
      ],
      [
        "жьей",
        -9.913469868182933
      ],
      [
        " уIэгъэ",
        -9.914262195313793
      ],
      [
        "жар",
        -9.914372540052057
      ],
      [
        " шхын",
        -9.914612815508054
      ],
      [
        " къэкIуа",
        -9.91474783769075
      ],
      [
        " щхьэкIэ жыпIэмэ",
        -9.914787800105588
      ],
      [
        " «С",
        -9.915301545530268
      ],
      [
        " кавказ",
        -9.916030743601478
      ],
      [
        " («",
        -9.916151424243626
      ],
      [
        " Хъуэжэ",
        -9.91638196293047
      ],
      [
        "ХьэщIэ",
        -9.916524029119344
      ],
      [
        " гуэдзэным",
        -9.916527877924967
      ],
      [
        "Фы",
        -9.91689407861017
      ],
      [
        " Лъэпкъ",
        -9.917640750997162
      ],
      [
        "ЩI",
        -9.917894697384279
      ],
      [
        "хьу",
        -9.918645157849916
      ],
      [
        "хэрщ.",
        -9.918875812437989
      ],
      [
        "зэра",
        -9.918946846232657
      ],
      [
        "- Мы",
        -9.918971134772477
      ],
      [
        " Светланэ",
        -9.919915591893297
      ],
      [
        " гукъеуэ",
        -9.920080914452216
      ],
      [
        " сэри",
        -9.920486941172989
      ],
      [
        ", псом хуэмыдэу",
        -9.9205820470512
      ],
      [
        " илъагъу",
        -9.920614051359514
      ],
      [
        "став",
        -9.920984350290855
      ],
      [
        ", на",
        -9.921173778157009
      ],
      [
        "зых",
        -9.921223533404572
      ],
      [
        "ейм",
        -9.921276684680503
      ],
      [
        "ыу щыта",
        -9.921620323375862
      ],
      [
        " хъыбархэр",
        -9.921837553194422
      ],
      [
        "фар",
        -9.921882257633177
      ],
      [
        " щыд",
        -9.92232696375541
      ],
      [
        " щыпсэухэм",
        -9.922608043253998
      ],
      [
        "пэлъэщ",
        -9.923037205284333
      ],
      [
        " жан",
        -9.92369905594013
      ],
      [
        "къэ?",
        -9.923752223426664
      ],
      [
        " бэнэкIэ хуитым",
        -9.923798803544367
      ],
      [
        " зыIэригъэхьащ",
        -9.923800097836331
      ],
      [
        " хуиту",
        -9.924352435914226
      ],
      [
        "d",
        -9.925759092584201
      ],
      [
        "Ещанэ",
        -9.925863561114973
      ],
      [
        " щыхьэт",
        -9.926063580341285
      ],
      [
        " къызэрыс",
        -9.926430717728438
      ],
      [
        "m",
        -9.926954478765344
      ],
      [
        "эрым и",
        -9.92712556334025
      ],
      [
        "у ар",
        -9.927392223841798
      ],
      [
        "ыгъ",
        -9.927398368765047
      ],
      [
        "Дуней псом",
        -9.92782621919149
      ],
      [
        " дахэм",
        -9.928262745326109
      ],
      [
        " къэралхэм",
        -9.928406116798195
      ],
      [
        "гъэтIылъ",
        -9.929042231614991
      ],
      [
        " IэдакъэщIэкIхэр",
        -9.929235445788947
      ],
      [
        " унагъуэр",
        -9.929482767254587
      ],
      [
        "ыж.",
        -9.929670458473126
      ],
      [
        " икIи ар",
        -9.929731140378838
      ],
      [
        " Ищхъэрэ",
        -9.92974121225641
      ],
      [
        "щта",
        -9.929859741365906
      ],
      [
        " №",
        -9.930406288277274
      ],
      [
        " это",
        -9.930527152079222
      ],
      [
        " гъащIэм и",
        -9.930823040943016
      ],
      [
        " Iыхьэр",
        -9.931659126509853
      ],
      [
        "ипщI",
        -9.932195460141807
      ],
      [
        "гъажьэ",
        -9.932222797497896
      ],
      [
        " плъагъу",
        -9.93269629027509
      ],
      [
        " Анатолэ",
        -9.932787935649323
      ],
      [
        "се",
        -9.93304192730079
      ],
      [
        "h",
        -9.933108293077243
      ],
      [
        "ХьэтIохъущыкъуей",
        -9.933168517027454
      ],
      [
        " 14",
        -9.934078494175921
      ],
      [
        " IуэрыIуатэм",
        -9.93415001477946
      ],
      [
        " нысэ",
        -9.93431369514204
      ],
      [
        "нкIэ",
        -9.934413892133875
      ],
      [
        " къэпщытэныгъэ",
        -9.934727795601837
      ],
      [
        " дамэ",
        -9.935091558808534
      ],
      [
        "ост",
        -9.93562011004486
      ],
      [
        "ри и",
        -9.935992948939958
      ],
      [
        " щыхъуа",
        -9.93628337489535
      ],
      [
        "шхуэхэр",
        -9.93629111378329
      ],
      [
        "хын",
        -9.936320589835752
      ],
      [
        ", шы",
        -9.936607355504345
      ],
      [
        " саугъэтыр",
        -9.937145374324214
      ],
      [
        " Азэмэт",
        -9.93743456703853
      ],
      [
        "ЦIыхум",
        -9.937929863638537
      ],
      [
        " адэкIи",
        -9.93884025096545
      ],
      [
        " пщIантIэ",
        -9.938879331744452
      ],
      [
        " а лъэхъэнэм",
        -9.938979273198429
      ],
      [
        "Иужьрей",
        -9.939123854499178
      ],
      [
        "гъэщIагъуэ",
        -9.939355235540923
      ],
      [
        " Ле",
        -9.939757051857905
      ],
      [
        " IэщIагъэлIхэм",
        -9.939775618025148
      ],
      [
        " Маринэ",
        -9.939938684829599
      ],
      [
        " насыпыфIэ",
        -9.940018018340389
      ],
      [
        " рас",
        -9.940272093463044
      ],
      [
        "4-рэ",
        -9.940690293177507
      ],
      [
        " ехъулIэныгъэхэр",
        -9.940901439118635
      ],
      [
        "укIа",
        -9.941504528106638
      ],
      [
        "щ: ",
        -9.941583009396915
      ],
      [
        "м -",
        -9.941707857962186
      ],
      [
        "ыкIа",
        -9.941977987704618
      ],
      [
        "ыпэ",
        -9.942104290688558
      ],
      [
        " не ",
        -9.942286507657311
      ],
      [
        " дэфтэр",
        -9.942394119808565
      ],
      [
        "мир",
        -9.942789722840736
      ],
      [
        "Абы иужькIэ",
        -9.942876634443905
      ],
      [
        " Iэтащхьэм",
        -9.943061913918562
      ],
      [
        " 200",
        -9.943542652832662
      ],
      [
        "амкIэ,",
        -9.943562545500326
      ],
      [
        "Жыг",
        -9.943780780548842
      ],
      [
        " пре",
        -9.94432366692292
      ],
      [
        " Юрий",
        -9.944417219111022
      ],
      [
        " мыр",
        -9.944695265473186
      ],
      [
        " гъэхэм",
        -9.944915856967521
      ],
      [
        " Те",
        -9.944999464583073
      ],
      [
        "гра",
        -9.945562632760147
      ],
      [
        "щІа",
        -9.945739109287713
      ],
      [
        "ши",
        -9.945886734534614
      ],
      [
        " гъунапкъэ",
        -9.945959671465037
      ],
      [
        "ве",
        -9.946036590344509
      ],
      [
        " фIыкIэ",
        -9.946447801929022
      ],
      [
        "лъагъуэ",
        -9.946732589243496
      ],
      [
        "» (урысыбзэкIэ)",
        -9.946749076544847
      ],
      [
        "гъэгъу",
        -9.946995936666728
      ],
      [
        " Исмэхьил",
        -9.947022611274667
      ],
      [
        "кIуэну",
        -9.947276924581473
      ],
      [
        " зэхьэзэхуэм и",
        -9.947497100433367
      ],
      [
        "хуэзэ",
        -9.947589283915217
      ],
      [
        " муслъымэн",
        -9.94808953498169
      ],
      [
        "а?",
        -9.948180357402318
      ],
      [
        "ович",
        -9.949099282589293
      ],
      [
        " хьэл-щэн",
        -9.949573663454007
      ],
      [
        "жей",
        -9.950131621357995
      ],
      [
        " хьэкъ",
        -9.950200308964126
      ],
      [
        "лъэпкъ",
        -9.950224938795923
      ],
      [
        "А псори",
        -9.950807926211137
      ],
      [
        " Алыхьым",
        -9.950965237359629
      ],
      [
        "ется",
        -9.951177342254061
      ],
      [
        " къежьапIэ",
        -9.951246866961505
      ],
      [
        " къыхэкI",
        -9.951903373428376
      ],
      [
        " хъыджэбзыр",
        -9.952315932398678
      ],
      [
        " къригъэ",
        -9.952970887062612
      ],
      [
        "k",
        -9.9529764236687
      ],
      [
        "уда",
        -9.953046764215548
      ],
      [
        " арат.",
        -9.953576614040259
      ],
      [
        " щымыIэ",
        -9.953749455303738
      ],
      [
        " и къалэн",
        -9.953824376784675
      ],
      [
        " бзу",
        -9.954006352112932
      ],
      [
        "мал",
        -9.954098427206324
      ],
      [
        " зэрымы",
        -9.954712515272119
      ],
      [
        " нарт",
        -9.95512737438572
      ],
      [
        "дунейпсо чемпион",
        -9.955261924269081
      ],
      [
        "жьа",
        -9.956087797002958
      ],
      [
        " премьер-лигэм",
        -9.95614275037148
      ],
      [
        " франджы",
        -9.956333811809916
      ],
      [
        " зэрыс",
        -9.956510807448367
      ],
      [
        " къэна",
        -9.956550158524923
      ],
      [
        "26",
        -9.956604443370411
      ],
      [
        "ув",
        -9.956676016698578
      ],
      [
        " тепщэ",
        -9.956879319439148
      ],
      [
        " адыгэм",
        -9.957412138645125
      ],
      [
        " щIэблэ",
        -9.957514199698505
      ],
      [
        "нес",
        -9.9577125993229
      ],
      [
        " къызэхуэсахэм",
        -9.958038973228147
      ],
      [
        "ств",
        -9.95831010155226
      ],
      [
        "тэдж",
        -9.958853519262497
      ],
      [
        " «Б",
        -9.95888919237223
      ],
      [
        "1-рэ",
        -9.958898234577418
      ],
      [
        " ты",
        -9.960072905692249
      ],
      [
        " кхъухьлъатэ",
        -9.960203754824095
      ],
      [
        " мардэ",
        -9.960252680673403
      ],
      [
        "Тыркум",
        -9.96057166588054
      ],
      [
        "унэтI",
        -9.961051133197792
      ],
      [
        " иIыгъ",
        -9.961880050458811
      ],
      [
        " къыдо",
        -9.96194950150903
      ],
      [
        "щ).",
        -9.962390245221044
      ],
      [
        "ынщ.",
        -9.962480545236357
      ],
      [
        " дагъэ",
        -9.962672204631211
      ],
      [
        "ях",
        -9.962903795632185
      ],
      [
        "щIауэ",
        -9.962983275010107
      ],
      [
        "Псоми",
        -9.963780423963621
      ],
      [
        " зэхьэзэхуэр",
        -9.963824928826597
      ],
      [
        "Дауи",
        -9.964026058871841
      ],
      [
        " къыхи",
        -9.964058375973995
      ],
      [
        "ыл",
        -9.964180451761084
      ],
      [
        " ди къэралым и",
        -9.964766696859297
      ],
      [
        " и цIэкIэ",
        -9.965747146967392
      ],
      [
        " Андрей",
        -9.965785267366854
      ],
      [
        " гуэри",
        -9.965866414766062
      ],
      [
        "ыкIэ",
        -9.965899449818554
      ],
      [
        "Урысей",
        -9.966067042824342
      ],
      [
        " ящIащ",
        -9.96620776078855
      ],
      [
        "гъэхъуж",
        -9.966336728634108
      ],
      [
        "ыныгъэ",
        -9.966787242642557
      ],
      [
        " егупсыс",
        -9.96684142660234
      ],
      [
        "лъагъур",
        -9.96688174889655
      ],
      [
        "ыншэ",
        -9.966930603606944
      ],
      [
        "Хэ",
        -9.967461228293548
      ],
      [
        "Хъу",
        -9.967562871755417
      ],
      [
        " тIу",
        -9.967613512702547
      ],
      [
        " щIыналъэр",
        -9.967984119236057
      ],
      [
        "щIыгъу",
        -9.968034430777477
      ],
      [
        "нар",
        -9.968056645987309
      ],
      [
        " адыгэбзэм",
        -9.968359807012714
      ],
      [
        "щыгуфIыкI",
        -9.968375303670708
      ],
      [
        " егъэлеяуэ",
        -9.968898254814171
      ],
      [
        "хьыж",
        -9.968967468821921
      ],
      [
        " До",
        -9.969088992770732
      ],
      [
        " пред",
        -9.969238756406181
      ],
      [
        "атор",
        -9.969476798259503
      ],
      [
        "у, я",
        -9.969715100905276
      ],
      [
        "вод",
        -9.96974136994675
      ],
      [
        "пе",
        -9.97016693839242
      ],
      [
        " и пэ",
        -9.970207093804753
      ],
      [
        "Къэралым и",
        -9.970496232264889
      ],
      [
        " ящIэ",
        -9.970864192424227
      ],
      [
        " псор",
        -9.970879833432068
      ],
      [
        "аз",
        -9.970926393675288
      ],
      [
        " «В",
        -9.970949255027367
      ],
      [
        " къаху",
        -9.971056639168353
      ],
      [
        "ас",
        -9.97124124129849
      ],
      [
        "ищым",
        -9.971263627765005
      ],
      [
        " хэтхэм",
[...]
