{
  "version": "1.0",
  "truncation": null,
  "padding": null,
  "added_tokens": [
    {
      "id": 0,
      "content": "[PAD]",
      "single_word": false,
      "lstrip": false,
      "rstrip": false,
      "normalized": false,
      "special": true
    },
    {
      "id": 1,
      "content": "[UNK]",
      "single_word": false,
      "lstrip": false,
      "rstrip": false,
      "normalized": false,
      "special": true
    },
    {
      "id": 2,
      "content": "[CLS]",
      "single_word": false,
      "lstrip": false,
      "rstrip": false,
      "normalized": false,
      "special": true
    },
    {
      "id": 3,
      "content": "[SEP]",
      "single_word": false,
      "lstrip": false,
      "rstrip": false,
      "normalized": false,
      "special": true
    },
    {
      "id": 4,
      "content": "[MASK]",
      "single_word": false,
      "lstrip": false,
      "rstrip": false,
      "normalized": false,
      "special": true
    },
    {
      "id": 5,
      "content": "жь",
      "single_word": false,
      "lstrip": false,
      "rstrip": false,
      "normalized": true,
      "special": false
    },
    {
      "id": 6,
      "content": "ку",
      "single_word": false,
      "lstrip": false,
      "rstrip": false,
      "normalized": true,
      "special": false
    },
    {
      "id": 7,
      "content": "кӀ",
      "single_word": false,
      "lstrip": false,
      "rstrip": false,
      "normalized": true,
      "special": false
    },
    {
      "id": 8,
      "content": "кIу",
      "single_word": false,
      "lstrip": false,
      "rstrip": false,
      "normalized": true,
      "special": false
    },
    {
      "id": 9,
      "content": "къ",
      "single_word": false,
      "lstrip": false,
      "rstrip": false,
      "normalized": true,
      "special": false
    },
    {
      "id": 10,
      "content": "къу",
      "single_word": false,
      "lstrip": false,
      "rstrip": false,
      "normalized": true,
      "special": false
    },
    {
      "id": 11,
      "content": "кхъ",
      "single_word": false,
      "lstrip": false,
      "rstrip": false,
      "normalized": true,
      "special": false
    },
    {
      "id": 12,
      "content": "кхъу",
      "single_word": false,
      "lstrip": false,
      "rstrip": false,
      "normalized": true,
      "special": false
    },
    {
      "id": 13,
      "content": "лъ",
      "single_word": false,
      "lstrip": false,
      "rstrip": false,
      "normalized": true,
      "special": false
    },
    {
      "id": 14,
      "content": "лI",
      "single_word": false,
      "lstrip": false,
      "rstrip": false,
      "normalized": true,
      "special": false
    },
    {
      "id": 15,
      "content": "пI",
      "single_word": false,
      "lstrip": false,
      "rstrip": false,
      "normalized": true,
      "special": false
    },
    {
      "id": 16,
      "content": "тI",
      "single_word": false,
      "lstrip": false,
      "rstrip": false,
      "normalized": true,
      "special": false
    },
    {
      "id": 17,
      "content": "фI",
      "single_word": false,
      "lstrip": false,
      "rstrip": false,
      "normalized": true,
      "special": false
    },
    {
      "id": 18,
      "content": "ху",
      "single_word": false,
      "lstrip": false,
      "rstrip": false,
      "normalized": true,
      "special": false
    },
    {
      "id": 19,
      "content": "хь",
      "single_word": false,
      "lstrip": false,
      "rstrip": false,
      "normalized": true,
      "special": false
    },
    {
      "id": 20,
      "content": "хъ",
      "single_word": false,
      "lstrip": false,
      "rstrip": false,
      "normalized": true,
      "special": false
    },
    {
      "id": 21,
      "content": "хъу",
      "single_word": false,
      "lstrip": false,
      "rstrip": false,
      "normalized": true,
      "special": false
    },
    {
      "id": 22,
      "content": "цI",
      "single_word": false,
      "lstrip": false,
      "rstrip": false,
      "normalized": true,
      "special": false
    },
    {
      "id": 23,
      "content": "щI",
      "single_word": false,
      "lstrip": false,
      "rstrip": false,
      "normalized": true,
      "special": false
    },
    {
      "id": 24,
      "content": "Ӏу",
      "single_word": false,
      "lstrip": false,
      "rstrip": false,
      "normalized": true,
      "special": false
    },
    {
      "id": 25,
      "content": "хуэ",
      "single_word": false,
      "lstrip": false,
      "rstrip": false,
      "normalized": true,
      "special": false
    }
  ],
  "normalizer": null,
  "pre_tokenizer": {
    "type": "Whitespace"
  },
  "post_processor": null,
  "decoder": null,
  "model": {
    "type": "BPE",
    "dropout": null,
    "unk_token": null,
    "continuing_subword_prefix": null,
    "end_of_word_suffix": null,
    "fuse_unk": false,
    "byte_fallback": false,
    "vocab": {
      "[PAD]": 0,
      "[UNK]": 1,
      "[CLS]": 2,
      "[SEP]": 3,
      "[MASK]": 4,
      "!": 5,
      "(": 6,
      ")": 7,
      "*": 8,
      ",": 9,
      "-": 10,
      ".": 11,
      "0": 12,
      "1": 13,
      "2": 14,
      "3": 15,
      "4": 16,
      "5": 17,
      "6": 18,
      "7": 19,
      "8": 20,
      "9": 21,
      ":": 22,
      ";": 23,
      "?": 24,
      "I": 25,
      "i": 26,
      "«": 27,
      "»": 28,
      "×": 29,
      "Ё": 30,
      "А": 31,
      "Б": 32,
      "В": 33,
      "Г": 34,
      "Д": 35,
      "Е": 36,
      "Ж": 37,
      "З": 38,
      "И": 39,
      "Й": 40,
      "К": 41,
      "Л": 42,
      "М": 43,
      "Н": 44,
      "О": 45,
      "П": 46,
      "Р": 47,
      "С": 48,
      "Т": 49,
      "У": 50,
      "Ф": 51,
      "Х": 52,
      "Ц": 53,
      "Ч": 54,
      "Ш": 55,
      "Щ": 56,
      "Ъ": 57,
      "Ы": 58,
      "Ь": 59,
      "Э": 60,
      "Ю": 61,
      "Я": 62,
      "а": 63,
      "б": 64,
      "в": 65,
      "г": 66,
      "д": 67,
      "е": 68,
      "ж": 69,
      "з": 70,
      "и": 71,
      "й": 72,
      "к": 73,
      "л": 74,
      "м": 75,
      "н": 76,
      "о": 77,
      "п": 78,
      "р": 79,
      "с": 80,
      "т": 81,
      "у": 82,
      "ф": 83,
      "х": 84,
      "ц": 85,
      "ч": 86,
      "ш": 87,
      "щ": 88,
      "ъ": 89,
      "ы": 90,
      "ь": 91,
      "э": 92,
      "ю": 93,
      "я": 94,
      "ё": 95,
      "–": 96,
      "…": 97,
      "№": 98,
      "уэ": 99,
      "Iэ": 100,
      "къ": 101,
      "гъ": 102,
      "эр": 103,
      "эм": 104,
      "ым": 105,
      "лъ": 106,
      "кI": 107,
      "хь": 108,
      "хъ": 109,
      "гъэ": 110,
      "ащ": 111,
      "ху": 112,
      "щI": 113,
      "къы": 114,
      "ыр": 115,
      "зэ": 116,
      "нэ": 117,
      "кIэ": 118,
      "щы": 119,
      "хуэ": 120,
      "хьэ": 121,
      "зы": 122,
      "гу": 123,
      "щIэ": 124,
      "дэ": 125,
      "ри": 126,
      "жь": 127,
      "ар": 128,
      "хэм": 129,
      "Iы": 130,
      "пс": 131,
      "ын": 132,
      "рэ": 133,
      "мы": 134,
      "хъу": 135,
      "гъу": 136,
      "ей": 137,
      "зэр": 138,
      "хэ": 139,
      "гъуэ": 140,
      "лъэ": 141,
      "хэр": 142,
      "къым": 143,
      "дж": 144,
      "аб": 145,
      "ды": 146,
      "ауэ": 147,
      "сы": 148,
      "кIуэ": 149,
      "те": 150,
      "ат": 151,
      "ан": 152,
      "мэ": 153,
      "ал": 154,
      "къэ": 155,
      "ап": 156,
      "Iу": 157,
      "ди": 158,
      "зэры": 159,
      "ур": 160,
      "сэ": 161,
      "къуэ": 162,
      "ми": 163,
      "си": 164,
      "щIы": 165,
      "цIы": 166,
      "ну": 167,
      "хы": 168,
      "ны": 169,
      "щхьэ": 170,
      "эу": 171,
      "абы": 172,
      "къу": 173,
      "кIу": 174,
      "Iуэ": 175,
      "жы": 176,
      "фIэ": 177,
      "нэхъ": 178,
      "Къ": 179,
      "тэ": 180,
      "пэ": 181,
      "ам": 182,
      "бы": 183,
      "лъа": 184,
      "ит": 185,
      "хуэдэ": 186,
      "лэ": 187,
      "ун": 188,
      "ры": 189,
      "ащIэ": 190,
      "кIы": 191,
      "лъы": 192,
      "зи": 193,
      "къи": 194,
      "да": 195,
      "пIэ": 196,
      "ра": 197,
      "щэ": 198,
      "ыну": 199,
      "гуэ": 200,
      "де": 201,
      "уи": 202,
      "джэ": 203,
      "ма": 204,
      "акIуэ": 205,
      "шэ": 206,
      "ст": 207,
      "цIыху": 208,
      "щыт": 209,
      "эри": 210,
      "хъуэ": 211,
      "хьэм": 212,
      "гъэм": 213,
      "агъэ": 214,
      "жи": 215,
      "жа": 216,
      "бэ": 217,
      "жьэ": 218,
      "зэм": 219,
      "ий": 220,
      "за": 221,
      "Ар": 222,
      "гуэр": 223,
      "ужь": 224,
      "фI": 225,
      "зым": 226,
      "ку": 227,
      "фэ": 228,
      "шы": 229,
      "зыр": 230,
      "щи": 231,
      "дыг": 232,
      "Хь": 233,
      "тIэ": 234,
      "урэ": 235,
      "къе": 236,
      "Iа": 237,
      "щIа": 238,
      "фIы": 239,
      "шхуэ": 240,
      "къа": 241,
      "кIи": 242,
      "Iуэху": 243,
      "жэ": 244,
      "псы": 245,
      "ли": 246,
      "хуей": 247,
      "лъагъу": 248,
      "ыт": 249,
      "ха": 250,
      "Iэр": 251,
      "эрэ": 252,
      "псо": 253,
      "ре": 254,
      "дыгэ": 255,
      "хэт": 256,
      "Iэм": 257,
      "Абы": 258,
      "игъэ": 259,
      "тхы": 260,
      "джы": 261,
      "куэ": 262,
      "кIа": 263,
      "плъ": 264,
      "ад": 265,
      "ты": 266,
      "ро": 267,
      "пса": 268,
      "деж": 269,
      "ув": 270,
      "Iэу": 271,
      "алэ": 272,
      "Хьэ": 273,
      "псэ": 274,
      "бгъэ": 275,
      "ти": 276,
      "тэкъым": 277,
      "нэхъы": 278,
      "хуэдэу": 279,
      "ейм": 280,
      "лы": 281,
      "ымы": 282,
      "лъэп": 283,
      "сыт": 284,
      "на": 285,
      "лI": 286,
      "гъэр": 287,
      "жащ": 288,
      "хьэр": 289,
      "къыщы": 290,
      "ла": 291,
      "пы": 292,
      "эмы": 293,
      "со": 294,
      "ет": 295,
      "куэд": 296,
      "ин": 297,
      "жу": 298,
      "гъащIэ": 299,
      "пщ": 300,
      "хуи": 301,
      "адыгэ": 302,
      "цIыкIу": 303,
      "гъа": 304,
      "жьы": 305,
      "Сэ": 306,
      "лIы": 307,
      "хуа": 308,
      "хъы": 309,
      "щхьэкIэ": 310,
      "итI": 311,
      "ор": 312,
      "Си": 313,
      "ус": 314,
      "жын": 315,
      "пщI": 316,
      "ер": 317,
      "дун": 318,
      "Ауэ": 319,
      "анэ": 320,
      "лIэ": 321,
      "Мы": 322,
      "псэу": 323,
      "къо": 324,
      "до": 325,
      "ырт": 326,
      "тIы": 327,
      "гум": 328,
      "ту": 329,
      "пщIэ": 330,
      "дзэ": 331,
      "Iащ": 332,
      "»,": 333,
      "гуры": 334,
      "же": 335,
      "ири": 336,
      "са": 337,
      "ко": 338,
      "дей": 339,
      "дз": 340,
      "зэри": 341,
      "щIэу": 342,
      "фы": 343,
      "хи": 344,
      "но": 345,
      "къыс": 346,
      "къызэры": 347,
      "щыщ": 348,
      "ен": 349,
      "гъуа": 350,
      "уна": 351,
      "къызэ": 352,
      "ныгъэ": 353,
      "щIи": 354,
      "хэри": 355,
      "згъэ": 356,
      "кIащ": 357,
      "къыщIэ": 358,
      "хъэ": 359,
      "гупсы": 360,
      "щыIэ": 361,
      "зо": 362,
      "Сыт": 363,
      "сым": 364,
      "хъун": 365,
      "эмэ": 366,
      "Къэ": 367,
      "хъуа": 368,
      "бл": 369,
      "цIэ": 370,
      "гъуэм": 371,
      "къэр": 372,
      "рат": 373,
      "зе": 374,
      "бэр": 375,
      "гъуэщI": 376,
      "зыгъэ": 377,
      "илъэ": 378,
      "хъуну": 379,
      "мыгъэ": 380,
      "ныкъуэ": 381,
      "псалъэ": 382,
      "уб": 383,
      "плъэ": 384,
      "хэлъ": 385,
      "дэу": 386,
      "та": 387,
      "щIалэ": 388,
      "по": 389,
      "ныб": 390,
      "кIын": 391,
      "кэ": 392,
      "хэмрэ": 393,
      "къыт": 394,
      "жыр": 395,
      "ным": 396,
      "кIыу": 397,
      "Нэ": 398,
      "Уэ": 399,
      "эры": 400,
      "хьа": 401,
      "тI": 402,
      "апIэ": 403,
      "гур": 404,
      "тыр": 405,
      "дэм": 406,
      "унэ": 407,
      "бзэ": 408,
      "жри": 409,
      "хьащ": 410,
      "щIэр": 411,
      "уа": 412,
      "зауэ": 413,
      "махуэ": 414,
      "пщы": 415,
      "жьым": 416,
      "егъэ": 417,
      "къри": 418,
      "Ма": 419,
      "убы": 420,
      "адэ": 421,
      "ка": 422,
      "ща": 423,
      "Къы": 424,
      "нэгъуэщI": 425,
      "лъэм": 426,
      "Ди": 427,
      "19": 428,
      "плъы": 429,
      "Ап": 430,
      "жыну": 431,
      "Гъ": 432,
      "Зы": 433,
      "ыри": 434,
      "нщ": 435,
      "зэхэ": 436,
      "къуа": 437,
      "рей": 438,
      "лъэпкъ": 439,
      "ис": 440,
      "ащэ": 441,
      "щым": 442,
      "фи": 443,
      "хуэди": 444,
      "хуе": 445,
      "хаб": 446,
      "къыз": 447,
      "ще": 448,
      "закъуэ": 449,
      "щхьэр": 450,
      "пщэ": 451,
      "тх": 452,
      "бз": 453,
      "ем": 454,
      "тым": 455,
      "гъуэр": 456,
      "псори": 457,
      "су": 458,
      "то": 459,
      "блэ": 460,
      "къыдэ": 461,
      "Сы": 462,
      "къып": 463,
      "хэми": 464,
      "ба": 465,
      "пхъу": 466,
      "апэ": 467,
      "що": 468,
      "рт": 469,
      "гугъу": 470,
      "япэ": 471,
      "Iэн": 472,
      "имы": 473,
      "три": 474,
      "ати": 475,
      "ес": 476,
      "Гу": 477,
      "лъху": 478,
      "тхылъ": 479,
      "Уи": 480,
      "арэ": 481,
      "щхь": 482,
      "хуэдиз": 483,
      "эми": 484,
      "къыхэ": 485,
      "зэман": 486,
      "иджы": 487,
      "бг": 488,
      "хъуащ": 489,
      "абыхэм": 490,
      "ль": 491,
      "ахэр": 492,
      "терат": 493,
      "Хъ": 494,
      "рагъэ": 495,
      "мо": 496,
      "па": 497,
      "лэжь": 498,
      "кIэм": 499,
      "сэр": 500,
      "хуэмы": 501,
      "Зэ": 502,
      "къэс": 503,
      "жыпIэ": 504,
      "саб": 505,
      "вэ": 506,
      "тхьэ": 507,
      "шх": 508,
      "ни": 509,
      "умы": 510,
      "щIащ": 511,
      "ныр": 512,
      "кIыр": 513,
      "хьым": 514,
      "зэп": 515,
      "зэфIэ": 516,
      "икIи": 517,
      "зыгуэр": 518,
      "тIу": 519,
      "Ды": 520,
      "дунейм": 521,
      "кум": 522,
      "атэ": 523,
      "гъы": 524,
      "ящыщ": 525,
      "Дэ": 526,
      "илъэс": 527,
      "се": 528,
      "щIын": 529,
      "хэу": 530,
      "тхьэм": 531,
      "тын": 532,
      "лъхьэ": 533,
      "бар": 534,
      "къэрал": 535,
      "аращ": 536,
      "ша": 537,
      "».": 538,
      "..": 539,
      "апхуэдэ": 540,
      "ейр": 541,
      "жьэгъу": 542,
      "анэм": 543,
      "литерат": 544,
      "дгъэ": 545,
      "зыри": 546,
      "Хэ": 547,
      "тащ": 548,
      "бий": 549,
      "ло": 550,
      "уры": 551,
      "антIэ": 552,
      "къыте": 553,
      "Iэри": 554,
      "Iуащ": 555,
      "Мэ": 556,
      "щIал": 557,
      "нур": 558,
      "мыр": 559,
      "хо": 560,
      "нэужь": 561,
      "пап": 562,
      "йо": 563,
      "хащ": 564,
      "жэм": 565,
      "шэр": 566,
      "уэрэ": 567,
      "жьыр": 568,
      "мыхъу": 569,
      "пIэм": 570,
      "гъусэ": 571,
      "езым": 572,
      "къигъэ": 573,
      "иIэ": 574,
      "пащ": 575,
      "щIо": 576,
      "усэ": 577,
      "гъуэгу": 578,
      "къызэр": 579,
      "шын": 580,
      "щымы": 581,
      "сыр": 582,
      "хуэм": 583,
      "бэрдей": 584,
      "хьэл": 585,
      "дэт": 586,
      "гъащIэм": 587,
      "сып": 588,
      "уд": 589,
      "бо": 590,
      "дэр": 591,
      "лъэр": 592,
      "цI": 593,
      "щIым": 594,
      "сэм": 595,
      "усакIуэ": 596,
      "шэу": 597,
      "Адыгэ": 598,
      "кэм": 599,
      "жым": 600,
      "щIу": 601,
      "фIыуэ": 602,
      "ягъэ": 603,
      "къызы": 604,
      "ныбжьэгъу": 605,
      "нэмы": 606,
      "хуащ": 607,
      "теу": 608,
      "пI": 609,
      "папщIэ": 610,
      "кIэр": 611,
      "ригъэ": 612,
      "щызэ": 613,
      "шу": 614,
      "щхьэм": 615,
      "ле": 616,
      "хъыбар": 617,
      "лэжьы": 618,
      "жиIащ": 619,
      "уэр": 620,
      "мащIэ": 621,
      "нал": 622,
      "За": 623,
      "ва": 624,
      "ЦIы": 625,
      "зэу": 626,
      "увы": 627,
      "унафэ": 628,
      "мур": 629,
      "щыта": 630,
      "фэм": 631,
      "Со": 632,
      "гурыIуэ": 633,
      "сын": 634,
      "нэм": 635,
      "емы": 636,
      "джыри": 637,
      "ав": 638,
      "дзы": 639,
      "анэр": 640,
      "губ": 641,
      "жауэ": 642,
      "щIэм": 643,
      "ымрэ": 644,
      "сабий": 645,
      "къыр": 646,
      "кIыну": 647,
      "гъунэ": 648,
      "иужь": 649,
      "хуейщ": 650,
      "дыдэу": 651,
      "хыу": 652,
      "шхуэм": 653,
      "хьы": 654,
      "нт": 655,
      "хъыджэ": 656,
      "тхакIуэ": 657,
      "тет": 658,
      "дыхьэ": 659,
      "убыд": 660,
      "дыдэ": 661,
      "хъур": 662,
      "Лъ": 663,
      "псом": 664,
      "узы": 665,
      "ЦIыху": 666,
      "къалэ": 667,
      "щIауэ": 668,
      "тIыс": 669,
      "едж": 670,
      "нущ": 671,
      "игу": 672,
      "езы": 673,
      "кIыж": 674,
      "щIыр": 675,
      "тхыгъэ": 676,
      "увэ": 677,
      "жыс": 678,
      "нэр": 679,
      "ист": 680,
      "Апхуэдэ": 681,
      "Iэщ": 682,
      "тIэкIу": 683,
      "Iэп": 684,
      "ани": 685,
      "Му": 686,
      "кIри": 687,
      "гуфIэ": 688,
      "хуит": 689,
      "ейуэ": 690,
      "литератур": 691,
      "Iанэ": 692,
      "Ба": 693,
      "гуп": 694,
      "къар": 695,
      "Iэмал": 696,
      "кIэлъы": 697,
      "чэ": 698,
      "слъэ": 699,
      "ныгъэм": 700,
      "зыхуэ": 701,
      "щIыхь": 702,
      "щIэныгъэ": 703,
      "фIэщ": 704,
      "дахэ": 705,
      "гуэрым": 706,
      "рыс": 707,
      "щытащ": 708,
      "апIэм": 709,
      "здэ": 710,
      "псоми": 711,
      "зу": 712,
      "Къэбэрдей": 713,
      "псэр": 714,
      "зэра": 715,
      "хъумэ": 716,
      "сп": 717,
      "убли": 718,
      "кIур": 719,
      "лым": 720,
      "гъуэт": 721,
      "нэс": 722,
      "Пэ": 723,
      "лъэныкъуэ": 724,
      "бгъэдэ": 725,
      "бзэм": 726,
      "еи": 727,
      "мрэ": 728,
      "дауэ": 729,
      "цэ": 730,
      "иджыри": 731,
      "акъым": 732,
      "дуней": 733,
      "цIэр": 734,
      "ств": 735,
      "псалъэм": 736,
      "фIэкIа": 737,
      "макъ": 738,
      "адэм": 739,
      "щыгъуэ": 740,
      "шым": 741,
      "щэху": 742,
      "еплъ": 743,
      "ЩI": 744,
      "каз": 745,
      "кIауэ": 746,
      "хьэзыр": 747,
      "нэхърэ": 748,
      "гъунэгъу": 749,
      "Iуэхур": 750,
      "уэрэд": 751,
      "мурад": 752,
      "Да": 753,
      "рым": 754,
      "Иджы": 755,
      "хэмкIэ": 756,
      "нэху": 757,
      "ахуэ": 758,
      "шыр": 759,
      "тэм": 760,
      "лъэпкъым": 761,
      "усы": 762,
      "мыхьэ": 763,
      "жщ": 764,
      "къудей": 765,
      "лъу": 766,
      "къаб": 767,
      "Зи": 768,
      "хабзэ": 769,
      "Iи": 770,
      "щхъ": 771,
      "тэр": 772,
      "Жь": 773,
      "ещхь": 774,
      "унэм": 775,
      "20": 776,
      "иу": 777,
      "псэм": 778,
      "фэр": 779,
      "?!": 780,
      "итIыр": 781,
      "щIе": 782,
      "Бо": 783,
      "хьэт": 784,
      "хъуар": 785,
      "атIэ": 786,
      "гупсысэ": 787,
      "гъуэу": 788,
      "мэхъу": 789,
      "жэу": 790,
      "ев": 791,
      "арат": 792,
      "Про": 793,
      "гугъэ": 794,
      "ск": 795,
      "ман": 796,
      "шэч": 797,
      "цIыкIум": 798,
      "он": 799,
      "хьэмэ": 800,
      "бгъу": 801,
      "хэмы": 802,
      "пIэрэ": 803,
      ").": 804,
      "ари": 805,
      "лъэIу": 806,
      "апхуэдиз": 807,
      "хьи": 808,
      "гъыр": 809,
      "бзэр": 810,
      "жан": 811,
      "хьыр": 812,
      "нэу": 813,
      "ел": 814,
      "ыны": 815,
      "жэр": 816,
      "фыну": 817,
      "жиIэ": 818,
      "кур": 819,
      "гъым": 820,
      "ащи": 821,
      "хуауэ": 822,
      "насып": 823,
      "аз": 824,
      "дэнэ": 825,
      "кIар": 826,
      "кт": 827,
      "упщI": 828,
      "ши": 829,
      "щIыхьэ": 830,
      "къуэм": 831,
      "щIэгъуэ": 832,
      "урнал": 833,
      "мыIэ": 834,
      "зэрыщыт": 835,
      "кIуа": 836,
      "би": 837,
      "жьэр": 838,
      "лъытэ": 839,
      "хъуауэ": 840,
      "фа": 841,
      "къащ": 842,
      "хын": 843,
      "лъэгъу": 844,
      "щIыпIэ": 845,
      "псым": 846,
      "Нал": 847,
      "пхъэ": 848,
      "литературэм": 849,
      "хуэу": 850,
      "итIым": 851,
      "уе": 852,
      "Тхьэм": 853,
      "апхуэдэу": 854,
      "бжы": 855,
      "зыми": 856,
      "бын": 857,
      "арт": 858,
      "лъаг": 859,
      "езыр": 860,
      "лъкъэр": 861,
      "зэи": 862,
      "щIыкIэ": 863,
      "нобэ": 864,
      "щыгъу": 865,
      "лей": 866,
      "зыте": 867,
      "ду": 868,
      "пэр": 869,
      "гъащIэр": 870,
      "къур": 871,
      "IэщIэ": 872,
      "гуэру": 873,
      "цIыхум": 874,
      "Урыс": 875,
      "къыщи": 876,
      "жьа": 877,
      "Абыхэм": 878,
      "нукъым": 879,
      "адрей": 880,
      "Алы": 881,
      "Прозэ": 882,
      "зэщIэ": 883,
      "сэбэ": 884,
      "бжэ": 885,
      "ги": 886,
      "екIуэ": 887,
      "хьу": 888,
      "Iэт": 889,
      "пэм": 890,
      "къуажэ": 891,
      "жьу": 892,
      "Мо": 893,
      "зэмы": 894,
      "Щы": 895,
      "хъан": 896,
      "нэгу": 897,
      "щащ": 898,
      "Псо": 899,
      "Бэ": 900,
      "псын": 901,
      "алэм": 902,
      "пи": 903,
      "мафIэ": 904,
      "зыб": 905,
      "жэуап": 906,
      "ншэ": 907,
      "дэрэ": 908,
      "сащ": 909,
      "чы": 910,
      "ара": 911,
      "лажьэ": 912,
      "хуаб": 913,
      "джэм": 914,
      "псту": 915,
      "къару": 916,
      "зиIэ": 917,
      "щт": 918,
      "лий": 919,
      "хуейр": 920,
      "къэзы": 921,
      "хъум": 922,
      "ыры": 923,
      "куэдрэ": 924,
      "ея": 925,
      "зэманым": 926,
      "жыг": 927,
      "гугъ": 928,
      "кIуащ": 929,
      "дызэ": 930,
      "къагъэ": 931,
      "сс": 932,
      "джэгу": 933,
      "псэлъы": 934,
      "гуфIы": 935,
      "Жы": 936,
      "Iуэхум": 937,
      "али": 938,
      "гъыу": 939,
      "хри": 940,
      "Тхьэ": 941,
      "хуигъэ": 942,
      "хъыджэбз": 943,
      "ов": 944,
      "джэр": 945,
      "жаIэ": 946,
      "нап": 947,
      "жиIэу": 948,
      "жьэу": 949,
      "хьэн": 950,
      "хуэс": 951,
      "жеIэ": 952,
      "куу": 953,
      "кIым": 954,
      "гъуазэ": 955,
      "журнал": 956,
      "бзы": 957,
      "На": 958,
      "щэн": 959,
      "хуо": 960,
      "щIалэм": 961,
      "щIар": 962,
      "хьэу": 963,
      "эрий": 964,
      "тра": 965,
      "иту": 966,
      "хьэри": 967,
      "ыщ": 968,
      "зэте": 969,
      "зан": 970,
      "къыщIэкIын": 971,
      "пхъ": 972,
      "Дун": 973,
      "псыр": 974,
      "хым": 975,
      "10": 976,
      "),": 977,
      "Щхьэ": 978,
      "Iуа": 979,
      "тэн": 980,
      "цIыкIур": 981,
      "хыр": 982,
      "сыщы": 983,
      "про": 984,
      "лъыр": 985,
      "хьауэ": 986,
      "дин": 987,
      "хауэ": 988,
      "!»": 989,
      "бдеж": 990,
      "схэм": 991,
      "пIа": 992,
      "щхьэгъу": 993,
      "цIэры": 994,
      "сурэ": 995,
      "нэхъыфI": 996,
      "шэм": 997,
      "во": 998,
      "хьын": 999,
      "жыпIэмэ": 1000,
      "мыбы": 1001,
      "ви": 1002,
      "фо": 1003,
      "зыщIэ": 1004,
      "Кав": 1005,
      "ужьы": 1006,
      "акъы": 1007,
      "дзащ": 1008,
      "гъусэу": 1009,
      "жэщ": 1010,
      "сэбэп": 1011,
      "дакъэ": 1012,
      "Хэт": 1013,
      "сэри": 1014,
      "хьэщIэ": 1015,
      "джа": 1016,
      "къуэр": 1017,
      "ира": 1018,
      "кIам": 1019,
      "Куэ": 1020,
      "жьэм": 1021,
      "Мис": 1022,
      "къыхуэ": 1023,
      "зауэм": 1024,
      "цIэрыIуэ": 1025,
      "пэу": 1026,
      "дыдэм": 1027,
      "пащты": 1028,
      "щыIэкъым": 1029,
      "цэм": 1030,
      "жмэ": 1031,
      "щIэн": 1032,
      "зыщы": 1033,
      "кIуэу": 1034,
      "къэкIуэ": 1035,
      "Ахэр": 1036,
      "дэмы": 1037,
      "об": 1038,
      "зэре": 1039,
      "щIыну": 1040,
      "Апхуэдэу": 1041,
      "ире": 1042,
      "фын": 1043,
      "къуажэм": 1044,
      "жынщ": 1045,
      "ЛIы": 1046,
      "щIагъэ": 1047,
      "хузэфIэ": 1048,
      "мкIэ": 1049,
      "пэт": 1050,
      "шхуэр": 1051,
      "пщIы": 1052,
      "иригъэ": 1053,
      "адэр": 1054,
      "атэкъым": 1055,
      "уз": 1056,
      "щыпсэу": 1057,
      "ащэм": 1058,
      "джэн": 1059,
      "ныгъэр": 1060,
      "кIуэд": 1061,
      "дежкIэ": 1062,
      "сигу": 1063,
      "хэщ": 1064,
      "лъаб": 1065,
      "гъэхэм": 1066,
      "хуагъэ": 1067,
      "дэтхэ": 1068,
      "защIэ": 1069,
      "Шэ": 1070,
      "Iыгъ": 1071,
      "бзэкIэ": 1072,
      "гъэщIэгъуэ": 1073,
      "15": 1074,
      "лъыт": 1075,
      "къызэри": 1076,
      "дза": 1077,
      "зэхи": 1078,
      "Лъэ": 1079,
      "жырт": 1080,
      "пе": 1081,
      "пщIантIэ": 1082,
      "АрщхьэкIэ": 1083,
      "Iэпы": 1084,
      "жар": 1085,
      "ыным": 1086,
      "сэн": 1087,
      "псалъэр": 1088,
      "аргуэру": 1089,
      "дамэ": 1090,
      "махуэм": 1091,
      "дзэм": 1092,
      "пхъуэ": 1093,
      "щагъэ": 1094,
      "Балъкъэр": 1095,
      "щIэгъу": 1096,
      "Iэры": 1097,
      "слъэн": 1098,
      "ахъ": 1099,
      "Илъэ": 1100,
      "мин": 1101,
      "хъунущ": 1102,
      "лъэхъэ": 1103,
      "рис": 1104,
      "дрей": 1105,
      "къра": 1106,
      "кIэры": 1107,
      "Псы": 1108,
      "жагъуэ": 1109,
      "къыща": 1110,
      "гуащIэ": 1111,
      "сат": 1112,
      "Къа": 1113,
      "лъагъуэ": 1114,
      "арэзы": 1115,
      "?»": 1116,
      "щу": 1117,
      "Ан": 1118,
      "жьащ": 1119,
      "пкъ": 1120,
      "лъагъур": 1121,
      "благъэ": 1122,
      "лъан": 1123,
      "адыгэхэм": 1124,
      "вгъэ": 1125,
      "даIуэ": 1126,
      "цIыхубз": 1127,
      "Хьэуэ": 1128,
      "хэс": 1129,
      "хуейуэ": 1130,
      "фащэ": 1131,
      "яхуэ": 1132,
      "гъуэты": 1133,
      "бэч": 1134,
      "жес": 1135,
      "ктор": 1136,
      "щыс": 1137,
      "жыхуа": 1138,
      "жиIэри": 1139,
      "псэху": 1140,
      "зэхуэ": 1141,
      "хьар": 1142,
      "апIэр": 1143,
      "Дж": 1144,
      "гупсыс": 1145,
      "Iуэтэ": 1146,
      "бэм": 1147,
      "Iар": 1148,
      "ест": 1149,
      "шхы": 1150,
      "кIуэкI": 1151,
      "зды": 1152,
      "щIэт": 1153,
      "хабзэм": 1154,
      "ншэу": 1155,
      "кхъу": 1156,
      "абэ": 1157,
      "шыпхъу": 1158,
      "уан": 1159,
      "нэхъыщхьэ": 1160,
      "Що": 1161,
      "унагъуэ": 1162,
      "нкIэ": 1163,
      "Аращ": 1164,
      "IэфI": 1165,
      "иджыпсту": 1166,
      "вет": 1167,
      "темы": 1168,
      "кIий": 1169,
      "гъэу": 1170,
      "лъыхъуэ": 1171,
      "хьэлъэ": 1172,
      "Мухьэмэ": 1173,
      "тхьэмыщ": 1174,
      "яхэт": 1175,
      "лъым": 1176,
      "щыты": 1177,
      "Тыр": 1178,
      "тIо": 1179,
      "фIу": 1180,
      "къан": 1181,
      "щIэркъым": 1182,
      "чи": 1183,
      "цIыхур": 1184,
      "къысхуэ": 1185,
      "кол": 1186,
      "теухуауэ": 1187,
      "ЩIэ": 1188,
      "сымэ": 1189,
      "шына": 1190,
      "Гъуэ": 1191,
      "Жэ": 1192,
      "дэлъху": 1193,
      "лыкъу": 1194,
      "Аслъэн": 1195,
      "акIуэм": 1196,
      "бзым": 1197,
      "узэ": 1198,
      "щыр": 1199,
      "адыг": 1200,
      "14": 1201,
      "дэс": 1202,
      "урыс": 1203,
      "азет": 1204,
      "шхэ": 1205,
      "иужькIэ": 1206,
      "лIа": 1207,
      "щIына": 1208,
      "зымы": 1209,
      "ужькIэ": 1210,
      "!..": 1211,
      "лэт": 1212,
      "зэуэ": 1213,
      "щIыгъу": 1214,
      "жыркъым": 1215,
      "ищIэ": 1216,
      "лIым": 1217,
      "гуап": 1218,
      "сымы": 1219,
      "пIащIэ": 1220,
      "13": 1221,
      "щIри": 1222,
      "мып": 1223,
      "Али": 1224,
      "зри": 1225,
      "хыну": 1226,
      "Iуащхьэм": 1227,
      "12": 1228,
      "еплъы": 1229,
      "жьхэм": 1230,
      "кIуэцI": 1231,
      "тхэ": 1232,
      "гъуэщ": 1233,
      "гуза": 1234,
      "Шы": 1235,
      "еп": 1236,
      "бза": 1237,
      "Iэдакъэ": 1238,
      "?..": 1239,
      "Но": 1240,
      "ком": 1241,
      "Борис": 1242,
      "ирагъэ": 1243,
      "лъщ": 1244,
      "рам": 1245,
      "ухуэ": 1246,
      "алым": 1247,
      "Мухьэмэд": 1248,
      "дзауэ": 1249,
      "лъандэрэ": 1250,
      "шынэ": 1251,
      "акIуэхэм": 1252,
      "Зэры": 1253,
      "ят": 1254,
      "Фы": 1255,
      "сыту": 1256,
      "фащ": 1257,
      "зэIу": 1258,
      "Iэб": 1259,
      "жьауэ": 1260,
      "хъунукъым": 1261,
      "сэу": 1262,
      "кIырт": 1263,
      "змы": 1264,
      "гузэ": 1265,
      "Куэд": 1266,
      "илъэси": 1267,
      "хъунщ": 1268,
      "псэлъэ": 1269,
      "дзэр": 1270,
      "дджы": 1271,
      "ЖьантIэ": 1272,
      "апхъэ": 1273,
      "шык": 1274,
      "пэж": 1275,
      "гъэкIэ": 1276,
      "сри": 1277,
      "дыгъу": 1278,
      "нэщхъ": 1279,
      "окъуэ": 1280,
      "эрт": 1281,
      "Ит": 1282,
      "Пса": 1283,
      "Къу": 1284,
      "нэхъыбэ": 1285,
      "лъэгъуа": 1286,
      "кIыжащ": 1287,
      "Мыр": 1288,
      "газет": 1289,
      "пол": 1290,
      "икэ": 1291,
      "гъащ": 1292,
      "жакъым": 1293,
      "ци": 1294,
      "ямы": 1295,
      "хамэ": 1296,
      "щыгъуи": 1297,
      "Алыхьым": 1298,
      "лъапIэ": 1299,
      "къуэш": 1300,
      "гушы": 1301,
      "щри": 1302,
      "къызо": 1303,
      "зэрыщы": 1304,
      "къэмы": 1305,
      "утIы": 1306,
      "куэдым": 1307,
      "тIа": 1308,
      "щтэ": 1309,
      "щIалэр": 1310,
      "нащ": 1311,
      "ру": 1312,
      "къыще": 1313,
      "цIыхухэм": 1314,
      "хъар": 1315,
      "къригъэ": 1316,
      "хыхьэ": 1317,
      "Iэрт": 1318,
      "Заур": 1319,
      "Те": 1320,
      "ещхьу": 1321,
      "зыбжа": 1322,
      "Iуат": 1323,
      "18": 1324,
      "усакIуэм": 1325,
      "ФIы": 1326,
      "занщIэу": 1327,
      "щыхъу": 1328,
      "хьэлIэ": 1329,
      "пIэр": 1330,
      "пщым": 1331,
      "къулыкъу": 1332,
      "схуэ": 1333,
      "Жан": 1334,
      "лыр": 1335,
      "щIигъэ": 1336,
      "фIи": 1337,
      "лэжьыгъэ": 1338,
      "(«": 1339,
      "щIэну": 1340,
      "жат": 1341,
      "дигъэ": 1342,
      "къап": 1343,
      "лэжьэ": 1344,
      "дунейр": 1345,
      "Налшык": 1346,
      "бгы": 1347,
      "мылъ": 1348,
      "гъур": 1349,
      "мэм": 1350,
      "Тхы": 1351,
      "мыхьэнэ": 1352,
      "алы": 1353,
      "укIы": 1354,
      "зыхэ": 1355,
      "хъуэпс": 1356,
      "Ис": 1357,
      "Ха": 1358,
      "ущы": 1359,
      "тхылъым": 1360,
      "тэмэм": 1361,
      "гушхуэ": 1362,
      "хэрщ": 1363,
      "щигъэ": 1364,
      "жкъым": 1365,
      "хе": 1366,
      "ИтIанэ": 1367,
      "пщIэр": 1368,
      "тету": 1369,
      "щхьэщы": 1370,
      "лIыхъу": 1371,
      "нар": 1372,
      "фIыцIэ": 1373,
      "хуейт": 1374,
      "кIуэну": 1375,
      "ымкIэ": 1376,
      "хъулIэ": 1377,
      "уващ": 1378,
      "шащ": 1379,
      "кIмэ": 1380,
      "Алий": 1381,
      "фIо": 1382,
      "зыбжанэ": 1383,
      "ЩIы": 1384,
      "уты": 1385,
      "хигъэ": 1386,
      "пхуэ": 1387,
      "къэхъу": 1388,
      "щэм": 1389,
      "фу": 1390,
      "щыхьэт": 1391,
      "Ны": 1392,
      "роман": 1393,
      "бжьы": 1394,
      "худо": 1395,
      "гуапэ": 1396,
      "кIыхь": 1397,
      "теухуа": 1398,
      "защ": 1399,
      "уащ": 1400,
      "гъуэхэр": 1401,
      "убликэм": 1402,
      "Сыту": 1403,
      "егъэдж": 1404,
      "Мур": 1405,
      "ед": 1406,
      "къре": 1407,
      "жери": 1408,
      "щхьэусы": 1409,
      "ащIэм": 1410,
      "Саб": 1411,
      "хагъэ": 1412,
      "телъы": 1413,
      "Дауэ": 1414,
      "бжэм": 1415,
      "зэрымы": 1416,
      "кIуэм": 1417,
      "фыр": 1418,
      "пэтми": 1419,
      "лъхуа": 1420,
      "нэхъри": 1421,
      "хуэдэщ": 1422,
      "хуэр": 1423,
      "щIэж": 1424,
      "рэт": 1425,
      "апщэ": 1426,
      "щIэх": 1427,
      "щIэкI": 1428,
      "дым": 1429,
      "лэм": 1430,
      "етIу": 1431,
      "теат": 1432,
      "блэмэ": 1433,
      "хар": 1434,
      "респ": 1435,
      "зригъэ": 1436,
      "Iей": 1437,
      "псор": 1438,
      "гуауэ": 1439,
      "амбо": 1440,
      "къалэм": 1441,
      "тхыдэм": 1442,
      "лъагъуу": 1443,
      "илъ": 1444,
      "аль": 1445,
      "зэрызэ": 1446,
      "пху": 1447,
      "шэрджэ": 1448,
      "цист": 1449,
      "тху": 1450,
      "нэпс": 1451,
      "фызы": 1452,
      "вым": 1453,
      "щхъуэ": 1454,
      "16": 1455,
      "литературэ": 1456,
      "вор": 1457,
      "ом": 1458,
      "хьмэ": 1459,
      "Нэхъ": 1460,
      "Ли": 1461,
      "ублицист": 1462,
      "пцI": 1463,
      "нэры": 1464,
      "упщIэ": 1465,
      "кIуэн": 1466,
      "ут": 1467,
      "лIэужьы": 1468,
      "Iауэ": 1469,
      "КIы": 1470,
      "дыр": 1471,
      "дейм": 1472,
      "зэкIэ": 1473,
      "гъуэхэм": 1474,
      "зигъэ": 1475,
      "жам": 1476,
      "ствен": 1477,
      "хэту": 1478,
      "уэри": 1479,
      "щыгъуазэ": 1480,
      "ури": 1481,
      "къыб": 1482,
      "пщIантIэм": 1483,
      "вы": 1484,
      "хьыну": 1485,
      "хьэлI": 1486,
      "къегъэ": 1487,
      "щIыб": 1488,
      "пэщIэ": 1489,
      "джэу": 1490,
      "сыкъэ": 1491,
      "итIанэ": 1492,
      "мар": 1493,
      "щIат": 1494,
      "къыщIо": 1495,
      "къалэн": 1496,
      "Щоджэн": 1497,
      "тэдж": 1498,
      "дэкIэ": 1499,
      "лъащ": 1500,
      "зэпы": 1501,
      "ник": 1502,
      "ящыщщ": 1503,
      "тер": 1504,
      "Пщы": 1505,
      "Хъы": 1506,
      "ейщ": 1507,
      "мыгъуэ": 1508,
      "ствэм": 1509,
      "къыхи": 1510,
      "зэгъэ": 1511,
      "мэкъу": 1512,
      "льт": 1513,
      "Сэри": 1514,
      "логи": 1515,
      "къыд": 1516,
      "псынщIэу": 1517,
      "имыIэу": 1518,
      "адэкIэ": 1519,
      "щыIэщ": 1520,
      "зэхэс": 1521,
      "арти": 1522,
      "зэригъэ": 1523,
      "дыхьэшх": 1524,
      "дыгъэ": 1525,
      "Дэнэ": 1526,
      "сэрэ": 1527,
      "ух": 1528,
      "тепсэлъы": 1529,
      "дэтхэнэ": 1530,
      "къыу": 1531,
      "хъунур": 1532,
      "Зауэ": 1533,
      "къыфIэ": 1534,
      "жыхуи": 1535,
      "Ин": 1536,
      "лъэгъуащ": 1537,
      "Пэжщ": 1538,
      "дэIэпы": 1539,
      "Шэр": 1540,
      "лэжьакIуэ": 1541,
      "цIэм": 1542,
      "дам": 1543,
      "ейт": 1544,
      "щIигъу": 1545,
      "тIысхьэ": 1546,
      "бэлы": 1547,
      "хукIэ": 1548,
      "дыщэ": 1549,
      "нэхъыб": 1550,
      "хэлъу": 1551,
      "мис": 1552,
      "жаIэу": 1553,
      "тетым": 1554,
      "Зэм": 1555,
      "ек": 1556,
      "тар": 1557,
      "унафэщI": 1558,
      "чес": 1559,
      "хэкум": 1560,
      "жыIэ": 1561,
      "къыхуи": 1562,
      "Аб": 1563,
      "япэу": 1564,
      "кIуэр": 1565,
      "хъуам": 1566,
      "Къэр": 1567,
      "увыIэ": 1568,
      "Илъэс": 1569,
      "Уа": 1570,
      "иро": 1571,
      "лъэгъуэ": 1572,
      "Фи": 1573,
      ".,": 1574,
      "кхъуэ": 1575,
      "лъэпкъыр": 1576,
      "гъуэгум": 1577,
      "пэкIэ": 1578,
      "урысы": 1579,
      "пцIы": 1580,
      "къыщIы": 1581,
      "Нэхъы": 1582,
      "зыху": 1583,
      "джэрий": 1584,
      "лъэныкъуэкIэ": 1585,
      "аным": 1586,
      "бла": 1587,
      "НэгъуэщI": 1588,
      "лъагъум": 1589,
      "Ку": 1590,
      "къыIу": 1591,
      "Кавказ": 1592,
      "дэн": 1593,
      "Iакъым": 1594,
      "Къамбо": 1595,
      "Iам": 1596,
      "сфIэ": 1597,
      "зыкъо": 1598,
      "къыху": 1599,
      "апхуэдизкIэ": 1600,
      "Iуфэм": 1601,
      "До": 1602,
      "Уэр": 1603,
      "бзыр": 1604,
      "закъуэу": 1605,
      "хъуат": 1606,
      "ыныр": 1607,
      "гъэмрэ": 1608,
      "гуэрхэр": 1609,
      "мыхъумэ": 1610,
      "АтIэ": 1611,
      "зыхьэ": 1612,
      "ублицистикэ": 1613,
      "дэри": 1614,
      "фIэкI": 1615,
      "фыз": 1616,
      "ыра": 1617,
      "Iыс": 1618,
      "акIуэр": 1619,
      "сызы": 1620,
      "реда": 1621,
      "къэралым": 1622,
      "чэн": 1623,
      "Iэджэ": 1624,
      "гущIэгъу": 1625,
      "зэхуа": 1626,
      "загъэ": 1627,
      "дагъэ": 1628,
      "къахэ": 1629,
      "нэхъыжь": 1630,
      "фIащ": 1631,
      "зыры": 1632,
      "ир": 1633,
      "Сабий": 1634,
      "НтIэ": 1635,
      "Ро": 1636,
      "пщIа": 1637,
      "нарт": 1638,
      "Гъуэгу": 1639,
      "гурымы": 1640,
      "сурэт": 1641,
      "хыж": 1642,
      "зыщ": 1643,
      "лIэщIы": 1644,
      "пащхьэ": 1645,
      "уIэ": 1646,
      "фэн": 1647,
      "теплъэ": 1648,
      "Хьэм": 1649,
      "хъарзы": 1650,
      "плI": 1651,
      "акIуэу": 1652,
      "Ху": 1653,
      "щып": 1654,
      "кIуэды": 1655,
      "макъыр": 1656,
      "00": 1657,
      "къыщо": 1658,
      "щIэмы": 1659,
      "кIыпIэ": 1660,
      "ТIэ": 1661,
      "ген": 1662,
      "фIа": 1663,
      "пщIэн": 1664,
      "къыдо": 1665,
      "Iыгъыу": 1666,
      "По": 1667,
      "То": 1668,
      "сызэры": 1669,
      "Iэщэ": 1670,
      "хъуу": 1671,
      "щIэс": 1672,
      "дызэры": 1673,
      "уэрам": 1674,
      "Iуащхьэмахуэ": 1675,
      "ежьэ": 1676,
      "зыхи": 1677,
      "мэс": 1678,
      "ува": 1679,
      "лам": 1680,
      "щIам": 1681,
      "щIэдзауэ": 1682,
      "дауи": 1683,
      "псалъэхэр": 1684,
      "дащ": 1685,
      "ящ": 1686,
      "Хьэж": 1687,
      "тен": 1688,
      "лIыжь": 1689,
      "пщыхьэ": 1690,
      "ЩIалэ": 1691,
      "Урысейм": 1692,
      "твор": 1693,
      "кIакъым": 1694,
      "гъкIэ": 1695,
      "мывэ": 1696,
      "СС": 1697,
      "пшы": 1698,
      "хутэ": 1699,
      "жыжьэ": 1700,
      "хуейкъым": 1701,
      "фар": 1702,
      "гъэри": 1703,
      "къызыхэ": 1704,
      "сэрей": 1705,
      "къэралы": 1706,
      "къэбэрдей": 1707,
      "зэт": 1708,
      "Iуэры": 1709,
      "напэ": 1710,
      "рейм": 1711,
      "Къуэ": 1712,
      "абыкIэ": 1713,
      "Джэ": 1714,
      "17": 1715,
      "ститу": 1716,
      "хам": 1717,
      "Алим": 1718,
      "нэкIу": 1719,
      "лъэн": 1720,
      "жынущ": 1721,
      "сатыр": 1722,
      "нум": 1723,
      "сыма": 1724,
      "щIэрт": 1725,
      "гупым": 1726,
      "гъат": 1727,
      "ягу": 1728,
      "ынущ": 1729,
      "цIыхухэр": 1730,
      "хэлъщ": 1731,
      "Шэрджэ": 1732,
      "кс": 1733,
      "яу": 1734,
      "къимы": 1735,
      "зыгуэрым": 1736,
      "гуащэ": 1737,
      "Гуащэ": 1738,
      "дри": 1739,
      "ынщ": 1740,
      "щхьэхуэ": 1741,
      "щIэрэ": 1742,
      "куэдкIэ": 1743,
      "нэгум": 1744,
      "бей": 1745,
      "тIэу": 1746,
      "ныбжь": 1747,
      "Къамбот": 1748,
      "Ус": 1749,
      "пл": 1750,
      "IэщIа": 1751,
      "Iум": 1752,
      "Публицистикэ": 1753,
      "къэп": 1754,
      "Iыхьэ": 1755,
      "фIыщIэ": 1756,
      "ину": 1757,
      "кIэрэ": 1758,
      "зыIу": 1759,
      "зэрагъэ": 1760,
      "лъэхъэнэм": 1761,
      "хьам": 1762,
      "къэна": 1763,
      "кIуар": 1764,
      "бгыры": 1765,
      "Усы": 1766,
      "ащэр": 1767,
      "ырщ": 1768,
      "Iуэу": 1769,
      "хэтщ": 1770,
      "жествен": 1771,
      "мым": 1772,
      "нэщ": 1773,
      "Нобэ": 1774,
      "сте": 1775,
      "къыщIи": 1776,
      "го": 1777,
      "къутэ": 1778,
      "быд": 1779,
      "лъап": 1780,
      "гъэн": 1781,
      "194": 1782,
      "лэжьыгъэм": 1783,
      "бжьэ": 1784,
      "обра": 1785,
      "Тем": 1786,
      "гра": 1787,
      "зауэлI": 1788,
      "жей": 1789,
      "тхьэкIу": 1790,
      "ещ": 1791,
      "жызо": 1792,
      "макIуэ": 1793,
      "Джэрий": 1794,
      "джэщ": 1795,
      "Гъэ": 1796,
      "дыдэр": 1797,
      "къамэ": 1798,
      "блэм": 1799,
      "джи": 1800,
      "КIыщо": 1801,
      "еуэ": 1802,
      "гъауэ": 1803,
      "щIэхэр": 1804,
      "кIуауэ": 1805,
      "зэран": 1806,
      "лъэщ": 1807,
      "джыр": 1808,
      "хьэры": 1809,
      "къэзыгъэ": 1810,
      "ческэ": 1811,
      "еджэ": 1812,
      "унагъуэм": 1813,
      "Псори": 1814,
      "гузэвэ": 1815,
      "иным": 1816,
      "Мари": 1817,
      "абдеж": 1818,
      "ков": 1819,
      "ии": 1820,
      "Къар": 1821,
      "щIагъуэ": 1822,
      "хуабжьу": 1823,
      "пщэдджы": 1824,
      "плъа": 1825,
      "щэр": 1826,
      "къуан": 1827,
      "нат": 1828,
      "Япэ": 1829,
      "акъыл": 1830,
      "бзи": 1831,
      "хьэлэ": 1832,
      "нут": 1833,
      "щхьэц": 1834,
      "вер": 1835,
      "бжэр": 1836,
      "Ка": 1837,
      "хъурт": 1838,
      "къэт": 1839,
      "Iэдэм": 1840,
      "сыху": 1841,
      "дахэу": 1842,
      "КIу": 1843,
      "Пщэ": 1844,
      "Тх": 1845,
      "рыр": 1846,
      "сху": 1847,
      "че": 1848,
      "къыздэ": 1849,
      "уни": 1850,
      "Iо": 1851,
      "Ел": 1852,
      "зэж": 1853,
      "ИкIи": 1854,
      "КIэ": 1855,
      "быдэ": 1856,
      "художествен": 1857,
      "кIат": 1858,
      "зон": 1859,
      "Мади": 1860,
      "фIым": 1861,
      "нэмыщI": 1862,
      "тауэ": 1863,
      "къит": 1864,
      "дыщы": 1865,
      "кла": 1866,
      "къал": 1867,
      "хьри": 1868,
      "къэу": 1869,
      "пщыкIу": 1870,
      "ищIащ": 1871,
      "Хьэсэн": 1872,
      "Псом": 1873,
      "жиIэр": 1874,
      "ки": 1875,
      "нобэр": 1876,
      "зэпыт": 1877,
      "Iэпкъ": 1878,
      "етIуанэ": 1879,
      "Фэ": 1880,
      "Мурат": 1881,
      "…»": 1882,
      "хуу": 1883,
      "щIэхэм": 1884,
      "арщхьэкIэ": 1885,
      "ЩоджэнцIыкIу": 1886,
      "теле": 1887,
      "хъуэм": 1888,
      "щIэныгъэм": 1889,
      "кэр": 1890,
      "лъагэ": 1891,
      "Кавка": 1892,
      "бу": 1893,
      "узэры": 1894,
      "сыщIэ": 1895,
      "щIэныгъэлI": 1896,
      "Мар": 1897,
      "къуи": 1898,
      "тригъэ": 1899,
      "кIыркъым": 1900,
      "екIу": 1901,
      "гъап": 1902,
      "кIэри": 1903,
      "гужь": 1904,
      "тхыгъэхэм": 1905,
      "лъхьащ": 1906,
      "пхы": 1907,
      "сыпы": 1908,
      "щымыIэу": 1909,
      "хужь": 1910,
      "къэгъэ": 1911,
      "КъБ": 1912,
      "зекIуэ": 1913,
      "тхыгъэхэр": 1914,
      "не": 1915,
      "бзылъху": 1916,
      "Ра": 1917,
      "тырку": 1918,
      "лэжьащ": 1919,
      "Мухьэ": 1920,
      "телъ": 1921,
      "Езы": 1922,
      "Къан": 1923,
      "макъым": 1924,
      "дэIу": 1925,
      "лэхьи": 1926,
      "IэдакъэщIэкI": 1927,
      "уей": 1928,
      "ращ": 1929,
      "кIэлъ": 1930,
      "къыди": 1931,
      "щыгъ": 1932,
      "тхыгъэм": 1933,
      "лIыжьым": 1934,
      "Къэбэр": 1935,
      "рыкъуэ": 1936,
      "Заказ": 1937,
      "къыщ": 1938,
      "хъуакъым": 1939,
      "къыпы": 1940,
      "ащIэр": 1941,
      "хуэмыдэу": 1942,
      "республикэм": 1943,
      "артист": 1944,
      "лъакъуэ": 1945,
      "мэз": 1946,
      "хабзэр": 1947,
      "дзыхь": 1948,
      "щIыгъуу": 1949,
      "Iэты": 1950,
      "щымыт": 1951,
      "Совет": 1952,
      "гуапэу": 1953,
      "КIуэ": 1954,
      "уо": 1955,
      "рити": 1956,
      "щIакъым": 1957,
      "хуащI": 1958,
      "хъуре": 1959,
      "иIэу": 1960,
      "шей": 1961,
      "лIыгъэ": 1962,
      "къытри": 1963,
      "ран": 1964,
      "гъэщIэгъуэн": 1965,
      "жрэ": 1966,
      "мам": 1967,
      "фило": 1968,
      "яIэ": 1969,
      "кIэу": 1970,
      "джащ": 1971,
      "Махуэ": 1972,
      "зэрыт": 1973,
      "къыщIэкIынщ": 1974,
      "Ва": 1975,
      "кхъухь": 1976,
      "лю": 1977,
      "пэщы": 1978,
      "къиу": 1979,
      "пIы": 1980,
      "мыщIэ": 1981,
      "мащIэу": 1982,
      "нэкIэ": 1983,
      "жыла": 1984,
      "ящыщу": 1985,
      "Балъкъэрым": 1986,
      "лъэу": 1987,
      "фIэу": 1988,
      "бийм": 1989,
      "щхьэгъусэ": 1990,
      "плъэу": 1991,
      "иIэщ": 1992,
      "сщIэ": 1993,
      "Бет": 1994,
      "Хуэ": 1995,
      "цер": 1996,
      "хуар": 1997,
      "щытар": 1998,
      "пшэ": 1999,
      "тал": 2000,
      "хэмыт": 2001,
      "хыжащ": 2002,
      "пащтыхьым": 2003,
      "Мадинэ": 2004,
      "фэу": 2005,
      "щапхъэ": 2006,
      "Iуатэ": 2007,
      "цIыкIухэр": 2008,
      "художественнэ": 2009,
      "мыIэу": 2010,
      "дакъи": 2011,
      "уеблэмэ": 2012,
      "къыхо": 2013,
      "зэхэт": 2014,
      "хъуркъым": 2015,
      "щаб": 2016,
      "эн": 2017,
      "200": 2018,
      "Нэху": 2019,
      "ыгъэ": 2020,
      "199": 2021,
      "Лъа": 2022,
      "Адыг": 2023,
      "Тыркум": 2024,
      "Iыхь": 2025,
      "къызэра": 2026,
      "щIапIэ": 2027,
      "щхъу": 2028,
      "мэр": 2029,
      "шэн": 2030,
      "лъхьа": 2031,
      "зыкIи": 2032,
      "илъагъу": 2033,
      "уигу": 2034,
      "къытхуэ": 2035,
      "ато": 2036,
      "гъазэ": 2037,
      "щауэ": 2038,
      "джылы": 2039,
      "195": 2040,
      "Бэч": 2041,
      "щIрэ": 2042,
      "псэкIэ": 2043,
      "шхын": 2044,
      "акъ": 2045,
      "яуэ": 2046,
      "лътI": 2047,
      "гъуэгуры": 2048,
      "кIыжа": 2049,
      "лIащ": 2050,
      "Лэ": 2051,
      "уш": 2052,
      "хэку": 2053,
      "даха": 2054,
      "шэры": 2055,
      "гуа": 2056,
      "мыбдеж": 2057,
      "Мыбы": 2058,
      "гузавэ": 2059,
      "Усыгъэ": 2060,
      "лъи": 2061,
      "текIуэ": 2062,
      "кIыурэ": 2063,
      "Iуэхугъуэ": 2064,
      "бгъэды": 2065,
      "ахъшэ": 2066,
      "удз": 2067,
      "Iэмэ": 2068,
      "къыщIэкIащ": 2069,
      "икъу": 2070,
      "ххэ": 2071,
      "плъагъу": 2072,
      "пэмы": 2073,
      "Iэзэ": 2074,
      "теты": 2075,
      "апхъ": 2076,
      "лажьэр": 2077,
      "хутыр": 2078,
      "къэзгъэ": 2079,
      "бакъуэ": 2080,
      "Бы": 2081,
      "лу": 2082,
      "зэха": 2083,
      "хъунт": 2084,
      "гъуи": 2085,
      "мел": 2086,
      "кIкIэ": 2087,
      "дахэр": 2088,
      "пща": 2089,
      "нэмыцэ": 2090,
      "здэщы": 2091,
      "апхуэдизу": 2092,
      "жал": 2093,
      "гъупщэ": 2094,
      "кIэлъыплъ": 2095,
      "щIыналъэм": 2096,
      "лъагъуныгъэ": 2097,
      "гушыIэ": 2098,
      "тэу": 2099,
      "кIуэкIа": 2100,
      "фе": 2101,
      "щIырт": 2102,
      "пщыр": 2103,
      "Шу": 2104,
      "пь": 2105,
      "гъэрэ": 2106,
      "жьхэр": 2107,
      "сытми": 2108,
      "зонкэ": 2109,
      "Къэбэрдейм": 2110,
      "хур": 2111,
      "лъэпкъхэм": 2112,
      "зэгу": 2113,
      "гъуэта": 2114,
      "ама": 2115,
      "ЕтIу": 2116,
      "жкIэ": 2117,
      "нэхэр": 2118,
      "мэн": 2119,
      "урэм": 2120,
      "щIыпIэм": 2121,
      "дахэм": 2122,
      "лъабжьэ": 2123,
      "бгъэр": 2124,
      "ами": 2125,
      "сам": 2126,
      "быдэу": 2127,
      "пщIащ": 2128,
      "дапщэ": 2129,
      "хуэдэт": 2130,
      "хьэлIэу": 2131,
      "хэмылъу": 2132,
      "пар": 2133,
      "институ": 2134,
      "так": 2135,
      "журналым": 2136,
      "Би": 2137,
      "жыным": 2138,
      "хьэлэмэ": 2139,
      "гы": 2140,
      "пх": 2141,
      "къабзэ": 2142,
      "щхьэусыгъуэ": 2143,
      "зит": 2144,
      "кым": 2145,
      "кIуэт": 2146,
      "жриIащ": 2147,
      "Су": 2148,
      "гъи": 2149,
      "хуэмыдэ": 2150,
      "еры": 2151,
      "ныбжьы": 2152,
      "Моск": 2153,
      "тес": 2154,
      "Къе": 2155,
      "Хэку": 2156,
      "кIэщI": 2157,
      "хъури": 2158,
      "абзэ": 2159,
      "къысхуи": 2160,
      "бзу": 2161,
      "Ари": 2162,
      "из": 2163,
      "шин": 2164,
      "уэс": 2165,
      "кърагъэ": 2166,
      "зимыIэ": 2167,
      "усэм": 2168,
      "хьырт": 2169,
      "нкъым": 2170,
      "цы": 2171,
      "гъуащ": 2172,
      "тегъэ": 2173,
      "ант": 2174,
      "усхьэн": 2175,
      "тре": 2176,
      "хъурэ": 2177,
      "хыурэ": 2178,
      "дэIэпыкъу": 2179,
      "дар": 2180,
      "хакъым": 2181,
      "Дахэ": 2182,
      ".)": 2183,
      "ент": 2184,
      "уар": 2185,
      "кон": 2186,
      "сыхьэ": 2187,
      "Зым": 2188,
      "уэу": 2189,
      "лIыр": 2190,
      "гурыIуащ": 2191,
      "къудейуэ": 2192,
      "мэт": 2193,
      "нэхъей": 2194,
      "мэзым": 2195,
      "Iущ": 2196,
      "тIысы": 2197,
      "щIэлъ": 2198,
      "пэшым": 2199,
      "Хьэми": 2200,
      "щIыкI": 2201,
      "пов": 2202,
      "щIагъым": 2203,
      "зыхуей": 2204,
      "Уэрэ": 2205,
      "щэу": 2206,
      "гъакIуэ": 2207,
      "дэлъ": 2208,
      "хэти": 2209,
      "Кавказым": 2210,
      "Ко": 2211,
      "хуэмурэ": 2212,
      "фIэфI": 2213,
      "дежи": 2214,
      "Iуры": 2215,
      "гъуэлъы": 2216,
      "гъуэтын": 2217,
      "хъыджэбзым": 2218,
      "Iэну": 2219,
      "убыды": 2220,
      "генер": 2221,
      "196": 2222,
      "гугъуе": 2223,
      "тхакIуэм": 2224,
      "упщIащ": 2225,
      "Дуней": 2226,
      "Ахьмэ": 2227,
      "тэкъэ": 2228,
      "япэкIэ": 2229,
      "Москва": 2230,
      "яхэ": 2231,
      "лъытэр": 2232,
      "тэкъыми": 2233,
      "Псалъэм": 2234,
      "тэмэму": 2235,
      "яху": 2236,
      "плъащ": 2237,
      "лъит": 2238,
      "къыпхуэ": 2239,
      "Хъун": 2240,
      "Мэз": 2241,
      "ИтI": 2242,
      "лъэмы": 2243,
      "дихьэ": 2244,
      "тхылъыр": 2245,
      "скэ": 2246,
      "фэеплъ": 2247,
      "бжь": 2248,
      "хъуэр": 2249,
      "сауэ": 2250,
      "хьэлIа": 2251,
      "щхьэгъусэм": 2252,
      "нет": 2253,
      "зэгуэ": 2254,
      "шэрджэс": 2255,
      "Iал": 2256,
      "убыдэу": 2257,
      "къызди": 2258,
      "вэу": 2259,
      "хьат": 2260,
      "Хъан": 2261,
      "Мэр": 2262,
      "Арати": 2263,
      "тынш": 2264,
      "ехъулIэ": 2265,
      "ери": 2266,
      "IутIы": 2267,
      "культ": 2268,
      "гулъытэ": 2269,
      "адрейм": 2270,
      "щэнхабзэм": 2271,
      "Та": 2272,
      "газетым": 2273,
      "театрым": 2274,
      "верси": 2275,
      "бгъэм": 2276,
      "пшын": 2277,
      "хьэж": 2278,
      "Дауи": 2279,
      "ссказ": 2280,
      "жынур": 2281,
      "Сэр": 2282,
      "Хьэмид": 2283,
      "лэр": 2284,
      "зэрыхуэ": 2285,
      "нэхъыщхьэр": 2286,
      "зехьэ": 2287,
      "кIынущ": 2288,
      "Iут": 2289,
      "нов": 2290,
      "стэ": 2291,
      "лъэпкъэ": 2292,
      "егъэджакIуэ": 2293,
      "Адэ": 2294,
      "пым": 2295,
      "чыр": 2296,
      "лэгъу": 2297,
      "зэримы": 2298,
      "полит": 2299,
      "щыгъэ": 2300,
      "пащхьэм": 2301,
      "Умы": 2302,
      "Iэтащ": 2303,
      "кIуам": 2304,
      "анэдэлъху": 2305,
      "щIалэгъу": 2306,
      "зауэр": 2307,
      "куууэ": 2308,
      "пIалъэ": 2309,
      "зыужь": 2310,
      "лай": 2311,
      "цIыкIухэм": 2312,
      "ИужькIэ": 2313,
      "еслъэн": 2314,
      "тIум": 2315,
      "игъащIэ": 2316,
      "ИтIани": 2317,
      "дын": 2318,
      "пIащ": 2319,
      "адыгэбзэм": 2320,
      "лъэпкъэгъу": 2321,
      "11": 2322,
      "ещI": 2323,
      "бгым": 2324,
      "Абдеж": 2325,
      "пц": 2326,
      "гуэри": 2327,
      "кIэра": 2328,
      "жыжьэу": 2329,
      "щыщу": 2330,
      "мет": 2331,
      "хэкIуэ": 2332,
      "телъыджэ": 2333,
      "Литерат": 2334,
      "ахуэм": 2335,
      "197": 2336,
      "усэхэр": 2337,
      "БетIал": 2338,
      "пцIэ": 2339,
      "щытщ": 2340,
      "къакIуэ": 2341,
      "къыжьэ": 2342,
      "зэпэ": 2343,
      "сыхьэт": 2344,
      "Ахьмэд": 2345,
      "IэщIагъэ": 2346,
      "сытым": 2347,
      "ирихьэлIэу": 2348,
      "пщэдей": 2349,
      "балъкъэр": 2350,
      "емыкIу": 2351,
      "гуэны": 2352,
      "шагъэ": 2353,
      "къэнэ": 2354,
      "бэлыхь": 2355,
      "Къуа": 2356,
      "IэплIэ": 2357,
      "къысху": 2358,
      "ещIэ": 2359,
      "наб": 2360,
      "джыз": 2361,
      "мыхъуми": 2362,
      "ащIэу": 2363,
      "усэр": 2364,
      "пхъа": 2365,
      "Лен": 2366,
      "сыкъи": 2367,
      "итщ": 2368,
      "ейри": 2369,
      "хэрт": 2370,
      "щIыIэ": 2371,
      "гупсысэр": 2372,
      "мафIэм": 2373,
      "гъущI": 2374,
      "мини": 2375,
      "тхьэмадэ": 2376,
      "творче": 2377,
      "къыщыщIэдзауэ": 2378,
      "иIэкъым": 2379,
      "къызэригъэ": 2380,
      "хуитыны": 2381,
      "фIощI": 2382,
      "ухы": 2383,
      "адыгэм": 2384,
      "утыку": 2385,
      "къыгурыIуэ": 2386,
      "зыт": 2387,
      "атур": 2388,
      "Къыз": 2389,
      "Иджыри": 2390,
      "ущ": 2391,
      "сэлэт": 2392,
      "мазэ": 2393,
      "Псэ": 2394,
      "цIыхубэ": 2395,
      "ужьым": 2396,
      "кIуэж": 2397,
      "бжес": 2398,
      "жылэм": 2399,
      "сту": 2400,
      "щыгъупщэ": 2401,
      "гурыIу": 2402,
      "пасэрей": 2403,
      "Уе": 2404,
      "кIэщ": 2405,
      "зыныкъуэ": 2406,
      "жызы": 2407,
      "бзий": 2408,
      "зэш": 2409,
      "алэр": 2410,
      "Дунейм": 2411,
      "колым": 2412,
      "Зэман": 2413,
      "слъагъу": 2414,
      "гъэхэр": 2415,
      "захуэ": 2416,
      "школ": 2417,
      "къызэрыгуэ": 2418,
      "щIидзащ": 2419,
      "нэхъыбэу": 2420,
      "тор": 2421,
      "ящIэ": 2422,
      "кърат": 2423,
      "къум": 2424,
      "цIыхухъу": 2425,
      "тхыдэ": 2426,
      "махуэр": 2427,
      "иужьрей": 2428,
      "фынущ": 2429,
      "га": 2430,
      "хъуэу": 2431,
      "лэжьа": 2432,
      "ян": 2433,
      "есп": 2434,
      "гуфIэгъуэ": 2435,
      "Ни": 2436,
      "пщхьэ": 2437,
      "хьэну": 2438,
      "Апхуэдиз": 2439,
      "жызоIэ": 2440,
      "гъум": 2441,
      "нщи": 2442,
      "гуащэм": 2443,
      "итIани": 2444,
      "жиIэурэ": 2445,
      "IуэрыIуат": 2446,
      "ырэ": 2447,
      "жылэ": 2448,
      "Къи": 2449,
      "был": 2450,
      "Але": 2451,
      "мир": 2452,
      "къамы": 2453,
      "зэпи": 2454,
      "лъахэм": 2455,
      "губгъуэм": 2456,
      "хуиту": 2457,
      "щэхуу": 2458,
      "кхъ": 2459,
      "Iэпэ": 2460,
      "лъауэ": 2461,
      "къахуэ": 2462,
      "сабийм": 2463,
      "еджапIэ": 2464,
      "клас": 2465,
      "хьэрт": 2466,
      "раматур": 2467,
      "Респ": 2468,
      "жт": 2469,
      "гъуэгур": 2470,
      "кIуат": 2471,
      "блэр": 2472,
      "плъыр": 2473,
      "къащы": 2474,
      "фIэмы": 2475,
      "ирокъу": 2476,
      "КIыщокъуэ": 2477,
      "Па": 2478,
      "Iэбэ": 2479,
      "къекIуэ": 2480,
      "хэлъкъым": 2481,
      "амазонкэ": 2482,
      "къащIэ": 2483,
      "хум": 2484,
      "гукъэ": 2485,
      "лIыкIуэ": 2486,
      "пэры": 2487,
      "къыф": 2488,
      "хуеймэ": 2489,
      "зищIы": 2490,
      "сабии": 2491,
      "мыхъуу": 2492,
      "щызэхуэ": 2493,
      "повест": 2494,
      "сщIэркъым": 2495,
      "жьей": 2496,
      "Iуи": 2497,
      "дакъым": 2498,
      "гуфIыкI": 2499,
      "мыпхуэдэ": 2500,
      "лъат": 2501,
      "нэсу": 2502,
      "хъууэ": 2503,
      "журэ": 2504,
      "ден": 2505,
      "жиIэм": 2506,
      "зэми": 2507,
      "пэжыр": 2508,
      "Лъэпкъ": 2509,
      "зыхуи": 2510,
      "дий": 2511,
      "зэрыте": 2512,
      "198": 2513,
      "Iэнэм": 2514,
      "колхо": 2515,
      "дан": 2516,
      "кан": 2517,
      "от": 2518,
      "пкъым": 2519,
      "зыкъи": 2520,
      "Алэ": 2521,
      "шэри": 2522,
      "Урысей": 2523,
      "пащтыхь": 2524,
      "мылъку": 2525,
      "?.": 2526,
      "Нарт": 2527,
      "къыхэкIыу": 2528,
      "ЩIым": 2529,
      "Иджыпсту": 2530,
      "»)": 2531,
      "яужь": 2532,
      "гъуэзэ": 2533,
      "щхьэпэ": 2534,
      "мыпхуэдэу": 2535,
      "пщIыхьэ": 2536,
      "къыщыдэ": 2537,
      "напэр": 2538,
      "зырыз": 2539,
      "Инал": 2540,
      "IэнатIэ": 2541,
      "Хъыджэ": 2542,
      "икIэ": 2543,
      "лири": 2544,
      "уафэ": 2545,
      "уафэм": 2546,
      "зэманыр": 2547,
      "образ": 2548,
      "кин": 2549,
      "яб": 2550,
      "къыкIэлъы": 2551,
      "удэ": 2552,
      "къат": 2553,
      "поэ": 2554,
      "Зыгуэр": 2555,
      "логие": 2556,
      "Зыри": 2557,
      "КъБР": 2558,
      "хьэкъ": 2559,
      "дэIуэ": 2560,
      "стам": 2561,
      "дзэу": 2562,
      "тIым": 2563,
      "къэм": 2564,
      "щыIэтэкъым": 2565,
      "хэлъыр": 2566,
      "Беслъэн": 2567,
      "пщкIу": 2568,
      "яку": 2569,
      "гуш": 2570,
      "зэмэ": 2571,
      "утIыпщ": 2572,
      "Ара": 2573,
      "макъамэ": 2574,
      "Ми": 2575,
      "унэр": 2576,
      "къриубыдэу": 2577,
      "къабзэу": 2578,
      "щIегъуэ": 2579,
      "хат": 2580,
      "лъагъуныгъэм": 2581,
      "тыж": 2582,
      "адыгэхэр": 2583,
      "Хъу": 2584,
      "ххэу": 2585,
      "щит": 2586,
      "зимы": 2587,
      "машин": 2588,
      "Уна": 2589,
      "жра": 2590,
      "пша": 2591,
      "Къур": 2592,
      "кIыжу": 2593,
      "регъэ": 2594,
      "уасэ": 2595,
      "губжь": 2596,
      "амэ": 2597,
      "пис": 2598,
      "кIрэ": 2599,
      "гъуэн": 2600,
      "махуи": 2601,
      "дыгъэр": 2602,
      "псалъэу": 2603,
      "тыншу": 2604,
      "лIэщIыгъуэм": 2605,
      "тхуэ": 2606,
      "жынукъым": 2607,
      "лэжьыгъэр": 2608,
      "эмрэ": 2609,
      "гъунэгъуу": 2610,
      "зэмылIэужьы": 2611,
      "универси": 2612,
      "къыщыт": 2613,
      "къыха": 2614,
      "гупсысы": 2615,
      "ехъулIэныгъэ": 2616,
      "Усэ": 2617,
      "жыртэкъым": 2618,
      "ауан": 2619,
      "къыпщы": 2620,
      "ынур": 2621,
      "сыхуэ": 2622,
      "жыхуэ": 2623,
      "дамыгъэ": 2624,
      "жэщым": 2625,
      "ырамы": 2626,
      "пщIыхь": 2627,
      "сэмэ": 2628,
      "IупщI": 2629,
      "Хьэжы": 2630,
      "езыри": 2631,
      "уанэ": 2632,
      "дынэ": 2633,
      "къэз": 2634,
      "ноби": 2635,
      "тIур": 2636,
      "сыно": 2637,
      "Мухьэдин": 2638,
      "дохутыр": 2639,
      "Iэнат": 2640,
      "фынукъым": 2641,
      "лъэужь": 2642,
      "къеуэ": 2643,
      "псэур": 2644,
      "жыхуаIэр": 2645,
      "ефэн": 2646,
      "гъуей": 2647,
      "зэрыщIэ": 2648,
      "зэрыщытар": 2649,
      "редактор": 2650,
      "цу": 2651,
      "зыхэт": 2652,
      "анэри": 2653,
      "къэбгъэ": 2654,
      "хьэмэрэ": 2655,
      "нэхъыщIэ": 2656,
      "Алекс": 2657,
      "лътIан": 2658,
      "Ал": 2659,
      "Къэрэ": 2660,
      "хэтащ": 2661,
      "щIакIуэ": 2662,
      "сар": 2663,
      "нэщэ": 2664,
      "зыщIа": 2665,
      "зиусхьэн": 2666,
      "дадэ": 2667,
      "къигъэзэ": 2668,
      "Ей": 2669,
      "пыр": 2670,
      "хырт": 2671,
      "сиIэ": 2672,
      "роIуэ": 2673,
      "насыпы": 2674,
      "хъыIэ": 2675,
      "лъхуащ": 2676,
      "Ла": 2677,
      "пре": 2678,
      "хури": 2679,
      "пIэкIэ": 2680,
      "дэмыкIыу": 2681,
      "»-": 2682,
      "амэр": 2683,
      "нымкIэ": 2684,
      "Сос": 2685,
      "апэр": 2686,
      "кIыжри": 2687,
      "гурымыIуэ": 2688,
      "30": 2689,
      "зэщIи": 2690,
      "къикIа": 2691,
      "плъэр": 2692,
      "убыдэ": 2693,
      "жыпIэр": 2694,
      "ныбжьыр": 2695,
      "журналист": 2696,
      "бгъа": 2697,
      "ткIий": 2698,
      "хуейм": 2699,
      "Нало": 2700,
      "пыт": 2701,
      "ул": 2702,
      "гукъыдэ": 2703,
      "усэхэм": 2704,
      "узын": 2705,
      "спек": 2706,
      "Зырамы": 2707,
      "банэ": 2708,
      "уагъэ": 2709,
      "Чер": 2710,
      "зра": 2711,
      "щIыIу": 2712,
      "мамэ": 2713,
      "насыпын": 2714,
      "угъэ": 2715,
      "хущIэ": 2716,
      "сабийр": 2717,
      "хьэпшы": 2718,
      "чэзу": 2719,
      "Iым": 2720,
      "шауэ": 2721,
      "щыхъум": 2722,
      "сэлам": 2723,
      "пIейт": 2724,
      "Ев": 2725,
      "лъэри": 2726,
      "жыху": 2727,
      "сти": 2728,
      "утIыпщы": 2729,
      "Ищхъ": 2730,
      "бали": 2731,
      "зрагъэ": 2732,
      "яхуи": 2733,
      "ийм": 2734,
      "мырзэ": 2735,
      "Iури": 2736,
      "къулей": 2737,
      "Алэдамэ": 2738,
      "ащхьэм": 2739,
      "зэгуэр": 2740,
      "лъэдэ": 2741,
      "щымыIэ": 2742,
      "Фе": 2743,
      "скэр": 2744,
      "Iат": 2745,
      "Ле": 2746,
      "зэбг": 2747,
      "рон": 2748,
      ".»": 2749,
      "Кур": 2750,
      "дзэри": 2751,
      "Iэнэ": 2752,
      "щIэупщIэ": 2753,
      "къызэре": 2754,
      "пIи": 2755,
      "спектак": 2756,
      "ынукъым": 2757,
      "щтэмэ": 2758,
      "къун": 2759,
      "тэджы": 2760,
      "адыгэбзэкIэ": 2761,
      "унафэр": 2762,
      "дымы": 2763,
      "при": 2764,
      "диIэ": 2765,
      "къысщы": 2766,
      "зэмызэ": 2767,
      "ча": 2768,
      "зыкъы": 2769,
      "Жьы": 2770,
      "Iыхьлы": 2771,
      "къинэ": 2772,
      "стым": 2773,
      "жари": 2774,
      "лъагъуныгъэр": 2775,
      "гъуэгуанэ": 2776,
      "ве": 2777,
      "мызэ": 2778,
      "аби": 2779,
      "Iув": 2780,
      "щытын": 2781,
      "сакъым": 2782,
      "зогъэ": 2783,
      "школым": 2784,
      "зыхуейр": 2785,
      "сты": 2786,
      "наIуэ": 2787,
      "хъуами": 2788,
      "жьэри": 2789,
      "щIэгъэ": 2790,
      "Адрей": 2791,
      "тщ": 2792,
      "яфIэ": 2793,
      "щIэщыгъуэ": 2794,
      "хэлъхьэ": 2795,
      "Хэкум": 2796,
      "генерал": 2797,
      "ират": 2798,
      "дыжь": 2799,
      "шэну": 2800,
      "тхьэмыщкIэ": 2801,
      "дэплъ": 2802,
      "дэтхэн": 2803,
      "джырей": 2804,
      "ван": 2805,
      "дамэм": 2806,
      "Пщэдджы": 2807,
      "ищI": 2808,
      "крити": 2809,
      "гуроIуэ": 2810,
      "рылъху": 2811,
      "закъуэр": 2812,
      "нэрылъагъу": 2813,
      "Зырамыку": 2814,
      "сыкъы": 2815,
      "Хъунщ": 2816,
      "Лю": 2817,
      "быр": 2818,
      "пащIэ": 2819,
      "агъэнщ": 2820,
      "нанэ": 2821,
      "нэпсыр": 2822,
      "Хьэр": 2823,
      "зегъэ": 2824,
      "Iэнур": 2825,
      "22": 2826,
      "бгъэдыхьэ": 2827,
      "къытра": 2828,
      "тхакIуэхэм": 2829,
      "жыхуаIэм": 2830,
      "утыкум": 2831,
      "яри": 2832,
      "хъуэхъу": 2833,
      "услъым": 2834,
      "лъхьэу": 2835,
      "пэрыт": 2836,
      "Жэщ": 2837,
      "Iейуэ": 2838,
      "юзым": 2839,
      "дыгъэм": 2840,
      "Iуфэ": 2841,
      "Хьэту": 2842,
      "Мыбдеж": 2843,
      "Хьэжмур": 2844,
      "ера": 2845,
      "зыщIы": 2846,
      "зэрыс": 2847,
      "фIигъэ": 2848,
      "Уэлэхьи": 2849,
      "институтым": 2850,
      "хъуамэ": 2851,
      "бгъэдэлъ": 2852,
      "алIэ": 2853,
      "Гъу": 2854,
      "жаIэр": 2855,
      "Iамэ": 2856,
      "гупсысэм": 2857,
      "тIури": 2858,
      "ахэм": 2859,
      "есэ": 2860,
      "хущхъуэ": 2861,
      "ради": 2862,
      "цIыхубзым": 2863,
      "щхьэры": 2864,
      "хуэгъэ": 2865,
      "хьэдэ": 2866,
      "гъуу": 2867,
      "Езым": 2868,
      "еу": 2869,
      "хьэрэ": 2870,
      "зэтри": 2871,
      "гъуэтащ": 2872,
      "нэхъыфIу": 2873,
      "напIэ": 2874,
      "закъуэкъым": 2875,
      "хадэм": 2876,
      "къыто": 2877,
      "щытамэ": 2878,
      "дунейпсо": 2879,
      "Псалъэ": 2880,
      "апэм": 2881,
      "щIыба": 2882,
      "кIыфI": 2883,
      "куэду": 2884,
      "нобэрей": 2885,
      "абыи": 2886,
      "пэщ": 2887,
      "Бахъ": 2888,
      "Анато": 2889,
      "Сосрыкъуэ": 2890,
      "дер": 2891,
      "лъэбакъуэ": 2892,
      "псалъэхэм": 2893,
      "Истам": 2894,
      "Лиу": 2895,
      "мат": 2896,
      "зэхъуэ": 2897,
      "кIуэри": 2898,
      "цIыхубэм": 2899,
      "цэр": 2900,
      "къыкъуэ": 2901,
      "Са": 2902,
      "хьэтыр": 2903,
      "щIыналъэ": 2904,
      "сымаджэ": 2905,
      "лъэщы": 2906,
      "пэжу": 2907,
      "Пэж": 2908,
      "Насып": 2909,
      "сщ": 2910,
      "щабэ": 2911,
      "джэрэ": 2912,
      "псэууэ": 2913,
      "зэфIэкI": 2914,
      "лен": 2915,
      "джым": 2916,
      "зыужьыны": 2917,
      "вэр": 2918,
      "ейхэм": 2919,
      "етIы": 2920,
      "Мысо": 2921,
      "IэщIагъэм": 2922,
      "Iэуэ": 2923,
      "бгъэдо": 2924,
      "нэгъуэщIхэри": 2925,
      "фицер": 2926,
      "кIынукъым": 2927,
      "лъэныкъуэмкIэ": 2928,
      "лъытауэ": 2929,
      "ущIэ": 2930,
      "ший": 2931,
      "хъыбарыр": 2932,
      "гугъэу": 2933,
      "нэхъыфIщ": 2934,
      "фынур": 2935,
      "нэхъыщхьэу": 2936,
      "Хьэжмурат": 2937,
      "ркъым": 2938,
      "нэхэм": 2939,
      "ехы": 2940,
      "ууэ": 2941,
      "амкIэ": 2942,
      "лъахъ": 2943,
      "авто": 2944,
      "убыдащ": 2945,
      "къудейщ": 2946,
      "Iил": 2947,
      "фым": 2948,
      "фон": 2949,
      "пщащэ": 2950,
      "хуабэ": 2951,
      "тепщэ": 2952,
      "илъэсхэм": 2953,
      "езыхэм": 2954,
      "зыщи": 2955,
      "кIуэрт": 2956,
      "фIыгъуэ": 2957,
      "щIэупщIащ": 2958,
      "унагъуэр": 2959,
      "Во": 2960,
      "Зэр": 2961,
      "зди": 2962,
      "тан": 2963,
      "укъи": 2964,
      "нэт": 2965,
      "тетщ": 2966,
      "тIысхьащ": 2967,
      "зыбж": 2968,
      "мэкъумэ": 2969,
      "Лиуан": 2970,
      "ерыс": 2971,
      "къэхутэ": 2972,
      "хьэркъым": 2973,
      "пыIэ": 2974,
      "коман": 2975,
      "Шэрджэс": 2976,
      "лъхьэри": 2977,
      "щыху": 2978,
      "райо": 2979,
      "кре": 2980,
      "хъа": 2981,
      "зыхуе": 2982,
      "рассказ": 2983,
      "кIынур": 2984,
      "бзаджэ": 2985,
      "Кърым": 2986,
      "жиIэрт": 2987,
      "пщыхьэщхьэ": 2988,
      "поэзи": 2989,
      "Истамбыл": 2990,
      "езгъэ": 2991,
      "умыгъэ": 2992,
      "хэзы": 2993,
      "къэхъуар": 2994,
      "шхуэу": 2995,
      "щыIэт": 2996,
      "Iуащхьэ": 2997,
      "40": 2998,
      "ящI": 2999,
      "IэкIэ": 3000,
      "дыдэщ": 3001,
      "скэм": 3002,
      "ейрэ": 3003,
      "унэху": 3004,
      "МафIэ": 3005,
      "ЦIыхум": 3006,
      "Вла": 3007,
      "Пащ": 3008,
      "шхэр": 3009,
      "къэтэдж": 3010,
      "ныс": 3011,
      "Iэпхъуэ": 3012,
      "зэрыщытыр": 3013,
      "Тырку": 3014,
      "Хасэм": 3015,
      "Iупэ": 3016,
      "эрэт": 3017,
      "хъунут": 3018,
      "пасэу": 3019,
      "чэнджэщ": 3020,
      "сощIэ": 3021,
      "къыхуе": 3022,
      "мэлы": 3023,
      "мазэм": 3024,
      "лъэпкъы": 3025,
      "икъукIэ": 3026,
      "пра": 3027,
      "ухъу": 3028,
      "щыщIэ": 3029,
      "цIыхуу": 3030,
      "Тэ": 3031,
      "гэ": 3032,
      "укъуэ": 3033,
      "къыде": 3034,
      "хэкIыпIэ": 3035,
      "сто": 3036,
      "Ахъ": 3037,
      "бел": 3038,
      "егупсы": 3039,
      "уэшх": 3040,
      "ырзэ": 3041,
      "зэдэ": 3042,
      "хьэкI": 3043,
      "36": 3044,
      "лан": 3045,
      "пер": 3046,
      "хъурей": 3047,
      "ТI": 3048,
      "тыну": 3049,
      "зэращ": 3050,
      "Iуху": 3051,
      "щхьэщыт": 3052,
      "тIасэ": 3053,
      "Къэрал": 3054,
      "гуэныхь": 3055,
      "бауэ": 3056,
      "ищIа": 3057,
      "шар": 3058,
      "хъыджэбзыр": 3059,
      "бжыгъэ": 3060,
      "бгъэры": 3061,
      "Уэри": 3062,
      "зыщI": 3063,
      "тель": 3064,
      "къомыр": 3065,
      "ЕтIуанэ": 3066,
      "тхэм": 3067,
      "гугъэр": 3068,
      "апIэу": 3069,
      "фызым": 3070,
      "псынщIэ": 3071,
      "кIэлъо": 3072,
      "щыIэу": 3073,
      "жысIащ": 3074,
      "фоч": 3075,
      "ья": 3076,
      "зыхы": 3077,
      "ыншэу": 3078,
      "рэIил": 3079,
      "щIыж": 3080,
      "амрэ": 3081,
      "лажьэу": 3082,
      "жысIэу": 3083,
      "нарты": 3084,
      "къыда": 3085,
      "сыкъе": 3086,
      "къищ": 3087,
      "совет": 3088,
      "пхъур": 3089,
      "ипхъу": 3090,
      "мыдэ": 3091,
      "лъэIэ": 3092,
      "нутэкъым": 3093,
      "тхыдэр": 3094,
      "хьакъым": 3095,
      "грам": 3096,
      "эурэ": 3097,
      "псэлъащ": 3098,
      "уэрамым": 3099,
      "50": 3100,
      "нэщI": 3101,
      "къэдгъэ": 3102,
      "уигъэ": 3103,
      "цIыкIуу": 3104,
      "Псоми": 3105,
      "хъурея": 3106,
      "Там": 3107,
      "ге": 3108,
      "ил": 3109,
      "сан": 3110,
      "дыгъуа": 3111,
      "адыгэбзэ": 3112,
      "Анатолэ": 3113,
      "къыпэ": 3114,
      "зэгурыIуэ": 3115,
      "зэхуэмыдэ": 3116,
      "дент": 3117,
      "иримы": 3118,
      "зыгуэркIэ": 3119,
      "вагъуэ": 3120,
      "пщэдджыжь": 3121,
      "цен": 3122,
      "мэл": 3123,
      "фIыкIэ": 3124,
      "пщIэрэ": 3125,
      "къыщигъэ": 3126,
      "ич": 3127,
      "хуэфащэ": 3128,
      "зыхэлъ": 3129,
      "зэрым": 3130,
      "лъадэ": 3131,
      "гъанэу": 3132,
      "Дэтхэ": 3133,
      "бгырыс": 3134,
      "Темыр": 3135,
      "Езыр": 3136,
      "Ти": 3137,
      "акъыр": 3138,
      "лIауэ": 3139,
      "езыми": 3140,
      "унафэщIу": 3141,
      "АдэкIэ": 3142,
      "сыну": 3143,
      "кIуэцIы": 3144,
      "Дыщэ": 3145,
      "гупыр": 3146,
      "хьэпшып": 3147,
      "зэрыгъэ": 3148,
      "Къо": 3149,
      "КIуащ": 3150,
      "хуэн": 3151,
      "ныкъу": 3152,
      "Арат": 3153,
      "къарур": 3154,
      "пэш": 3155,
      "жеIэри": 3156,
      "хьэлIауэ": 3157,
      "иIыгъыу": 3158,
      "ёр": 3159,
      "ринэ": 3160,
      "къэсы": 3161,
      "хуимы": 3162,
      "ТIэкIу": 3163,
      "укI": 3164,
      "упс": 3165,
      "ххэр": 3166,
      "зыхуигъэ": 3167,
      "щIэхыурэ": 3168,
      "аракъым": 3169,
      "жысIэри": 3170,
      "лъагэу": 3171,
      "фмэ": 3172,
      "гъэсэ": 3173,
      "зытри": 3174,
      "зезыхьэ": 3175,
      "къызэрыгуэкI": 3176,
      "йм": 3177,
      "ущи": 3178,
      "лъапIэр": 3179,
      "къыхуагъэ": 3180,
      "щхьэж": 3181,
      "ме": 3182,
      "тхэр": 3183,
      "гукIэ": 3184,
      "стан": 3185,
      "къызэщIэ": 3186,
      "усыгъэм": 3187,
      "алыдж": 3188,
      "Иужь": 3189,
      "хуитI": 3190,
      "маши": 3191,
      "щытми": 3192,
      "токъуэ": 3193,
      "сабийхэм": 3194,
      "фащэр": 3195,
      "зищIысыр": 3196,
      "дра": 3197,
      "лъагъуэр": 3198,
      "пщэр": 3199,
      "закъуэм": 3200,
      "еплъыкIэ": 3201,
      "науэ": 3202,
      "хуэныкъуэ": 3203,
      "чим": 3204,
      "Влади": 3205,
      "Пащты": 3206,
      "уэн": 3207,
      "нуи": 3208,
      "хами": 3209,
      "плъэм": 3210,
      "лIо": 3211,
      "зэрыщыту": 3212,
      "Республикэм": 3213,
      "Iэуэлъауэ": 3214,
      "ипэкIэ": 3215,
      "хьэблэ": 3216,
      "гъуафIэ": 3217,
      "нырщ": 3218,
      "зыгуэрхэр": 3219,
      "жысIэ": 3220,
      "Бе": 3221,
      "жамэ": 3222,
      "сонет": 3223,
      "пашэ": 3224,
      "жылагъуэ": 3225,
      "къры": 3226,
      "къыжри": 3227,
      "шхуэхэм": 3228,
      "пщэм": 3229,
      "плъыхь": 3230,
      "Нази": 3231,
      "жтэкъым": 3232,
      "зэхы": 3233,
      "пэжщ": 3234,
      "Къардэн": 3235,
      "бри": 3236,
      "чу": 3237,
      "апщ": 3238,
      "нэхъыжьым": 3239,
      "еджапIэм": 3240,
      "защIэу": 3241,
      "къыздэсым": 3242,
      "пись": 3243,
      "пщIым": 3244,
      "плъыжь": 3245,
      "Хъуэ": 3246,
      "зэпры": 3247,
      "автор": 3248,
      "адрейхэм": 3249,
      "шист": 3250,
      "кIэт": 3251,
      "закъ": 3252,
      "иныр": 3253,
      "Жыг": 3254,
      "пIащIэу": 3255,
      "бли": 3256,
      "зэрит": 3257,
      "къуауэ": 3258,
      "жаIэри": 3259,
      "щохъу": 3260,
      "рием": 3261,
      "чик": 3262,
      "гугъуехь": 3263,
      "змыгъэ": 3264,
      "шхуэхэр": 3265,
      "Тхьэгъэ": 3266,
      "Дунейр": 3267,
      "Мин": 3268,
      "игъащIэм": 3269,
      "хьэуэ": 3270,
      "зых": 3271,
      "щIедзэ": 3272,
      "ерэ": 3273,
      "стэн": 3274,
      "Къап": 3275,
      "умыщI": 3276,
      "нитIыр": 3277,
      "тIащ": 3278,
      "лъэры": 3279,
      "егъэле": 3280,
      "имыщIэу": 3281,
      "ныбжьэгъум": 3282,
      "япэр": 3283,
      "эмэм": 3284,
      "хьэзыру": 3285,
      "редак": 3286,
      "дмы": 3287,
      "таб": 3288,
      "Iэпхъу": 3289,
      "секре": 3290,
      "лъабжьэм": 3291,
      "Бу": 3292,
      "бал": 3293,
      "языныкъуэ": 3294,
      "гугъа": 3295,
      "лейуэ": 3296,
      "атыр": 3297,
      "пщащэм": 3298,
      "къалэныр": 3299,
      "къыщIэкIынкъым": 3300,
      "Уеблэмэ": 3301,
      "етIысэ": 3302,
      "игъэзэ": 3303,
      "плъу": 3304,
      "дунеи": 3305,
      "зыкъомрэ": 3306,
      "чэнджэ": 3307,
      "Аш": 3308,
      "хьэкIэ": 3309,
      "жытIэ": 3310,
      "жынт": 3311,
      "кIынщ": 3312,
      "убыда": 3313,
      "Культ": 3314,
      "ина": 3315,
      "щегъэ": 3316,
      "къудамэ": 3317,
      "джэд": 3318,
      "щIагъ": 3319,
      "зэрыхэ": 3320,
      "цIыхугъэ": 3321,
      "хуэмей": 3322,
      "дакъикъэ": 3323,
      "мор": 3324,
      "срэ": 3325,
      "лът": 3326,
      "лъапэ": 3327,
      "зэху": 3328,
      "сыте": 3329,
      "еджэр": 3330,
      "ский": 3331,
      "Пщыхьэ": 3332,
      "набдзэ": 3333,
      "Iэхэр": 3334,
      "фIыр": 3335,
      "шхуэщ": 3336,
      "къау": 3337,
      "къызэрагъэ": 3338,
      "гъэгъа": 3339,
      "тхылъхэр": 3340,
      "щыгъын": 3341,
      "секретар": 3342,
      "бдзэ": 3343,
      "натIэ": 3344,
      "Iэджи": 3345,
      "къыхуа": 3346,
      "зыхь": 3347,
      "хэхэс": 3348,
      "тIэкIур": 3349,
      "ная": 3350,
      "анием": 3351,
      "гуфIэу": 3352,
      "шынагъуэ": 3353,
      "Анэ": 3354,
      "Удынэ": 3355,
      "офицер": 3356,
      "зэщхь": 3357,
      "тетыр": 3358,
      "уIэгъэ": 3359,
      "дат": 3360,
      "хмэ": 3361,
      "шхэм": 3362,
      "джэды": 3363,
      "нэхъыбэр": 3364,
      "ныбжьым": 3365,
      "новел": 3366,
      "творчествэм": 3367,
      "мед": 3368,
      "тщIы": 3369,
      "зэзэмызэ": 3370,
      "жэбэ": 3371,
      "Къыс": 3372,
      "жыпIэу": 3373,
      "иIэт": 3374,
      "Алыхь": 3375,
      "рацэм": 3376,
      "тхьэусы": 3377,
      "бгъуры": 3378,
      "бе": 3379,
      "Iэдэ": 3380,
      "лъатэ": 3381,
      "щытмэ": 3382,
      "къохъу": 3383,
      "Iэта": 3384,
      "кIапэ": 3385,
      "мызакъуэу": 3386,
      "лъэт": 3387,
      "жыджэр": 3388,
      "къыпху": 3389,
      "быдапIэм": 3390,
      "Хьэтуси": 3391,
      "ищIэр": 3392,
      "Iэза": 3393,
      "щынэмы": 3394,
      "Аргуэру": 3395,
      "IутIыж": 3396,
      "Асте": 3397,
      "Журнал": 3398,
      "Унэ": 3399,
      "ижь": 3400,
      "гуащ": 3401,
      "къыщыс": 3402,
      "полити": 3403,
      "пкъы": 3404,
      "сыж": 3405,
      "куэди": 3406,
      "ХьэтIо": 3407,
      "гъуаз": 3408,
      "пхъум": 3409,
      "щтэри": 3410,
      "еящ": 3411,
      "Лъагъу": 3412,
      "раматурги": 3413,
      "ХьэтIохъу": 3414,
      "уэм": 3415,
      "зыфIэ": 3416,
      "гурэ": 3417,
      "къызэфIэ": 3418,
      "згъэзэ": 3419,
      "курыт": 3420,
      "Щэ": 3421,
      "сыкIуэ": 3422,
      "литературэр": 3423,
      "къыщыгъэ": 3424,
      "нэужьым": 3425,
      "алинэ": 3426,
      "лIыхъужь": 3427,
      "Тен": 3428,
      "укъэ": 3429,
      "сыхуейкъым": 3430,
      "цIэкIэ": 3431,
      "кIуэдащ": 3432,
      "Илъэси": 3433,
      "культурэм": 3434,
      "университетым": 3435,
      "21": 3436,
      "Нэмы": 3437,
      "вар": 3438,
      "нэмэ": 3439,
      "зэблэ": 3440,
      "гъунап": 3441,
      "зэрыри": 3442,
      "къикIыр": 3443,
      "псыгъ": 3444,
      "урыхъ": 3445,
      "щхьэгъусэр": 3446,
      "ФIыуэ": 3447,
      "къыщалъхуащ": 3448,
      "заб": 3449,
      "ней": 3450,
      "Шэч": 3451,
      "республи": 3452,
      "Шо": 3453,
      "узыр": 3454,
      "делэ": 3455,
      "жиIа": 3456,
      "увэри": 3457,
      "Хьэчим": 3458,
      "губгъуэ": 3459,
      "пхъэр": 3460,
      "мыхьэнэшхуэ": 3461,
      "сыдэ": 3462,
      "тех": 3463,
      "къуащ": 3464,
      "тхыгъэр": 3465,
      "топ": 3466,
      "псалъэмакъ": 3467,
      "щытыкIэ": 3468,
      "хуэса": 3469,
      "хъуэт": 3470,
      "орым": 3471,
      "зэпымы": 3472,
      "зэхуаку": 3473,
      "Чэ": 3474,
      "иху": 3475,
      "щызэхэ": 3476,
      "убгъу": 3477,
      "унэтI": 3478,
      "дыдэхэм": 3479,
      "Тэр": 3480,
      "факъым": 3481,
      "зэрыхъуар": 3482,
      "къате": 3483,
      "кIыныгъэ": 3484,
      "насыпыр": 3485,
      "нэрыбг": 3486,
      "паб": 3487,
      "къыбгъэдэ": 3488,
      "жыныр": 3489,
      "193": 3490,
      "къыщIэкIынт": 3491,
      "гукъэкIыж": 3492,
      "Ре": 3493,
      "лIыжьыр": 3494,
      "хъунум": 3495,
      "23": 3496,
      "блы": 3497,
      "гухэлъ": 3498,
      "Хьэмы": 3499,
      "ЦIыхур": 3500,
      "спор": 3501,
      "Хьэтусилэ": 3502,
      "иджырей": 3503,
      "уте": 3504,
      "щIэнур": 3505,
      "гурыщIэ": 3506,
      "уэршэр": 3507,
      "шиф": 3508,
      "щIыкIэу": 3509,
      "Мэзкуу": 3510,
      "25": 3511,
      "хьэщIэм": 3512,
      "зыха": 3513,
      "пIэу": 3514,
      "кIами": 3515,
      "укIытэ": 3516,
      "Марие": 3517,
      "агъ": 3518,
      "вэм": 3519,
      "къыщымы": 3520,
      "зыу": 3521,
      "къытхуи": 3522,
      "Ду": 3523,
      "яте": 3524,
      "къыдигъэ": 3525,
      "зэрыхуейр": 3526,
      "ех": 3527,
      "трагъэ": 3528,
      "Iус": 3529,
      "гурыIуа": 3530,
      "ныбжьэгъухэм": 3531,
      "хъаным": 3532,
      "Миха": 3533,
      "узым": 3534,
      "унафэм": 3535,
      "щIалэхэм": 3536,
      "нэсащ": 3537,
      "НакIуэ": 3538,
      "Сын": 3539,
      "хьэгъуэ": 3540,
      "зэро": 3541,
      "ста": 3542,
      "сыткIэ": 3543,
      "Гъат": 3544,
      "щекIуэкI": 3545,
      "услъымэн": 3546,
      "Зуб": 3547,
      "ля": 3548,
      "оч": 3549,
      "ный": 3550,
      "пэща": 3551,
      "жиIар": 3552,
      "лъагъун": 3553,
      "щIэныгъэхэм": 3554,
      "гуфIыкIащ": 3555,
      "Егъэ": 3556,
      "Пщым": 3557,
      "лэу": 3558,
      "цIэу": 3559,
      "Iэси": 3560,
      "зэгъусэу": 3561,
      "Щыхьым": 3562,
      "ГъэщIэгъуэ": 3563,
      "фей": 3564,
      "щыIэр": 3565,
      "абра": 3566,
      "кIыжыну": 3567,
      "Сэли": 3568,
      "Астемыр": 3569,
      "Мам": 3570,
      "кхэм": 3571,
      "кIэзы": 3572,
      "сигъэ": 3573,
      "Къыт": 3574,
      "увауэ": 3575,
      "саугъэ": 3576,
      "IэнатIэм": 3577,
      "Ло": 3578,
      "иIыгъ": 3579,
      "псу": 3580,
      "гъуэту": 3581,
      "щытам": 3582,
      "бэн": 3583,
      "плъри": 3584,
      "пщтыр": 3585,
      "Зауэм": 3586,
      "Нико": 3587,
      "80": 3588,
      "еин": 3589,
      "каб": 3590,
      "абгъу": 3591,
      "анд": 3592,
      "гугъэщ": 3593,
      "щытыкIэм": 3594,
      "Литературэ": 3595,
      "щапхъ": 3596,
      "къуэгъу": 3597,
      "пэплъэ": 3598,
      "шэщ": 3599,
      "нэхъыщхьэм": 3600,
      "къызыте": 3601,
      "щхьэмы": 3602,
      "балигъ": 3603,
      "70": 3604,
      "Гуры": 3605,
      "Тхьэр": 3606,
      "ядэ": 3607,
      "эрэм": 3608,
      "кIэщIу": 3609,
      "жаIэм": 3610,
      "рево": 3611,
      "хуещI": 3612,
      "щхьэгъубжэм": 3613,
      "СулътIан": 3614,
      "60": 3615,
      "Иван": 3616,
      "выр": 3617,
      "дми": 3618,
      "егупсыс": 3619,
      "пшына": 3620,
      "Iур": 3621,
      "лъытэм": 3622,
      "щилъагъум": 3623,
      "гъащIэу": 3624,
      "урысхэм": 3625,
      "дэтхэнэми": 3626,
      "Марат": 3627,
      "иубыд": 3628,
      "Сэфар": 3629,
      "губзыгъэ": 3630,
      "щIыркъым": 3631,
      "Исмел": 3632,
      "урысыбзэкIэ": 3633,
      "гъуэгурыкIуэ": 3634,
      "Бахъсэн": 3635,
      "Зубер": 3636,
      "Блэ": 3637,
      "гущIэм": 3638,
      "щхьэхуэу": 3639,
      "стIо": 3640,
      "хьынщ": 3641,
      "кIахэм": 3642,
      "къэсащ": 3643,
      "уэркъ": 3644,
      "лэжьэн": 3645,
      "филосо": 3646,
      "пхуэдэ": 3647,
      "зыфIи": 3648,
      "гъуэтыр": 3649,
      "нури": 3650,
      "ном": 3651,
      "фие": 3652,
      "альнэ": 3653,
      "ГъуэгулI": 3654,
      "Хы": 3655,
      "ххэм": 3656,
      "хэкур": 3657,
      "АбыкIэ": 3658,
      "уэрэдыр": 3659,
      "Культурэ": 3660,
      "Бжьы": 3661,
      "Кхъу": 3662,
      "Нар": 3663,
      "бжьа": 3664,
      "къылъы": 3665,
      "купщIа": 3666,
      "ГъащIэм": 3667,
      "щIынщ": 3668,
      "хьыж": 3669,
      "мыхьэнэр": 3670,
      "вич": 3671,
      "ТхакIуэхэм": 3672,
      "Залым": 3673,
      "щIэры": 3674,
      "ынша": 3675,
      "мытIэу": 3676,
      "пэщэ": 3677,
      "плъэри": 3678,
      "Псыжь": 3679,
      "шэрджэсхэм": 3680,
      "щхъуантIэ": 3681,
      "лъын": 3682,
      "щызы": 3683,
      "къэкIы": 3684,
      "зэрыхъу": 3685,
      "нысэ": 3686,
      "щытхъу": 3687,
      "гъанэ": 3688,
      "щекIуэ": 3689,
      "фызыжьым": 3690,
      "санэ": 3691,
      "гъын": 3692,
      "къут": 3693,
      "къуей": 3694,
      "гъазэри": 3695,
      "кIыным": 3696,
      "сыхьэтым": 3697,
      "Бэр": 3698,
      "имыгъэ": 3699,
      "щкIэ": 3700,
      "зытIу": 3701,
      "зытет": 3702,
      "жьар": 3703,
      "фIщ": 3704,
      "къемы": 3705,
      "адыгэбзэр": 3706,
      "нымрэ": 3707,
      "хабзэу": 3708,
      "слъэгъу": 3709,
      "Владимир": 3710,
      "къыщIа": 3711,
      "хэгъэ": 3712,
      "абэм": 3713,
      "итIри": 3714,
      "псэукIэ": 3715,
      "нэмыс": 3716,
      "ЩIэныгъэ": 3717,
      "Умар": 3718,
      "им": 3719,
      "уэгум": 3720,
      "къыщIыхьэ": 3721,
      "син": 3722,
      "24": 3723,
      "дяпэкIэ": 3724,
      "ихьэ": 3725,
      "къарэ": 3726,
      "къыхы": 3727,
      "Iами": 3728,
      "Ауэрэ": 3729,
      "псэуну": 3730,
      "мащIэщ": 3731,
      "Iэсият": 3732,
      "ыху": 3733,
      "IэмыщIэ": 3734,
      "IукI": 3735,
      "бысым": 3736,
      "гупсысэхэр": 3737,
      "ващ": 3738,
      "гъэпсы": 3739,
      "дыкъуэ": 3740,
      "акIуэхэр": 3741,
      "гуэрхэм": 3742,
      "ГъащIэ": 3743,
      "тIуми": 3744,
      "бзылъхугъэ": 3745,
      "плIы": 3746,
      "IэкIуэ": 3747,
      "щIэз": 3748,
      "лъагъуэм": 3749,
      "къокIуэ": 3750,
      "револю": 3751,
      "Гер": 3752,
      "Хьэба": 3753,
      "къыщыхъу": 3754,
      "къомым": 3755,
      "анэмрэ": 3756,
      "Бэлэ": 3757,
      "Вал": 3758,
      "ехьэлIауэ": 3759,
      "гуащэр": 3760,
      "арщ": 3761,
      "ныбэ": 3762,
      "пщIон": 3763,
      "тхьэIуху": 3764,
      "сыны": 3765,
      "Зыми": 3766,
      "бам": 3767,
      "щIэблэм": 3768,
      "кIухь": 3769,
      "хуея": 3770,
      "мурадыр": 3771,
      "Кашиф": 3772,
      "Бэчмырзэ": 3773,
      "Александ": 3774,
      "Мес": 3775,
      "жми": 3776,
      "сен": 3777,
      "тр": 3778,
      "джыт": 3779,
      "щIыхьащ": 3780,
      "шэджа": 3781,
      "IуэхукIэ": 3782,
      "кIамэ": 3783,
      "пщыIэм": 3784,
      "тхьэмпэ": 3785,
      "къапщтэмэ": 3786,
      "кIэрахъуэ": 3787,
      "къэхутэныгъэ": 3788,
      "хъума": 3789,
      "амэм": 3790,
      "тин": 3791,
      "номи": 3792,
      "кIыртэкъым": 3793,
      "Дыгъэ": 3794,
      "тхьэмыщкIэм": 3795,
      "шэрыуэ": 3796,
      "ебгъэ": 3797,
      "едгъэ": 3798,
      "лэры": 3799,
      "тIыр": 3800,
      "щIыхьыр": 3801,
      "фэри": 3802,
      "уэзды": 3803,
      "къыщIе": 3804,
      "итIыс": 3805,
      "щIагъуэу": 3806,
      "хуакъым": 3807,
      "Мывэ": 3808,
      "тIас": 3809,
      "филологие": 3810,
      "пщIондэ": 3811,
      "Дзэ": 3812,
      "пфIэ": 3813,
      "пхуэс": 3814,
      "къыщI": 3815,
      "зэрызи": 3816,
      "лъагъуну": 3817,
      "хэта": 3818,
      "хьамэ": 3819,
      "каде": 3820,
      "щыхъукIэ": 3821,
      "игъащIэкIэ": 3822,
      "Феде": 3823,
      "угъур": 3824,
      "тедз": 3825,
      "къазэры": 3826,
      "кIэлъыкIуэ": 3827,
      "вмы": 3828,
      "кун": 3829,
      "джанэ": 3830,
      "къэф": 3831,
      "тыкуэ": 3832,
      "Сигу": 3833,
      "хьэлIащ": 3834,
      "пщыхьэщхьэм": 3835,
      "УсакIуэм": 3836,
      "тхьэкIумэ": 3837,
      "Губ": 3838,
      "илъыр": 3839,
      "дэх": 3840,
      "гъуэкIэ": 3841,
      "кIыжын": 3842,
      "щIами": 3843,
      "пычы": 3844,
      "жырти": 3845,
      "33": 3846,
      "Юрэ": 3847,
      "хут": 3848,
      "мыгъуэр": 3849,
      "нэхъыбэм": 3850,
      "нэхъыжьхэм": 3851,
      "Ленин": 3852,
      "му": 3853,
      "тха": 3854,
      "ыркъым": 3855,
      "щIыIэм": 3856,
      "Хьэу": 3857,
      "псэлъа": 3858,
      "инджылы": 3859,
      "сабийхэр": 3860,
      "Сабийхэм": 3861,
      "фри": 3862,
      "ыкъуэ": 3863,
      "шэт": 3864,
      "кус": 3865,
      "игукIэ": 3866,
      "жанр": 3867,
      "хъуреи": 3868,
      "29": 3869,
      "IуэкIэ": 3870,
      "адзэ": 3871,
      "удар": 3872,
      "бжыгъэр": 3873,
      "лъытэу": 3874,
      "ищIэрт": 3875,
      "лъам": 3876,
      "пси": 3877,
      "атэмэ": 3878,
      "къызже": 3879,
      "тохъуэ": 3880,
      "романым": 3881,
      "IэкIуэлъа": 3882,
      "илъу": 3883,
      "щыхьэ": 3884,
      "дэкI": 3885,
      "Iуплъэ": 3886,
      "Iупэм": 3887,
      "джэж": 3888,
      "жид": 3889,
      "Iуэхуу": 3890,
      "Iуэхущ": 3891,
      "ректор": 3892,
      "ныкъуэм": 3893,
      "хуеплъэ": 3894,
      "фызыжь": 3895,
      "къызыхэкIа": 3896,
      "пха": 3897,
      "армыхъумэ": 3898,
      "сызэ": 3899,
      "хъуным": 3900,
      "закъуэщ": 3901,
      "бийр": 3902,
      "Къуажэ": 3903,
      "26": 3904,
      "фэрэ": 3905,
      "шри": 3906,
      "къэплъы": 3907,
      "псэун": 3908,
      "къызэрыхэ": 3909,
      "команди": 3910,
      "кадеми": 3911,
      "Ав": 3912,
      "уемы": 3913,
      "рэщ": 3914,
      "зэрэ": 3915,
      "кIуу": 3916,
      "щытт": 3917,
      "Мысыр": 3918,
      "псэуа": 3919,
      "атэкъэ": 3920,
      "къэралхэм": 3921,
      "адрейр": 3922,
      "къыщалъхуа": 3923,
      "щабэу": 3924,
      "зэгухьэ": 3925,
      "Азэмэ": 3926,
      "зэкъуэ": 3927,
      "зыIэ": 3928,
      "гъухэм": 3929,
      "зэреплъ": 3930,
      "аба": 3931,
      "Iуэн": 3932,
      "Iуэхухэр": 3933,
      "къызэрыс": 3934,
      "щекIуэкIа": 3935,
      "фашист": 3936,
      "Мысост": 3937,
      "жисс": 3938,
      "тхьэмахуэ": 3939,
      "100": 3940,
      "Жанхъуэт": 3941,
      "Темыркъан": 3942,
      "Бг": 3943,
      "зар": 3944,
      "гъэгъу": 3945,
      "ейхэр": 3946,
      "тыгъэ": 3947,
      "гъафIэ": 3948,
      "доктор": 3949,
      "Адыгэхэм": 3950,
      "Iэщэр": 3951,
      "пщIэнтIэ": 3952,
      "машинэм": 3953,
      "машинэ": 3954,
      "ХьэтIохъущо": 3955,
      "ЛIо": 3956,
      "ай": 3957,
      "агъыр": 3958,
      "щыIа": 3959,
      "рий": 3960,
      "лья": 3961,
      "мобы": 3962,
      "джэри": 3963,
      "къэд": 3964,
      "сэт": 3965,
      "къысфIэ": 3966,
      "лъэхъэнэ": 3967,
      "!.": 3968,
      "бж": 3969,
      "ежэ": 3970,
      "зал": 3971,
      "зэзгъэ": 3972,
      "хуэдэм": 3973,
      "арати": 3974,
      "Iэркъым": 3975,
      "фызыр": 3976,
      "минист": 3977,
      "укъе": 3978,
      "щIыкIэм": 3979,
      "къехъу": 3980,
      "жьыуэ": 3981,
      "еяуэ": 3982,
      "телеви": 3983,
      "Дадэ": 3984,
      "нэри": 3985,
      "цIу": 3986,
      "щIэжу": 3987,
      "рэби": 3988,
      "къэхъуащ": 3989,
      "хуежьащ": 3990,
      "ЩIалэм": 3991,
      "лэжьэну": 3992,
      "щыхьэтщ": 3993,
      "Iэзэу": 3994,
      "зэрыр": 3995,
      "хэплъэ": 3996,
      "шынэу": 3997,
      "рохьэлIэ": 3998,
      "къыпхуи": 3999,
      "акъэ": 4000,
      "лын": 4001,
      "къыщIигъэ": 4002,
      "гумэ": 4003,
      "хъуху": 4004,
      "пэжым": 4005,
      "щIадзащ": 4006,
      "жумыIэ": 4007,
      "хьэщIэщым": 4008,
      "Мусэ": 4009,
      "СР": 4010,
      "парт": 4011,
      "плъагъур": 4012,
      "щрагъэ": 4013,
      "IэфIу": 4014,
      "зэдзэ": 4015,
      "мыдрей": 4016,
      "къуу": 4017,
      "союзым": 4018,
      "губзы": 4019,
      "бжыгъэкIэ": 4020,
      "Хамэ": 4021,
      "жыхуиIэу": 4022,
      "хьэлэл": 4023,
      "Сурэ": 4024,
      "Унэм": 4025,
      "техьэ": 4026,
      "цIыхубзыр": 4027,
      "дыхьэшхы": 4028,
      "зэрыщытам": 4029,
      "нэщхъей": 4030,
      "СССР": 4031,
      "тхьэкIумэм": 4032,
      "письмо": 4033,
      "къыхуэмы": 4034,
      "щIэту": 4035,
      "атIи": 4036,
      "имыIэ": 4037,
      "ирегъэ": 4038,
      "Михаил": 4039,
      "зэщIа": 4040,
      "зыщIыпIэ": 4041,
      "мыкIуэ": 4042,
      "фэщ": 4043,
      "ншэщ": 4044,
      "нэщхъейуэ": 4045,
      "Къэрмо": 4046,
      "Тхьэгъэзит": 4047,
      "ажал": 4048,
      "жет": 4049,
      "къыми": 4050,
      "щIылъэм": 4051,
      "джыI": 4052,
      "бгъэдэт": 4053,
      "зыгъэпсэху": 4054,
      "хъуэпсапIэ": 4055,
      "театр": 4056,
      "Хъыджэбз": 4057,
      "Тэрч": 4058,
      "27": 4059,
      "жхэм": 4060,
      "фымы": 4061,
      "эпо": 4062,
      "щыIэм": 4063,
      "гугъэм": 4064,
      "дие": 4065,
      "блыным": 4066,
      "гугъащ": 4067,
      "IупщIу": 4068,
      "Емы": 4069,
      "упщIы": 4070,
      "шыIэ": 4071,
      "унэтIы": 4072,
      "Хъус": 4073,
      "Пэжыр": 4074,
      "напэм": 4075,
      "гъэщIэгъуэну": 4076,
      "Iэпкълъэпкъ": 4077,
      "ехьэлIа": 4078,
      "ины": 4079,
      "гъэс": 4080,
      "хуэзэ": 4081,
      "къэб": 4082,
      "апит": 4083,
      "къудамэм": 4084,
      "лыды": 4085,
      "Сытми": 4086,
      "адэжь": 4087,
      "уэращ": 4088,
      "нэгъуэ": 4089,
      "щIыкIа": 4090,
      "къаху": 4091,
      "нэгъуэщIу": 4092,
      "гурыIуэгъуэ": 4093,
      "къагъэсэбэп": 4094,
      "Исхьэкъ": 4095,
      "натIэм": 4096,
      "икIэжым": 4097,
      "къэрэ": 4098,
      "къыумы": 4099,
      "хуэт": 4100,
      "зэхэгъэ": 4101,
      "арэзыуэ": 4102,
      "Андрей": 4103,
      "щызэхуэхьэ": 4104,
      "хэлъхьэныгъэ": 4105,
      "Аскэр": 4106,
      "лIэм": 4107,
      "ухуеймэ": 4108,
      "гъуэмрэ": 4109,
      "тIэкIуи": 4110,
      "пьесэ": 4111,
      "IуэрыIуатэм": 4112,
      "Евро": 4113,
      "пымы": 4114,
      "мыгъу": 4115,
      "реIэ": 4116,
      "Азэмэт": 4117,
      "ЛIэ": 4118,
      "тхъу": 4119,
      "гуо": 4120,
      "гъуэмы": 4121,
      "хадэ": 4122,
      "филь": 4123,
      "сэращ": 4124,
      "28": 4125,
      "фер": 4126,
      "нэсым": 4127,
      "гъуейщ": 4128,
      "Iуо": 4129,
      "къута": 4130,
      "джэну": 4131,
      "хуэдизу": 4132,
      "шагъэр": 4133,
      "пхъэм": 4134,
      "тхылъымпIэ": 4135,
      "Людми": 4136,
      "егъэлеяуэ": 4137,
      "Нанэ": 4138,
      "Рус": 4139,
      "хэращ": 4140,
      "нэгъуэщIым": 4141,
      "искус": 4142,
      "Куэдрэ": 4143,
      "ращIы": 4144,
      "хэмыту": 4145,
      "Дэри": 4146,
      "зей": 4147,
      "щыщIэдзауэ": 4148,
      "кIыхьым": 4149,
      "жимыIэу": 4150,
      "Мыкъуэ": 4151,
      "Къэжэр": 4152,
      "къытху": 4153,
      "хуащIы": 4154,
      "слъэгъуа": 4155,
      "шыпхъум": 4156,
      "Дэтхэнэ": 4157,
      "пкIэ": 4158,
      "хькIэ": 4159,
      "итт": 4160,
      "къыпи": 4161,
      "Дахэзи": 4162,
      "Федерацэм": 4163,
      "жджыт": 4164,
      "зэхуи": 4165,
      "нэн": 4166,
      "нумэ": 4167,
      "жаIащ": 4168,
      "мафIэр": 4169,
      "лъыхъуэу": 4170,
      "зыкъом": 4171,
      "Iэмэпсым": 4172,
      "Къэрэшей": 4173,
      "бат": 4174,
      "жо": 4175,
      "зре": 4176,
      "пхын": 4177,
      "къыжра": 4178,
      "гупсэху": 4179,
      "дыщIэ": 4180,
      "къэзакъ": 4181,
      "къуэн": 4182,
      "щытауэ": 4183,
      "Iэмыр": 4184,
      "гъуазэу": 4185,
      "зауэшхуэм": 4186,
      "къыдэкIуэу": 4187,
      "щызэхи": 4188,
      "бзэмрэ": 4189,
      "ежьэжащ": 4190,
      "Ищхъэрэм": 4191,
      "Сыно": 4192,
      "щылажьэ": 4193,
      "дэкIу": 4194,
      "лъэIуащ": 4195,
      "лэн": 4196,
      "кIыфIы": 4197,
      "жэгу": 4198,
      "хьами": 4199,
      "Гупсы": 4200,
      "лов": 4201,
      "мыращ": 4202,
      "жыгым": 4203,
      "лъапэм": 4204,
      "ещанэ": 4205,
      "Тенджыз": 4206,
      "езыгъэ": 4207,
      "ежьащ": 4208,
      "ищIу": 4209,
      "уху": 4210,
      "шэрэ": 4211,
      "малъ": 4212,
      "къежь": 4213,
      "хъункъым": 4214,
      "пхэ": 4215,
      "шхыу": 4216,
      "япэм": 4217,
      "Iэгу": 4218,
      "Iэтри": 4219,
      "къыкIэры": 4220,
      "фIыцI": 4221,
      "IуэхущIа": 4222,
      "пыухы": 4223,
      "лIыгъэм": 4224,
      "лIэн": 4225,
      "щIэтщ": 4226,
      "мэкъумэшы": 4227,
      "Ам": 4228,
      "Ты": 4229,
      "зэбгъэ": 4230,
      "нэпцI": 4231,
      "кIэщIэ": 4232,
      "хьэзаб": 4233,
      "кIуэнур": 4234,
      "щIыхуэ": 4235,
      "лыкъуэ": 4236,
      "пщIэшхуэ": 4237,
      "блым": 4238,
      "къызит": 4239,
      "мащIэкъым": 4240,
      "пхъэщ": 4241,
      "яхэтщ": 4242,
      "Хъыбар": 4243,
      "Усэхэр": 4244,
      "Залинэ": 4245,
      "лин": 4246,
      "удын": 4247,
      "ищIэрэ": 4248,
      "фащэу": 4249,
      "нэкIум": 4250,
      "ялъагъу": 4251,
      "кIыпIэм": 4252,
      "жами": 4253,
      "къысте": 4254,
      "хэлът": 4255,
      "таурыхъ": 4256,
      "гъыбзэ": 4257,
      "увыIащ": 4258,
      "Жьа": 4259,
      "щытыкIэр": 4260,
      "хъарзынэу": 4261,
      "УсакIуэ": 4262,
      "зэбгры": 4263,
      "районым": 4264,
      "зде": 4265,
      "пшынэ": 4266,
      "зыдэ": 4267,
      "щIэныгъэр": 4268,
      "джат": 4269,
      "дыгъуэ": 4270,
      "сыхэ": 4271,
      "хэтт": 4272,
      "ирихьэ": 4273,
      "ЦIыхубз": 4274,
      "гуфIэгъуэр": 4275,
      "ндэ": 4276,
      "пауэ": 4277,
      "фес": 4278,
      "зэгъ": 4279,
      "къупщхьэ": 4280,
      "Сэтэн": 4281,
      "жынкъым": 4282,
      "къыщIэкIа": 4283,
      "такъым": 4284,
      "лъабжьэр": 4285,
      "Адэм": 4286,
      "кл": 4287,
      "зэтра": 4288,
      "дигу": 4289,
      "гъэмахуэ": 4290,
      "бэнэ": 4291,
      "лъэгъуар": 4292,
      "къэзыу": 4293,
      "жыхуаIэ": 4294,
      "екIуу": 4295,
      "Аджы": 4296,
      "скIэ": 4297,
      "ящIащ": 4298,
      "щыте": 4299,
      "зыщIи": 4300,
      "арауэ": 4301,
      "ына": 4302,
      "зэрыхъур": 4303,
      "щхьэху": 4304,
      "дзэпщ": 4305,
      "зощI": 4306,
      "Мазэ": 4307,
      "Мамэ": 4308,
      "Iэнщи": 4309,
      "Бел": 4310,
      "ефэ": 4311,
      "жхэр": 4312,
      "жреIэ": 4313,
      "нэса": 4314,
      "усакIуэр": 4315,
      "лъагэм": 4316,
      "комым": 4317,
      "пщэдджыжьым": 4318,
      "Дунейпсо": 4319,
      "нартыху": 4320,
      "КхъыIэ": 4321,
      "кра": 4322,
      "хэхъуэ": 4323,
      "жыпIа": 4324,
      "етх": 4325,
      "коми": 4326,
      "уэрэджыI": 4327,
      "щIоупщIэ": 4328,
      "хабзэщ": 4329,
      "хьэлъэу": 4330,
      "Шэрджэсым": 4331,
      "хьэгъуэлIы": 4332,
      "Александр": 4333,
      "муслъымэн": 4334,
      "тий": 4335,
      "хьэщIэр": 4336,
      "лъэтэ": 4337,
      "щIыкIэр": 4338,
      "дегъэ": 4339,
      "шэсы": 4340,
      "къыщызэ": 4341,
      "блэкIам": 4342,
      "къыдэкIы": 4343,
      "псалъэмакъыр": 4344,
      "хьэзырщ": 4345,
      "Ныб": 4346,
      "гъатхэ": 4347,
      "зыбжанэм": 4348,
      "Жа": 4349,
      "еш": 4350,
      "цым": 4351,
      "щIэпхъуэ": 4352,
      "лъагъуэу": 4353,
      "къанэ": 4354,
      "жащи": 4355,
      "Маси": 4356,
      "Мэш": 4357,
      "зытепсэлъы": 4358,
      "зымыгъэ": 4359,
      "Абду": 4360,
      "гузэвэгъуэ": 4361,
      "75": 4362,
      "ищ": 4363,
      "Iэс": 4364,
      "зэныбжьэгъу": 4365,
      "щIэри": 4366,
      "къэпсэлъащ": 4367,
      "куры": 4368,
      "ткIуэ": 4369,
      "щакIуэ": 4370,
      "уэлэхьи": 4371,
      "къыдыхьэ": 4372,
      "атья": 4373,
      "Iун": 4374,
      "фIыгъэкIэ": 4375,
      "гъазэу": 4376,
      "зэхэщIы": 4377,
      "бгъум": 4378,
      "гуапэщ": 4379,
      "логием": 4380,
      "Уафэ": 4381,
      "вмыгъэ": 4382,
      "гувэу": 4383,
      "Iыгъы": 4384,
      "сыхуейт": 4385,
      "режисс": 4386,
      "Зэхэ": 4387,
      "теткъым": 4388,
      "щыгъуэми": 4389,
      "быным": 4390,
      "Абдежым": 4391,
      "пщIыхьэпIэ": 4392,
      "Хъусен": 4393,
      "Руслан": 4394,
      "Крити": 4395,
      "ипэ": 4396,
      "иIэр": 4397,
      "трэ": 4398,
      "мэуэ": 4399,
      "зэрыщымы": 4400,
      "ров": 4401,
      "кIэмрэ": 4402,
      "мыхъумы": 4403,
      "лIэщIыгъуэ": 4404,
      "жокъуэ": 4405,
      "пкъыр": 4406,
      "кърым": 4407,
      "эмал": 4408,
      "Къысхуэ": 4409,
      "щIыным": 4410,
      "къытехьащ": 4411,
      "иIэтэкъым": 4412,
      "купщIафIэ": 4413,
      "бр": 4414,
      "слъагъур": 4415,
      "сыкъо": 4416,
      "телъу": 4417,
      "къэхъуа": 4418,
      "тэлай": 4419,
      "жаIэрт": 4420,
      "фIыцIэм": 4421,
      "рес": 4422,
      "зезы": 4423,
      "Уэс": 4424,
      "Уэзыр": 4425,
      "тхьэмыщкIэр": 4426,
      "Людмилэ": 4427,
      "щыгу": 4428,
      "щIэзы": 4429,
      "лъэдащ": 4430,
      "Къаз": 4431,
      "Аращи": 4432,
      "жынкIэ": 4433,
      "поплъэ": 4434,
      "насыпым": 4435,
      "къурш": 4436,
      "обще": 4437,
      "пIащэ": 4438,
      "42": 4439,
      "Псэу": 4440,
      "Ту": 4441,
      "ехьэ": 4442,
      "уэлий": 4443,
      "сыкъыщы": 4444,
      "лъытащ": 4445,
      "щIакхъуэ": 4446,
      "Iуэхухэм": 4447,
      "къызэп": 4448,
      "паг": 4449,
      "къащхьэ": 4450,
      "къащтэ": 4451,
      "къызэралъху": 4452,
      "пIейтей": 4453,
      "Пуш": 4454,
      "Уры": 4455,
      "яIэщ": 4456,
      "къабы": 4457,
      "лъо": 4458,
      "щыгуфIы": 4459,
      "сыхуейщ": 4460,
      "къудейм": 4461,
      "фIагъэ": 4462,
      "жынщи": 4463,
      "Гъунэ": 4464,
      "зэрыщытым": 4465,
      "хьынур": 4466,
      "залымы": 4467,
      "Пшэ": 4468,
      "ок": 4469,
      "нэсы": 4470,
      "дызы": 4471,
      "анэми": 4472,
      "зэрызе": 4473,
      "хэтми": 4474,
      "плъым": 4475,
      "догъэ": 4476,
      "тIысэ": 4477,
      "кав": 4478,
      "къэскIэ": 4479,
      "нэужьщ": 4480,
      "Апхуэдэщ": 4481,
      "колхоз": 4482,
      "35": 4483,
      "ТекIуэ": 4484,
      "эк": 4485,
      "IэщIыб": 4486,
      "дыте": 4487,
      "къуэрылъху": 4488,
      "шапсыгъ": 4489,
      "гуауэр": 4490,
      "Хьэбас": 4491,
      "ыма": 4492,
      "щын": 4493,
      "лыхь": 4494,
      "накъым": 4495,
      "дзап": 4496,
      "къызэрыщIэ": 4497,
      "тхылъхэм": 4498,
      "щхьэри": 4499,
      "лъэныкъуэр": 4500,
      "ковник": 4501,
      "Зу": 4502,
      "щыпэ": 4503,
      "ныжэбэ": 4504,
      "хуэдэурэ": 4505,
      "пIэн": 4506,
      "шэнт": 4507,
      "куэдщ": 4508,
      "поэмэ": 4509,
      "щIынур": 4510,
      "щIымахуэ": 4511,
      "Аджыкъу": 4512,
      "кар": 4513,
      "къыгурыIуащ": 4514,
      "нэIэ": 4515,
      "щыхуэ": 4516,
      "щыкъу": 4517,
      "хъугъуэ": 4518,
      "хыхьащ": 4519,
      "хъунутэкъым": 4520,
      "къытригъэ": 4521,
      "гъуэтыну": 4522,
      "Хьэмэрэ": 4523,
      "хъарзынэ": 4524,
      "напIэзы": 4525,
      "ерыскъы": 4526,
      "ижьыр": 4527,
      "пу": 4528,
      "сщIы": 4529,
      "хъаз": 4530,
      "нэф": 4531,
      "кIэн": 4532,
      "купщIэ": 4533,
      "гъавэ": 4534,
      "псэущхьэ": 4535,
      "унэтIащ": 4536,
      "хъуащи": 4537,
      "усакIуэхэм": 4538,
      "еджэу": 4539,
      "езыхэр": 4540,
      "аракъэ": 4541,
      "тенджы": 4542,
      "плIанэ": 4543,
      "мамыр": 4544,
      "зыпы": 4545,
      "гуэш": 4546,
      "щытым": 4547,
      "щIадзэ": 4548,
      "сом": 4549,
      "ныкъуэкъу": 4550,
      "ГуфIэ": 4551,
      "щхьэрэ": 4552,
      "антIэм": 4553,
      "йоплъ": 4554,
      "щIыпIэхэм": 4555,
      "сату": 4556,
      "щIалэгъуалэм": 4557,
      "гъуазджэм": 4558,
      "елъытауэ": 4559,
      "жалым": 4560,
      "ихьащ": 4561,
      "южет": 4562,
      "зыкъе": 4563,
      "дэкIа": 4564,
      "гуэрхэри": 4565,
      "орд": 4566,
      "Гъэм": 4567,
      "тхьэмадэм": 4568,
      "лъхьэну": 4569,
      "хьил": 4570,
      "жыджэру": 4571,
      "мен": 4572,
      "зыбгъэ": 4573,
      "къуэу": 4574,
      "къызэте": 4575,
      "илъэгъуа": 4576,
      "нэгъуэщIхэми": 4577,
      "Мэжид": 4578,
      "Къущхьэ": 4579,
      "щынэмыщIауэ": 4580,
      "Каб": 4581,
      "шха": 4582,
      "хьэлъэр": 4583,
      "къис": 4584,
      "пкъры": 4585,
      "ябрым": 4586,
      "Иужьрей": 4587,
      "сей": 4588,
      "цIа": 4589,
      "кIэкIэ": 4590,
      "дэкIри": 4591,
      "жьи": 4592,
      "сыще": 4593,
      "кIыхьа": 4594,
      "Хьэб": 4595,
      "лIар": 4596,
      "орг": 4597,
      "баш": 4598,
      "хъыбары": 4599,
      "зыхуэдэр": 4600,
      "Се": 4601,
      "кхъуа": 4602,
      "чын": 4603,
      "Iэджэм": 4604,
      "итха": 4605,
      "зэпеуэ": 4606,
      "Дыгъу": 4607,
      "удзы": 4608,
      "фыркъым": 4609,
      "тенджыз": 4610,
      "хьэлэмэт": 4611,
      "Пхъэ": 4612,
      "афIэкIа": 4613,
      "шхуи": 4614,
      "Iэужь": 4615,
      "щыуагъэ": 4616,
      "дидат": 4617,
      "кIуи": 4618,
      "куль": 4619,
      "фIыцIэр": 4620,
      "лIхэм": 4621,
      "тутын": 4622,
      "къызэгъэ": 4623,
      "яхэту": 4624,
      "IуэрыIуатэ": 4625,
      "критик": 4626,
      "дел": 4627,
      "хъуэж": 4628,
      "лим": 4629,
      "кономи": 4630,
      "гупсысыр": 4631,
      "блэгъэ": 4632,
      "Iэнкун": 4633,
      "шынэр": 4634,
      "IэдакъэщIэкIхэм": 4635,
      "Бат": 4636,
      "ТIу": 4637,
      "бгъуэн": 4638,
      "музы": 4639,
      "ца": 4640,
      "цыр": 4641,
      "лъэкI": 4642,
      "къалъху": 4643,
      "дзар": 4644,
      "хъуари": 4645,
      "убзыху": 4646,
      "зэхэу": 4647,
      "удащ": 4648,
      "уэрэдым": 4649,
      "къэралыгъуэм": 4650,
      "быдапIэ": 4651,
      "студент": 4652,
      "Къэрмокъуэ": 4653,
      "Iыр": 4654,
      "академи": 4655,
      "ищIэркъым": 4656,
      "бэлэры": 4657,
      "къысщохъу": 4658,
      "Сытым": 4659,
      "къабзэм": 4660,
      "евым": 4661,
      "Бицу": 4662,
      "Пет": 4663,
      "зам": 4664,
      "кес": 4665,
      "яубыд": 4666,
      "Iэлъэ": 4667,
      "хуат": 4668,
      "Iуэм": 4669,
      "дах": 4670,
      "уиIэ": 4671,
      "солъагъу": 4672,
      "тхащ": 4673,
      "блэкIа": 4674,
      "хуэдизкIэ": 4675,
      "лэжьапIэ": 4676,
      "Пэжу": 4677,
      "жэщыр": 4678,
      "IэдакъэщIэкIхэр": 4679,
      "Шор": 4680,
      "Япэр": 4681,
      "ско": 4682,
      "къыды": 4683,
      "къыщхьэщы": 4684,
      "зэкIу": 4685,
      "абзэу": 4686,
      "дыдж": 4687,
      "Iуу": 4688,
      "диным": 4689,
      "жыхь": 4690,
      "кIыжым": 4691,
      "пIэщIэ": 4692,
      "шэж": 4693,
      "жьэгу": 4694,
      "джыкI": 4695,
      "къопсалъэ": 4696,
      "профес": 4697,
      "щысщ": 4698,
      "кандидат": 4699,
      "бер": 4700,
      "лIэу": 4701,
      "ня": 4702,
      "щыIащ": 4703,
      "жьэрэ": 4704,
      "жиIам": 4705,
      "плъэрт": 4706,
      "ящыщт": 4707,
      "зэрамы": 4708,
      "уэрэдхэр": 4709,
      "къудейкъым": 4710,
      "Ленэ": 4711,
      "ехыжащ": 4712,
      "зейр": 4713,
      "къыщагъэ": 4714,
      "хьэдэр": 4715,
      "щхьэкIи": 4716,
      "къахуи": 4717,
      "нэхъыжьы": 4718,
      "ныкъуэр": 4719,
      "псалъэкIэ": 4720,
      "кIымкIэ": 4721,
      "Ком": 4722,
      "хуэри": 4723,
      "гупы": 4724,
      "псэри": 4725,
      "мыгъуэм": 4726,
      "гъуэри": 4727,
      "кIыфIым": 4728,
      "шыгъу": 4729,
      "щIамэ": 4730,
      "пщащэр": 4731,
      "шагъэм": 4732,
      "Сэтэней": 4733,
      "Жи": 4734,
      "кхъыIэ": 4735,
      "IэфIы": 4736,
      "къыхуигъэ": 4737,
      "рэдж": 4738,
      "къуэпс": 4739,
      "тэтэр": 4740,
      "итхы": 4741,
      "щхьу": 4742,
      "цIыр": 4743,
      "ныбжьэгъур": 4744,
      "къыщIокI": 4745,
      "зэхуакум": 4746,
      "анэдэлъхубзэм": 4747,
      "гукъыдэж": 4748,
      "сюжет": 4749,
      "уэну": 4750,
      "мыхъуну": 4751,
      "апэу": 4752,
      "зэрыхъунур": 4753,
      "пIэщ": 4754,
      "итIми": 4755,
      "пон": 4756,
      "толъ": 4757,
      "Гугъу": 4758,
      "псалъэмакъым": 4759,
      "Тхыдэ": 4760,
      "щIыбым": 4761,
      "зэхъуэкIыныгъэ": 4762,
      "Масирэт": 4763,
      "ПщI": 4764,
      "Псым": 4765,
      "Ша": 4766,
      "ябг": 4767,
      "IэщIэу": 4768,
      "жыф": 4769,
      "пэплъэу": 4770,
      "гъэрщ": 4771,
      "итIкIэ": 4772,
      "щыщщ": 4773,
      "Гъуб": 4774,
      "къыпфIэ": 4775,
      "хъуртэкъым": 4776,
      "тIысхьэри": 4777,
      "вла": 4778,
      "зыхуа": 4779,
      "щIэкIащ": 4780,
      "дэкIауэ": 4781,
      "мыдэкIэ": 4782,
      "джатэ": 4783,
      "кIуэты": 4784,
      "хэтыр": 4785,
      "дежкIи": 4786,
      "пщэфI": 4787,
      "Зэгуэрым": 4788,
      "Аслъэнджэрий": 4789,
      "ТхакIуэ": 4790,
      "колхозым": 4791,
      "Бжэ": 4792,
      "ыжу": 4793,
      "нэжэгу": 4794,
      "щыхъуащ": 4795,
      "зыуэ": 4796,
      "зыхуагъэ": 4797,
      "дия": 4798,
      "зэрыхъуам": 4799,
      "стро": 4800,
      "гурыгъу": 4801,
      "къуршы": 4802,
      "бжьыхьэ": 4803,
      "унафэщIхэм": 4804,
      "плIэм": 4805,
      "Темрыкъуэ": 4806,
      "Вагъуэ": 4807,
      "Николай": 4808,
      "90": 4809,
      "зат": 4810,
      "пш": 4811,
      "папэ": 4812,
      "тхьэры": 4813,
      "гъагъэ": 4814,
      "зэхуэдэ": 4815,
      "гуIэ": 4816,
      "лъэгум": 4817,
      "блын": 4818,
      "щыму": 4819,
      "слъэгъуащ": 4820,
      "ещхьыр": 4821,
      "жанрым": 4822,
      "хыркъым": 4823,
      "кIуэцIры": 4824,
      "КIунэ": 4825,
      "насыпыфIэ": 4826,
      "ТIы": 4827,
      "Щэу": 4828,
      "сагъэ": 4829,
      "узо": 4830,
      "гъымрэ": 4831,
      "хъэр": 4832,
      "пэлъытэ": 4833,
      "хьэми": 4834,
      "къадэ": 4835,
      "къари": 4836,
      "къагурыIуэ": 4837,
      "гъаджэ": 4838,
      "Гум": 4839,
      "щIыпIэкIэ": 4840,
      "партым": 4841,
      "дыжьын": 4842,
      "гъунапкъэ": 4843,
      ");": 4844,
      "СщIэркъым": 4845,
      "Стал": 4846,
      "нкIи": 4847,
      "фор": 4848,
      "экономи": 4849,
      "аркъэ": 4850,
      "диви": 4851,
      "сиIэщ": 4852,
      "фэщащ": 4853,
      "плъыт": 4854,
      "ЩIэблэ": 4855,
      "амазонкэхэм": 4856,
      "танк": 4857,
      "Кабар": 4858,
      "бащ": 4859,
      "ищIауэ": 4860,
      "уеплъ": 4861,
      "фащэм": 4862,
      "хрэ": 4863,
      "яIэу": 4864,
      "щыст": 4865,
      "джагъэ": 4866,
      "джабэм": 4867,
      "сэшхуэ": 4868,
      "жахэм": 4869,
      "псыхъуэ": 4870,
      "куэды": 4871,
      "куэбжэм": 4872,
      "щIалэхэр": 4873,
      "вакъэ": 4874,
      "лъэныкъуэкIи": 4875,
      "Заурбэч": 4876,
      "дыхьэшхащ": 4877,
      "Iэпкълъэпкъыр": 4878,
      "Ныбжьэгъу": 4879,
      "ФатIи": 4880,
      "чат": 4881,
      "кIщ": 4882,
      "къыхигъэ": 4883,
      "къыжриIащ": 4884,
      "дэкIащ": 4885,
      "къафэ": 4886,
      "хъункIэ": 4887,
      "кIынкъым": 4888,
      "кIыжмэ": 4889,
      "жызоIэри": 4890,
      "Пщэдей": 4891,
      "ефэнды": 4892,
      "зэпымыууэ": 4893,
      "Бгы": 4894,
      "щIэуэ": 4895,
      "дэсхэм": 4896,
      "хуейми": 4897,
      "гъахъуэ": 4898,
      "дзу": 4899,
      "ЛIыхъу": 4900,
      "нэщхъы": 4901,
      "здэщыIэр": 4902,
      "дыгъуасэ": 4903,
      "новеллэ": 4904,
      "республикэ": 4905,
      "шабзэ": 4906,
      "щта": 4907,
      "зэреджэр": 4908,
      "деи": 4909,
      "Iуэхутхьэ": 4910,
      "гъажэ": 4911,
      "зэридзэ": 4912,
      "бло": 4913,
      "Зэи": 4914,
      "сынщ": 4915,
      "жьакIэ": 4916,
      "пшыхь": 4917,
      "Дахэзилэ": 4918,
      "31": 4919,
      "дры": 4920,
      "едзы": 4921,
      "едаIуэ": 4922,
      "щыщIа": 4923,
      "щылэжьащ": 4924,
      "кIуэтэ": 4925,
      "щхьэу": 4926,
      "зигу": 4927,
      "шэхэр": 4928,
      "адры": 4929,
      "ХьэфIыцIэ": 4930,
      "инщ": 4931,
      "Мыдэ": 4932,
      "ГъащIэр": 4933,
      "хъыбархэр": 4934,
      "ЩIалэр": 4935,
      "ещхьщ": 4936,
      "лъэIур": 4937,
      "ирехъу": 4938,
      "лъытэри": 4939,
      "жыхуэпIэр": 4940,
      "ищIэн": 4941,
      "лъхьэр": 4942,
      "гукъинэ": 4943,
      "щIэкIа": 4944,
      "хэха": 4945,
      "лъэф": 4946,
      "эрим": 4947,
      "Iахэм": 4948,
      "увэу": 4949,
      "орде": 4950,
      "гъуэгулI": 4951,
      "акъылыр": 4952,
      "къэралыгъуэр": 4953,
      "Мэрем": 4954,
      "Хьэмыщэ": 4955,
      "IитIыр": 4956,
      "дригъэ": 4957,
      "нитIым": 4958,
      "щанэ": 4959,
      "фIэкIуэ": 4960,
      "зиIэм": 4961,
      "шыкур": 4962,
      "къыщылъэ": 4963,
      "псэукIэр": 4964,
      "тхауэ": 4965,
      "лъэпкъэгъухэм": 4966,
      "классым": 4967,
      "поэзием": 4968,
      "Бал": 4969,
      "Уо": 4970,
      "Щымы": 4971,
      "жейм": 4972,
      "рамэ": 4973,
      "сов": 4974,
      "илъэсым": 4975,
      "тэрт": 4976,
      "джэрт": 4977,
      "адыгэр": 4978,
      "Нобэр": 4979,
      "полковник": 4980,
      "пред": 4981,
      "37": 4982,
      "бэу": 4983,
      "лхэр": 4984,
      "тми": 4985,
      "ухэ": 4986,
      "щIэблэ": 4987,
      "щIэблэр": 4988,
      "дыкъи": 4989,
      "зихъуэ": 4990,
      "гъэми": 4991,
      "лIэну": 4992,
      "япэщIыкIэ": 4993,
      "Дыгъэр": 4994,
      "литературэмрэ": 4995,
      "IэфIыр": 4996,
      "гушхуэу": 4997,
      "Мыбдежым": 4998,
      "хьэтыркIэ": 4999
    },
    "merges": [
      "у э",
      "I э",
      "к ъ",
      "г ъ",
      "э р",
      "э м",
      "ы м",
      "л ъ",
      "к I",
      "х ь",
      "х ъ",
      "гъ э",
      "а щ",
      "х у",
      "щ I",
      "къ ы",
      "ы р",
      "з э",
      "н э",
      "к Iэ",
      "щ ы",
      "х уэ",
      "хь э",
      "з ы",
      "г у",
      "щ Iэ",
      "д э",
      "р и",
      "ж ь",
      "а р",
      "х эм",
      "I ы",
      "п с",
      "ы н",
      "р э",
      "м ы",
      "хъ у",
      "гъ у",
      "е й",
      "з эр",
      "х э",
      "гъ уэ",
      "лъ э",
      "х эр",
      "къ ым",
      "д ж",
      "а б",
      "д ы",
      "а уэ",
      "с ы",
      "кI уэ",
      "т е",
      "а т",
      "а н",
      "м э",
      "а л",
      "къ э",
      "а п",
      "I у",
      "д и",
      "зэр ы",
      "у р",
      "с э",
      "къ уэ",
      "м и",
      "с и",
      "щI ы",
      "ц Iы",
      "н у",
      "х ы",
      "н ы",
      "щ хьэ",
      "э у",
      "аб ы",
      "къ у",
      "кI у",
      "I уэ",
      "ж ы",
      "ф Iэ",
      "нэ хъ",
      "К ъ",
      "т э",
      "п э",
      "а м",
      "б ы",
      "лъ а",
      "и т",
      "хуэ дэ",
      "л э",
      "у н",
      "р ы",
      "ащ Iэ",
      "кI ы",
      "лъ ы",
      "з и",
      "къ и",
      "д а",
      "п Iэ",
      "р а",
      "щ э",
      "ын у",
      "г уэ",
      "д е",
      "у и",
      "дж э",
      "м а",
      "а кIуэ",
      "ш э",
      "с т",
      "цIы ху",
      "щы т",
      "эр и",
      "хъ уэ",
      "хь эм",
      "гъ эм",
      "а гъэ",
      "ж и",
      "ж а",
      "б э",
      "жь э",
      "з эм",
      "и й",
      "з а",
      "А р",
      "гуэ р",
      "у жь",
      "ф I",
      "з ым",
      "к у",
      "ф э",
      "ш ы",
      "з ыр",
      "щ и",
      "ды г",
      "Х ь",
      "т Iэ",
      "у рэ",
      "къ е",
      "I а",
      "щI а",
      "ф Iы",
      "ш хуэ",
      "къ а",
      "кI и",
      "Iуэ ху",
      "ж э",
      "пс ы",
      "л и",
      "ху ей",
      "лъа гъу",
      "ы т",
      "х а",
      "Iэ р",
      "эр э",
      "пс о",
      "р е",
      "дыг э",
      "хэ т",
      "Iэ м",
      "А бы",
      "и гъэ",
      "т хы",
      "дж ы",
      "к уэ",
      "кI а",
      "п лъ",
      "а д",
      "т ы",
      "р о",
      "пс а",
      "де ж",
      "у в",
      "Iэ у",
      "ал э",
      "Хь э",
      "пс э",
      "б гъэ",
      "т и",
      "тэ къым",
      "нэхъ ы",
      "хуэдэ у",
      "ей м",
      "л ы",
      "ым ы",
      "лъэ п",
      "сы т",
      "н а",
      "л I",
      "гъ эр",
      "ж ащ",
      "хь эр",
      "къы щы",
      "л а",
      "п ы",
      "эм ы",
      "с о",
      "е т",
      "куэ д",
      "и н",
      "ж у",
      "гъ ащIэ",
      "п щ",
      "ху и",
      "а дыгэ",
      "цIы кIу",
      "гъ а",
      "жь ы",
      "С э",
      "л Iы",
      "ху а",
      "хъ ы",
      "щхьэ кIэ",
      "ит I",
      "о р",
      "С и",
      "у с",
      "ж ын",
      "п щI",
      "е р",
      "д ун",
      "А уэ",
      "а нэ",
      "л Iэ",
      "М ы",
      "пс эу",
      "къ о",
      "д о",
      "ыр т",
      "т Iы",
      "гу м",
      "т у",
      "п щIэ",
      "д зэ",
      "I ащ",
      "» ,",
      "гу ры",
      "ж е",
      "и ри",
      "с а",
      "к о",
      "д ей",
      "д з",
      "зэр и",
      "щIэ у",
      "ф ы",
      "х и",
      "н о",
      "къы с",
      "къы зэры",
      "щы щ",
      "е н",
      "гъу а",
      "ун а",
      "къы зэ",
      "ны гъэ",
      "щI и",
      "хэр и",
      "з гъэ",
      "кI ащ",
      "къы щIэ",
      "хъ э",
      "гу псы",
      "щы Iэ",
      "з о",
      "С ыт",
      "с ым",
      "хъу н",
      "эм э",
      "Къ э",
      "хъу а",
      "б л",
      "ц Iэ",
      "гъуэ м",
      "къ эр",
      "р ат",
      "з е",
      "б эр",
      "гъуэ щI",
      "зы гъэ",
      "и лъэ",
      "хъу ну",
      "мы гъэ",
      "ны къуэ",
      "пса лъэ",
      "у б",
      "п лъэ",
      "хэ лъ",
      "дэ у",
      "т а",
      "щI алэ",
      "п о",
      "ны б",
      "кI ын",
      "к э",
      "хэм рэ",
      "къы т",
      "ж ыр",
      "н ым",
      "кIы у",
      "Н э",
      "У э",
      "эр ы",
      "хь а",
      "т I",
      "ап Iэ",
      "гу р",
      "т ыр",
      "д эм",
      "у нэ",
      "б зэ",
      "ж ри",
      "хь ащ",
      "щIэ р",
      "у а",
      "з ауэ",
      "ма хуэ",
      "п щы",
      "жь ым",
      "е гъэ",
      "къ ри",
      "М а",
      "у бы",
      "а дэ",
      "к а",
      "щ а",
      "Къ ы",
      "нэ гъуэщI",
      "лъ эм",
      "Д и",
      "1 9",
      "п лъы",
      "А п",
      "ж ыну",
      "Г ъ",
      "З ы",
      "ыр и",
      "н щ",
      "зэ хэ",
      "къу а",
      "р ей",
      "лъэп къ",
      "и с",
      "ащ э",
      "щ ым",
      "ф и",
      "хуэ ди",
      "ху е",
      "х аб",
      "къы з",
      "щ е",
      "за къуэ",
      "щ хьэр",
      "п щэ",
      "т х",
      "б з",
      "е м",
      "т ым",
      "гъуэ р",
      "псо ри",
      "с у",
      "т о",
      "б лэ",
      "къы дэ",
      "С ы",
      "къы п",
      "хэм и",
      "б а",
      "п хъу",
      "ап э",
      "щ о",
      "р т",
      "гу гъу",
      "я пэ",
      "Iэ н",
      "и мы",
      "т ри",
      "ат и",
      "е с",
      "Г у",
      "лъ ху",
      "тхы лъ",
      "У и",
      "ар э",
      "щ хь",
      "хуэди з",
      "эм и",
      "къы хэ",
      "зэм ан",
      "и джы",
      "б г",
      "хъу ащ",
      "абы хэм",
      "л ь",
      "а хэр",
      "те рат",
      "Х ъ",
      "ра гъэ",
      "м о",
      "п а",
      "лэ жь",
      "кIэ м",
      "с эр",
      "хуэ мы",
      "З э",
      "къэ с",
      "жы пIэ",
      "с аб",
      "в э",
      "т хьэ",
      "ш х",
      "н и",
      "у мы",
      "щI ащ",
      "н ыр",
      "кI ыр",
      "хь ым",
      "зэ п",
      "зэ фIэ",
      "и кIи",
      "зы гуэр",
      "т Iу",
      "Д ы",
      "дун ейм",
      "ку м",
      "ат э",
      "гъ ы",
      "я щыщ",
      "Д э",
      "илъэ с",
      "с е",
      "щI ын",
      "хэ у",
      "т хьэм",
      "т ын",
      "лъ хьэ",
      "б ар",
      "къэр ал",
      "ар ащ",
      "ш а",
      "» .",
      ". .",
      "ап хуэдэ",
      "ей р",
      "жьэ гъу",
      "ан эм",
      "ли терат",
      "д гъэ",
      "зыр и",
      "Х э",
      "т ащ",
      "б ий",
      "л о",
      "ур ы",
      "ан тIэ",
      "къы те",
      "Iэ ри",
      "Iу ащ",
      "М э",
      "щI ал",
      "н ур",
      "м ыр",
      "х о",
      "нэ ужь",
      "п ап",
      "й о",
      "х ащ",
      "ж эм",
      "ш эр",
      "уэ рэ",
      "жь ыр",
      "мы хъу",
      "пIэ м",
      "гъу сэ",
      "е зым",
      "къи гъэ",
      "и Iэ",
      "п ащ",
      "щI о",
      "у сэ",
      "гъуэ гу",
      "къы зэр",
      "ш ын",
      "щ ымы",
      "с ыр",
      "хуэ м",
      "бэр дей",
      "хьэ л",
      "дэ т",
      "гъащIэ м",
      "сы п",
      "у д",
      "б о",
      "д эр",
      "лъ эр",
      "ц I",
      "щI ым",
      "с эм",
      "ус акIуэ",
      "ш эу",
      "А дыгэ",
      "к эм",
      "ж ым",
      "щI у",
      "фIы уэ",
      "я гъэ",
      "къы зы",
      "ныб жьэгъу",
      "н эмы",
      "ху ащ",
      "те у",
      "п I",
      "пап щIэ",
      "кIэ р",
      "ри гъэ",
      "щы зэ",
      "ш у",
      "щ хьэм",
      "л е",
      "хъы бар",
      "лэ жьы",
      "жи Iащ",
      "уэ р",
      "м ащIэ",
      "н ал",
      "З а",
      "в а",
      "Ц Iы",
      "зэ у",
      "ув ы",
      "уна фэ",
      "м ур",
      "щыт а",
      "ф эм",
      "С о",
      "гуры Iуэ",
      "с ын",
      "н эм",
      "е мы",
      "дж ыри",
      "а в",
      "д зы",
      "ан эр",
      "гу б",
      "ж ауэ",
      "щIэ м",
      "ым рэ",
      "саб ий",
      "къы р",
      "кI ыну",
      "гъу нэ",
      "и ужь",
      "хуей щ",
      "ды дэу",
      "хы у",
      "шхуэ м",
      "хь ы",
      "н т",
      "хъы джэ",
      "тх акIуэ",
      "те т",
      "ды хьэ",
      "убы д",
      "ды дэ",
      "хъу р",
      "Л ъ",
      "псо м",
      "у зы",
      "ЦIы ху",
      "къ алэ",
      "щI ауэ",
      "тIы с",
      "е дж",
      "ну щ",
      "и гу",
      "е зы",
      "кIы ж",
      "щI ыр",
      "тхы гъэ",
      "ув э",
      "жы с",
      "н эр",
      "и ст",
      "Ап хуэдэ",
      "Iэ щ",
      "тIэ кIу",
      "Iэ п",
      "ан и",
      "М у",
      "кI ри",
      "гу фIэ",
      "ху ит",
      "ей уэ",
      "литерат ур",
      "Iа нэ",
      "Б а",
      "гу п",
      "къ ар",
      "Iэм ал",
      "кIэ лъы",
      "ч э",
      "с лъэ",
      "ны гъэм",
      "зы хуэ",
      "щIы хь",
      "щIэ ныгъэ",
      "фIэ щ",
      "да хэ",
      "гуэр ым",
      "ры с",
      "щыт ащ",
      "ап Iэм",
      "з дэ",
      "псо ми",
      "з у",
      "Къэ бэрдей",
      "пс эр",
      "зэр а",
      "хъу мэ",
      "с п",
      "уб ли",
      "кI ур",
      "л ым",
      "гъуэ т",
      "нэ с",
      "П э",
      "лъэ ныкъуэ",
      "бгъэ дэ",
      "б зэм",
      "е и",
      "м рэ",
      "д ауэ",
      "ц э",
      "и джыри",
      "а къым",
      "дун ей",
      "ц Iэр",
      "ст в",
      "пса лъэм",
      "фIэ кIа",
      "ма къ",
      "ад эм",
      "щы гъуэ",
      "ш ым",
      "щэ ху",
      "е плъ",
      "Щ I",
      "ка з",
      "кI ауэ",
      "хьэ зыр",
      "нэхъ рэ",
      "гъунэ гъу",
      "Iуэху р",
      "уэрэ д",
      "мур ад",
      "Д а",
      "р ым",
      "И джы",
      "хэм кIэ",
      "нэ ху",
      "а хуэ",
      "ш ыр",
      "т эм",
      "лъэп къым",
      "у сы",
      "мы хьэ",
      "ж щ",
      "къу дей",
      "лъ у",
      "къ аб",
      "З и",
      "хаб зэ",
      "I и",
      "щ хъ",
      "т эр",
      "Ж ь",
      "е щхь",
      "ун эм",
      "2 0",
      "и у",
      "пс эм",
      "ф эр",
      "? !",
      "итI ыр",
      "щI е",
      "Б о",
      "хьэ т",
      "хъу ар",
      "ат Iэ",
      "гупсы сэ",
      "гъуэ у",
      "мэ хъу",
      "ж эу",
      "е в",
      "ар ат",
      "П ро",
      "гу гъэ",
      "с к",
      "м ан",
      "шэ ч",
      "цIыкIу м",
      "о н",
      "хьэм э",
      "б гъу",
      "хэм ы",
      "пIэ рэ",
      ") .",
      "а ри",
      "лъэ Iу",
      "ап хуэдиз",
      "хь и",
      "гъ ыр",
      "б зэр",
      "ж ан",
      "хь ыр",
      "нэ у",
      "е л",
      "ын ы",
      "ж эр",
      "ф ыну",
      "жи Iэ",
      "к ур",
      "гъ ым",
      "ащ и",
      "ху ауэ",
      "на сып",
      "а з",
      "дэ нэ",
      "кI ар",
      "к т",
      "у пщI",
      "ш и",
      "щIы хьэ",
      "къуэ м",
      "щIэ гъуэ",
      "ур нал",
      "мы Iэ",
      "зэры щыт",
      "кIу а",
      "б и",
      "жь эр",
      "лъы тэ",
      "хъу ауэ",
      "ф а",
      "къ ащ",
      "х ын",
      "лъэ гъу",
      "щIы пIэ",
      "пс ым",
      "Н ал",
      "п хъэ",
      "литератур эм",
      "хуэ у",
      "итI ым",
      "у е",
      "Т хьэм",
      "ап хуэдэу",
      "б жы",
      "зым и",
      "б ын",
      "ар т",
      "лъа г",
      "е зыр",
      "лъ къэр",
      "зэ и",
      "щIы кIэ",
      "но бэ",
      "щы гъу",
      "л ей",
      "зы те",
      "д у",
      "п эр",
      "гъащIэ р",
      "къ ур",
      "Iэ щIэ",
      "гуэр у",
      "цIыху м",
      "У рыс",
      "къы щи",
      "жь а",
      "Абы хэм",
      "ну къым",
      "ад рей",
      "А лы",
      "Про зэ",
      "зэ щIэ",
      "сэ бэ",
      "б жэ",
      "г и",
      "е кIуэ",
      "хь у",
      "Iэ т",
      "п эм",
      "къуа жэ",
      "жь у",
      "М о",
      "зэм ы",
      "Щ ы",
      "хъ ан",
      "нэ гу",
      "щ ащ",
      "П со",
      "Б э",
      "пс ын",
      "ал эм",
      "п и",
      "ма фIэ",
      "зы б",
      "жэу ап",
      "н шэ",
      "д эрэ",
      "с ащ",
      "ч ы",
      "ар а",
      "ла жьэ",
      "ху аб",
      "дж эм",
      "пс ту",
      "къар у",
      "зи Iэ",
      "щ т",
      "л ий",
      "хуей р",
      "къэ зы",
      "хъу м",
      "ыр ы",
      "куэд рэ",
      "е я",
      "зэман ым",
      "жы г",
      "гу гъ",
      "кIу ащ",
      "ды зэ",
      "къ агъэ",
      "с с",
      "джэ гу",
      "псэ лъы",
      "гу фIы",
      "Ж ы",
      "Iуэху м",
      "ал и",
      "гъы у",
      "х ри",
      "Т хьэ",
      "ху игъэ",
      "хъыджэ бз",
      "о в",
      "дж эр",
      "жа Iэ",
      "н ап",
      "жи Iэу",
      "жь эу",
      "хьэ н",
      "хуэ с",
      "же Iэ",
      "ку у",
      "кI ым",
      "гъуа зэ",
      "ж урнал",
      "б зы",
      "Н а",
      "щэ н",
      "ху о",
      "щIал эм",
      "щI ар",
      "хьэ у",
      "эри й",
      "т ра",
      "ит у",
      "хь эри",
      "ы щ",
      "зэ те",
      "з ан",
      "къыщIэ кIын",
      "п хъ",
      "Д ун",
      "пс ыр",
      "х ым",
      "1 0",
      ") ,",
      "Щ хьэ",
      "Iу а",
      "тэ н",
      "цIы кIур",
      "х ыр",
      "сы щы",
      "п ро",
      "лъ ыр",
      "хь ауэ",
      "ди н",
      "х ауэ",
      "! »",
      "б деж",
      "с хэм",
      "п Iа",
      "щхьэ гъу",
      "цIэ ры",
      "с урэ",
      "нэхъы фI",
      "ш эм",
      "в о",
      "хь ын",
      "жыпIэ мэ",
      "мы бы",
      "в и",
      "ф о",
      "зы щIэ",
      "К ав",
      "ужь ы",
      "а къы",
      "дз ащ",
      "гъусэ у",
      "жэ щ",
      "сэбэ п",
      "да къэ",
      "Хэ т",
      "с эри",
      "хьэ щIэ",
      "дж а",
      "къуэ р",
      "и ра",
      "кI ам",
      "К уэ",
      "жь эм",
      "М ис",
      "къы хуэ",
      "зауэ м",
      "цIэры Iуэ",
      "п эу",
      "ды дэм",
      "пащ ты",
      "щыIэ къым",
      "ц эм",
      "ж мэ",
      "щIэ н",
      "зы щы",
      "кIуэ у",
      "къэ кIуэ",
      "А хэр",
      "д эмы",
      "о б",
      "зэр е",
      "щI ыну",
      "Ап хуэдэу",
      "и ре",
      "ф ын",
      "къуа жэм",
      "жын щ",
      "Л Iы",
      "щI агъэ",
      "ху зэфIэ",
      "м кIэ",
      "пэ т",
      "шхуэ р",
      "п щIы",
      "ири гъэ",
      "ад эр",
      "атэ къым",
      "у з",
      "щы псэу",
      "ащ эм",
      "джэ н",
      "ны гъэр",
      "кIуэ д",
      "деж кIэ",
      "си гу",
      "хэ щ",
      "лъ аб",
      "гъэ хэм",
      "ху агъэ",
      "дэт хэ",
      "з ащIэ",
      "Ш э",
      "Iы гъ",
      "бзэ кIэ",
      "гъэ щIэгъуэ",
      "1 5",
      "лъы т",
      "къы зэри",
      "д за",
      "зэ хи",
      "Лъ э",
      "ж ырт",
      "п е",
      "пщI антIэ",
      "Ар щхьэкIэ",
      "Iэ пы",
      "ж ар",
      "ын ым",
      "сэ н",
      "пса лъэр",
      "ар гуэру",
      "да мэ",
      "махуэ м",
      "д зэм",
      "п хъуэ",
      "щ агъэ",
      "Ба лъкъэр",
      "щIэ гъу",
      "Iэ ры",
      "слъэ н",
      "а хъ",
      "И лъэ",
      "ми н",
      "хъуну щ",
      "лъэ хъэ",
      "ри с",
      "д рей",
      "къ ра",
      "кIэ ры",
      "П сы",
      "жа гъуэ",
      "къы ща",
      "гу ащIэ",
      "с ат",
      "Къ а",
      "лъа гъуэ",
      "арэ зы",
      "? »",
      "щ у",
      "А н",
      "жь ащ",
      "п къ",
      "лъагъу р",
      "бл агъэ",
      "лъ ан",
      "адыгэ хэм",
      "в гъэ",
      "да Iуэ",
      "цIыху бз",
      "Хьэ уэ",
      "хэ с",
      "хуей уэ",
      "ф ащэ",
      "я хуэ",
      "гъуэ ты",
      "бэ ч",
      "же с",
      "кт ор",
      "щы с",
      "жы хуа",
      "жи Iэри",
      "псэ ху",
      "зэ хуэ",
      "хь ар",
      "ап Iэр",
      "Д ж",
      "гупсы с",
      "Iуэ тэ",
      "б эм",
      "I ар",
      "е ст",
      "ш хы",
      "кIуэ кI",
      "з ды",
      "щIэ т",
      "хаб зэм",
      "н шэу",
      "к хъу",
      "аб э",
      "шы пхъу",
      "у ан",
      "нэхъы щхьэ",
      "Щ о",
      "уна гъуэ",
      "н кIэ",
      "Ар ащ",
      "Iэ фI",
      "иджы псту",
      "в ет",
      "те мы",
      "кI ий",
      "гъэ у",
      "лъы хъуэ",
      "хьэ лъэ",
      "Му хьэмэ",
      "тхьэм ыщ",
      "я хэт",
      "лъ ым",
      "щыт ы",
      "Т ыр",
      "тI о",
      "ф Iу",
      "къ ан",
      "щIэр къым",
      "ч и",
      "цIыху р",
      "къыс хуэ",
      "ко л",
      "теу хуауэ",
      "Щ Iэ",
      "сым э",
      "шын а",
      "Гъ уэ",
      "Ж э",
      "дэ лъху",
      "лы къу",
      "А слъэн",
      "акIуэ м",
      "б зым",
      "у зэ",
      "щ ыр",
      "а дыг",
      "1 4",
      "дэ с",
      "уры с",
      "аз ет",
      "ш хэ",
      "иужь кIэ",
      "л Iа",
      "щIын а",
      "зым ы",
      "ужь кIэ",
      "! ..",
      "лэ т",
      "зэ уэ",
      "щIы гъу",
      "жыр къым",
      "и щIэ",
      "лI ым",
      "гу ап",
      "с ымы",
      "пI ащIэ",
      "1 3",
      "щI ри",
      "мы п",
      "А ли",
      "з ри",
      "х ыну",
      "Iуащ хьэм",
      "1 2",
      "е плъы",
      "жь хэм",
      "кIуэ цI",
      "т хэ",
      "гъуэ щ",
      "гу за",
      "Ш ы",
      "е п",
      "б за",
      "Iэ дакъэ",
      "? ..",
      "Н о",
      "ко м",
      "Бо рис",
      "и рагъэ",
      "лъ щ",
      "р ам",
      "у хуэ",
      "ал ым",
      "Мухьэмэ д",
      "дз ауэ",
      "лъан дэрэ",
      "шы нэ",
      "акIуэ хэм",
      "З эры",
      "я т",
      "Ф ы",
      "сыт у",
      "ф ащ",
      "зэ Iу",
      "Iэ б",
      "жь ауэ",
      "хъуну къым",
      "сэ у",
      "кI ырт",
      "з мы",
      "гу зэ",
      "Куэ д",
      "илъэ си",
      "хъун щ",
      "псэ лъэ",
      "д зэр",
      "д джы",
      "Жь антIэ",
      "ап хъэ",
      "шы к",
      "пэ ж",
      "гъэ кIэ",
      "с ри",
      "ды гъу",
      "нэ щхъ",
      "о къуэ",
      "эр т",
      "И т",
      "П са",
      "Къ у",
      "нэхъы бэ",
      "лъэ гъуа",
      "кIы жащ",
      "М ыр",
      "г азет",
      "по л",
      "и кэ",
      "гъ ащ",
      "жа къым",
      "ц и",
      "я мы",
      "ха мэ",
      "щыгъу и",
      "Алы хьым",
      "лъ апIэ",
      "къуэ ш",
      "гу шы",
      "щ ри",
      "къы зо",
      "зэры щы",
      "къ эмы",
      "у тIы",
      "куэд ым",
      "т Iа",
      "щ тэ",
      "щIал эр",
      "н ащ",
      "р у",
      "къы ще",
      "цIыху хэм",
      "хъ ар",
      "къри гъэ",
      "хы хьэ",
      "Iэр т",
      "За ур",
      "Т е",
      "ещхь у",
      "зыб жа",
      "Iу ат",
      "1 8",
      "усакIуэ м",
      "Ф Iы",
      "зан щIэу",
      "щы хъу",
      "хьэ лIэ",
      "пIэ р",
      "пщ ым",
      "къу лыкъу",
      "с хуэ",
      "Ж ан",
      "л ыр",
      "щI игъэ",
      "фI и",
      "лэжьы гъэ",
      "( «",
      "щIэ ну",
      "ж ат",
      "ди гъэ",
      "къ ап",
      "лэ жьэ",
      "дун ейр",
      "Нал шык",
      "бг ы",
      "мы лъ",
      "гъу р",
      "м эм",
      "Т хы",
      "мыхьэ нэ",
      "ал ы",
      "у кIы",
      "зы хэ",
      "хъуэ пс",
      "И с",
      "Х а",
      "у щы",
      "тхылъ ым",
      "тэм эм",
      "гу шхуэ",
      "хэр щ",
      "щи гъэ",
      "ж къым",
      "х е",
      "Ит Iанэ",
      "пщIэ р",
      "те ту",
      "щхьэ щы",
      "лIы хъу",
      "н ар",
      "фIы цIэ",
      "хуей т",
      "кIуэ ну",
      "ым кIэ",
      "хъу лIэ",
      "ув ащ",
      "ш ащ",
      "кI мэ",
      "А лий",
      "фI о",
      "зыбжа нэ",
      "Щ Iы",
      "у ты",
      "х игъэ",
      "п хуэ",
      "къэ хъу",
      "щ эм",
      "ф у",
      "щы хьэт",
      "Н ы",
      "ро ман",
      "б жьы",
      "ху до",
      "гу апэ",
      "кIы хь",
      "теу хуа",
      "з ащ",
      "у ащ",
      "гъуэ хэр",
      "убли кэм",
      "Сыт у",
      "егъэ дж",
      "М ур",
      "е д",
      "къ ре",
      "же ри",
      "щхьэ усы",
      "ащIэ м",
      "С аб",
      "х агъэ",
      "те лъы",
      "Д ауэ",
      "б жэм",
      "зэр ымы",
      "кIуэ м",
      "ф ыр",
      "пэт ми",
      "лъ хуа",
      "нэхъ ри",
      "хуэдэ щ",
      "хуэ р",
      "щIэ ж",
      "рэ т",
      "ап щэ",
      "щIэ х",
      "щIэ кI",
      "д ым",
      "л эм",
      "ет Iу",
      "те ат",
      "бл эмэ",
      "х ар",
      "ре сп",
      "з ригъэ",
      "I ей",
      "псо р",
      "гу ауэ",
      "ам бо",
      "къ алэм",
      "тхы дэм",
      "лъагъу у",
      "и лъ",
      "ал ь",
      "зэры зэ",
      "п ху",
      "шэр джэ",
      "ц ист",
      "т ху",
      "нэ пс",
      "фы зы",
      "в ым",
      "щ хъуэ",
      "1 6",
      "литерат урэ",
      "в ор",
      "о м",
      "хь мэ",
      "Нэ хъ",
      "Л и",
      "убли цист",
      "п цI",
      "н эры",
      "у пщIэ",
      "кIуэ н",
      "у т",
      "лIэ ужьы",
      "I ауэ",
      "К Iы",
      "д ыр",
      "д ейм",
      "зэ кIэ",
      "гъуэ хэм",
      "зи гъэ",
      "ж ам",
      "ств ен",
      "хэт у",
      "уэ ри",
      "щы гъуазэ",
      "у ри",
      "къы б",
      "пщIантIэ м",
      "в ы",
      "хь ыну",
      "хьэ лI",
      "къе гъэ",
      "щIы б",
      "пэ щIэ",
      "дж эу",
      "сы къэ",
      "ит Iанэ",
      "м ар",
      "щI ат",
      "къы щIо",
      "къалэ н",
      "Що джэн",
      "тэ дж",
      "дэ кIэ",
      "лъ ащ",
      "зэ пы",
      "ни к",
      "ящыщ щ",
      "те р",
      "П щы",
      "Хъ ы",
      "ей щ",
      "мы гъуэ",
      "ств эм",
      "къы хи",
      "зэ гъэ",
      "мэ къу",
      "ль т",
      "С эри",
      "ло ги",
      "къы д",
      "псын щIэу",
      "имы Iэу",
      "адэ кIэ",
      "щыIэ щ",
      "зэхэ с",
      "ар ти",
      "зэр игъэ",
      "дыхьэ шх",
      "ды гъэ",
      "Дэ нэ",
      "с эрэ",
      "у х",
      "те псэлъы",
      "дэтхэ нэ",
      "къы у",
      "хъун ур",
      "З ауэ",
      "къы фIэ",
      "жы хуи",
      "И н",
      "лъэгъу ащ",
      "Пэ жщ",
      "дэ Iэпы",
      "Ш эр",
      "лэжь акIуэ",
      "ц Iэм",
      "д ам",
      "ей т",
      "щIи гъу",
      "тIыс хьэ",
      "бэ лы",
      "ху кIэ",
      "ды щэ",
      "нэхъы б",
      "хэлъ у",
      "ми с",
      "жа Iэу",
      "те тым",
      "З эм",
      "е к",
      "т ар",
      "унафэ щI",
      "ч ес",
      "хэ кум",
      "жы Iэ",
      "къы хуи",
      "А б",
      "я пэу",
      "кIуэ р",
      "хъу ам",
      "Къ эр",
      "увы Iэ",
      "Илъэ с",
      "У а",
      "и ро",
      "лъэ гъуэ",
      "Ф и",
      ". ,",
      "к хъуэ",
      "лъэп къыр",
      "гъуэ гум",
      "пэ кIэ",
      "уры сы",
      "п цIы",
      "къы щIы",
      "Нэ хъы",
      "зы ху",
      "дж эрий",
      "лъэныкъуэ кIэ",
      "ан ым",
      "б ла",
      "Нэ гъуэщI",
      "лъагъу м",
      "К у",
      "къы Iу",
      "Кав каз",
      "дэ н",
      "Iа къым",
      "Къ амбо",
      "I ам",
      "с фIэ",
      "зы къо",
      "къы ху",
      "апхуэдиз кIэ",
      "Iу фэм",
      "Д о",
      "У эр",
      "б зыр",
      "закъуэ у",
      "хъу ат",
      "ын ыр",
      "гъэм рэ",
      "гуэр хэр",
      "мыхъу мэ",
      "А тIэ",
      "зы хьэ",
      "ублицист икэ",
      "д эри",
      "фIэ кI",
      "фы з",
      "ыр а",
      "Iы с",
      "акIуэ р",
      "сы зы",
      "ре да",
      "къэрал ым",
      "чэ н",
      "Iэ джэ",
      "гу щIэгъу",
      "зэ хуа",
      "з агъэ",
      "да гъэ",
      "къа хэ",
      "нэхъы жь",
      "фI ащ",
      "зыр ы",
      "и р",
      "Саб ий",
      "Н тIэ",
      "Р о",
      "п щIа",
      "н арт",
      "Гъуэ гу",
      "гур ымы",
      "сурэ т",
      "хы ж",
      "зы щ",
      "лIэ щIы",
      "пащ хьэ",
      "у Iэ",
      "фэ н",
      "те плъэ",
      "Хь эм",
      "хъар зы",
      "п лI",
      "акIуэ у",
      "Х у",
      "щы п",
      "кIуэ ды",
      "ма къыр",
      "0 0",
      "къы що",
      "щIэ мы",
      "кIы пIэ",
      "Т Iэ",
      "г ен",
      "фI а",
      "пщIэ н",
      "къы до",
      "Iы гъыу",
      "П о",
      "Т о",
      "сы зэры",
      "Iэ щэ",
      "хъу у",
      "щIэ с",
      "ды зэры",
      "уэр ам",
      "Iуащхьэм ахуэ",
      "е жьэ",
      "зы хи",
      "мэ с",
      "ув а",
      "л ам",
      "щI ам",
      "щIэ дзауэ",
      "да уи",
      "псалъэ хэр",
      "д ащ",
      "я щ",
      "Хьэ ж",
      "те н",
      "лIы жь",
      "пщы хьэ",
      "ЩI алэ",
      "Урыс ейм",
      "т вор",
      "кIа къым",
      "гъ кIэ",
      "мы вэ",
      "С С",
      "п шы",
      "ху тэ",
      "жы жьэ",
      "хуей къым",
      "ф ар",
      "гъ эри",
      "къызы хэ",
      "сэр ей",
      "къэрал ы",
      "къэ бэрдей",
      "зэ т",
      "Iуэ ры",
      "н апэ",
      "р ейм",
      "Къ уэ",
      "абы кIэ",
      "Д жэ",
      "1 7",
      "ст иту",
      "х ам",
      "Али м",
      "нэ кIу",
      "лъэ н",
      "жыну щ",
      "сат ыр",
      "ну м",
      "сым а",
      "щIэр т",
      "гуп ым",
      "гъ ат",
      "я гу",
      "ыну щ",
      "цIыху хэр",
      "хэлъ щ",
      "Шэр джэ",
      "к с",
      "я у",
      "къи мы",
      "зыгуэр ым",
      "гу ащэ",
      "Гу ащэ",
      "д ри",
      "ын щ",
      "щхьэ хуэ",
      "щIэ рэ",
      "куэд кIэ",
      "нэ гум",
      "б ей",
      "тIэ у",
      "ныб жь",
      "Къамбо т",
      "У с",
      "п л",
      "Iэ щIа",
      "Iу м",
      "П ублицистикэ",
      "къэ п",
      "Iы хьэ",
      "фIы щIэ",
      "и ну",
      "кIэ рэ",
      "зы Iу",
      "зэр агъэ",
      "лъэхъэ нэм",
      "хь ам",
      "къэ на",
      "кIу ар",
      "бг ыры",
      "У сы",
      "ащ эр",
      "ыр щ",
      "Iуэ у",
      "хэт щ",
      "же ствен",
      "м ым",
      "нэ щ",
      "Но бэ",
      "с те",
      "къы щIи",
      "г о",
      "къу тэ",
      "бы д",
      "лъ ап",
      "гъэ н",
      "19 4",
      "лэжьы гъэм",
      "б жьэ",
      "об ра",
      "Т ем",
      "г ра",
      "зауэ лI",
      "ж ей",
      "тхьэ кIу",
      "е щ",
      "жы зо",
      "ма кIуэ",
      "Дж эрий",
      "джэ щ",
      "Гъ э",
      "ды дэр",
      "къа мэ",
      "бл эм",
      "дж и",
      "КIы що",
      "е уэ",
      "гъ ауэ",
      "щIэ хэр",
      "кIу ауэ",
      "зэр ан",
      "лъэ щ",
      "дж ыр",
      "хьэр ы",
      "къэ зыгъэ",
      "чес кэ",
      "е джэ",
      "уна гъуэм",
      "Псо ри",
      "гузэ вэ",
      "ин ым",
      "Ма ри",
      "аб деж",
      "ко в",
      "и и",
      "Къ ар",
      "щIа гъуэ",
      "хуаб жьу",
      "пщэ дджы",
      "п лъа",
      "щ эр",
      "къу ан",
      "н ат",
      "Я пэ",
      "акъы л",
      "б зи",
      "хьэ лэ",
      "ну т",
      "щхьэ ц",
      "в ер",
      "б жэр",
      "К а",
      "хъу рт",
      "къэ т",
      "Iэ дэм",
      "сы ху",
      "да хэу",
      "К Iу",
      "П щэ",
      "Т х",
      "р ыр",
      "с ху",
      "ч е",
      "къыз дэ",
      "ун и",
      "I о",
      "Е л",
      "зэ ж",
      "И кIи",
      "К Iэ",
      "бы дэ",
      "худо жествен",
      "кI ат",
      "зо н",
      "Ма ди",
      "фI ым",
      "нэмы щI",
      "т ауэ",
      "къ ит",
      "ды щы",
      "к ла",
      "къ ал",
      "хь ри",
      "къэ у",
      "пщы кIу",
      "и щIащ",
      "Хьэ сэн",
      "Псо м",
      "жи Iэр",
      "к и",
      "но бэр",
      "зэп ыт",
      "Iэп къ",
      "етIу анэ",
      "Ф э",
      "Мур ат",
      "… »",
      "ху у",
      "щIэ хэм",
      "ар щхьэкIэ",
      "Щоджэн цIыкIу",
      "те ле",
      "хъуэ м",
      "щIэ ныгъэм",
      "к эр",
      "лъаг э",
      "Кав ка",
      "б у",
      "у зэры",
      "сы щIэ",
      "щIэныгъэ лI",
      "М ар",
      "къу и",
      "три гъэ",
      "кIыр къым",
      "е кIу",
      "гъ ап",
      "кIэ ри",
      "гу жь",
      "тхыгъэ хэм",
      "лъ хьащ",
      "п хы",
      "сы пы",
      "щымы Iэу",
      "ху жь",
      "къэ гъэ",
      "Къ Б",
      "зе кIуэ",
      "тхыгъэ хэр",
      "н е",
      "бзы лъху",
      "Р а",
      "тыр ку",
      "лэжь ащ",
      "Му хьэ",
      "те лъ",
      "Е зы",
      "Къ ан",
      "ма къым",
      "дэ Iу",
      "лэ хьи",
      "Iэдакъэ щIэкI",
      "у ей",
      "р ащ",
      "кIэ лъ",
      "къы ди",
      "щы гъ",
      "тхы гъэм",
      "лIы жьым",
      "Къэ бэр",
      "ры къуэ",
      "За каз",
      "къы щ",
      "хъуа къым",
      "къы пы",
      "ащIэ р",
      "хуэмы дэу",
      "респ убликэм",
      "арти ст",
      "лъа къуэ",
      "мэ з",
      "хаб зэр",
      "дзы хь",
      "щIыгъу у",
      "Iэ ты",
      "щым ыт",
      "Со вет",
      "гуап эу",
      "К Iуэ",
      "у о",
      "ри ти",
      "щIа къым",
      "хуащ I",
      "хъу ре",
      "и Iэу",
      "ш ей",
      "лIы гъэ",
      "къыт ри",
      "р ан",
      "гъэщIэгъуэ н",
      "ж рэ",
      "м ам",
      "фи ло",
      "я Iэ",
      "кIэ у",
      "дж ащ",
      "Ма хуэ",
      "зэры т",
      "къыщIэкIын щ",
      "В а",
      "кхъу хь",
      "л ю",
      "пэ щы",
      "къи у",
      "п Iы",
      "мы щIэ",
      "мащIэ у",
      "нэ кIэ",
      "жы ла",
      "ящыщ у",
      "Балъкъэр ым",
      "лъэ у",
      "фIэ у",
      "бий м",
      "щхьэ гъусэ",
      "плъэ у",
      "иIэ щ",
      "с щIэ",
      "Б ет",
      "Х уэ",
      "ц ер",
      "ху ар",
      "щыт ар",
      "п шэ",
      "т ал",
      "хэм ыт",
      "хы жащ",
      "пащты хьым",
      "Мади нэ",
      "ф эу",
      "щ апхъэ",
      "Iу атэ",
      "цIыкIу хэр",
      "художествен нэ",
      "мы Iэу",
      "да къи",
      "уе блэмэ",
      "къы хо",
      "зэ хэт",
      "хъур къым",
      "щ аб",
      "э н",
      "20 0",
      "Нэ ху",
      "ы гъэ",
      "19 9",
      "Лъ а",
      "А дыг",
      "Тыр кум",
      "Iы хь",
      "къызэр а",
      "щI апIэ",
      "щ хъу",
      "м эр",
      "шэ н",
      "лъ хьа",
      "зы кIи",
      "и лъагъу",
      "уи гу",
      "къыт хуэ",
      "ат о",
      "гъа зэ",
      "щ ауэ",
      "джы лы",
      "19 5",
      "Бэ ч",
      "щI рэ",
      "псэ кIэ",
      "шх ын",
      "а къ",
      "я уэ",
      "лъ тI",
      "гъуэ гуры",
      "кIы жа",
      "лI ащ",
      "Л э",
      "у ш",
      "хэ ку",
      "да ха",
      "ш эры",
      "гу а",
      "мы бдеж",
      "Мы бы",
      "гуза вэ",
      "Усы гъэ",
      "лъ и",
      "те кIуэ",
      "кIы урэ",
      "Iуэху гъуэ",
      "бгъэ ды",
      "ахъ шэ",
      "у дз",
      "Iэ мэ",
      "къыщIэ кIащ",
      "и къу",
      "х хэ",
      "п лъагъу",
      "п эмы",
      "Iэ зэ",
      "те ты",
      "ап хъ",
      "ла жьэр",
      "ху тыр",
      "къэ згъэ",
      "ба къуэ",
      "Б ы",
      "л у",
      "зэ ха",
      "хъун т",
      "гъу и",
      "м ел",
      "кI кIэ",
      "да хэр",
      "пщ а",
      "нэмы цэ",
      "здэ щы",
      "апхуэдиз у",
      "ж ал",
      "гъу пщэ",
      "кIэлъы плъ",
      "щIына лъэм",
      "лъагъу ныгъэ",
      "гушы Iэ",
      "т эу",
      "кIуэ кIа",
      "ф е",
      "щI ырт",
      "пщ ыр",
      "Ш у",
      "п ь",
      "гъ эрэ",
      "жь хэр",
      "сыт ми",
      "зон кэ",
      "Къэбэр дейм",
      "ху р",
      "лъэпкъ хэм",
      "зэ гу",
      "гъуэ та",
      "ам а",
      "Е тIу",
      "ж кIэ",
      "нэ хэр",
      "мэ н",
      "ур эм",
      "щIы пIэм",
      "да хэм",
      "лъаб жьэ",
      "б гъэр",
      "а ми",
      "с ам",
      "бы дэу",
      "пщI ащ",
      "д апщэ",
      "хуэдэ т",
      "хьэл Iэу",
      "хэмы лъу",
      "п ар",
      "ин ститу",
      "та к",
      "журнал ым",
      "Б и",
      "жын ым",
      "хьэл эмэ",
      "г ы",
      "п х",
      "къаб зэ",
      "щхьэусы гъуэ",
      "з ит",
      "к ым",
      "кIуэ т",
      "жри Iащ",
      "С у",
      "гъ и",
      "хуэмы дэ",
      "е ры",
      "ныб жьы",
      "Мо ск",
      "те с",
      "Къ е",
      "Хэ ку",
      "кIэ щI",
      "хъу ри",
      "аб зэ",
      "къыс хуи",
      "бз у",
      "А ри",
      "и з",
      "ш ин",
      "уэ с",
      "къ рагъэ",
      "зи мыIэ",
      "ус эм",
      "хь ырт",
      "н къым",
      "ц ы",
      "гъу ащ",
      "те гъэ",
      "ан т",
      "ус хьэн",
      "т ре",
      "хъу рэ",
      "хы урэ",
      "дэIэпы къу",
      "д ар",
      "ха къым",
      "Да хэ",
      ". )",
      "ен т",
      "у ар",
      "ко н",
      "сы хьэ",
      "З ым",
      "уэ у",
      "лI ыр",
      "гуры Iуащ",
      "къудей уэ",
      "мэ т",
      "нэхъ ей",
      "мэ зым",
      "Iу щ",
      "тIы сы",
      "щIэ лъ",
      "пэ шым",
      "Хь эми",
      "щIы кI",
      "по в",
      "щIа гъым",
      "зы хуей",
      "У эрэ",
      "щ эу",
      "гъ акIуэ",
      "дэ лъ",
      "хэт и",
      "Кавка зым",
      "К о",
      "хуэм урэ",
      "фIэ фI",
      "де жи",
      "Iу ры",
      "гъуэ лъы",
      "гъуэ тын",
      "хъыджэ бзым",
      "Iэ ну",
      "убы ды",
      "ген ер",
      "19 6",
      "гугъу е",
      "тхакIуэ м",
      "упщI ащ",
      "Дун ей",
      "А хьмэ",
      "тэ къэ",
      "япэ кIэ",
      "Моск ва",
      "я хэ",
      "лъы тэр",
      "тэкъым и",
      "Пса лъэм",
      "тэмэм у",
      "я ху",
      "плъ ащ",
      "лъ ит",
      "къып хуэ",
      "Хъ ун",
      "Мэ з",
      "И тI",
      "лъ эмы",
      "ди хьэ",
      "тхылъ ыр",
      "с кэ",
      "фэ еплъ",
      "б жь",
      "хъуэ р",
      "с ауэ",
      "хьэл Iа",
      "щхьэгъу сэм",
      "н ет",
      "зэ гуэ",
      "шэрджэ с",
      "I ал",
      "убы дэу",
      "къыз ди",
      "в эу",
      "хь ат",
      "Хъ ан",
      "М эр",
      "Ар ати",
      "тын ш",
      "е хъулIэ",
      "е ри",
      "Iу тIы",
      "ку льт",
      "гу лъытэ",
      "ад рейм",
      "щэн хабзэм",
      "Т а",
      "газет ым",
      "теат рым",
      "вер си",
      "б гъэм",
      "п шын",
      "хьэ ж",
      "Да уи",
      "сс каз",
      "жын ур",
      "С эр",
      "Хьэми д",
      "л эр",
      "зэры хуэ",
      "нэхъы щхьэр",
      "зе хьэ",
      "кIыну щ",
      "Iу т",
      "но в",
      "с тэ",
      "лъэп къэ",
      "егъэдж акIуэ",
      "А дэ",
      "п ым",
      "ч ыр",
      "лэ гъу",
      "зэри мы",
      "пол ит",
      "щы гъэ",
      "пащ хьэм",
      "У мы",
      "Iэ тащ",
      "кIу ам",
      "анэ дэлъху",
      "щIалэ гъу",
      "зауэ р",
      "куу уэ",
      "пIа лъэ",
      "зы ужь",
      "ла й",
      "цIыкIу хэм",
      "И ужькIэ",
      "ес лъэн",
      "тIу м",
      "и гъащIэ",
      "ИтI ани",
      "д ын",
      "п Iащ",
      "адыгэ бзэм",
      "лъэпкъэ гъу",
      "1 1",
      "е щI",
      "бг ым",
      "А бдеж",
      "п ц",
      "гуэ ри",
      "кIэ ра",
      "жы жьэу",
      "щыщ у",
      "м ет",
      "хэ кIуэ",
      "телъы джэ",
      "Ли терат",
      "а хуэм",
      "19 7",
      "усэ хэр",
      "Бет Iал",
      "п цIэ",
      "щыт щ",
      "къ акIуэ",
      "къы жьэ",
      "зэ пэ",
      "сы хьэт",
      "Ахьмэ д",
      "Iэ щIагъэ",
      "сыт ым",
      "ири хьэлIэу",
      "пщэ дей",
      "ба лъкъэр",
      "емы кIу",
      "гуэ ны",
      "ш агъэ",
      "къэ нэ",
      "бэлы хь",
      "Къ уа",
      "Iэп лIэ",
      "къыс ху",
      "е щIэ",
      "н аб",
      "джы з",
      "мыхъу ми",
      "ащIэ у",
      "ус эр",
      "пхъ а",
      "Л ен",
      "сы къи",
      "ит щ",
      "ей ри",
      "хэр т",
      "щIы Iэ",
      "гупсы сэр",
      "мафIэ м",
      "гъу щI",
      "ми ни",
      "тхьэм адэ",
      "твор че",
      "къыщы щIэдзауэ",
      "иIэ къым",
      "къызэр игъэ",
      "хуит ыны",
      "фIо щI",
      "у хы",
      "адыг эм",
      "уты ку",
      "къы гурыIуэ",
      "зы т",
      "ат ур",
      "Къы з",
      "И джыри",
      "у щ",
      "сэ лэт",
      "ма зэ",
      "П сэ",
      "цIыху бэ",
      "ужь ым",
      "кIуэ ж",
      "б жес",
      "жы лэм",
      "ст у",
      "щыгъу пщэ",
      "гуры Iу",
      "па сэрей",
      "У е",
      "кIэ щ",
      "зы ныкъуэ",
      "жы зы",
      "бзи й",
      "зэ ш",
      "ал эр",
      "Дун ейм",
      "ко лым",
      "Зэм ан",
      "с лъагъу",
      "гъэ хэр",
      "за хуэ",
      "ш кол",
      "къызэры гуэ",
      "щIи дзащ",
      "нэхъыб эу",
      "т ор",
      "я щIэ",
      "къ рат",
      "къу м",
      "цIыху хъу",
      "тхы дэ",
      "махуэ р",
      "иужь рей",
      "фыну щ",
      "г а",
      "хъуэ у",
      "лэжь а",
      "я н",
      "ес п",
      "гуфIэ гъуэ",
      "Н и",
      "п щхьэ",
      "хьэ ну",
      "Ап хуэдиз",
      "жызо Iэ",
      "гъу м",
      "н щи",
      "гу ащэм",
      "итI ани",
      "жиIэ урэ",
      "Iуэры Iуат",
      "ыр э",
      "жы лэ",
      "Къ и",
      "бы л",
      "А ле",
      "ми р",
      "къа мы",
      "зэп и",
      "лъа хэм",
      "губ гъуэм",
      "хуит у",
      "щэху у",
      "к хъ",
      "Iэ пэ",
      "лъ ауэ",
      "къа хуэ",
      "сабий м",
      "едж апIэ",
      "кла с",
      "хьэр т",
      "рам атур",
      "Р есп",
      "ж т",
      "гъуэ гур",
      "кIу ат",
      "бл эр",
      "плъ ыр",
      "къащ ы",
      "фIэ мы",
      "иро къу",
      "КIыщо къуэ",
      "П а",
      "Iэ бэ",
      "къе кIуэ",
      "хэлъ къым",
      "ама зонкэ",
      "къ ащIэ",
      "ху м",
      "гу къэ",
      "лIы кIуэ",
      "п эры",
      "къы ф",
      "хуей мэ",
      "зи щIы",
      "саб ии",
      "мыхъу у",
      "щызэ хуэ",
      "пов ест",
      "с щIэркъым",
      "жь ей",
      "Iу и",
      "да къым",
      "гуфIы кI",
      "мып хуэдэ",
      "лъ ат",
      "нэ су",
      "хъу уэ",
      "ж урэ",
      "де н",
      "жи Iэм",
      "зэм и",
      "пэ жыр",
      "Лъэ пкъ",
      "зы хуи",
      "ди й",
      "зэры те",
      "19 8",
      "Iэн эм",
      "кол хо",
      "д ан",
      "к ан",
      "о т",
      "п къым",
      "зы къи",
      "А лэ",
      "ш эри",
      "Урыс ей",
      "пащты хь",
      "мылъ ку",
      "? .",
      "Н арт",
      "къыхэ кIыу",
      "ЩI ым",
      "Иджы псту",
      "» )",
      "я ужь",
      "гъуэ зэ",
      "щхьэ пэ",
      "мып хуэдэу",
      "п щIыхьэ",
      "къыщы дэ",
      "нап эр",
      "зыры з",
      "И нал",
      "Iэн атIэ",
      "Хъы джэ",
      "и кIэ",
      "ли ри",
      "уа фэ",
      "уа фэм",
      "зэман ыр",
      "обра з",
      "к ин",
      "я б",
      "къы кIэлъы",
      "у дэ",
      "къ ат",
      "по э",
      "Зы гуэр",
      "логи е",
      "З ыри",
      "КъБ Р",
      "хьэ къ",
      "дэ Iуэ",
      "ст ам",
      "дзэ у",
      "тI ым",
      "къ эм",
      "щыIэ тэкъым",
      "хэлъ ыр",
      "Б еслъэн",
      "пщ кIу",
      "я ку",
      "гу ш",
      "зэм э",
      "утIы пщ",
      "А ра",
      "ма къамэ",
      "М и",
      "ун эр",
      "къри убыдэу",
      "къаб зэу",
      "щIе гъуэ",
      "х ат",
      "лъагъу ныгъэм",
      "ты ж",
      "адыгэ хэр",
      "Хъ у",
      "х хэу",
      "щ ит",
      "зи мы",
      "ма шин",
      "У на",
      "ж ра",
      "п ша",
      "Къ ур",
      "кIы жу",
      "ре гъэ",
      "уа сэ",
      "губ жь",
      "а мэ",
      "п ис",
      "кI рэ",
      "гъуэ н",
      "ма хуи",
      "ды гъэр",
      "псалъэ у",
      "тын шу",
      "лIэщIы гъуэм",
      "т хуэ",
      "жыну къым",
      "лэжьы гъэр",
      "эм рэ",
      "гъунэгъу у",
      "зэмы лIэужьы",
      "уни верси",
      "къы щыт",
      "къы ха",
      "гупсы сы",
      "ехъулIэ ныгъэ",
      "У сэ",
      "жыр тэкъым",
      "а уан",
      "къы пщы",
      "ын ур",
      "сы хуэ",
      "жы хуэ",
      "да мыгъэ",
      "жэ щым",
      "ыра мы",
      "п щIыхь",
      "с эмэ",
      "Iу пщI",
      "Хьэ жы",
      "е зыри",
      "у анэ",
      "ды нэ",
      "къэ з",
      "но би",
      "тIу р",
      "сын о",
      "Мухьэ дин",
      "до хутыр",
      "Iэн ат",
      "фыну къым",
      "лъэ ужь",
      "къе уэ",
      "псэ ур",
      "жыхуа Iэр",
      "е фэн",
      "гъу ей",
      "зэры щIэ",
      "зэрыщыт ар",
      "реда ктор",
      "ц у",
      "зы хэт",
      "ан эри",
      "къэ бгъэ",
      "хьэм эрэ",
      "нэхъы щIэ",
      "Але кс",
      "лътI ан",
      "А л",
      "Къ эрэ",
      "хэт ащ",
      "щI акIуэ",
      "с ар",
      "нэ щэ",
      "зы щIа",
      "зи усхьэн",
      "да дэ",
      "къигъэ зэ",
      "Е й",
      "п ыр",
      "х ырт",
      "си Iэ",
      "ро Iуэ",
      "на сыпы",
      "хъы Iэ",
      "лъху ащ",
      "Л а",
      "п ре",
      "ху ри",
      "пIэ кIэ",
      "дэмы кIыу",
      "» -",
      "ам эр",
      "ным кIэ",
      "Со с",
      "ап эр",
      "кIы жри",
      "гурымы Iуэ",
      "3 0",
      "зэ щIи",
      "къи кIа",
      "плъ эр",
      "убы дэ",
      "жыпIэ р",
      "ныб жьыр",
      "журнал ист",
      "б гъа",
      "т кIий",
      "хуей м",
      "Нал о",
      "п ыт",
      "у л",
      "гу къыдэ",
      "усэ хэм",
      "узы н",
      "сп ек",
      "З ырамы",
      "б анэ",
      "у агъэ",
      "Ч ер",
      "з ра",
      "щIы Iу",
      "ма мэ",
      "насып ын",
      "у гъэ",
      "ху щIэ",
      "сабий р",
      "хьэ пшы",
      "чэ зу",
      "I ым",
      "ш ауэ",
      "щы хъум",
      "сэ лам",
      "пI ейт",
      "Е в",
      "лъ эри",
      "жы ху",
      "ст и",
      "утIы пщы",
      "И щхъ",
      "б али",
      "з рагъэ",
      "я хуи",
      "ий м",
      "мыр зэ",
      "Iу ри",
      "къу лей",
      "Алэ дамэ",
      "ащ хьэм",
      "зэ гуэр",
      "лъэ дэ",
      "щымы Iэ",
      "Ф е",
      "ск эр",
      "I ат",
      "Л е",
      "зэ бг",
      "ро н",
      ". »",
      "К ур",
      "д зэри",
      "Iэ нэ",
      "щIэу пщIэ",
      "къызэр е",
      "пI и",
      "спек так",
      "ыну къым",
      "щт эмэ",
      "къу н",
      "тэ джы",
      "адыгэ бзэкIэ",
      "уна фэр",
      "д ымы",
      "п ри",
      "ди Iэ",
      "къыс щы",
      "зэмы зэ",
      "ч а",
      "зы къы",
      "Жь ы",
      "Iыхь лы",
      "къи нэ",
      "ст ым",
      "жа ри",
      "лъагъу ныгъэр",
      "гъуэгу анэ",
      "в е",
      "мы зэ",
      "аб и",
      "Iу в",
      "щыт ын",
      "са къым",
      "зо гъэ",
      "ш колым",
      "зы хуейр",
      "ст ы",
      "на Iуэ",
      "хъуа ми",
      "жь эри",
      "щIэ гъэ",
      "А дрей",
      "т щ",
      "я фIэ",
      "щIэ щыгъуэ",
      "хэлъ хьэ",
      "Хэ кум",
      "генер ал",
      "и рат",
      "ды жь",
      "шэ ну",
      "тхьэмыщ кIэ",
      "дэ плъ",
      "дэтхэ н",
      "джыр ей",
      "в ан",
      "дам эм",
      "Пщэ дджы",
      "и щI",
      "к рити",
      "гу роIуэ",
      "ры лъху",
      "закъуэ р",
      "нэры лъагъу",
      "Зырамы ку",
      "сы къы",
      "Хъун щ",
      "Л ю",
      "б ыр",
      "п ащIэ",
      "агъэ нщ",
      "на нэ",
      "нэ псыр",
      "Хь эр",
      "зе гъэ",
      "Iэн ур",
      "2 2",
      "бгъэ дыхьэ",
      "къыт ра",
      "тхакIуэ хэм",
      "жыхуа Iэм",
      "уты кум",
      "я ри",
      "хъуэ хъу",
      "ус лъым",
      "лъхьэ у",
      "пэр ыт",
      "Жэ щ",
      "I ейуэ",
      "ю зым",
      "ды гъэм",
      "Iу фэ",
      "Хьэ ту",
      "Мы бдеж",
      "Хьэж мур",
      "е ра",
      "зы щIы",
      "зэры с",
      "фI игъэ",
      "Уэ лэхьи",
      "институ тым",
      "хъуа мэ",
      "бгъэдэ лъ",
      "ал Iэ",
      "Гъ у",
      "жа Iэр",
      "Iа мэ",
      "гупсы сэм",
      "тIу ри",
      "а хэм",
      "е сэ",
      "ху щхъуэ",
      "ра ди",
      "цIыху бзым",
      "щхьэр ы",
      "хуэ гъэ",
      "хьэ дэ",
      "гъу у",
      "Е зым",
      "е у",
      "хь эрэ",
      "зэ три",
      "гъуэ тащ",
      "нэхъы фIу",
      "н апIэ",
      "закъуэ къым",
      "ха дэм",
      "къыт о",
      "щыта мэ",
      "дуней псо",
      "Пса лъэ",
      "ап эм",
      "щIы ба",
      "кIы фI",
      "куэд у",
      "нобэр ей",
      "абы и",
      "пэ щ",
      "Ба хъ",
      "Ан ато",
      "Сос рыкъуэ",
      "де р",
      "лъэ бакъуэ",
      "псалъэ хэм",
      "И стам",
      "Л иу",
      "м ат",
      "зэ хъуэ",
      "кIуэ ри",
      "цIыху бэм",
      "ц эр",
      "къы къуэ",
      "С а",
      "хьэ тыр",
      "щIына лъэ",
      "сыма джэ",
      "лъэ щы",
      "пэ жу",
      "Пэ ж",
      "На сып",
      "с щ",
      "щ абэ",
      "дж эрэ",
      "псэу уэ",
      "зэфIэ кI",
      "л ен",
      "дж ым",
      "зыужь ыны",
      "в эр",
      "ей хэм",
      "ет Iы",
      "Мы со",
      "IэщIа гъэм",
      "Iэ уэ",
      "бгъэ до",
      "нэгъуэщI хэри",
      "фи цер",
      "кIыну къым",
      "лъэныкъуэ мкIэ",
      "лъыт ауэ",
      "у щIэ",
      "ш ий",
      "хъыбар ыр",
      "гугъэ у",
      "нэхъыфI щ",
      "фын ур",
      "нэхъыщхьэ у",
      "Хьэжмур ат",
      "р къым",
      "нэ хэм",
      "е хы",
      "у уэ",
      "ам кIэ",
      "лъа хъ",
      "ав то",
      "убыд ащ",
      "къудей щ",
      "Iи л",
      "ф ым",
      "ф он",
      "пщ ащэ",
      "хуаб э",
      "те пщэ",
      "илъэс хэм",
      "езы хэм",
      "зы щи",
      "кIуэ рт",
      "фIы гъуэ",
      "щIэу пщIащ",
      "уна гъуэр",
      "В о",
      "З эр",
      "з ди",
      "т ан",
      "у къи",
      "нэ т",
      "тет щ",
      "тIыс хьащ",
      "зыб ж",
      "мэкъу мэ",
      "Лиу ан",
      "е рыс",
      "къэ хутэ",
      "хьэр къым",
      "пы Iэ",
      "ко ман",
      "Шэрджэ с",
      "лъ хьэри",
      "щы ху",
      "ра йо",
      "к ре",
      "хъ а",
      "зы хуе",
      "ра ссказ",
      "кIын ур",
      "бза джэ",
      "Къ рым",
      "жи Iэрт",
      "пщыхьэ щхьэ",
      "поэ зи",
      "Истам был",
      "е згъэ",
      "у мыгъэ",
      "хэ зы",
      "къэ хъуар",
      "шхуэ у",
      "щыIэ т",
      "Iуащ хьэ",
      "4 0",
      "я щI",
      "Iэ кIэ",
      "дыдэ щ",
      "с кэм",
      "ей рэ",
      "унэ ху",
      "Ма фIэ",
      "ЦIыху м",
      "В ла",
      "П ащ",
      "ш хэр",
      "къэ тэдж",
      "ны с",
      "Iэп хъуэ",
      "зэрыщыт ыр",
      "Тыр ку",
      "Ха сэм",
      "Iу пэ",
      "эрэ т",
      "хъуну т",
      "па сэу",
      "чэн джэщ",
      "со щIэ",
      "къы хуе",
      "мэ лы",
      "ма зэм",
      "лъэп къы",
      "икъу кIэ",
      "п ра",
      "у хъу",
      "щы щIэ",
      "цIыху у",
      "Т э",
      "г э",
      "у къуэ",
      "къы де",
      "хэ кIыпIэ",
      "ст о",
      "А хъ",
      "б ел",
      "е гупсы",
      "уэ шх",
      "ыр зэ",
      "зэ дэ",
      "хьэ кI",
      "3 6",
      "л ан",
      "п ер",
      "хъу рей",
      "Т I",
      "т ыну",
      "зэр ащ",
      "Iу ху",
      "щхьэ щыт",
      "тIа сэ",
      "Къэр ал",
      "гуэны хь",
      "б ауэ",
      "и щIа",
      "ш ар",
      "хъыджэ бзыр",
      "бжы гъэ",
      "бгъэр ы",
      "У эри",
      "зы щI",
      "те ль",
      "къо мыр",
      "ЕтIу анэ",
      "т хэм",
      "гу гъэр",
      "ап Iэу",
      "фы зым",
      "псын щIэ",
      "кIэлъ о",
      "щы Iэу",
      "жыс Iащ",
      "фо ч",
      "ь я",
      "зы хы",
      "ын шэу",
      "рэ Iил",
      "щIы ж",
      "ам рэ",
      "ла жьэу",
      "жыс Iэу",
      "нар ты",
      "къы да",
      "сы къе",
      "къи щ",
      "со вет",
      "пхъу р",
      "и пхъу",
      "мы дэ",
      "лъэ Iэ",
      "ну тэкъым",
      "тхы дэр",
      "хьа къым",
      "г рам",
      "эу рэ",
      "псэ лъащ",
      "уэрам ым",
      "5 0",
      "нэ щI",
      "къэ дгъэ",
      "уи гъэ",
      "цIыкIу у",
      "Псо ми",
      "хъуре я",
      "Т ам",
      "г е",
      "и л",
      "с ан",
      "ды гъуа",
      "адыгэ бзэ",
      "Анато лэ",
      "къы пэ",
      "зэ гурыIуэ",
      "зэ хуэмыдэ",
      "де нт",
      "ири мы",
      "зыгуэр кIэ",
      "ва гъуэ",
      "пщэдджы жь",
      "ц ен",
      "мэ л",
      "фIы кIэ",
      "пщIэ рэ",
      "къыщи гъэ",
      "и ч",
      "хуэ фащэ",
      "зы хэлъ",
      "зэр ым",
      "лъа дэ",
      "гъа нэу",
      "Дэ тхэ",
      "бгыры с",
      "Тем ыр",
      "Е зыр",
      "Т и",
      "а къыр",
      "лI ауэ",
      "езым и",
      "унафэ щIу",
      "А дэкIэ",
      "с ыну",
      "кIуэ цIы",
      "Ды щэ",
      "гуп ыр",
      "хьэпшы п",
      "зэры гъэ",
      "Къ о",
      "К Iуащ",
      "хуэ н",
      "ны къу",
      "Ар ат",
      "къар ур",
      "пэ ш",
      "же Iэри",
      "хьэлI ауэ",
      "и Iыгъыу",
      "ё р",
      "ри нэ",
      "къэ сы",
      "хуи мы",
      "ТIэ кIу",
      "у кI",
      "у пс",
      "х хэр",
      "зы хуигъэ",
      "щIэ хыурэ",
      "ар акъым",
      "жыс Iэри",
      "лъаг эу",
      "ф мэ",
      "гъэ сэ",
      "зы три",
      "зе зыхьэ",
      "къызэрыгуэ кI",
      "й м",
      "у щи",
      "лъ апIэр",
      "къы хуагъэ",
      "щхьэ ж",
      "м е",
      "т хэр",
      "гу кIэ",
      "ст ан",
      "къызэ щIэ",
      "усы гъэм",
      "алы дж",
      "И ужь",
      "ху итI",
      "ма ши",
      "щыт ми",
      "то къуэ",
      "сабий хэм",
      "фащ эр",
      "зищIы сыр",
      "д ра",
      "лъа гъуэр",
      "пщ эр",
      "закъуэ м",
      "еплъы кIэ",
      "н ауэ",
      "хуэ ныкъуэ",
      "чи м",
      "Вла ди",
      "Пащ ты",
      "уэ н",
      "ну и",
      "ха ми",
      "плъ эм",
      "лI о",
      "зэрыщыт у",
      "Респ убликэм",
      "Iэуэ лъауэ",
      "и пэкIэ",
      "хьэ блэ",
      "гъуа фIэ",
      "ныр щ",
      "зыгуэр хэр",
      "жыс Iэ",
      "Б е",
      "жа мэ",
      "со нет",
      "па шэ",
      "жыла гъуэ",
      "къ ры",
      "къы жри",
      "шхуэ хэм",
      "пщ эм",
      "плъы хь",
      "На зи",
      "ж тэкъым",
      "зэ хы",
      "пэ жщ",
      "Къар дэн",
      "б ри",
      "ч у",
      "ап щ",
      "нэхъы жьым",
      "едж апIэм",
      "защIэ у",
      "къыздэ сым",
      "пис ь",
      "пщI ым",
      "плъы жь",
      "Хъ уэ",
      "зэп ры",
      "ав тор",
      "адрей хэм",
      "ш ист",
      "кIэ т",
      "за къ",
      "ин ыр",
      "Жы г",
      "пIащIэ у",
      "б ли",
      "зэр ит",
      "къу ауэ",
      "жа Iэри",
      "що хъу",
      "ри ем",
      "чи к",
      "гугъуе хь",
      "з мыгъэ",
      "шхуэ хэр",
      "Тхьэ гъэ",
      "Дун ейр",
      "М ин",
      "и гъащIэм",
      "хьэ уэ",
      "зы х",
      "щIе дзэ",
      "е рэ",
      "с тэн",
      "Къ ап",
      "умы щI",
      "н итIыр",
      "т Iащ",
      "лъ эры",
      "егъэ ле",
      "имы щIэу",
      "ныбжьэгъу м",
      "я пэр",
      "эм эм",
      "хьэзыр у",
      "реда к",
      "д мы",
      "т аб",
      "Iэ пхъу",
      "се кре",
      "лъаб жьэм",
      "Б у",
      "б ал",
      "я зыныкъуэ",
      "гу гъа",
      "л ейуэ",
      "ат ыр",
      "пщ ащэм",
      "къалэ ныр",
      "къыщIэкIын къым",
      "Уе блэмэ",
      "етIы сэ",
      "игъэ зэ",
      "плъ у",
      "дун еи",
      "зыкъо мрэ",
      "чэн джэ",
      "А ш",
      "хьэ кIэ",
      "жы тIэ",
      "жын т",
      "кIын щ",
      "убы да",
      "Ку льт",
      "и на",
      "щ егъэ",
      "къу дамэ",
      "джэ д",
      "щIа гъ",
      "зэры хэ",
      "цIыху гъэ",
      "хуэм ей",
      "дакъи къэ",
      "м ор",
      "с рэ",
      "лъ т",
      "лъ апэ",
      "зэ ху",
      "сы те",
      "едж эр",
      "ск ий",
      "Пщы хьэ",
      "наб дзэ",
      "Iэ хэр",
      "фI ыр",
      "шхуэ щ",
      "къа у",
      "къызэр агъэ",
      "гъэ гъа",
      "тхылъ хэр",
      "щыгъ ын",
      "секре тар",
      "б дзэ",
      "н атIэ",
      "Iэ джи",
      "къы хуа",
      "зы хь",
      "хэ хэс",
      "тIэ кIур",
      "на я",
      "ани ем",
      "гуфIэ у",
      "шына гъуэ",
      "А нэ",
      "У дынэ",
      "о фицер",
      "зэ щхь",
      "те тыр",
      "уIэ гъэ",
      "д ат",
      "х мэ",
      "ш хэм",
      "джэ ды",
      "нэхъы бэр",
      "ныб жьым",
      "нов ел",
      "творче ствэм",
      "м ед",
      "т щIы",
      "зэ зэмызэ",
      "жэ бэ",
      "Къы с",
      "жыпIэ у",
      "иIэ т",
      "Алы хь",
      "ра цэм",
      "тхьэ усы",
      "бгъу ры",
      "б е",
      "Iэ дэ",
      "лъ атэ",
      "щыт мэ",
      "къо хъу",
      "Iэ та",
      "кI апэ",
      "мы закъуэу",
      "лъэ т",
      "жы джэр",
      "къып ху",
      "быд апIэм",
      "Хьэту си",
      "и щIэр",
      "Iэ за",
      "щы нэмы",
      "Ар гуэру",
      "IутIы ж",
      "А сте",
      "Ж урнал",
      "У нэ",
      "и жь",
      "гу ащ",
      "къыщы с",
      "полит и",
      "п къы",
      "сы ж",
      "куэ ди",
      "Хьэ тIо",
      "гъуа з",
      "пхъу м",
      "щт эри",
      "ея щ",
      "Лъа гъу",
      "раматур ги",
      "ХьэтIо хъу",
      "уэ м",
      "зы фIэ",
      "гу рэ",
      "къызэ фIэ",
      "згъэ зэ",
      "кур ыт",
      "Щ э",
      "сы кIуэ",
      "литератур эр",
      "къыщы гъэ",
      "нэужь ым",
      "али нэ",
      "лIыхъу жь",
      "Т ен",
      "у къэ",
      "сы хуейкъым",
      "цIэ кIэ",
      "кIуэд ащ",
      "Илъэ си",
      "культ урэм",
      "универси тетым",
      "2 1",
      "Н эмы",
      "в ар",
      "н эмэ",
      "зэ блэ",
      "гъу нап",
      "зэр ыри",
      "къи кIыр",
      "псы гъ",
      "уры хъ",
      "щхьэгъу сэр",
      "ФIы уэ",
      "къыща лъхуащ",
      "з аб",
      "н ей",
      "Шэ ч",
      "респ убли",
      "Ш о",
      "у зыр",
      "де лэ",
      "жи Iа",
      "ув эри",
      "Хьэ чим",
      "губ гъуэ",
      "пхъ эр",
      "мыхьэнэ шхуэ",
      "сы дэ",
      "те х",
      "къу ащ",
      "тхы гъэр",
      "то п",
      "псалъэм акъ",
      "щыты кIэ",
      "хуэ са",
      "хъуэ т",
      "ор ым",
      "зэп ымы",
      "зэхуа ку",
      "Ч э",
      "и ху",
      "щы зэхэ",
      "уб гъу",
      "унэ тI",
      "дыдэ хэм",
      "Т эр",
      "ф акъым",
      "зэры хъуар",
      "къа те",
      "кIын ыгъэ",
      "насып ыр",
      "нэры бг",
      "п аб",
      "къы бгъэдэ",
      "жын ыр",
      "19 3",
      "къыщIэкIын т",
      "гукъэ кIыж",
      "Р е",
      "лIы жьыр",
      "хъуну м",
      "2 3",
      "б лы",
      "гу хэлъ",
      "Хь эмы",
      "ЦIыху р",
      "сп ор",
      "Хьэтуси лэ",
      "и джырей",
      "у те",
      "щIэ нур",
      "гуры щIэ",
      "уэр шэр",
      "ши ф",
      "щIыкIэ у",
      "Мэз куу",
      "2 5",
      "хьэ щIэм",
      "зы ха",
      "пIэ у",
      "кIа ми",
      "укIы тэ",
      "Мари е",
      "а гъ",
      "в эм",
      "къы щымы",
      "зы у",
      "къыт хуи",
      "Д у",
      "я те",
      "къы дигъэ",
      "зэры хуейр",
      "е х",
      "т рагъэ",
      "Iу с",
      "гуры Iуа",
      "ныбжьэгъу хэм",
      "хъан ым",
      "Ми ха",
      "у зым",
      "уна фэм",
      "щIалэ хэм",
      "нэс ащ",
      "Н акIуэ",
      "С ын",
      "хьэ гъуэ",
      "зэр о",
      "ст а",
      "сыт кIэ",
      "Гъ ат",
      "ще кIуэкI",
      "услъым эн",
      "З уб",
      "л я",
      "о ч",
      "ны й",
      "пэ ща",
      "жи Iар",
      "лъагъу н",
      "щIэныгъэ хэм",
      "гуфIы кIащ",
      "Е гъэ",
      "П щым",
      "л эу",
      "ц Iэу",
      "Iэ си",
      "зэ гъусэу",
      "Щы хьым",
      "Гъэ щIэгъуэ",
      "ф ей",
      "щы Iэр",
      "аб ра",
      "кIы жыну",
      "Сэ ли",
      "Асте мыр",
      "М ам",
      "к хэм",
      "кIэ зы",
      "си гъэ",
      "Къ ыт",
      "ув ауэ",
      "са угъэ",
      "Iэнат Iэм",
      "Л о",
      "и Iыгъ",
      "пс у",
      "гъуэ ту",
      "щыт ам",
      "бэ н",
      "плъ ри",
      "пщ тыр",
      "Зауэ м",
      "Ни ко",
      "8 0",
      "е ин",
      "к аб",
      "аб гъу",
      "ан д",
      "гугъэ щ",
      "щыты кIэм",
      "Литерат урэ",
      "щ апхъ",
      "къуэ гъу",
      "пэ плъэ",
      "шэ щ",
      "нэхъы щхьэм",
      "къызы те",
      "щхьэм ы",
      "бали гъ",
      "7 0",
      "Г уры",
      "Т хьэр",
      "я дэ",
      "эр эм",
      "кIэ щIу",
      "жа Iэм",
      "ре во",
      "хуе щI",
      "щхьэгъу бжэм",
      "Су лътIан",
      "6 0",
      "И ван",
      "в ыр",
      "д ми",
      "е гупсыс",
      "п шына",
      "Iу р",
      "лъы тэм",
      "щи лъагъум",
      "гъащIэ у",
      "уры схэм",
      "дэтхэн эми",
      "М арат",
      "и убыд",
      "Сэ фар",
      "губ зыгъэ",
      "щIыр къым",
      "Ис мел",
      "урысы бзэкIэ",
      "гъуэгуры кIуэ",
      "Бахъ сэн",
      "Зуб ер",
      "Б лэ",
      "гу щIэм",
      "щхьэ хуэу",
      "ст Iо",
      "хьын щ",
      "кIа хэм",
      "къэс ащ",
      "уэр къ",
      "лэжьэ н",
      "фило со",
      "п хуэдэ",
      "зы фIи",
      "гъуэ тыр",
      "ну ри",
      "но м",
      "фи е",
      "аль нэ",
      "Гъуэгу лI",
      "Х ы",
      "х хэм",
      "хэ кур",
      "Абы кIэ",
      "уэрэд ыр",
      "Культ урэ",
      "Б жьы",
      "К хъу",
      "Н ар",
      "б жьа",
      "къы лъы",
      "ку пщIа",
      "Гъ ащIэм",
      "щIын щ",
      "хьы ж",
      "мыхьэ нэр",
      "ви ч",
      "Тх акIуэхэм",
      "З алым",
      "щIэ ры",
      "ын ша",
      "мы тIэу",
      "пэ щэ",
      "плъ эри",
      "Псы жь",
      "шэрджэ схэм",
      "щхъу антIэ",
      "лъ ын",
      "щы зы",
      "къэ кIы",
      "зэры хъу",
      "ны сэ",
      "щыт хъу",
      "гъа нэ",
      "ще кIуэ",
      "фызы жьым",
      "с анэ",
      "гъ ын",
      "къу т",
      "къу ей",
      "гъа зэри",
      "кIын ым",
      "сыхьэ тым",
      "Б эр",
      "и мыгъэ",
      "щ кIэ",
      "зы тIу",
      "зы тет",
      "жь ар",
      "фI щ",
      "къе мы",
      "адыгэ бзэр",
      "ным рэ",
      "хаб зэу",
      "слъэ гъу",
      "Влади мир",
      "къы щIа",
      "хэ гъэ",
      "аб эм",
      "итI ри",
      "псэу кIэ",
      "нэмы с",
      "ЩIэ ныгъэ",
      "У мар",
      "и м",
      "уэ гум",
      "къы щIыхьэ",
      "си н",
      "2 4",
      "д япэкIэ",
      "и хьэ",
      "къ арэ",
      "къы хы",
      "Iа ми",
      "Ауэ рэ",
      "псэу ну",
      "мащIэ щ",
      "Iэси ят",
      "ы ху",
      "Iэ мыщIэ",
      "Iу кI",
      "бы сым",
      "гупсысэ хэр",
      "в ащ",
      "гъэ псы",
      "ды къуэ",
      "акIуэ хэр",
      "гуэр хэм",
      "Гъ ащIэ",
      "тIу ми",
      "бзылъху гъэ",
      "п лIы",
      "Iэ кIуэ",
      "щIэ з",
      "лъа гъуэм",
      "къо кIуэ",
      "рево лю",
      "Г ер",
      "Хьэ ба",
      "къыщы хъу",
      "къо мым",
      "анэм рэ",
      "Бэ лэ",
      "В ал",
      "е хьэлIауэ",
      "гу ащэр",
      "ар щ",
      "ны бэ",
      "пщI он",
      "тхьэ Iуху",
      "сын ы",
      "Зым и",
      "б ам",
      "щIэ блэм",
      "кIу хь",
      "хуе я",
      "мурад ыр",
      "Ка шиф",
      "Бэч мырзэ",
      "Алекс анд",
      "М ес",
      "ж ми",
      "с ен",
      "т р",
      "дж ыт",
      "щIы хьащ",
      "шэ джа",
      "Iуэху кIэ",
      "кIа мэ",
      "пщы Iэм",
      "тхьэм пэ",
      "къап щтэмэ",
      "кIэра хъуэ",
      "къэхутэ ныгъэ",
      "хъу ма",
      "ам эм",
      "ти н",
      "но ми",
      "кIыр тэкъым",
      "Ды гъэ",
      "тхьэмыщ кIэм",
      "шэры уэ",
      "е бгъэ",
      "е дгъэ",
      "л эры",
      "тI ыр",
      "щIыхь ыр",
      "ф эри",
      "уэ зды",
      "къы щIе",
      "ит Iыс",
      "щIа гъуэу",
      "хуа къым",
      "Мы вэ",
      "тIа с",
      "фило логие",
      "пщIон дэ",
      "Д зэ",
      "п фIэ",
      "п хуэс",
      "къы щI",
      "зэры зи",
      "лъагъу ну",
      "хэт а",
      "хьа мэ",
      "ка де",
      "щыхъу кIэ",
      "игъащIэ кIэ",
      "Фе де",
      "у гъур",
      "те дз",
      "къа зэры",
      "кIэлъы кIуэ",
      "в мы",
      "к ун",
      "дж анэ",
      "къэ ф",
      "ты куэ",
      "Си гу",
      "хьэлI ащ",
      "пщыхьэ щхьэм",
      "Ус акIуэм",
      "тхьэкIу мэ",
      "Г уб",
      "и лъыр",
      "дэ х",
      "гъуэ кIэ",
      "кIы жын",
      "щIа ми",
      "пы чы",
      "жыр ти",
      "3 3",
      "Ю рэ",
      "ху т",
      "мы гъуэр",
      "нэхъы бэм",
      "нэхъы жьхэм",
      "Лен ин",
      "м у",
      "т ха",
      "ыр къым",
      "щIы Iэм",
      "Хь эу",
      "псэ лъа",
      "ин джылы",
      "сабий хэр",
      "Сабий хэм",
      "ф ри",
      "ы къуэ",
      "шэ т",
      "ку с",
      "игу кIэ",
      "жан р",
      "хъуре и",
      "2 9",
      "Iуэ кIэ",
      "ад зэ",
      "уд ар",
      "бжы гъэр",
      "лъыт эу",
      "и щIэрт",
      "лъ ам",
      "пс и",
      "ат эмэ",
      "къыз же",
      "то хъуэ",
      "роман ым",
      "IэкIуэ лъа",
      "и лъу",
      "щы хьэ",
      "дэ кI",
      "Iу плъэ",
      "Iу пэм",
      "джэ ж",
      "жи д",
      "Iуэху у",
      "Iуэху щ",
      "ре ктор",
      "ныкъуэ м",
      "хуе плъэ",
      "фызы жь",
      "къызыхэ кIа",
      "п ха",
      "ар мыхъумэ",
      "сы зэ",
      "хъун ым",
      "закъуэ щ",
      "бий р",
      "Къуа жэ",
      "2 6",
      "ф эрэ",
      "ш ри",
      "къэ плъы",
      "псэу н",
      "къызэры хэ",
      "коман ди",
      "каде ми",
      "А в",
      "у емы",
      "рэ щ",
      "зэр э",
      "кIу у",
      "щыт т",
      "Мы сыр",
      "псэу а",
      "атэ къэ",
      "къэрал хэм",
      "адрей р",
      "къыща лъхуа",
      "щаб эу",
      "зэгу хьэ",
      "А зэмэ",
      "зэ къуэ",
      "зы Iэ",
      "гъу хэм",
      "зэр еплъ",
      "аб а",
      "Iуэ н",
      "Iуэху хэр",
      "къызэры с",
      "ще кIуэкIа",
      "фа шист",
      "Мысо ст",
      "жи сс",
      "тхьэм ахуэ",
      "10 0",
      "Жан хъуэт",
      "Темыр къан",
      "Б г",
      "з ар",
      "гъэ гъу",
      "ей хэр",
      "ты гъэ",
      "гъа фIэ",
      "до ктор",
      "Адыгэ хэм",
      "Iэщ эр",
      "пщIэн тIэ",
      "машин эм",
      "маши нэ",
      "ХьэтIохъу що",
      "Л Iо",
      "а й",
      "а гъыр",
      "щы Iа",
      "ри й",
      "ль я",
      "мо бы",
      "дж эри",
      "къэ д",
      "сэ т",
      "къыс фIэ",
      "лъэхъэ нэ",
      "! .",
      "б ж",
      "е жэ",
      "з ал",
      "зэ згъэ",
      "хуэ дэм",
      "ар ати",
      "Iэр къым",
      "фы зыр",
      "мини ст",
      "у къе",
      "щIы кIэм",
      "къе хъу",
      "жьы уэ",
      "ея уэ",
      "теле ви",
      "Д адэ",
      "н эри",
      "ц Iу",
      "щIэ жу",
      "рэ би",
      "къэ хъуащ",
      "хуе жьащ",
      "ЩI алэм",
      "лэжьэ ну",
      "щыхьэт щ",
      "Iэ зэу",
      "зэр ыр",
      "хэ плъэ",
      "шы нэу",
      "ро хьэлIэ",
      "къып хуи",
      "а къэ",
      "л ын",
      "къы щIигъэ",
      "гу мэ",
      "хъу ху",
      "пэ жым",
      "щIа дзащ",
      "жу мыIэ",
      "хьэщIэ щым",
      "М усэ",
      "С Р",
      "п арт",
      "п лъагъур",
      "щ рагъэ",
      "Iэ фIу",
      "зэ дзэ",
      "мы дрей",
      "къу у",
      "со юзым",
      "губ зы",
      "бжы гъэкIэ",
      "Ха мэ",
      "жыхуи Iэу",
      "хьэлэ л",
      "С урэ",
      "У нэм",
      "те хьэ",
      "цIыху бзыр",
      "дыхьэ шхы",
      "зэрыщыт ам",
      "нэщхъ ей",
      "СС СР",
      "тхьэкIу мэм",
      "пись мо",
      "къы хуэмы",
      "щIэ ту",
      "ат Iи",
      "имы Iэ",
      "ире гъэ",
      "Миха ил",
      "зэ щIа",
      "зы щIыпIэ",
      "мы кIуэ",
      "фэ щ",
      "ншэ щ",
      "нэщхъ ейуэ",
      "Къэр мо",
      "Тхьэгъэ зит",
      "а жал",
      "ж ет",
      "къым и",
      "щIы лъэм",
      "джы I",
      "бгъэ дэт",
      "зыгъэ псэху",
      "хъуэпс апIэ",
      "теат р",
      "Хъыджэ бз",
      "Тэр ч",
      "2 7",
      "ж хэм",
      "ф ымы",
      "э по",
      "щы Iэм",
      "гу гъэм",
      "ди е",
      "бл ыным",
      "гугъ ащ",
      "IупщI у",
      "Е мы",
      "у пщIы",
      "шы Iэ",
      "унэ тIы",
      "Хъ ус",
      "Пэ жыр",
      "нап эм",
      "гъэщIэгъуэ ну",
      "Iэпкъ лъэпкъ",
      "е хьэлIа",
      "и ны",
      "гъэ с",
      "хуэ зэ",
      "къэ б",
      "ап ит",
      "къу дамэм",
      "лы ды",
      "Сыт ми",
      "адэ жь",
      "уэр ащ",
      "нэ гъуэ",
      "щIы кIа",
      "къа ху",
      "нэгъуэщI у",
      "гурыIуэ гъуэ",
      "къагъэ сэбэп",
      "Ис хьэкъ",
      "нат Iэм",
      "икIэ жым",
      "къ эрэ",
      "къы умы",
      "хуэ т",
      "зэхэ гъэ",
      "арэзы уэ",
      "Ан дрей",
      "щызэхуэ хьэ",
      "хэлъхьэ ныгъэ",
      "А скэр",
      "л Iэм",
      "у хуеймэ",
      "гъуэм рэ",
      "тIэкIу и",
      "пь есэ",
      "IуэрыIуат эм",
      "Ев ро",
      "п ымы",
      "мы гъу",
      "ре Iэ",
      "Азэмэ т",
      "Л Iэ",
      "т хъу",
      "гу о",
      "гъуэ мы",
      "ха дэ",
      "фи ль",
      "сэр ащ",
      "2 8",
      "ф ер",
      "нэ сым",
      "гъу ейщ",
      "Iу о",
      "къу та",
      "джэ ну",
      "хуэдиз у",
      "ша гъэр",
      "пхъ эм",
      "тхылъым пIэ",
      "Лю дми",
      "егъэле яуэ",
      "Н анэ",
      "Р ус",
      "хэр ащ",
      "нэгъуэщI ым",
      "ис кус",
      "Куэд рэ",
      "ращ Iы",
      "хэмыт у",
      "Д эри",
      "з ей",
      "щы щIэдзауэ",
      "кIы хьым",
      "жи мыIэу",
      "Мы къуэ",
      "Къэ жэр",
      "къыт ху",
      "хуащ Iы",
      "слъэ гъуа",
      "шыпхъу м",
      "Дэтхэ нэ",
      "п кIэ",
      "хь кIэ",
      "ит т",
      "къып и",
      "Дахэ зи",
      "Феде рацэм",
      "ж джыт",
      "зэ хуи",
      "нэ н",
      "ну мэ",
      "жа Iащ",
      "мафIэ р",
      "лъыхъуэ у",
      "зыкъо м",
      "Iэмэ псым",
      "Къэрэ шей",
      "б ат",
      "ж о",
      "з ре",
      "п хын",
      "къы жра",
      "гу псэху",
      "ды щIэ",
      "къэ закъ",
      "къуэ н",
      "щыт ауэ",
      "Iэм ыр",
      "гъуа зэу",
      "зауэ шхуэм",
      "къыдэ кIуэу",
      "щызэ хи",
      "бзэм рэ",
      "ежьэ жащ",
      "Ищхъ эрэм",
      "Сын о",
      "щы лажьэ",
      "дэ кIу",
      "лъэ Iуащ",
      "лэ н",
      "кIы фIы",
      "жэ гу",
      "хьа ми",
      "Гу псы",
      "ло в",
      "мыр ащ",
      "жыг ым",
      "лъап эм",
      "ещ анэ",
      "Тен джыз",
      "е зыгъэ",
      "е жьащ",
      "и щIу",
      "у ху",
      "ш эрэ",
      "ма лъ",
      "къе жь",
      "хъун къым",
      "п хэ",
      "ш хыу",
      "я пэм",
      "Iэ гу",
      "Iэ три",
      "къы кIэры",
      "фIы цI",
      "Iуэху щIа",
      "пы ухы",
      "лIы гъэм",
      "лIэ н",
      "щIэт щ",
      "мэкъумэ шы",
      "А м",
      "Т ы",
      "зэ бгъэ",
      "нэ пцI",
      "кIэ щIэ",
      "хьэ заб",
      "кIуэ нур",
      "щIы хуэ",
      "лы къуэ",
      "пщIэ шхуэ",
      "бл ым",
      "къыз ит",
      "мащIэ къым",
      "пхъэ щ",
      "яхэт щ",
      "Хъы бар",
      "Усэ хэр",
      "З алинэ",
      "ли н",
      "уд ын",
      "ищIэ рэ",
      "фащ эу",
      "нэкIу м",
      "я лъагъу",
      "кIы пIэм",
      "жа ми",
      "къыс те",
      "хэлъ т",
      "та урыхъ",
      "гъы бзэ",
      "увы Iащ",
      "Жь а",
      "щыты кIэр",
      "хъарзы нэу",
      "Ус акIуэ",
      "зэбг ры",
      "райо ным",
      "з де",
      "п шынэ",
      "зы дэ",
      "щIэ ныгъэр",
      "дж ат",
      "ды гъуэ",
      "сы хэ",
      "хэт т",
      "ири хьэ",
      "ЦIыху бз",
      "гуфIэ гъуэр",
      "н дэ",
      "п ауэ",
      "ф ес",
      "зэ гъ",
      "къу пщхьэ",
      "Сэ тэн",
      "жын къым",
      "къыщIэ кIа",
      "та къым",
      "лъаб жьэр",
      "А дэм",
      "к л",
      "зэ тра",
      "ди гу",
      "гъэм ахуэ",
      "бэ нэ",
      "лъэгъу ар",
      "къэзы у",
      "жыхуа Iэ",
      "екIу у",
      "А джы",
      "с кIэ",
      "я щIащ",
      "щы те",
      "зы щIи",
      "ар ауэ",
      "ын а",
      "зэры хъур",
      "щхьэ ху",
      "дзэ пщ",
      "зо щI",
      "Ма зэ",
      "Ма мэ",
      "Iэн щи",
      "Б ел",
      "е фэ",
      "ж хэр",
      "ж реIэ",
      "нэ са",
      "усакIуэ р",
      "лъаг эм",
      "ком ым",
      "пщэдджы жьым",
      "Дуней псо",
      "нарты ху",
      "К хъыIэ",
      "к ра",
      "хэ хъуэ",
      "жы пIа",
      "ет х",
      "ко ми",
      "уэрэ джыI",
      "щIо упщIэ",
      "хабзэ щ",
      "хьэлъэ у",
      "Шэрджэ сым",
      "хьэгъуэ лIы",
      "Александ р",
      "м услъымэн",
      "т ий",
      "хьэ щIэр",
      "лъэ тэ",
      "щIы кIэр",
      "де гъэ",
      "шэ сы",
      "къыщы зэ",
      "блэ кIам",
      "къыдэ кIы",
      "псалъэм акъыр",
      "хьэзыр щ",
      "Ны б",
      "гъат хэ",
      "зыбж анэм",
      "Ж а",
      "е ш",
      "ц ым",
      "щIэ пхъуэ",
      "лъа гъуэу",
      "къа нэ",
      "жащ и",
      "Ма си",
      "Мэ ш",
      "зыте псэлъы",
      "зымы гъэ",
      "Аб ду",
      "гузэвэ гъуэ",
      "7 5",
      "и щ",
      "Iэ с",
      "зэ ныбжьэгъу",
      "щIэ ри",
      "къэ псэлъащ",
      "к уры",
      "т кIуэ",
      "щ акIуэ",
      "уэ лэхьи",
      "къы дыхьэ",
      "ат ья",
      "Iу н",
      "фIы гъэкIэ",
      "гъа зэу",
      "зэхэ щIы",
      "бгъу м",
      "гуапэ щ",
      "логи ем",
      "Уа фэ",
      "в мыгъэ",
      "гу вэу",
      "Iы гъы",
      "сы хуейт",
      "ре жисс",
      "Зэ хэ",
      "тет къым",
      "щыгъуэ ми",
      "бын ым",
      "Абдеж ым",
      "пщIыхьэ пIэ",
      "Хъус ен",
      "Рус лан",
      "К рити",
      "и пэ",
      "и Iэр",
      "т рэ",
      "мэ уэ",
      "зэры щымы",
      "ро в",
      "кIэм рэ",
      "мыхъу мы",
      "лIэщIы гъуэ",
      "ж окъуэ",
      "п къыр",
      "къ рым",
      "эм ал",
      "Къы схуэ",
      "щIын ым",
      "къыте хьащ",
      "иIэ тэкъым",
      "купщIа фIэ",
      "б р",
      "с лъагъур",
      "сы къо",
      "те лъу",
      "къэ хъуа",
      "тэ лай",
      "жа Iэрт",
      "фIы цIэм",
      "ре с",
      "зе зы",
      "Уэ с",
      "Уэ зыр",
      "тхьэмыщ кIэр",
      "Людми лэ",
      "щы гу",
      "щIэ зы",
      "лъэ дащ",
      "Къ аз",
      "Ар ащи",
      "жын кIэ",
      "по плъэ",
      "насып ым",
      "къур ш",
      "об ще",
      "пIащ э",
      "4 2",
      "П сэу",
      "Т у",
      "е хьэ",
      "уэ лий",
      "сы къыщы",
      "лъы тащ",
      "щIа кхъуэ",
      "Iуэху хэм",
      "къызэ п",
      "па г",
      "къащ хьэ",
      "къащ тэ",
      "къызэра лъху",
      "пIейт ей",
      "П уш",
      "У ры",
      "я Iэщ",
      "къ абы",
      "лъ о",
      "щы гуфIы",
      "сы хуейщ",
      "къу дейм",
      "фI агъэ",
      "жын щи",
      "Гъ унэ",
      "зэрыщыт ым",
      "хьын ур",
      "зал ымы",
      "П шэ",
      "о к",
      "нэ сы",
      "ды зы",
      "ан эми",
      "зэры зе",
      "хэт ми",
      "плъ ым",
      "до гъэ",
      "тIы сэ",
      "ка в",
      "къэс кIэ",
      "нэужь щ",
      "Апхуэдэ щ",
      "колхо з",
      "3 5",
      "Т екIуэ",
      "э к",
      "Iэ щIыб",
      "ды те",
      "къуэ рылъху",
      "ша псыгъ",
      "гуауэ р",
      "Хьэба с",
      "ым а",
      "щы н",
      "лы хь",
      "на къым",
      "дз ап",
      "къызэры щIэ",
      "тхылъ хэм",
      "щхь эри",
      "лъэныкъуэ р",
      "ков ник",
      "З у",
      "щы пэ",
      "ны жэбэ",
      "хуэдэ урэ",
      "пIэ н",
      "шэ нт",
      "куэд щ",
      "по эмэ",
      "щIын ур",
      "щIым ахуэ",
      "Аджы къу",
      "к ар",
      "къы гурыIуащ",
      "нэ Iэ",
      "щы хуэ",
      "щы къу",
      "хъу гъуэ",
      "хы хьащ",
      "хъуну тэкъым",
      "къыт ригъэ",
      "гъуэт ыну",
      "Хьэм эрэ",
      "хъарзы нэ",
      "напIэ зы",
      "ерыс къы",
      "и жьыр",
      "п у",
      "с щIы",
      "хъ аз",
      "нэ ф",
      "кIэ н",
      "ку пщIэ",
      "гъа вэ",
      "псэу щхьэ",
      "унэ тIащ",
      "хъуащ и",
      "усакIуэ хэм",
      "едж эу",
      "езы хэр",
      "ара къэ",
      "тен джы",
      "пл Iанэ",
      "мам ыр",
      "зы пы",
      "гуэ ш",
      "щыт ым",
      "щIа дзэ",
      "со м",
      "ныкъуэ къу",
      "Гу фIэ",
      "щхь эрэ",
      "антIэ м",
      "йо плъ",
      "щIыпIэ хэм",
      "сат у",
      "щIалэгъу алэм",
      "гъуаз джэм",
      "е лъытауэ",
      "ж алым",
      "и хьащ",
      "ю жет",
      "зы къе",
      "дэ кIа",
      "гуэр хэри",
      "ор д",
      "Гъ эм",
      "тхьэм адэм",
      "лъхьэ ну",
      "хьи л",
      "жыджэр у",
      "м ен",
      "зы бгъэ",
      "къуэ у",
      "къызэ те",
      "илъэ гъуа",
      "нэгъуэщI хэми",
      "Мэ жид",
      "Къу щхьэ",
      "щынэмы щIауэ",
      "К аб",
      "ш ха",
      "хьэ лъэр",
      "къи с",
      "пкъ ры",
      "яб рым",
      "Иужь рей",
      "с ей",
      "ц Iа",
      "кIэ кIэ",
      "дэ кIри",
      "жь и",
      "сы ще",
      "кIы хьа",
      "Хьэ б",
      "лI ар",
      "ор г",
      "ба ш",
      "хъыбар ы",
      "зыхуэ дэр",
      "С е",
      "к хъуа",
      "ч ын",
      "Iэ джэм",
      "ит ха",
      "зэп еуэ",
      "Ды гъу",
      "уд зы",
      "фыр къым",
      "тен джыз",
      "хьэлэмэ т",
      "П хъэ",
      "а фIэкIа",
      "ш хуи",
      "Iэ ужь",
      "щы уагъэ",
      "ди дат",
      "кIу и",
      "ку ль",
      "фIы цIэр",
      "лI хэм",
      "ту тын",
      "къызэ гъэ",
      "яхэт у",
      "Iуэры Iуатэ",
      "крити к",
      "де л",
      "хъуэ ж",
      "ли м",
      "ко номи",
      "гупсы сыр",
      "блэ гъэ",
      "Iэн кун",
      "шын эр",
      "IэдакъэщIэкI хэм",
      "Б ат",
      "Т Iу",
      "б гъуэн",
      "м узы",
      "ц а",
      "ц ыр",
      "лъэ кI",
      "къа лъху",
      "дз ар",
      "хъуа ри",
      "уб зыху",
      "зэхэ у",
      "уд ащ",
      "уэрэд ым",
      "къэралы гъуэм",
      "быд апIэ",
      "сту дент",
      "Къэрмо къуэ",
      "I ыр",
      "а кадеми",
      "и щIэркъым",
      "бэ лэры",
      "къыс щохъу",
      "Сыт ым",
      "къаб зэм",
      "ев ым",
      "Би цу",
      "П ет",
      "з ам",
      "к ес",
      "я убыд",
      "Iэ лъэ",
      "ху ат",
      "Iуэ м",
      "да х",
      "уи Iэ",
      "со лъагъу",
      "тх ащ",
      "блэ кIа",
      "хуэдиз кIэ",
      "лэжь апIэ",
      "Пэ жу",
      "жэщ ыр",
      "IэдакъэщIэкI хэр",
      "Ш ор",
      "Я пэр",
      "с ко",
      "къы ды",
      "къы щхьэщы",
      "зэ кIу",
      "аб зэу",
      "ды дж",
      "Iу у",
      "ди ным",
      "жы хь",
      "кIы жым",
      "пIэ щIэ",
      "шэ ж",
      "жьэ гу",
      "джы кI",
      "къо псалъэ",
      "про фес",
      "щыс щ",
      "кан дидат",
      "б ер",
      "л Iэу",
      "н я",
      "щы Iащ",
      "жь эрэ",
      "жи Iам",
      "плъ эрт",
      "ящыщ т",
      "зэра мы",
      "уэрэд хэр",
      "къудей къым",
      "Ле нэ",
      "е хыжащ",
      "з ейр",
      "къы щагъэ",
      "хьэ дэр",
      "щхьэ кIи",
      "къа хуи",
      "нэхъы жьы",
      "ныкъуэ р",
      "псалъэ кIэ",
      "кIым кIэ",
      "К ом",
      "хуэ ри",
      "гу пы",
      "пс эри",
      "мы гъуэм",
      "гъуэ ри",
      "кIы фIым",
      "шы гъу",
      "щIа мэ",
      "пщ ащэр",
      "ша гъэм",
      "Сэтэн ей",
      "Ж и",
      "к хъыIэ",
      "Iэ фIы",
      "къы хуигъэ",
      "рэ дж",
      "къуэ пс",
      "тэ тэр",
      "ит хы",
      "щхь у",
      "цI ыр",
      "ныбжьэгъу р",
      "къыщIо кI",
      "зэхуа кум",
      "анэдэлъху бзэм",
      "гукъыдэ ж",
      "с южет",
      "уэ ну",
      "мы хъуну",
      "ап эу",
      "зэры хъунур",
      "пIэ щ",
      "итI ми",
      "по н",
      "то лъ",
      "Гу гъу",
      "псалъэм акъым",
      "Тхы дэ",
      "щIыб ым",
      "зэхъуэ кIыныгъэ",
      "Маси рэт",
      "П щI",
      "П сым",
      "Ш а",
      "я бг",
      "Iэ щIэу",
      "жы ф",
      "пэ плъэу",
      "гъэр щ",
      "итI кIэ",
      "щыщ щ",
      "Гъ уб",
      "къып фIэ",
      "хъур тэкъым",
      "тIыс хьэри",
      "в ла",
      "зы хуа",
      "щIэ кIащ",
      "дэ кIауэ",
      "мы дэкIэ",
      "дж атэ",
      "кIуэ ты",
      "хэт ыр",
      "деж кIи",
      "пщэ фI",
      "Зэ гуэрым",
      "Аслъэн джэрий",
      "Тх акIуэ",
      "колхо зым",
      "Б жэ",
      "ы жу",
      "нэ жэгу",
      "щы хъуащ",
      "зы уэ",
      "зы хуагъэ",
      "ди я",
      "зэры хъуам",
      "ст ро",
      "гуры гъу",
      "къур шы",
      "бжьы хьэ",
      "унафэщI хэм",
      "пл Iэм",
      "Тем рыкъуэ",
      "Ва гъуэ",
      "Нико лай",
      "9 0",
      "з ат",
      "п ш",
      "п апэ",
      "т хьэры",
      "гъ агъэ",
      "зэ хуэдэ",
      "гу Iэ",
      "лъэ гум",
      "бл ын",
      "щым у",
      "слъэ гъуащ",
      "ещхь ыр",
      "жан рым",
      "хыр къым",
      "кIуэцI ры",
      "КIу нэ",
      "насыпы фIэ",
      "Т Iы",
      "Щ эу",
      "с агъэ",
      "у зо",
      "гъ ымрэ",
      "хъ эр",
      "пэ лъытэ",
      "хьэм и",
      "къа дэ",
      "къа ри",
      "къа гурыIуэ",
      "гъа джэ",
      "Гу м",
      "щIыпIэ кIэ",
      "пар тым",
      "дыжь ын",
      "гъунап къэ",
      ") ;",
      "С щIэркъым",
      "С тал",
      "н кIи",
      "ф ор",
      "э кономи",
      "ар къэ",
      "ди ви",
      "си Iэщ",
      "фэ щащ",
      "плъы т",
      "ЩIэ блэ",
      "амазонкэ хэм",
      "тан к",
      "Каб ар",
      "б ащ",
      "и щIауэ",
      "у еплъ",
      "ф ащэм",
      "х рэ",
      "я Iэу",
      "щы ст",
      "дж агъэ",
      "дж абэм",
      "сэ шхуэ",
      "жа хэм",
      "псы хъуэ",
      "куэ ды",
      "куэ бжэм",
      "щIалэ хэр",
      "ва къэ",
      "лъэныкъуэ кIи",
      "Заур бэч",
      "дыхьэшх ащ",
      "Iэпкъ лъэпкъыр",
      "Ныб жьэгъу",
      "Ф атIи",
      "ч ат",
      "кI щ",
      "къы хигъэ",
      "къы жриIащ",
      "дэ кIащ",
      "къа фэ",
      "хъун кIэ",
      "кIын къым",
      "кIыж мэ",
      "жызо Iэри",
      "Пщэ дей",
      "ефэн ды",
      "зэпымы ууэ",
      "Б гы",
      "щIэ уэ",
      "дэ схэм",
      "хуей ми",
      "гъа хъуэ",
      "дз у",
      "ЛIы хъу",
      "нэщ хъы",
      "здэщы Iэр",
      "дыгъуа сэ",
      "новел лэ",
      "республи кэ",
      "ш абзэ",
      "щ та",
      "зэр еджэр",
      "де и",
      "Iуэху тхьэ",
      "гъа жэ",
      "зэри дзэ",
      "бл о",
      "Зэ и",
      "сын щ",
      "жьа кIэ",
      "пшы хь",
      "Дахэзи лэ",
      "3 1",
      "д ры",
      "е дзы",
      "е даIуэ",
      "щы щIа",
      "щы лэжьащ",
      "кIуэ тэ",
      "щхьэ у",
      "зи гу",
      "шэ хэр",
      "ад ры",
      "Хьэ фIыцIэ",
      "ин щ",
      "Мы дэ",
      "Гъ ащIэр",
      "хъыбар хэр",
      "ЩI алэр",
      "ещхь щ",
      "лъэIу р",
      "ире хъу",
      "лъыт эри",
      "жыхуэ пIэр",
      "и щIэн",
      "лъ хьэр",
      "гу къинэ",
      "щIэ кIа",
      "хэ ха",
      "лъэ ф",
      "эри м",
      "Iа хэм",
      "ув эу",
      "ор де",
      "гъуэгу лI",
      "акъы лыр",
      "къэралы гъуэр",
      "Мэр ем",
      "Хьэмы щэ",
      "I итIыр",
      "д ригъэ",
      "н итIым",
      "щ анэ",
      "фIэ кIуэ",
      "зи Iэм",
      "шы кур",
      "къыщы лъэ",
      "псэу кIэр",
      "тх ауэ",
      "лъэпкъэгъу хэм",
      "клас сым",
      "поэзи ем",
      "Б ал",
      "У о",
      "Щ ымы",
      "ж ейм",
      "ра мэ",
      "со в",
      "илъэ сым",
      "тэр т",
      "джэр т",
      "адыг эр",
      "Но бэр",
      "пол ковник",
      "пре д",
      "3 7",
      "б эу",
      "л хэр",
      "т ми",
      "у хэ",
      "щIэ блэ",
      "щIэ блэр",
      "ды къи",
      "зи хъуэ",
      "гъэм и",
      "лIэ ну",
      "япэ щIыкIэ",
      "Ды гъэр",
      "литературэм рэ",
      "IэфI ыр",
      "гушхуэ у",
      "Мыбдеж ым",
      "хьэтыр кIэ"
    ]
  }
}