{
  "version": "1.0",
  "truncation": null,
  "padding": null,
  "added_tokens": [
    {
      "id": 1,
      "content": "[PAD]",
      "single_word": false,
      "lstrip": false,
      "rstrip": false,
      "normalized": false,
      "special": true
    },
    {
      "id": 2,
      "content": "[UNK]",
      "single_word": false,
      "lstrip": false,
      "rstrip": false,
      "normalized": false,
      "special": true
    },
    {
      "id": 3,
      "content": "[CLS]",
      "single_word": false,
      "lstrip": false,
      "rstrip": false,
      "normalized": false,
      "special": true
    },
    {
      "id": 4,
      "content": "[SEP]",
      "single_word": false,
      "lstrip": false,
      "rstrip": false,
      "normalized": false,
      "special": true
    },
    {
      "id": 5,
      "content": "[MASK]",
      "single_word": false,
      "lstrip": false,
      "rstrip": false,
      "normalized": false,
      "special": true
    },
    {
      "id": 6,
      "content": "жь",
      "single_word": false,
      "lstrip": false,
      "rstrip": false,
      "normalized": true,
      "special": false
    },
    {
      "id": 7,
      "content": "ку",
      "single_word": false,
      "lstrip": false,
      "rstrip": false,
      "normalized": true,
      "special": false
    },
    {
      "id": 8,
      "content": "кӀ",
      "single_word": false,
      "lstrip": false,
      "rstrip": false,
      "normalized": true,
      "special": false
    },
    {
      "id": 9,
      "content": "кIу",
      "single_word": false,
      "lstrip": false,
      "rstrip": false,
      "normalized": true,
      "special": false
    },
    {
      "id": 10,
      "content": "къ",
      "single_word": false,
      "lstrip": false,
      "rstrip": false,
      "normalized": true,
      "special": false
    },
    {
      "id": 11,
      "content": "къу",
      "single_word": false,
      "lstrip": false,
      "rstrip": false,
      "normalized": true,
      "special": false
    },
    {
      "id": 12,
      "content": "кхъ",
      "single_word": false,
      "lstrip": false,
      "rstrip": false,
      "normalized": true,
      "special": false
    },
    {
      "id": 13,
      "content": "кхъу",
      "single_word": false,
      "lstrip": false,
      "rstrip": false,
      "normalized": true,
      "special": false
    },
    {
      "id": 14,
      "content": "лъ",
      "single_word": false,
      "lstrip": false,
      "rstrip": false,
      "normalized": true,
      "special": false
    },
    {
      "id": 15,
      "content": "лI",
      "single_word": false,
      "lstrip": false,
      "rstrip": false,
      "normalized": true,
      "special": false
    },
    {
      "id": 16,
      "content": "пI",
      "single_word": false,
      "lstrip": false,
      "rstrip": false,
      "normalized": true,
      "special": false
    },
    {
      "id": 17,
      "content": "тI",
      "single_word": false,
      "lstrip": false,
      "rstrip": false,
      "normalized": true,
      "special": false
    },
    {
      "id": 18,
      "content": "фI",
      "single_word": false,
      "lstrip": false,
      "rstrip": false,
      "normalized": true,
      "special": false
    },
    {
      "id": 19,
      "content": "ху",
      "single_word": false,
      "lstrip": false,
      "rstrip": false,
      "normalized": true,
      "special": false
    },
    {
      "id": 20,
      "content": "хь",
      "single_word": false,
      "lstrip": false,
      "rstrip": false,
      "normalized": true,
      "special": false
    },
    {
      "id": 21,
      "content": "хъ",
      "single_word": false,
      "lstrip": false,
      "rstrip": false,
      "normalized": true,
      "special": false
    },
    {
      "id": 22,
      "content": "хъу",
      "single_word": false,
      "lstrip": false,
      "rstrip": false,
      "normalized": true,
      "special": false
    },
    {
      "id": 23,
      "content": "цI",
      "single_word": false,
      "lstrip": false,
      "rstrip": false,
      "normalized": true,
      "special": false
    },
    {
      "id": 24,
      "content": "щI",
      "single_word": false,
      "lstrip": false,
      "rstrip": false,
      "normalized": true,
      "special": false
    },
    {
      "id": 25,
      "content": "Ӏу",
      "single_word": false,
      "lstrip": false,
      "rstrip": false,
      "normalized": true,
      "special": false
    },
    {
      "id": 26,
      "content": "хуэ",
      "single_word": false,
      "lstrip": false,
      "rstrip": false,
      "normalized": true,
      "special": false
    }
  ],
  "normalizer": null,
  "pre_tokenizer": null,
  "post_processor": null,
  "decoder": null,
  "model": {
    "type": "Unigram",
    "unk_id": 0,
    "vocab": [
      [
        "UNK",
        0.0
      ],
      [
        "[PAD]",
        0.0
      ],
      [
        "[UNK]",
        0.0
      ],
      [
        "[CLS]",
        0.0
      ],
      [
        "[SEP]",
        0.0
      ],
      [
        "[MASK]",
        0.0
      ],
      [
        "\n",
        -1.4544492842917922
      ],
      [
        "у",
        -3.466733756594728
      ],
      [
        "т",
        -4.226692712623333
      ],
      [
        "щ",
        -4.250061350937628
      ],
      [
        "и",
        -4.252382995668954
      ],
      [
        "р",
        -4.448011661826865
      ],
      [
        "ри",
        -4.475317202931885
      ],
      [
        "м",
        -4.659965157934792
      ],
      [
        "зы",
        -4.910360496428778
      ],
      [
        "рэ",
        -4.933792344869342
      ],
      [
        "кIэ",
        -4.992656475070643
      ],
      [
        "сы",
        -5.08051557435893
      ],
      [
        "мэ",
        -5.147840646152854
      ],
      [
        "с",
        -5.206174921775046
      ],
      [
        "-",
        -5.325170105056564
      ],
      [
        "зэры",
        -5.3561944676793285
      ],
      [
        "щы",
        -5.381584202801175
      ],
      [
        "ми",
        -5.386044578989784
      ],
      [
        "я",
        -5.431584217309091
      ],
      [
        "хэр",
        -5.452390544591765
      ],
      [
        "къы",
        -5.472028162596878
      ],
      [
        "хэм",
        -5.472566424855865
      ],
      [
        "мы",
        -5.482525873298325
      ],
      [
        "ды",
        -5.487672649208266
      ],
      [
        "а",
        -5.509569362803438
      ],
      [
        "ыр",
        -5.5212510790124085
      ],
      [
        "н",
        -5.535086939283007
      ],
      [
        "зэ",
        -5.5482521247512935
      ],
      [
        "ым",
        -5.659182298780424
      ],
      [
        "…",
        -5.663759060237741
      ],
      [
        "е",
        -5.678492872414603
      ],
      [
        "п",
        -5.686470001062016
      ],
      [
        "уэ",
        -5.779256340199371
      ],
      [
        "ху",
        -5.8236558415787645
      ],
      [
        "щIэ",
        -5.836195149314076
      ],
      [
        "къа",
        -5.890734244271462
      ],
      [
        "нэ",
        -5.897555299704953
      ],
      [
        "къэ",
        -5.89782375795583
      ],
      [
        "ащ",
        -5.902947705718486
      ],
      [
        "гъэ",
        -5.935725951908632
      ],
      [
        "д",
        -5.9835999521248855
      ],
      [
        "къым",
        -6.0247485420405855
      ],
      [
        "хэ",
        -6.041639532849521
      ],
      [
        "щи",
        -6.068053601186422
      ],
      [
        "Iу",
        -6.082621580646675
      ],
      [
        "хуэ",
        -6.113237087462133
      ],
      [
        "ф",
        -6.11874556475726
      ],
      [
        "дэ",
        -6.1585707105661704
      ],
      [
        "э",
        -6.165009626184601
      ],
      [
        "къи",
        -6.178441162937325
      ],
      [
        "ауэ",
        -6.1903031481632365
      ],
      [
        "ар",
        -6.203250286329208
      ],
      [
        "з",
        -6.239173618744793
      ],
      [
        "У",
        -6.246053120166023
      ],
      [
        "Iэ",
        -6.286950087994162
      ],
      [
        "рт",
        -6.324906244210123
      ],
      [
        "б",
        -6.335733869952271
      ],
      [
        "урэ",
        -6.357567676214838
      ],
      [
        "хьэ",
        -6.395299651148671
      ],
      [
        "щIы",
        -6.433730544434219
      ],
      [
        "ти",
        -6.452640477954434
      ],
      [
        "да",
        -6.459719866039453
      ],
      [
        "Сы",
        -6.460207694955807
      ],
      [
        "ж",
        -6.4622240688021115
      ],
      [
        "къе",
        -6.506263865495798
      ],
      [
        "къыщы",
        -6.507738697403923
      ],
      [
        "гу",
        -6.536029009097339
      ],
      [
        "фы",
        -6.537574781971935
      ],
      [
        "в",
        -6.539336267504805
      ],
      [
        "са",
        -6.561497776060814
      ],
      [
        "х",
        -6.578122491599464
      ],
      [
        "ну",
        -6.616670500357788
      ],
      [
        "къызэры",
        -6.625533947961821
      ],
      [
        "лъэ",
        -6.626003970636274
      ],
      [
        "ыну",
        -6.626418170539948
      ],
      [
        "щIа",
        -6.631570685398339
      ],
      [
        "мрэ",
        -6.655074228479211
      ],
      [
        "за",
        -6.673283779781406
      ],
      [
        "ра",
        -6.677317739182153
      ],
      [
        "пэ",
        -6.677629965681933
      ],
      [
        "шэ",
        -6.704535213983143
      ],
      [
        "ди",
        -6.713580429375102
      ],
      [
        "ын",
        -6.740455181375434
      ],
      [
        "те",
        -6.742024866982858
      ],
      [
        "хъу",
        -6.745740937211768
      ],
      [
        "ш",
        -6.762227197787838
      ],
      [
        "хэри",
        -6.805568467779193
      ],
      [
        "бгъэ",
        -6.805740638064585
      ],
      [
        "л",
        -6.807369907161883
      ],
      [
        "на",
        -6.819865337437251
      ],
      [
        "гъу",
        -6.844609557059475
      ],
      [
        "хэмрэ",
        -6.8716759404386
      ],
      [
        "кIуэ",
        -6.8792598865258165
      ],
      [
        "щхьэ",
        -6.889263177897335
      ],
      [
        "ща",
        -6.921374897541641
      ],
      [
        "фIэ",
        -6.925804875813592
      ],
      [
        "кIи",
        -6.926921449032017
      ],
      [
        "акъым",
        -6.9289518632692735
      ],
      [
        "фэ",
        -6.941802521171058
      ],
      [
        "къыс",
        -6.94863693235336
      ],
      [
        "к",
        -6.949742818611508
      ],
      [
        "ырт",
        -6.950288296823011
      ],
      [
        "къу",
        -6.9550247654498945
      ],
      [
        "ам",
        -6.959054947515392
      ],
      [
        "Къы",
        -6.9630602594227735
      ],
      [
        "къызэ",
        -6.96355384669431
      ],
      [
        "игъэ",
        -6.964865220091785
      ],
      [
        "къуэ",
        -6.978219805076301
      ],
      [
        "ат",
        -6.986619354482589
      ],
      [
        "зи",
        -7.008196228821283
      ],
      [
        "ры",
        -7.010925377092893
      ],
      [
        "П",
        -7.014456687363665
      ],
      [
        "С",
        -7.0189683789067
      ],
      [
        "Зы",
        -7.023797444073962
      ],
      [
        "ха",
        -7.0309489485286525
      ],
      [
        "до",
        -7.032025030486956
      ],
      [
        "тэкъым",
        -7.0531819084635625
      ],
      [
        "кI",
        -7.065851827326386
      ],
      [
        "лъ",
        -7.066456041354325
      ],
      [
        "жь",
        -7.067736425678469
      ],
      [
        "ркъым",
        -7.068358243491496
      ],
      [
        "дзэ",
        -7.072072543363901
      ],
      [
        "де",
        -7.075379093269749
      ],
      [
        "Зэ",
        -7.078844963227491
      ],
      [
        "уа",
        -7.087993263487104
      ],
      [
        "къып",
        -7.091671942172603
      ],
      [
        "щI",
        -7.094446310253057
      ],
      [
        "мкIэ",
        -7.100844534543361
      ],
      [
        "сэ",
        -7.108138669783203
      ],
      [
        "лэ",
        -7.119766593683005
      ],
      [
        "А",
        -7.120153697846072
      ],
      [
        "гъуэ",
        -7.126460394205434
      ],
      [
        "зэра",
        -7.1354893321377055
      ],
      [
        "згъэ",
        -7.135942831138988
      ],
      [
        "пIэ",
        -7.13722951531092
      ],
      [
        "къыт",
        -7.137366822033515
      ],
      [
        "лъагъу",
        -7.141829219080939
      ],
      [
        "И",
        -7.14527354515211
      ],
      [
        "зыгъэ",
        -7.149235076463939
      ],
      [
        "ны",
        -7.150536542972406
      ],
      [
        "хь",
        -7.184228049723113
      ],
      [
        "шы",
        -7.186775744587344
      ],
      [
        "бэ",
        -7.194455631386447
      ],
      [
        "Ды",
        -7.196536808285095
      ],
      [
        "Е",
        -7.197829939789611
      ],
      [
        "хуа",
        -7.2092917985146165
      ],
      [
        "къыдэ",
        -7.211584716619472
      ],
      [
        "щIи",
        -7.2237986172544195
      ],
      [
        "ыж",
        -7.230797604118218
      ],
      [
        "си",
        -7.244081359296263
      ],
      [
        "къо",
        -7.244901816082454
      ],
      [
        "жа",
        -7.253876501844372
      ],
      [
        "къ",
        -7.265682462112596
      ],
      [
        "ре",
        -7.267510555036949
      ],
      [
        "ч",
        -7.271115844239579
      ],
      [
        ".",
        -7.287863058270444
      ],
      [
        "хэми",
        -7.293949625979022
      ],
      [
        "къри",
        -7.300062598232553
      ],
      [
        "Хьэ",
        -7.3091190907515795
      ],
      [
        "ро",
        -7.315632729614332
      ],
      [
        "ы",
        -7.330894659979092
      ],
      [
        "зэри",
        -7.332036964060685
      ],
      [
        "жэ",
        -7.354442125293644
      ],
      [
        "шхуэ",
        -7.356436945683953
      ],
      [
        "фI",
        -7.35886083986792
      ],
      [
        "г",
        -7.370493487577844
      ],
      [
        "ст",
        -7.377260093396797
      ],
      [
        "плъ",
        -7.377837217840747
      ],
      [
        "ымрэ",
        -7.399833087809659
      ],
      [
        "хэу",
        -7.400519245623928
      ],
      [
        "жьэ",
        -7.40595247716825
      ],
      [
        "па",
        -7.409301341155266
      ],
      [
        "итI",
        -7.412860536190266
      ],
      [
        "джэ",
        -7.415371421399105
      ],
      [
        "кIа",
        -7.429850505695827
      ],
      [
        "къыхэ",
        -7.437154099960128
      ],
      [
        "зе",
        -7.444970681215503
      ],
      [
        "се",
        -7.446545431036929
      ],
      [
        "къыщIэ",
        -7.451074342086605
      ],
      [
        "ла",
        -7.451541222208133
      ],
      [
        "Къэ",
        -7.4611211610039945
      ],
      [
        "хи",
        -7.4663325201447215
      ],
      [
        "ша",
        -7.466439119886658
      ],
      [
        "со",
        -7.470768974279576
      ],
      [
        "мыгъэ",
        -7.473592428222042
      ],
      [
        "ей",
        -7.476245163675868
      ],
      [
        "ным",
        -7.481336921072464
      ],
      [
        "нщ",
        -7.484525632181869
      ],
      [
        "Т",
        -7.48758826835568
      ],
      [
        "нур",
        -7.489359021849634
      ],
      [
        "Б",
        -7.493957650374378
      ],
      [
        "о",
        -7.496475155280728
      ],
      [
        "ни",
        -7.512998457571645
      ],
      [
        "жащ",
        -7.5216248294421035
      ],
      [
        "жу",
        -7.530401425110575
      ],
      [
        "кIу",
        -7.531580776719646
      ],
      [
        "нущ",
        -7.535125409285026
      ],
      [
        "лъы",
        -7.541506439555537
      ],
      [
        "гъа",
        -7.5467392692461654
      ],
      [
        "пы",
        -7.552260215529828
      ],
      [
        "лы",
        -7.555526050487173
      ],
      [
        "къра",
        -7.556203305165533
      ],
      [
        "амэ",
        -7.556750954215411
      ],
      [
        "ли",
        -7.559332507048785
      ],
      [
        "хьа",
        -7.563143017755694
      ],
      [
        "цIыху",
        -7.567124438589462
      ],
      [
        "зэхэ",
        -7.568863858537735
      ],
      [
        "хэт",
        -7.569317123467776
      ],
      [
        "ира",
        -7.569805694238746
      ],
      [
        "дз",
        -7.586261958404413
      ],
      [
        "кIыу",
        -7.599181506127791
      ],
      [
        "Щы",
        -7.6003543236697855
      ],
      [
        "имы",
        -7.6141250214925345
      ],
      [
        "ами",
        -7.615354137630118
      ],
      [
        "лъа",
        -7.618132250379059
      ],
      [
        "Я",
        -7.623727964390884
      ],
      [
        "къыте",
        -7.628719765090451
      ],
      [
        "дгъэ",
        -7.644215940695115
      ],
      [
        "гъ",
        -7.65430704395496
      ],
      [
        "умы",
        -7.656068052157852
      ],
      [
        "ати",
        -7.663110363782672
      ],
      [
        "хо",
        -7.674300570182588
      ],
      [
        "зэре",
        -7.67782180257111
      ],
      [
        "егъэ",
        -7.684487499272066
      ],
      [
        "лIэ",
        -7.685711625034292
      ],
      [
        "ныр",
        -7.686088470551692
      ],
      [
        "ыркъым",
        -7.6871491575956865
      ],
      [
        "фа",
        -7.689172050184985
      ],
      [
        "ртэкъым",
        -7.696192125092302
      ],
      [
        "ба",
        -7.711649113781587
      ],
      [
        "джа",
        -7.72361613149342
      ],
      [
        "щызэ",
        -7.726842841674147
      ],
      [
        "хъуэ",
        -7.731730230913637
      ],
      [
        "хы",
        -7.733464561088559
      ],
      [
        "тIэ",
        -7.733653601878759
      ],
      [
        "гъуэт",
        -7.734099033802882
      ],
      [
        "ынущ",
        -7.737731145099965
      ],
      [
        "ращ",
        -7.744571523978143
      ],
      [
        "рти",
        -7.745039387241615
      ],
      [
        "ыу",
        -7.746210264850652
      ],
      [
        "ягъэ",
        -7.746983061004738
      ],
      [
        "дызэ",
        -7.754014568250502
      ],
      [
        "ынщ",
        -7.754047100069974
      ],
      [
        "Къа",
        -7.7543286901882515
      ],
      [
        "псэу",
        -7.761460560347952
      ],
      [
        "плъэ",
        -7.764158624577919
      ],
      [
        "Ма",
        -7.7642691312781755
      ],
      [
        "псэ",
        -7.765853079457573
      ],
      [
        "Iа",
        -7.766846487906797
      ],
      [
        "къыщи",
        -7.770074304032348
      ],
      [
        "то",
        -7.772037580542547
      ],
      [
        "хуи",
        -7.774440648277844
      ],
      [
        "рат",
        -7.778801569929432
      ],
      [
        "дза",
        -7.782640511087521
      ],
      [
        "ку",
        -7.785063356131093
      ],
      [
        "къызы",
        -7.7854563471676315
      ],
      [
        "къэзы",
        -7.799906222466795
      ],
      [
        "Iэт",
        -7.801218092905331
      ],
      [
        "кIуэт",
        -7.804276216016428
      ],
      [
        "ынур",
        -7.807480752029369
      ],
      [
        "по",
        -7.809701088086737
      ],
      [
        "хъ",
        -7.814737492812076
      ],
      [
        "пхъэ",
        -7.82463517674331
      ],
      [
        "псы",
        -7.826394690743115
      ],
      [
        "щ…",
        -7.830502063575371
      ],
      [
        "хэмкIэ",
        -7.834460082864314
      ],
      [
        "жыну",
        -7.8345572511046395
      ],
      [
        "пс",
        -7.842659660757432
      ],
      [
        "Iуэ",
        -7.844627820846144
      ],
      [
        "жын",
        -7.8453764065198905
      ],
      [
        "къэс",
        -7.848617002888848
      ],
      [
        "гуэ",
        -7.852741483513353
      ],
      [
        "пщэ",
        -7.853216691106888
      ],
      [
        "бо",
        -7.8533214194957015
      ],
      [
        "Д",
        -7.855092190548706
      ],
      [
        "жы",
        -7.857985307260613
      ],
      [
        "нукъым",
        -7.859329868961487
      ],
      [
        "-тIэ",
        -7.8634928773466815
      ],
      [
        "ыным",
        -7.864953769671139
      ],
      [
        "пи",
        -7.8687222017552685
      ],
      [
        "Гу",
        -7.869168889525519
      ],
      [
        "псалъэ",
        -7.870058532723442
      ],
      [
        "кэ",
        -7.8835029313848315
      ],
      [
        "Мы",
        -7.884784448630471
      ],
      [
        "лъхьэ",
        -7.8876841222921
      ],
      [
        "кIыж",
        -7.898031865954761
      ],
      [
        "блэ",
        -7.900980247556656
      ],
      [
        "К",
        -7.904872227464975
      ],
      [
        "ка",
        -7.906528976891396
      ],
      [
        "нт",
        -7.910032903252902
      ],
      [
        "иригъэ",
        -7.910173977108204
      ],
      [
        "ий",
        -7.910843898723189
      ],
      [
        "зэщIэ",
        -7.916367280617022
      ],
      [
        "хуэмы",
        -7.917508297322277
      ],
      [
        "хыж",
        -7.920792189277714
      ],
      [
        "сыщы",
        -7.921161039710223
      ],
      [
        "къуа",
        -7.936113847501685
      ],
      [
        "ц",
        -7.939971624820669
      ],
      [
        "щэху",
        -7.943399856997495
      ],
      [
        "жри",
        -7.944990532773131
      ],
      [
        "пщы",
        -7.945899360248778
      ],
      [
        "къигъэ",
        -7.951565344269958
      ],
      [
        "къыз",
        -7.95911403135749
      ],
      [
        "нкIэ",
        -7.9602036975759205
      ],
      [
        "ты",
        -7.9606666999909494
      ],
      [
        "къызэри",
        -7.966315609612959
      ],
      [
        "хыу",
        -7.967076551515071
      ],
      [
        "19",
        -7.972628204919026
      ],
      [
        "ин",
        -7.979836418491619
      ],
      [
        "ымкIэ",
        -7.98172361062277
      ],
      [
        "що",
        -7.987276859775573
      ],
      [
        "лI",
        -7.988793072690433
      ],
      [
        "З",
        -7.988930613329357
      ],
      [
        "пщIэ",
        -7.9891344306423235
      ],
      [
        "Зэры",
        -7.991254456261034
      ],
      [
        "вэ",
        -7.994683964669255
      ],
      [
        "щIэн",
        -7.999045991866929
      ],
      [
        "вгъэ",
        -7.999333363403045
      ],
      [
        "къыхуэ",
        -8.001712498703366
      ],
      [
        "сызэры",
        -8.005553728429868
      ],
      [
        "ле",
        -8.006575832213572
      ],
      [
        "ужь",
        -8.012344531779643
      ],
      [
        "щIэж",
        -8.013457535927804
      ],
      [
        "Нэ",
        -8.013504893439881
      ],
      [
        "бы",
        -8.015220616599107
      ],
      [
        "ыжу",
        -8.015826140245114
      ],
      [
        "хъумэ",
        -8.01737240431168
      ],
      [
        "зо",
        -8.020431297815424
      ],
      [
        "увэ",
        -8.02237266358538
      ],
      [
        "кIащ",
        -8.022932909229684
      ],
      [
        "тет",
        -8.023037160967355
      ],
      [
        "къысхуэ",
        -8.024883898560294
      ],
      [
        "ащи",
        -8.02879177737746
      ],
      [
        "дж",
        -8.030719138598293
      ],
      [
        "ышхуэ",
        -8.03336676166742
      ],
      [
        "бзэ",
        -8.039649997782229
      ],
      [
        "ыф",
        -8.039870822155184
      ],
      [
        "итIым",
        -8.044086112608671
      ],
      [
        "но",
        -8.046507826802449
      ],
      [
        "дызэры",
        -8.04736229458549
      ],
      [
        "ва",
        -8.049311271906632
      ],
      [
        "Фы",
        -8.063748550164298
      ],
      [
        "ыжащ",
        -8.069184687468125
      ],
      [
        "шх",
        -8.07339724995268
      ],
      [
        "къыд",
        -8.076058181566513
      ],
      [
        "кIыр",
        -8.079351866213482
      ],
      [
        "зыхуэ",
        -8.08305291892643
      ],
      [
        "хъуа",
        -8.086361873917344
      ],
      [
        "хуо",
        -8.08854323129506
      ],
      [
        "ыху",
        -8.094302284766531
      ],
      [
        "кIуа",
        -8.096175020184916
      ],
      [
        "ахэм",
        -8.096947143801383
      ],
      [
        "бжэ",
        -8.100453631812236
      ],
      [
        "щIе",
        -8.102995977976963
      ],
      [
        "йо",
        -8.10406009197238
      ],
      [
        "гъуа",
        -8.109283697094904
      ],
      [
        "хьэн",
        -8.10960764278828
      ],
      [
        "1",
        -8.110007443069247
      ],
      [
        "Мэ",
        -8.111642436390595
      ],
      [
        "жауэ",
        -8.111938604564
      ],
      [
        "езгъэ",
        -8.114450831246646
      ],
      [
        "ыныр",
        -8.11592568859177
      ],
      [
        "Те",
        -8.117443818610557
      ],
      [
        "фи",
        -8.12534356722382
      ],
      [
        "ль",
        -8.12601060043076
      ],
      [
        "хэщ",
        -8.13147440563335
      ],
      [
        "лэжь",
        -8.132057589609088
      ],
      [
        "ал",
        -8.136787206626297
      ],
      [
        "кIэры",
        -8.13947054482282
      ],
      [
        "лIа",
        -8.144245973212922
      ],
      [
        "во",
        -8.144486276409115
      ],
      [
        "жьа",
        -8.144541000703935
      ],
      [
        "зэте",
        -8.145978348661426
      ],
      [
        "ынукъым",
        -8.149701555144313
      ],
      [
        "къыху",
        -8.149979450098831
      ],
      [
        "агъэ",
        -8.150921902094549
      ],
      [
        "ан",
        -8.151113599369854
      ],
      [
        "тI",
        -8.154488934496781
      ],
      [
        "не",
        -8.159194247221652
      ],
      [
        "жыр",
        -8.159204131045371
      ],
      [
        "анэ",
        -8.163823031740364
      ],
      [
        "къыща",
        -8.164995109129109
      ],
      [
        "къыщIы",
        -8.165965339848064
      ],
      [
        "тра",
        -8.16768323126374
      ],
      [
        "уд",
        -8.174602461667064
      ],
      [
        "рей",
        -8.176369940776116
      ],
      [
        "ыртэкъым",
        -8.177246377513436
      ],
      [
        "ю",
        -8.178046735981704
      ],
      [
        "емы",
        -8.179025256378516
      ],
      [
        "ыжын",
        -8.179388342753057
      ],
      [
        "хьащ",
        -8.179934268452858
      ],
      [
        "ырщ",
        -8.18175590832907
      ],
      [
        "ь",
        -8.183469504669333
      ],
      [
        "–",
        -8.194653050916223
      ],
      [
        "ев",
        -8.196500285901577
      ],
      [
        "чэ",
        -8.198587729053994
      ],
      [
        "щIо",
        -8.201291256900749
      ],
      [
        "Са",
        -8.206833009428182
      ],
      [
        "гъащIэ",
        -8.210380851513875
      ],
      [
        "Э",
        -8.210388956603472
      ],
      [
        "кIыну",
        -8.212276065000399
      ],
      [
        "фIы",
        -8.216850134296859
      ],
      [
        "пщ",
        -8.219913389832916
      ],
      [
        "убыд",
        -8.221224930319604
      ],
      [
        "здэ",
        -8.221496030697717
      ],
      [
        "О",
        -8.22304891761668
      ],
      [
        "щтэ",
        -8.228415712240412
      ],
      [
        "Iуа",
        -8.229385103061457
      ],
      [
        "зэпы",
        -8.231153640213382
      ],
      [
        "лъытэ",
        -8.231832061401905
      ],
      [
        "он",
        -8.234054472355192
      ],
      [
        "тхьэ",
        -8.238166452241417
      ],
      [
        "кIын",
        -8.241187354407108
      ],
      [
        "агъ",
        -8.242266976021337
      ],
      [
        "Да",
        -8.25042280573275
      ],
      [
        "щIащ",
        -8.250571365356873
      ],
      [
        "пху",
        -8.253331553585143
      ],
      [
        "жьы",
        -8.2564255946474
      ],
      [
        "На",
        -8.260795890028064
      ],
      [
        "зэфIэ",
        -8.260818415478372
      ],
      [
        "ыжа",
        -8.264111576626235
      ],
      [
        "Iыгъ",
        -8.266397263162622
      ],
      [
        "М",
        -8.272293836571768
      ],
      [
        "зри",
        -8.272375593382428
      ],
      [
        "й",
        -8.273729374655533
      ],
      [
        "зригъэ",
        -8.276886360800113
      ],
      [
        "ыкI",
        -8.282974033350062
      ],
      [
        "итIыр",
        -8.286401033094666
      ],
      [
        "ныкъуэ",
        -8.286452457846128
      ],
      [
        "ыжь",
        -8.291460760845782
      ],
      [
        "ло",
        -8.296096720140067
      ],
      [
        "ирагъэ",
        -8.296902223794042
      ],
      [
        "щып",
        -8.297285777517981
      ],
      [
        "къэп",
        -8.299130269130588
      ],
      [
        "гупсыс",
        -8.302631614718562
      ],
      [
        "дэс",
        -8.304709279511524
      ],
      [
        "ншэ",
        -8.3083514315447
      ],
      [
        "ко",
        -8.31079074209633
      ],
      [
        "хуе",
        -8.312081634924343
      ],
      [
        "яхуэ",
        -8.315921820152159
      ],
      [
        "сыкъы",
        -8.317131294085256
      ],
      [
        "лъэIу",
        -8.31809010395693
      ],
      [
        "щIын",
        -8.319824137420552
      ],
      [
        "пе",
        -8.320629768708606
      ],
      [
        "щыс",
        -8.321286186744175
      ],
      [
        "джы",
        -8.322652318459422
      ],
      [
        "хын",
        -8.323814757225863
      ],
      [
        "цIэ",
        -8.324907741793181
      ],
      [
        "хьэж",
        -8.327040189540181
      ],
      [
        "фIи",
        -8.328444860501415
      ],
      [
        "мо",
        -8.329554523890852
      ],
      [
        "гуры",
        -8.329865126892415
      ],
      [
        "уз",
        -8.3318056885356
      ],
      [
        "дыщы",
        -8.332246678152663
      ],
      [
        "къимы",
        -8.333650182313598
      ],
      [
        "кIухь",
        -8.341016362958381
      ],
      [
        "Г",
        -8.343132632613145
      ],
      [
        "щIэну",
        -8.345969155235082
      ],
      [
        "гъэзэж",
        -8.348267501608298
      ],
      [
        "ес",
        -8.348819737007638
      ],
      [
        "щIыж",
        -8.34954640442067
      ],
      [
        "щыт",
        -8.351820051428515
      ],
      [
        "шхэ",
        -8.354865877852259
      ],
      [
        "кIэлъы",
        -8.356501340780282
      ],
      [
        "хэлъ",
        -8.360985339279242
      ],
      [
        "упщI",
        -8.36161378212741
      ],
      [
        "щIар",
        -8.364851926909848
      ],
      [
        "щхьэщы",
        -8.369434909333833
      ],
      [
        "ыгъуэ",
        -8.37597678830506
      ],
      [
        "хэс",
        -8.37838413827453
      ],
      [
        "За",
        -8.380401703027925
      ],
      [
        "лажьэ",
        -8.381984065523804
      ],
      [
        "ынкIэ",
        -8.38245576951403
      ],
      [
        "щымы",
        -8.382688596682009
      ],
      [
        "эм",
        -8.384640228055696
      ],
      [
        "укI",
        -8.391157133813662
      ],
      [
        "эр",
        -8.392261897193803
      ],
      [
        "джэгу",
        -8.395133284106183
      ],
      [
        "тх",
        -8.395756656285322
      ],
      [
        "къыще",
        -8.396866159685207
      ],
      [
        "зэхуэ",
        -8.397106698441288
      ],
      [
        "зауэ",
        -8.39804984343025
      ],
      [
        "пхы",
        -8.403033024660523
      ],
      [
        "махуэ",
        -8.405809599193017
      ],
      [
        "сри",
        -8.408047688022009
      ],
      [
        "щIэс",
        -8.411001852070687
      ],
      [
        "зэрызэ",
        -8.413238373586411
      ],
      [
        "гъэкI",
        -8.41525778157169
      ],
      [
        "Къи",
        -8.417270168413415
      ],
      [
        "схуэ",
        -8.417771022757151
      ],
      [
        "сызы",
        -8.418187453179751
      ],
      [
        "къысху",
        -8.418505372054632
      ],
      [
        "ахэр",
        -8.423348029242288
      ],
      [
        "ЩIэ",
        -8.424389783948111
      ],
      [
        "щIэмы",
        -8.426375292236143
      ],
      [
        "пхуэ",
        -8.42833704508341
      ],
      [
        "IэщIэ",
        -8.428672317327916
      ],
      [
        "ырти",
        -8.432358517428556
      ],
      [
        "Iуэху",
        -8.432758085222272
      ],
      [
        "Ш",
        -8.434267334846043
      ],
      [
        "щIыкI",
        -8.434626670073754
      ],
      [
        "атэкъым",
        -8.43534992908956
      ],
      [
        "плъыхь",
        -8.43760999901728
      ],
      [
        "къызэра",
        -8.440184043065992
      ],
      [
        "утIыпщ",
        -8.441751154526985
      ],
      [
        "лъыхъуэ",
        -8.4460772524873
      ],
      [
        "Iэры",
        -8.447885495458888
      ],
      [
        "мыщI",
        -8.449547703338997
      ],
      [
        "гъэпщкIу",
        -8.450227166358433
      ],
      [
        "ыжыну",
        -8.450236339131806
      ],
      [
        "акIуэ",
        -8.451031037326075
      ],
      [
        "Къе",
        -8.45414812225126
      ],
      [
        "цIыкIу",
        -8.454465942531575
      ],
      [
        "ире",
        -8.455260514706906
      ],
      [
        "кIауэ",
        -8.45529047291084
      ],
      [
        "къызэре",
        -8.455605193415073
      ],
      [
        "эну",
        -8.456296095247119
      ],
      [
        "хыну",
        -8.456480554699606
      ],
      [
        "Со",
        -8.457992845946798
      ],
      [
        "хьыж",
        -8.458346875928193
      ],
      [
        "гъакIуэ",
        -8.459857750674805
      ],
      [
        "темы",
        -8.467199425296268
      ],
      [
        "цэ",
        -8.467947964721635
      ],
      [
        "дри",
        -8.468076437402884
      ],
      [
        "ча",
        -8.470301702697268
      ],
      [
        "ыхь",
        -8.470966390248497
      ],
      [
        "шхуэм",
        -8.471453221815786
      ],
      [
        "шу",
        -8.472772609945563
      ],
      [
        "гъанэ",
        -8.475524261267879
      ],
      [
        "нкъым",
        -8.476161277500527
      ],
      [
        "Хэ",
        -8.478262690670721
      ],
      [
        "хе",
        -8.479393472981677
      ],
      [
        "ыпэ",
        -8.487342335899566
      ],
      [
        "Ба",
        -8.489485726462348
      ],
      [
        "къригъэ",
        -8.490167770615747
      ],
      [
        "гъуэтыж",
        -8.490456590870288
      ],
      [
        "жьым",
        -8.490457955112038
      ],
      [
        "эн",
        -8.495303874548549
      ],
      [
        "къутэ",
        -8.496249673743895
      ],
      [
        "дигъэ",
        -8.502249610667995
      ],
      [
        "тын",
        -8.50317820655524
      ],
      [
        "зыте",
        -8.504386015770134
      ],
      [
        "Къу",
        -8.50614835757035
      ],
      [
        "гъэувэ",
        -8.50788787319299
      ],
      [
        "ви",
        -8.510628692835326
      ],
      [
        "бгъу",
        -8.511743323254874
      ],
      [
        "дыгъу",
        -8.511971303310844
      ],
      [
        "хьэлIэ",
        -8.512384426162651
      ],
      [
        "ай",
        -8.51371905277576
      ],
      [
        "Къ",
        -8.513995416443205
      ],
      [
        "тIысхьэ",
        -8.514851643471614
      ],
      [
        "фIа",
        -8.516773992494624
      ],
      [
        "6",
        -8.517397052026794
      ],
      [
        "Дэ",
        -8.51779360895391
      ],
      [
        "щIауэ",
        -8.518847266741991
      ],
      [
        "кIуэж",
        -8.521619526639057
      ],
      [
        "Х",
        -8.524860457977201
      ],
      [
        "лъэф",
        -8.525424181268864
      ],
      [
        "хри",
        -8.525885040971035
      ],
      [
        "ши",
        -8.526399394753131
      ],
      [
        "унэ",
        -8.529115965340683
      ],
      [
        "лъхьа",
        -8.531885760617598
      ],
      [
        "къыпхуэ",
        -8.53193787732127
      ],
      [
        "хащ",
        -8.532290005596874
      ],
      [
        "кIри",
        -8.535255293546141
      ],
      [
        "къытхуэ",
        -8.53590216854202
      ],
      [
        "тхэ",
        -8.538935652853725
      ],
      [
        "шынэ",
        -8.539294431634588
      ],
      [
        "зигъэ",
        -8.539318862000336
      ],
      [
        "щIэр",
        -8.539913999048508
      ],
      [
        "Р",
        -8.541175638937471
      ],
      [
        "жым",
        -8.54161321650913
      ],
      [
        "ыжри",
        -8.541968314986136
      ],
      [
        "дагъэ",
        -8.54268627976012
      ],
      [
        "лъэт",
        -8.544550477019495
      ],
      [
        "мыхъу",
        -8.549969977131141
      ],
      [
        "кIар",
        -8.55198051706622
      ],
      [
        "щагъэ",
        -8.552006131917869
      ],
      [
        "шэн",
        -8.554733820689716
      ],
      [
        "хьар",
        -8.555640972067936
      ],
      [
        "Уэ",
        -8.557415433270293
      ],
      [
        "Ху",
        -8.558325928110207
      ],
      [
        "ныгъэ",
        -8.558381828611267
      ],
      [
        "бжьэ",
        -8.558775053013711
      ],
      [
        "Ка",
        -8.559670225135449
      ],
      [
        "фын",
        -8.562023155079705
      ],
      [
        "жырт",
        -8.56900982432624
      ],
      [
        "жынщ",
        -8.569052964883443
      ],
      [
        "Ар",
        -8.570255659548515
      ],
      [
        "ер",
        -8.57028492032881
      ],
      [
        "зыщы",
        -8.574285671257432
      ],
      [
        "гъэсэбэп",
        -8.574773706852266
      ],
      [
        "благъэ",
        -8.574840837944905
      ],
      [
        "ыбзэ",
        -8.577789964580662
      ],
      [
        "дзы",
        -8.578233110452068
      ],
      [
        "пцIэ",
        -8.579356205136463
      ],
      [
        "ыфI",
        -8.579617114625403
      ],
      [
        "Iи",
        -8.581577412861908
      ],
      [
        "тригъэ",
        -8.581650470353257
      ],
      [
        "жьыр",
        -8.582583536639568
      ],
      [
        "же",
        -8.584247442014945
      ],
      [
        "би",
        -8.58523878488549
      ],
      [
        "мыIэ",
        -8.586274630833675
      ],
      [
        "тес",
        -8.590318397640909
      ],
      [
        "бл",
        -8.591131192373089
      ],
      [
        "зыхэ",
        -8.591556099077895
      ],
      [
        "Шы",
        -8.592018594716652
      ],
      [
        "кIы",
        -8.596995942730402
      ],
      [
        "щIагъэ",
        -8.598357753255652
      ],
      [
        "Сэ",
        -8.600086632883393
      ],
      [
        "ыгъэ",
        -8.60115312061141
      ],
      [
        "лъадэ",
        -8.605687697640061
      ],
      [
        "зэрыщы",
        -8.606086161238128
      ],
      [
        "яху",
        -8.606334486773779
      ],
      [
        "къэз",
        -8.607462589583275
      ],
      [
        "лIы",
        -8.609464722350552
      ],
      [
        "7",
        -8.611146083110743
      ],
      [
        "къыIу",
        -8.613799434662251
      ],
      [
        "нум",
        -8.61435169757567
      ],
      [
        "Iэбэ",
        -8.614484571563828
      ],
      [
        "кърагъэ",
        -8.615917971484894
      ],
      [
        "зыщи",
        -8.618406051396702
      ],
      [
        "В",
        -8.620704241146228
      ],
      [
        "тIыс",
        -8.621175201600575
      ],
      [
        "мыкIуэ",
        -8.621246764472208
      ],
      [
        "щигъэ",
        -8.622659786743073
      ],
      [
        "лъагъун",
        -8.622940022896353
      ],
      [
        "зра",
        -8.623413040067188
      ],
      [
        "афэ",
        -8.623787596761602
      ],
      [
        "ищэ",
        -8.623851160667947
      ],
      [
        "хьауэ",
        -8.623986931053041
      ],
      [
        "хуей",
        -8.626760834331062
      ],
      [
        "къэмы",
        -8.62700526740359
      ],
      [
        "чы",
        -8.628216638250237
      ],
      [
        "ет",
        -8.632203104208926
      ],
      [
        "8",
        -8.63309613257324
      ],
      [
        "щIигъэ",
        -8.635643031382564
      ],
      [
        "къыщIи",
        -8.636042978363145
      ],
      [
        "шэж",
        -8.637029970468333
      ],
      [
        "Iуатэ",
        -8.637057812775993
      ],
      [
        "зэрымы",
        -8.638876870866206
      ],
      [
        "9",
        -8.639566712785209
      ],
      [
        "5",
        -8.639798698916746
      ],
      [
        "тэмэ",
        -8.642684387997607
      ],
      [
        "зыкъы",
        -8.642749095555967
      ],
      [
        "гуфIэ",
        -8.642776996636846
      ],
      [
        "тре",
        -8.644064359229738
      ],
      [
        "хыр",
        -8.645578180004698
      ],
      [
        "Бэ",
        -8.647547277035478
      ],
      [
        "шын",
        -8.64986631116582
      ],
      [
        "ейуэ",
        -8.652478854684393
      ],
      [
        "хъун",
        -8.653489217110335
      ],
      [
        "адэ",
        -8.654198336995282
      ],
      [
        "зыщIэ",
        -8.65501809833238
      ],
      [
        "фыну",
        -8.655561892106775
      ],
      [
        "нут",
        -8.657461016417201
      ],
      [
        "кIуэну",
        -8.660806180768567
      ],
      [
        "Ф",
        -8.663192367767737
      ],
      [
        "къэб",
        -8.664373885492331
      ],
      [
        "къызо",
        -8.664888082943307
      ],
      [
        "сху",
        -8.6651418645473
      ],
      [
        "къыди",
        -8.665709085574115
      ],
      [
        "къыб",
        -8.666336037303996
      ],
      [
        "мыщIэ",
        -8.666645602118578
      ],
      [
        "сымы",
        -8.667604940740834
      ],
      [
        "къыда",
        -8.668329337428093
      ],
      [
        "гуэш",
        -8.670525466420688
      ],
      [
        "хьи",
        -8.670866686414126
      ],
      [
        "зэригъэ",
        -8.671079171753568
      ],
      [
        "къагъэ",
        -8.671111005126475
      ],
      [
        "зды",
        -8.671511459214198
      ],
      [
        "Щхьэ",
        -8.67163886193022
      ],
      [
        "ыпIэ",
        -8.672783149296027
      ],
      [
        "жаIэ",
        -8.674486514475618
      ],
      [
        "бий",
        -8.675733444084832
      ],
      [
        "Хуэ",
        -8.6785198234012
      ],
      [
        "окъуэ",
        -8.679870266252095
      ],
      [
        "загъэ",
        -8.682231509266913
      ],
      [
        "щIыр",
        -8.683019409536914
      ],
      [
        "3",
        -8.683816144043636
      ],
      [
        "едгъэ",
        -8.690363162463747
      ],
      [
        "Се",
        -8.69056572098821
      ],
      [
        "къыхуи",
        -8.692026721378996
      ],
      [
        "сыкъэ",
        -8.69273960397219
      ],
      [
        "ник",
        -8.69495941532247
      ],
      [
        "сыкъи",
        -8.697282391028494
      ],
      [
        "хьын",
        -8.697311775648203
      ],
      [
        "хъэ",
        -8.697421190826422
      ],
      [
        "хауэ",
        -8.703214584935107
      ],
      [
        "щыIэ",
        -8.704310950079432
      ],
      [
        "тэм",
        -8.704727641548377
      ],
      [
        "ямы",
        -8.705365786722869
      ],
      [
        "нщи",
        -8.707098120686165
      ],
      [
        "ыфын",
        -8.708489388205646
      ],
      [
        "вы",
        -8.709576137950796
      ],
      [
        "ынкъым",
        -8.710650233819472
      ],
      [
        "дэкI",
        -8.711776503978205
      ],
      [
        "тэкъэ",
        -8.712853821974456
      ],
      [
        "гъауэ",
        -8.71288447179084
      ],
      [
        "дызы",
        -8.713221699933882
      ],
      [
        "пхъуэ",
        -8.714316799578318
      ],
      [
        "зыха",
        -8.714328326348483
      ],
      [
        "4",
        -8.71465619930149
      ],
      [
        "сып",
        -8.714795842115521
      ],
      [
        "зэгъ",
        -8.717436158889955
      ],
      [
        "лъхьэж",
        -8.718106208495254
      ],
      [
        "тхы",
        -8.718440250927925
      ],
      [
        "шхуэр",
        -8.718500998462204
      ],
      [
        "умыгъэ",
        -8.718978355581429
      ],
      [
        "щIыхь",
        -8.719417902128423
      ],
      [
        "зэIу",
        -8.720381636603186
      ],
      [
        "лъху",
        -8.722306516736852
      ],
      [
        "ск",
        -8.722609925674412
      ],
      [
        "Ж",
        -8.722992629450584
      ],
      [
        "Iауэ",
        -8.723342466714115
      ],
      [
        "пIа",
        -8.724399419231517
      ],
      [
        "эгъу",
        -8.724826163991075
      ],
      [
        "ейм",
        -8.726103943981661
      ],
      [
        "гупсысэ",
        -8.726545568708477
      ],
      [
        "убыда",
        -8.727038710057393
      ],
      [
        "зехьэ",
        -8.727742635282688
      ],
      [
        "ыщэ",
        -8.72819188176065
      ],
      [
        "щIэм",
        -8.728631451088383
      ],
      [
        "зэха",
        -8.729171123897085
      ],
      [
        "пхъу",
        -8.729740496457127
      ],
      [
        "ынт",
        -8.729790079388252
      ],
      [
        "имыгъэ",
        -8.729799374560777
      ],
      [
        "щIэкI",
        -8.729966487495416
      ],
      [
        "т…",
        -8.730130617063296
      ],
      [
        "Л",
        -8.731443575922306
      ],
      [
        "Хъу",
        -8.731902179607824
      ],
      [
        "къре",
        -8.735878019237242
      ],
      [
        "ыххэ",
        -8.738423797186856
      ],
      [
        "къэт",
        -8.740096163654458
      ],
      [
        "убыдэ",
        -8.740097371162726
      ],
      [
        "хутэ",
        -8.740116199061951
      ],
      [
        "къыхуа",
        -8.742470120590209
      ],
      [
        "зэтри",
        -8.743137526647551
      ],
      [
        "хыхьэ",
        -8.744299560792486
      ],
      [
        "шэч",
        -8.745825022771971
      ],
      [
        "Щ",
        -8.746031914583675
      ],
      [
        "эж",
        -8.746480060915143
      ],
      [
        "гъазэ",
        -8.747158923760281
      ],
      [
        "ншэу",
        -8.747344537485905
      ],
      [
        "ебгъэ",
        -8.747546764160827
      ],
      [
        "гъэув",
        -8.751681419776126
      ],
      [
        "хьэлIа",
        -8.753780157425798
      ],
      [
        "къуи",
        -8.753837836245186
      ],
      [
        "кIыхь",
        -8.754865144503555
      ],
      [
        "Iуры",
        -8.75526775647311
      ],
      [
        "даIуэ",
        -8.755621939794722
      ],
      [
        "зэхи",
        -8.757383887542614
      ],
      [
        "упс",
        -8.757539742900248
      ],
      [
        "хигъэ",
        -8.759475559378194
      ],
      [
        "бж",
        -8.762588905950334
      ],
      [
        "нэм",
        -8.76291363945629
      ],
      [
        "ис",
        -8.763627312701566
      ],
      [
        "къысхуи",
        -8.764417977142923
      ],
      [
        "жыхь",
        -8.765064364829083
      ],
      [
        "Шэ",
        -8.766114424584842
      ],
      [
        "щIыгъу",
        -8.767129613070026
      ],
      [
        "хагъэ",
        -8.76998724297758
      ],
      [
        "кIуэкI",
        -8.772160069141048
      ],
      [
        "хъуэж",
        -8.772216248011247
      ],
      [
        "кIуэн",
        -8.7744815267604
      ],
      [
        "щIыхьэ",
        -8.775165283407976
      ],
      [
        "хуэдэ",
        -8.775889538100499
      ],
      [
        "Iуэтэж",
        -8.776980695457567
      ],
      [
        "еплъ",
        -8.777723113080306
      ],
      [
        "шыр",
        -8.778539127931463
      ],
      [
        "дыхьэшх",
        -8.778777054795343
      ],
      [
        "го",
        -8.779661714833779
      ],
      [
        "гъы",
        -8.783443683564943
      ],
      [
        "I",
        -8.783947003230612
      ],
      [
        "мыхьэ",
        -8.78670736453418
      ],
      [
        "жар",
        -8.788487814037731
      ],
      [
        "зэпэ",
        -8.789816417157402
      ],
      [
        "зэщIи",
        -8.791802674646608
      ],
      [
        "фе",
        -8.79204474641518
      ],
      [
        "гугъэ",
        -8.793175135336085
      ],
      [
        "бгъэдэ",
        -8.794720282894588
      ],
      [
        "Жы",
        -8.798725644280308
      ],
      [
        "хьыну",
        -8.799209470902003
      ],
      [
        "лэжьа",
        -8.803871064399981
      ],
      [
        "шэну",
        -8.804339102604082
      ],
      [
        "нэху",
        -8.805061951092213
      ],
      [
        "езыгъэ",
        -8.80525799079761
      ],
      [
        "ынум",
        -8.809962331894042
      ],
      [
        "къахуэ",
        -8.810434112440145
      ],
      [
        "про",
        -8.810641123662894
      ],
      [
        "жиIэ",
        -8.811886614168676
      ],
      [
        "адыгэ",
        -8.81441451804592
      ],
      [
        "ЩIы",
        -8.814835451587912
      ],
      [
        "тепсэлъыхь",
        -8.81534033964638
      ],
      [
        "лъыс",
        -8.815642372797527
      ],
      [
        "нутэкъым",
        -8.816310897406005
      ],
      [
        "ыжауэ",
        -8.816894557899106
      ],
      [
        "хэмы",
        -8.818173945842922
      ],
      [
        "унэтI",
        -8.818609168214723
      ],
      [
        "арэ",
        -8.820805530082978
      ],
      [
        "хьыр",
        -8.820882338630256
      ],
      [
        "зэримы",
        -8.821628076395195
      ],
      [
        "тху",
        -8.822533304271186
      ],
      [
        "хым",
        -8.822806799675604
      ],
      [
        "фо",
        -8.822892834377505
      ],
      [
        "жыркъым",
        -8.823755776863669
      ],
      [
        "гъэхьэ",
        -8.823916605384523
      ],
      [
        "псэлъа",
        -8.824132649887169
      ],
      [
        "гъэпсэху",
        -8.830498150302411
      ],
      [
        "зымы",
        -8.830718827313635
      ],
      [
        "щыз",
        -8.834583513301725
      ],
      [
        "атэмэ",
        -8.837516323150599
      ],
      [
        "кIым",
        -8.839308351775106
      ],
      [
        "га",
        -8.841052629955497
      ],
      [
        "бла",
        -8.842315800550388
      ],
      [
        "цы",
        -8.843465335627334
      ],
      [
        "нэр",
        -8.844251194635895
      ],
      [
        "Тхьэ",
        -8.844710284303634
      ],
      [
        "гурыIуэ",
        -8.845242226564045
      ],
      [
        "гъусэ",
        -8.84662101015963
      ],
      [
        "бгъэдыхьэ",
        -8.847727448113709
      ],
      [
        "ед",
        -8.848698693551327
      ],
      [
        "къахэ",
        -8.849050999931201
      ],
      [
        "кIам",
        -8.849060016347668
      ],
      [
        "къыщыс",
        -8.850250769746935
      ],
      [
        "хуагъэ",
        -8.85091773029725
      ],
      [
        "пэры",
        -8.851759779884816
      ],
      [
        "-м",
        -8.853122659050069
      ],
      [
        "До",
        -8.853589812275235
      ],
      [
        "хъур",
        -8.854220194833125
      ],
      [
        "цI",
        -8.855057273747343
      ],
      [
        "щыхъу",
        -8.858925277709762
      ],
      [
        "лым",
        -8.8589448696621
      ],
      [
        "ынут",
        -8.85927536125712
      ],
      [
        "гъуэм",
        -8.85961358694037
      ],
      [
        "ыфу",
        -8.861053478166259
      ],
      [
        "ием",
        -8.861926656913107
      ],
      [
        "зэш",
        -8.862035539106806
      ],
      [
        "щIыхьа",
        -8.862231142326216
      ],
      [
        "Си",
        -8.864657108725133
      ],
      [
        "шха",
        -8.864766656690534
      ],
      [
        "скэ",
        -8.864938196815169
      ],
      [
        "трагъэ",
        -8.866796745527948
      ],
      [
        "дахэ",
        -8.86845855412713
      ],
      [
        "телъ",
        -8.86983193990736
      ],
      [
        "кIыжа",
        -8.872349011959518
      ],
      [
        "хьу",
        -8.872596724863643
      ],
      [
        "щIам",
        -8.872968069227454
      ],
      [
        "щIалэ",
        -8.873786939026132
      ],
      [
        "щIэу",
        -8.873994951310213
      ],
      [
        "тхъу",
        -8.874471598808059
      ],
      [
        "жей",
        -8.87474832233952
      ],
      [
        "эт",
        -8.878592009249502
      ],
      [
        "бзыщI",
        -8.879041478773667
      ],
      [
        "къыф",
        -8.879540284125024
      ],
      [
        "дэIэпыкъу",
        -8.881218080476854
      ],
      [
        "кэм",
        -8.883424400987089
      ],
      [
        "иплI",
        -8.883493046873738
      ],
      [
        "Ны",
        -8.885348753540601
      ],
      [
        "кIуэд",
        -8.887407899127426
      ],
      [
        "увыIэ",
        -8.887731407043809
      ],
      [
        "гъуэр",
        -8.889382177811996
      ],
      [
        "ащ…",
        -8.8905529527689
      ],
      [
        "хэрт",
        -8.89477375969315
      ],
      [
        "къазэры",
        -8.896379380597072
      ],
      [
        "зд",
        -8.89681360841984
      ],
      [
        "пIащIэ",
        -8.896928801119788
      ],
      [
        "зрагъэ",
        -8.897127655137268
      ],
      [
        "ыфыну",
        -8.897692930567327
      ],
      [
        "хуэхъу",
        -8.900471353069804
      ],
      [
        "Лъэ",
        -8.900712583981786
      ],
      [
        "хьэкI",
        -8.901035423064874
      ],
      [
        "Н",
        -8.901881233454127
      ],
      [
        "ен",
        -8.904308914866434
      ],
      [
        "хьэх",
        -8.90507499303731
      ],
      [
        "гъэнщI",
        -8.906262982703543
      ],
      [
        "захуэ",
        -8.90666105806768
      ],
      [
        "ухуэ",
        -8.906693434144334
      ],
      [
        "зэрагъэ",
        -8.908454100576886
      ],
      [
        "IэфI",
        -8.912958443852018
      ],
      [
        "тха",
        -8.917230603423082
      ],
      [
        "ыкIа",
        -8.918133085152798
      ],
      [
        "хар",
        -8.918762988566101
      ],
      [
        "ари",
        -8.919059025246113
      ],
      [
        "лей",
        -8.91930931913926
      ],
      [
        "жат",
        -8.91988223108055
      ],
      [
        "2",
        -8.919991246538768
      ],
      [
        "къызэрыс",
        -8.920051957944395
      ],
      [
        "ор",
        -8.92007228888935
      ],
      [
        "ынщи",
        -8.920235149137728
      ],
      [
        "яхэ",
        -8.920439084292134
      ],
      [
        "дзых",
        -8.922865243994481
      ],
      [
        "зэп",
        -8.923666282957623
      ],
      [
        "хуигъэ",
        -8.925923727479478
      ],
      [
        "пх",
        -8.926623895009229
      ],
      [
        "кIырт",
        -8.927899327236105
      ],
      [
        "хэплъэ",
        -8.928000951507821
      ],
      [
        "хъы",
        -8.929792524927029
      ],
      [
        "тхъ",
        -8.930536481869513
      ],
      [
        "хуащ",
        -8.930651809539322
      ],
      [
        "лъхуа",
        -8.933302918735356
      ],
      [
        "ыкъуэ",
        -8.93343087953307
      ],
      [
        "щэн",
        -8.935135411600413
      ],
      [
        "сыщIэ",
        -8.937410766821376
      ],
      [
        "ман",
        -8.939597101225775
      ],
      [
        "жан",
        -8.941847885081259
      ],
      [
        "Па",
        -8.94384987267837
      ],
      [
        "ыфэ",
        -8.94433880537946
      ],
      [
        "Та",
        -8.94496250879737
      ],
      [
        "Къыс",
        -8.945305526623597
      ],
      [
        "хъулIэ",
        -8.947174873785507
      ],
      [
        "ци",
        -8.949963464072896
      ],
      [
        "плъа",
        -8.950284972114659
      ],
      [
        "хьэм",
        -8.951069569997705
      ],
      [
        "щыгугъ",
        -8.952151502496122
      ],
      [
        "ыпхъэ",
        -8.952375269746806
      ],
      [
        "лъэпкъ",
        -8.952390118196542
      ],
      [
        "дэмы",
        -8.953249031270204
      ],
      [
        "ххэ",
        -8.95358961808549
      ],
      [
        "ныбжьэгъу",
        -8.954745776413917
      ],
      [
        "еиж",
        -8.9564931709769
      ],
      [
        "дэт",
        -8.95683263487133
      ],
      [
        "хэкI",
        -8.957102319680278
      ],
      [
        "къэд",
        -8.95745347827005
      ],
      [
        "тэдж",
        -8.958536111464824
      ],
      [
        "20",
        -8.958862352094533
      ],
      [
        "шащ",
        -8.959749132082841
      ],
      [
        "дра",
        -8.960856074610408
      ],
      [
        "къыдо",
        -8.961874157642344
      ],
      [
        "гъуэта",
        -8.962310911843236
      ],
      [
        "хьэр",
        -8.963440438549899
      ],
      [
        "гъэхьэзыр",
        -8.964588758031894
      ],
      [
        "Му",
        -8.965422888383596
      ],
      [
        "шэс",
        -8.965785745700462
      ],
      [
        "Псы",
        -8.96608991226442
      ],
      [
        "ик",
        -8.966773417115325
      ],
      [
        "езы",
        -8.967888102303927
      ],
      [
        "къыпху",
        -8.968470122682108
      ],
      [
        "зэмы",
        -8.9695453686584
      ],
      [
        "нэс",
        -8.969677209860137
      ],
      [
        "тIа",
        -8.969971353598496
      ],
      [
        "фIэщI",
        -8.97014779248798
      ],
      [
        "ист",
        -8.970924453891922
      ],
      [
        "къыздэ",
        -8.971310723887527
      ],
      [
        "щIэлъ",
        -8.97410132907551
      ],
      [
        "Iэта",
        -8.977611250987266
      ],
      [
        "жьэж",
        -8.980241237079504
      ],
      [
        "пэплъэ",
        -8.982402946527188
      ],
      [
        "къыхи",
        -8.982685481724253
      ],
      [
        "ыт",
        -8.98434464427975
      ],
      [
        "кIэлъыплъ",
        -8.984507288735319
      ],
      [
        "уш",
        -8.984721138165343
      ],
      [
        "ыщIэ",
        -8.984839540347929
      ],
      [
        "нкIи",
        -8.98506230677712
      ],
      [
        "къыпы",
        -8.985171929084022
      ],
      [
        "фу",
        -8.986496510804685
      ],
      [
        "жам",
        -8.987002962892925
      ],
      [
        "18",
        -8.988381633266993
      ],
      [
        "гъэлъагъуэ",
        -8.989851670363578
      ],
      [
        "ки",
        -8.990334135634004
      ],
      [
        "Зи",
        -8.990782687474727
      ],
      [
        "хуащI",
        -8.99187325579178
      ],
      [
        "ков",
        -8.993009149160226
      ],
      [
        "гъэунэху",
        -8.99421787227531
      ],
      [
        "шхын",
        -8.99452078181693
      ],
      [
        "Къыз",
        -8.995315033920217
      ],
      [
        "зыху",
        -8.995663627561797
      ],
      [
        "Iэзэ",
        -8.995951644350324
      ],
      [
        "щIэт",
        -8.996527608344856
      ],
      [
        "бын",
        -8.996530009002846
      ],
      [
        "ейр",
        -8.997392158503247
      ],
      [
        "тIы",
        -8.999627475452971
      ],
      [
        "ыншэ",
        -8.999675604334259
      ],
      [
        "хабзэ",
        -9.000227093182055
      ],
      [
        "тэкъыми",
        -9.002405314325973
      ],
      [
        "зыща",
        -9.003035068321804
      ],
      [
        "къэзыгъэ",
        -9.003362597396286
      ],
      [
        "гъасэ",
        -9.004345484681053
      ],
      [
        "щэщ",
        -9.0044900503289
      ],
      [
        "ынутэкъым",
        -9.004694450877306
      ],
      [
        "хъуапсэ",
        -9.005065307650103
      ],
      [
        "гъэува",
        -9.005267332993505
      ],
      [
        "еджэ",
        -9.006028807315746
      ],
      [
        "къамы",
        -9.008318982540622
      ],
      [
        "лъагъуэ",
        -9.01113685249798
      ],
      [
        "хукIэ",
        -9.01232069708737
      ],
      [
        "Лъ",
        -9.01246835858949
      ],
      [
        "дыхьэ",
        -9.012772581563407
      ],
      [
        "Ди",
        -9.012778305366158
      ],
      [
        "пкъры",
        -9.012848119394869
      ],
      [
        "жмэ",
        -9.013116764931603
      ],
      [
        "упщIэ",
        -9.014751197670016
      ],
      [
        "сэр",
        -9.014970506853116
      ],
      [
        "Де",
        -9.01692611925347
      ],
      [
        "нар",
        -9.017284652829293
      ],
      [
        "агъэнщ",
        -9.01796622260751
      ],
      [
        "укIытэ",
        -9.020669353662631
      ],
      [
        "къута",
        -9.022873487609758
      ],
      [
        "ащэрэт",
        -9.022992035344513
      ],
      [
        "гъэтIылъ",
        -9.023101294123592
      ],
      [
        "хьэщIэ",
        -9.023400918710907
      ],
      [
        "къащы",
        -9.023600881812836
      ],
      [
        "КIэ",
        -9.024043013261801
      ],
      [
        "хыхьа",
        -9.0240638022409
      ],
      [
        "мыкI",
        -9.025165074697092
      ],
      [
        "гъэщI",
        -9.026378946469105
      ],
      [
        "къызди",
        -9.027598502358405
      ],
      [
        "къытра",
        -9.033574767267185
      ],
      [
        "мащIэ",
        -9.03459054555636
      ],
      [
        "сар",
        -9.035249164275537
      ],
      [
        "хэращ",
        -9.03542682367658
      ],
      [
        "гушхуэ",
        -9.035657241467586
      ],
      [
        "бгъа",
        -9.03927004907835
      ],
      [
        "IукI",
        -9.039571031778879
      ],
      [
        "къемы",
        -9.041664750270126
      ],
      [
        "ауи",
        -9.044463507757833
      ],
      [
        "ов",
        -9.047722481046307
      ],
      [
        "хуэз",
        -9.048274346973397
      ],
      [
        "джэр",
        -9.051818390114772
      ],
      [
        "кIуэцI",
        -9.052325727955767
      ],
      [
        "ыжыр",
        -9.05372922971791
      ],
      [
        "увэж",
        -9.053828467757501
      ],
      [
        "Iуплъэ",
        -9.05400138784838
      ],
      [
        "щэр",
        -9.054357607125247
      ],
      [
        "Къызэ",
        -9.056787566172543
      ],
      [
        "жакъым",
        -9.058289563377814
      ],
      [
        "бу",
        -9.059148336039556
      ],
      [
        "бжьы",
        -9.059302626890732
      ],
      [
        "щIри",
        -9.059308073994053
      ],
      [
        "пшэ",
        -9.059384189963575
      ],
      [
        "къаху",
        -9.060583328512989
      ],
      [
        "там",
        -9.063989606673584
      ],
      [
        "ух",
        -9.064357613354264
      ],
      [
        "Гъэ",
        -9.064363441804026
      ],
      [
        "Iэр",
        -9.067819131584468
      ],
      [
        "гузавэ",
        -9.067884794515233
      ],
      [
        "хъан",
        -9.069865453799462
      ],
      [
        "жыIэ",
        -9.070241627605693
      ],
      [
        "лъыта",
        -9.070243613582722
      ],
      [
        "хьэлъэ",
        -9.072447613775113
      ],
      [
        "бей",
        -9.072731894724512
      ],
      [
        "Ко",
        -9.072914678805866
      ],
      [
        "их",
        -9.073524362456862
      ],
      [
        "гъуэлъ",
        -9.073976311791306
      ],
      [
        "хьам",
        -9.074811421304684
      ],
      [
        "щIэгъу",
        -9.075010157379484
      ],
      [
        "гуэр",
        -9.075349117038662
      ],
      [
        "акъэ",
        -9.078033133266473
      ],
      [
        "зыIу",
        -9.078306994417288
      ],
      [
        "кIуэр",
        -9.078960298520562
      ],
      [
        "бза",
        -9.079075203949127
      ],
      [
        "гъэлъэгъуа",
        -9.079553457533954
      ],
      [
        "кIий",
        -9.07987281386615
      ],
      [
        "ыжырт",
        -9.084799112914848
      ],
      [
        "итху",
        -9.08702501418792
      ],
      [
        "къытху",
        -9.08930887220004
      ],
      [
        "пэс",
        -9.089610887532096
      ],
      [
        "лъагъуж",
        -9.089614661158283
      ],
      [
        "гъуэтын",
        -9.09011466419685
      ],
      [
        "зых",
        -9.090352176427029
      ],
      [
        "уо",
        -9.091429456924036
      ],
      [
        "дзыж",
        -9.092525965690111
      ],
      [
        "хъуну",
        -9.09366389564407
      ],
      [
        "тхьэщI",
        -9.094552951638455
      ],
      [
        "Уа",
        -9.094880133510168
      ],
      [
        "пI",
        -9.09703580927578
      ],
      [
        "лъэлъ",
        -9.09822440499299
      ],
      [
        "Ку",
        -9.099072111829045
      ],
      [
        "Гъу",
        -9.099131360620976
      ],
      [
        "куэ",
        -9.100890481710826
      ],
      [
        "ё",
        -9.101610675425821
      ],
      [
        "це",
        -9.101952239252409
      ],
      [
        "шэр",
        -9.103246311434454
      ],
      [
        "щытхъу",
        -9.104531271885659
      ],
      [
        "гъахуэ",
        -9.106107619100634
      ],
      [
        "ком",
        -9.107781661847627
      ],
      [
        "Къыт",
        -9.108909833898991
      ],
      [
        "фынущ",
        -9.109010302286867
      ],
      [
        "гъаджэ",
        -9.109042332354324
      ],
      [
        "тэр",
        -9.109088294414242
      ],
      [
        "къыха",
        -9.109649996247878
      ],
      [
        "ибл",
        -9.110440893887542
      ],
      [
        "плъыр",
        -9.110588527221868
      ],
      [
        "ве",
        -9.111459160684202
      ],
      [
        "Къо",
        -9.112837008347967
      ],
      [
        "ок",
        -9.113012812667677
      ],
      [
        "къытхуи",
        -9.1151978506309
      ],
      [
        "пхъа",
        -9.115311834835623
      ],
      [
        "сыны",
        -9.115579340423366
      ],
      [
        "мкIи",
        -9.116522047417199
      ],
      [
        "бгъэдэс",
        -9.117062766315431
      ],
      [
        "хуж",
        -9.117759970589272
      ],
      [
        "нымкIэ",
        -9.121611829432258
      ],
      [
        "хуищI",
        -9.122510282439507
      ],
      [
        "Къып",
        -9.125644768653544
      ],
      [
        "слъагъу",
        -9.126109664493626
      ],
      [
        "сыно",
        -9.127224941149684
      ],
      [
        "гуа",
        -9.12810916202857
      ],
      [
        "ех",
        -9.13083849865928
      ],
      [
        "Мо",
        -9.131656751923957
      ],
      [
        "ста",
        -9.131776428866523
      ],
      [
        "зыкъи",
        -9.132982585726605
      ],
      [
        "Iэн",
        -9.134871624284205
      ],
      [
        "гъэхъу",
        -9.136317523708644
      ],
      [
        "гъуей",
        -9.137066288897934
      ],
      [
        "бжь",
        -9.13859835315743
      ],
      [
        "закъуэ",
        -9.141839623489195
      ],
      [
        "щхъуэ",
        -9.143798981338755
      ],
      [
        "хуэн",
        -9.145930955571536
      ],
      [
        "гъэкIыж",
        -9.147209290617791
      ],
      [
        "макъ",
        -9.148524397288693
      ],
      [
        "экIэ",
        -9.149227558646603
      ],
      [
        "къыумы",
        -9.149473458566419
      ],
      [
        "ыпс",
        -9.149958907136256
      ],
      [
        "фыр",
        -9.150150639734363
      ],
      [
        "кIыжын",
        -9.151403611653409
      ],
      [
        "дыкъы",
        -9.152003459298196
      ],
      [
        "Iей",
        -9.15213951913993
      ],
      [
        "къыщып",
        -9.152530550837522
      ],
      [
        "гъуэгу",
        -9.154584240574613
      ],
      [
        "хъуж",
        -9.15541396760813
      ],
      [
        "шар",
        -9.15763411500003
      ],
      [
        "зэдэ",
        -9.158416686872581
      ],
      [
        "зэщIа",
        -9.158658466233819
      ],
      [
        "сащ",
        -9.15955021666019
      ],
      [
        "пщI",
        -9.159674516570947
      ],
      [
        "къыщIе",
        -9.160629895618221
      ],
      [
        "кIыурэ",
        -9.16085142019532
      ],
      [
        "че",
        -9.161092828131896
      ],
      [
        "къэзгъэ",
        -9.161488902266967
      ],
      [
        "гъаплъэ",
        -9.1625969827371
      ],
      [
        "бэн",
        -9.162778343335773
      ],
      [
        "змыгъэ",
        -9.162994586721524
      ],
      [
        "лъэм",
        -9.163925077357248
      ],
      [
        "зэбгъэ",
        -9.16446753527666
      ],
      [
        "ув",
        -9.166556152857549
      ],
      [
        "хьэзыр",
        -9.167865348703899
      ],
      [
        "гушыIэ",
        -9.168687038495573
      ],
      [
        "текIуэ",
        -9.169077912494025
      ],
      [
        "къызэрыт",
        -9.169499346345479
      ],
      [
        "чэнджэщ",
        -9.16995749725419
      ],
      [
        "щызы",
        -9.171548621955079
      ],
      [
        "егупсыс",
        -9.172499733833282
      ],
      [
        "Iэм",
        -9.174249855687107
      ],
      [
        "хъуэн",
        -9.174850540014202
      ],
      [
        "кIыжыну",
        -9.175867390088484
      ],
      [
        "пщIа",
        -9.175984412488315
      ],
      [
        "зытри",
        -9.176105581241444
      ],
      [
        "гурыIуа",
        -9.177110223303973
      ],
      [
        "щхь",
        -9.179837369781012
      ],
      [
        "тхуэ",
        -9.1816784895904
      ],
      [
        "зэрыхуэ",
        -9.18280053762727
      ],
      [
        "мэ-щэ",
        -9.185622326900798
      ],
      [
        "къыщIа",
        -9.186185759163203
      ],
      [
        "жи",
        -9.187454289811186
      ],
      [
        "гъуэщ",
        -9.187726710894061
      ],
      [
        "хамэ",
        -9.187898428197752
      ],
      [
        "аб",
        -9.188657684344264
      ],
      [
        "Iы",
        -9.191953126244352
      ],
      [
        "Ха",
        -9.19250746504494
      ],
      [
        "жьэдэ",
        -9.193479683509969
      ],
      [
        "щхьэпэ",
        -9.19489924067968
      ],
      [
        "ыжым",
        -9.194988949214013
      ],
      [
        "ея",
        -9.198260433293779
      ],
      [
        "Ла",
        -9.200541689734047
      ],
      [
        "жьей",
        -9.200864391601915
      ],
      [
        "кIуар",
        -9.202630077694991
      ],
      [
        "ыкIыу",
        -9.204922698711677
      ],
      [
        "зыхуи",
        -9.206377372565662
      ],
      [
        "фIэфI",
        -9.209184265132421
      ],
      [
        "лIэн",
        -9.209571541802172
      ],
      [
        "тынш",
        -9.209725119738989
      ],
      [
        "хъуэхъу",
        -9.210274822615911
      ],
      [
        "хута",
        -9.210745298948531
      ],
      [
        "щIым",
        -9.211380793658709
      ],
      [
        "фынукъым",
        -9.211736178135201
      ],
      [
        "блэкI",
        -9.211850809903751
      ],
      [
        "ращи",
        -9.21186017071282
      ],
      [
        "Бо",
        -9.21188132039449
      ],
      [
        "дэкIуэ",
        -9.21254853921952
      ],
      [
        "зэгуэ",
        -9.21299573392751
      ],
      [
        "къыпхуи",
        -9.213174901781155
      ],
      [
        "гъэр",
        -9.213295496908879
      ],
      [
        "илъэс",
        -9.214247264961223
      ],
      [
        "лъатэ",
        -9.214280048812597
      ],
      [
        "утIыпщыж",
        -9.21430258670895
      ],
      [
        "къегъэ",
        -9.215212171132844
      ],
      [
        "къыщыт",
        -9.215377277781265
      ],
      [
        "Ме",
        -9.216288117617061
      ],
      [
        "къабзэ",
        -9.216806637137296
      ],
      [
        "хэп",
        -9.218082736941035
      ],
      [
        "хъыбар",
        -9.218751540716731
      ],
      [
        "ыныгъэ",
        -9.218994661902247
      ],
      [
        "лыд",
        -9.21920370892769
      ],
      [
        "лIэж",
        -9.219485082951856
      ],
      [
        "джэн",
        -9.21979877808112
      ],
      [
        "хъумэн",
        -9.220184718993607
      ],
      [
        "бз",
        -9.220553592118012
      ],
      [
        "жиIа",
        -9.22117807514373
      ],
      [
        "плъэкI",
        -9.221516692276612
      ],
      [
        "хузэ",
        -9.221814702940444
      ],
      [
        "щэу",
        -9.222342318662143
      ],
      [
        "нэхъыжь",
        -9.225119665838747
      ],
      [
        "лъэдэж",
        -9.225814576109993
      ],
      [
        "ыхукIэ",
        -9.228082228891747
      ],
      [
        "Iэрыхьэ",
        -9.229317035033603
      ],
      [
        "хузэфIэкI",
        -9.22942811197247
      ],
      [
        "яхуи",
        -9.229557215308626
      ],
      [
        "Пэ",
        -9.231344381295784
      ],
      [
        "шэкI",
        -9.233859806896072
      ],
      [
        "кIуэдыж",
        -9.23440003813802
      ],
      [
        "хужь",
        -9.234553657675036
      ],
      [
        "къэкIуэж",
        -9.235336232194474
      ],
      [
        "пэм",
        -9.2363384630775
      ],
      [
        "фар",
        -9.23653196830232
      ],
      [
        "куэд",
        -9.237329476978122
      ],
      [
        "лIэну",
        -9.238495847767634
      ],
      [
        "жынущ",
        -9.23990162820567
      ],
      [
        "гъэщIэгъуэн",
        -9.24020706686257
      ],
      [
        "апIэ",
        -9.240902139731123
      ],
      [
        "Бе",
        -9.243669910959005
      ],
      [
        "тер",
        -9.24385170104063
      ],
      [
        "лъэкI",
        -9.24416996996106
      ],
      [
        "хуауэ",
        -9.244190641637692
      ],
      [
        "хъуащ",
        -9.245141512556842
      ],
      [
        "губжь",
        -9.24631120542688
      ],
      [
        "пIэм",
        -9.248828621729327
      ],
      [
        "узэщI",
        -9.249212569278612
      ],
      [
        "къызэрып",
        -9.249908335332329
      ],
      [
        "Ал",
        -9.25156672649686
      ],
      [
        "нэж",
        -9.252231677666867
      ],
      [
        "хъума",
        -9.25265850561108
      ],
      [
        "гъур",
        -9.253751023781557
      ],
      [
        "блэгъа",
        -9.254213061859023
      ],
      [
        "чи",
        -9.25435440431051
      ],
      [
        "кэр",
        -9.254448358843586
      ],
      [
        "тегъэ",
        -9.254655083553866
      ],
      [
        "тIысхьа",
        -9.254980329455876
      ],
      [
        "гуащэ",
        -9.25517669234544
      ],
      [
        "хуэмей",
        -9.255319399381296
      ],
      [
        "ахэщ",
        -9.255415551646097
      ],
      [
        "ыфынущ",
        -9.25586344488427
      ],
      [
        "гъэзащIэ",
        -9.255925684291082
      ],
      [
        "зэтра",
        -9.256096392255134
      ],
      [
        "щыта",
        -9.256718496248528
      ],
      [
        "хуэкIуэ",
        -9.257122028880787
      ],
      [
        "ыжынщ",
        -9.25733302747833
      ],
      [
        "шхыдэ",
        -9.257376568082613
      ],
      [
        "гугъу",
        -9.258180772705241
      ],
      [
        "экI",
        -9.258704463407263
      ],
      [
        "пща",
        -9.258731746209344
      ],
      [
        "Дызэ",
        -9.260047375937212
      ],
      [
        "къезгъэ",
        -9.261073989290335
      ],
      [
        "къуажэ",
        -9.26154191172898
      ],
      [
        "ят",
        -9.262150763657381
      ],
      [
        "По",
        -9.262627036455498
      ],
      [
        "къузэ",
        -9.262848598892374
      ],
      [
        "тэн",
        -9.262855645041562
      ],
      [
        "кур",
        -9.263669771852502
      ],
      [
        "хущыт",
        -9.264177437034839
      ],
      [
        "хуэзэ",
        -9.265852164531967
      ],
      [
        "къызэщIэ",
        -9.266439146078614
      ],
      [
        "гъэкIуэд",
        -9.267507825281196
      ],
      [
        "пха",
        -9.268480381166706
      ],
      [
        "къысте",
        -9.26866129914849
      ],
      [
        "зэгу",
        -9.270973317081182
      ],
      [
        "дауэ",
        -9.27114185046465
      ],
      [
        "нырщ",
        -9.271293102495076
      ],
      [
        "ыфа",
        -9.272853806596208
      ],
      [
        "зэрыте",
        -9.273807523741693
      ],
      [
        "сын",
        -9.274135873661352
      ],
      [
        "жыпIэ",
        -9.274547984687473
      ],
      [
        "щIэупщIэ",
        -9.275334860481738
      ],
      [
        "пэж",
        -9.275971935247885
      ],
      [
        "цIы",
        -9.276994478247971
      ],
      [
        "лъапIэ",
        -9.277491188423053
      ],
      [
        "гъащ",
        -9.277924459372148
      ],
      [
        "напэ",
        -9.279977163965249
      ],
      [
        "къыщо",
        -9.279990977069925
      ],
      [
        "шына",
        -9.280068726870756
      ],
      [
        "То",
        -9.280407346411568
      ],
      [
        "ге",
        -9.28080205551575
      ],
      [
        "зыхуа",
        -9.283792889948508
      ],
      [
        "сфIэ",
        -9.283926819031633
      ],
      [
        "Ра",
        -9.284294727831515
      ],
      [
        "Ва",
        -9.284403216084062
      ],
      [
        "ак",
        -9.28575070874939
      ],
      [
        "усэ",
        -9.286420292728348
      ],
      [
        "гъунэгъу",
        -9.287419575976273
      ],
      [
        "бе",
        -9.288901044682078
      ],
      [
        "гъэпскI",
        -9.289529783427831
      ],
      [
        "щIыIэ",
        -9.289681436985473
      ],
      [
        "мыдэ",
        -9.289715961137542
      ],
      [
        "ышхуэм",
        -9.290053988212453
      ],
      [
        "Фа",
        -9.290891152797876
      ],
      [
        "ол",
        -9.291426088500385
      ],
      [
        "кон",
        -9.291966103045306
      ],
      [
        "бгъэдэт",
        -9.292101568341511
      ],
      [
        "бгы",
        -9.293242228670373
      ],
      [
        "Ша",
        -9.294218893862993
      ],
      [
        "нэн",
        -9.295581934563458
      ],
      [
        "зогъэ",
        -9.29920763545304
      ],
      [
        "хуэныкъуэ",
        -9.29947794333075
      ],
      [
        "ыIуэ",
        -9.30012259328981
      ],
      [
        "гъафIэ",
        -9.300532523814425
      ],
      [
        "ыфынур",
        -9.3013052170529
      ],
      [
        "Зе",
        -9.301686348189156
      ],
      [
        "хуар",
        -9.30255604761955
      ],
      [
        "гъажьэ",
        -9.302698356545681
      ],
      [
        "шыж",
        -9.302718969052238
      ],
      [
        "лъэIэс",
        -9.302826317351432
      ],
      [
        "ыфыр",
        -9.30417412944758
      ],
      [
        "еш",
        -9.30477388230053
      ],
      [
        "дыгъуа",
        -9.305144054295685
      ],
      [
        "дыдэ",
        -9.30679389502658
      ],
      [
        "Жэ",
        -9.307850265106595
      ],
      [
        "хуэсщI",
        -9.307880605979218
      ],
      [
        "0",
        -9.308587447357016
      ],
      [
        "шауэ",
        -9.309372062022735
      ],
      [
        "вмыгъэ",
        -9.310097720131443
      ],
      [
        "гъэтIыс",
        -9.310830914138808
      ],
      [
        "еп",
        -9.312105524369148
      ],
      [
        "хуит",
        -9.312972503802166
      ],
      [
        "Ли",
        -9.314077854872947
      ],
      [
        "Iэб",
        -9.314917439484667
      ],
      [
        "сигъэ",
        -9.316149194371004
      ],
      [
        "лъхьэн",
        -9.316187299961395
      ],
      [
        "энущ",
        -9.316495492364341
      ],
      [
        "къэхъу",
        -9.31730362488354
      ],
      [
        "гурымыIуэ",
        -9.318134232779212
      ],
      [
        "жагъуэ",
        -9.319000399039727
      ],
      [
        "кIуатэ",
        -9.320077187154123
      ],
      [
        "нэжа",
        -9.32138617178601
      ],
      [
        "щызэхэ",
        -9.32231607493199
      ],
      [
        "гъэн",
        -9.322801996660674
      ],
      [
        "ест",
        -9.323451298121434
      ],
      [
        "Ин",
        -9.32408752682009
      ],
      [
        "ыкIэ",
        -9.325081852526342
      ],
      [
        "Ц",
        -9.325693964294636
      ],
      [
        "ант",
        -9.32612611484696
      ],
      [
        "зди",
        -9.326536508382386
      ],
      [
        "гъуафIэ",
        -9.327498949225998
      ],
      [
        "зэхуа",
        -9.328116934980383
      ],
      [
        "увыIа",
        -9.329128105154508
      ],
      [
        "зыхи",
        -9.329497064153166
      ],
      [
        "гъуазэ",
        -9.331043377128502
      ],
      [
        "Ан",
        -9.331124417591571
      ],
      [
        "хыжа",
        -9.333537777047244
      ],
      [
        "нов",
        -9.335704692649657
      ],
      [
        "къызэп",
        -9.336832599685149
      ],
      [
        "къыщызэ",
        -9.337010425901024
      ],
      [
        "дин",
        -9.337421099784791
      ],
      [
        "-щэ",
        -9.337440212381347
      ],
      [
        "хэрат",
        -9.33903645775505
      ],
      [
        "цIыхуж",
        -9.339887692331857
      ],
      [
        "пщIыхь",
        -9.341162872678616
      ],
      [
        "уагъэ",
        -9.341918259277605
      ],
      [
        "жысIэ",
        -9.341933622144193
      ],
      [
        "хьы",
        -9.342104620586468
      ],
      [
        "тхъэ",
        -9.344129743158677
      ],
      [
        "гъэщхъ",
        -9.344282211842668
      ],
      [
        "жынур",
        -9.345438920149451
      ],
      [
        "зыз",
        -9.34622008299782
      ],
      [
        "лу",
        -9.346590637542779
      ],
      [
        "шэу",
        -9.348825552161685
      ],
      [
        "щтэн",
        -9.351492301225639
      ],
      [
        "ежьэ",
        -9.35182197836772
      ],
      [
        "мылъ",
        -9.354332789250114
      ],
      [
        "ншагъэ",
        -9.354719495829485
      ],
      [
        "нэмыс",
        -9.355905692171417
      ],
      [
        "укIа",
        -9.356187507693264
      ],
      [
        "дыгъэ",
        -9.357777588355741
      ],
      [
        "ува",
        -9.358692345996058
      ],
      [
        "ыурэ",
        -9.35941122824064
      ],
      [
        "сам",
        -9.360372051296533
      ],
      [
        "зыщIа",
        -9.362725619692995
      ],
      [
        "сэн",
        -9.363139426907424
      ],
      [
        "пэув",
        -9.365902406557236
      ],
      [
        "бзы",
        -9.36769779811113
      ],
      [
        "зэрамы",
        -9.36791052006302
      ],
      [
        "щIимы",
        -9.36818246144827
      ],
      [
        "бгъуры",
        -9.36888526870678
      ],
      [
        "сто",
        -9.369220864821564
      ],
      [
        "Iым",
        -9.369790258689978
      ],
      [
        "ищым",
        -9.370259141236897
      ],
      [
        "теуэ",
        -9.370437669702788
      ],
      [
        "щIат",
        -9.370602450542567
      ],
      [
        "хъуар",
        -9.371241770113631
      ],
      [
        "кIэлъ",
        -9.371758746187922
      ],
      [
        "энщ",
        -9.37357655803536
      ],
      [
        "Iэну",
        -9.373927206653246
      ],
      [
        "щIэф",
        -9.373933627767304
      ],
      [
        "псыр",
        -9.375529671375316
      ],
      [
        "гъэлъэгъуэн",
        -9.376217677566306
      ],
      [
        "хьэху",
        -9.376861632523472
      ],
      [
        "лъыр",
        -9.377229336035068
      ],
      [
        "шэм",
        -9.37899047140851
      ],
      [
        "уващ",
        -9.379906460678914
      ],
      [
        "щыгуфIыкI",
        -9.380077572007817
      ],
      [
        "Къызэры",
        -9.38114273981934
      ],
      [
        "мыцIыху",
        -9.381236188045142
      ],
      [
        "кIуащ",
        -9.382099976959198
      ],
      [
        "лов",
        -9.38225338222376
      ],
      [
        "хьэжьэ",
        -9.38406696461481
      ],
      [
        "Умы",
        -9.38475527726126
      ],
      [
        "фэр",
        -9.385330236645952
      ],
      [
        "пIи",
        -9.385632189136782
      ],
      [
        "екIуэкI",
        -9.385653128415823
      ],
      [
        "псэлъэн",
        -9.386577412253228
      ],
      [
        "сыж",
        -9.389213624775639
      ],
      [
        "ыжыркъым",
        -9.389356846809552
      ],
      [
        "сызэ",
        -9.39004425554415
      ],
      [
        "ыгъуей",
        -9.392038195568325
      ],
      [
        "къэбгъэ",
        -9.392485613151411
      ],
      [
        "Ы",
        -9.39251902499406
      ],
      [
        "къате",
        -9.392858678819534
      ],
      [
        "лъафэ",
        -9.392958997424786
      ],
      [
        "ший",
        -9.394141667924508
      ],
      [
        "гъэгъупщэ",
        -9.394205972900568
      ],
      [
        "ххэу",
        -9.394630366518562
      ],
      [
        "хам",
        -9.396778000730599
      ],
      [
        "псэлъ",
        -9.396936781770929
      ],
      [
        "дихьэх",
        -9.398621505703982
      ],
      [
        "усакIуэ",
        -9.398651023466783
      ],
      [
        "ыгъэр",
        -9.399280529185923
      ],
      [
        "Iуэт",
        -9.399358579167975
      ],
      [
        "щIэнур",
        -9.399376990564125
      ],
      [
        "дзэкI",
        -9.400076995079356
      ],
      [
        "гъажэ",
        -9.40113667934333
      ],
      [
        "хуэфащэ",
        -9.401371159773152
      ],
      [
        "жьу",
        -9.402379378005463
      ],
      [
        "ыжьым",
        -9.40304083735217
      ],
      [
        "сра",
        -9.403244927816516
      ],
      [
        "плъагъу",
        -9.404037507735078
      ],
      [
        "ыжмэ",
        -9.404528354024716
      ],
      [
        "абы",
        -9.405521886361225
      ],
      [
        "зэгъэ",
        -9.405540037432427
      ],
      [
        "щрагъэ",
        -9.405592991666278
      ],
      [
        "мытыж",
        -9.406180840859847
      ],
      [
        "хуэхъуа",
        -9.406571527509895
      ],
      [
        "Iамэ",
        -9.406745295118913
      ],
      [
        "ужэгъу",
        -9.407305746938942
      ],
      [
        "джэд",
        -9.407737650645878
      ],
      [
        "щхьэщыт",
        -9.408393258028084
      ],
      [
        "ублэ",
        -9.408961166256248
      ],
      [
        "кIыжащ",
        -9.409799376132112
      ],
      [
        "Щэ",
        -9.41064815981644
      ],
      [
        "пцI",
        -9.410895491510175
      ],
      [
        "къалэ",
        -9.411547853489928
      ],
      [
        "ическэ",
        -9.411661041072929
      ],
      [
        "икI",
        -9.412380678298824
      ],
      [
        "Джэ",
        -9.41265746562121
      ],
      [
        "плъыж",
        -9.414178345361787
      ],
      [
        "убыды",
        -9.41444703258733
      ],
      [
        "зыд",
        -9.41696041785262
      ],
      [
        "зыщIи",
        -9.417598616292764
      ],
      [
        "тхылъ",
        -9.41828839984914
      ],
      [
        "жкъым",
        -9.419261162214113
      ],
      [
        "из",
        -9.42196324068355
      ],
      [
        "э-",
        -9.422291991591003
      ],
      [
        "кIутэ",
        -9.422861459874234
      ],
      [
        "бгъэдэлъ",
        -9.423931012239025
      ],
      [
        "гъэкIуэкI",
        -9.424942876252496
      ],
      [
        "зыдэ",
        -9.425049578531667
      ],
      [
        "къыщра",
        -9.425426888283535
      ],
      [
        "зекIуэ",
        -9.427216545892207
      ],
      [
        "зиIэ",
        -9.427306752408793
      ],
      [
        "Къыщы",
        -9.428847304696452
      ],
      [
        "къеджэ",
        -9.428848287725636
      ],
      [
        "гупсыса",
        -9.428986745842975
      ],
      [
        "ынымкIэ",
        -9.430246071705959
      ],
      [
        "дэIуа",
        -9.432445543180002
      ],
      [
        "щыпсэу",
        -9.432448017715418
      ],
      [
        "Ч",
        -9.432989030090528
      ],
      [
        "Чэ",
        -9.433464242633434
      ],
      [
        "зимы",
        -9.433540089182213
      ],
      [
        "кIэрахъуэ",
        -9.434740198108383
      ],
      [
        "щыщIэ",
        -9.436364435459968
      ],
      [
        "жьэхэ",
        -9.437763270305613
      ],
      [
        "зэбгр",
        -9.44009741293856
      ],
      [
        "ез",
        -9.440865936638048
      ],
      [
        "кIуам",
        -9.440926528839054
      ],
      [
        "кIат",
        -9.442273043784706
      ],
      [
        "кIыркъым",
        -9.444305355863227
      ],
      [
        "къытхуа",
        -9.44528170582614
      ],
      [
        "тхъуэ",
        -9.446221831967254
      ],
      [
        "гуп",
        -9.449699836778635
      ],
      [
        "сшэ",
        -9.450346621378586
      ],
      [
        "гъэщIагъуэ",
        -9.450714826395556
      ],
      [
        "делэ",
        -9.45155868580069
      ],
      [
        "кIэрыху",
        -9.452495655418947
      ],
      [
        "къур",
        -9.453213019487357
      ],
      [
        "хэмыт",
        -9.453278738242167
      ],
      [
        "жыху",
        -9.453677283802387
      ],
      [
        "ас",
        -9.454094750051745
      ],
      [
        "нтэкъым",
        -9.454667544390354
      ],
      [
        "гъашхэ",
        -9.454891020041998
      ],
      [
        "зэуа",
        -9.455249506806638
      ],
      [
        "къызэрыщы",
        -9.455281798693985
      ],
      [
        "аль",
        -9.455826409215973
      ],
      [
        "пэр",
        -9.45655219921718
      ],
      [
        "стан",
        -9.456632376297973
      ],
      [
        "щIэныгъэ",
        -9.45863686194399
      ],
      [
        "бэч",
        -9.460429265586878
      ],
      [
        "пIы",
        -9.460510365844788
      ],
      [
        "чыр",
        -9.461419936030087
      ],
      [
        "зэрыс",
        -9.462766115865225
      ],
      [
        "пхъэр",
        -9.463060558585031
      ],
      [
        "теп",
        -9.463475893322203
      ],
      [
        "джэж",
        -9.463993672735057
      ],
      [
        "кIуадэ",
        -9.46438916707109
      ],
      [
        "удын",
        -9.464690254333622
      ],
      [
        "лъэщI",
        -9.465329076440174
      ],
      [
        "зэрыхь",
        -9.466250886536582
      ],
      [
        "хьэт",
        -9.46654958215024
      ],
      [
        "хьэу",
        -9.467677271160964
      ],
      [
        "хуэм",
        -9.46794125969825
      ],
      [
        "Ро",
        -9.468147140474027
      ],
      [
        "ынырщ",
        -9.46817200001609
      ],
      [
        "бдз",
        -9.468237778785921
      ],
      [
        "гуо",
        -9.468360526723178
      ],
      [
        "кIэлъыкIуэ",
        -9.468658834331467
      ],
      [
        "хъуам",
        -9.469050985138608
      ],
      [
        "жриIэ",
        -9.469437266326867
      ],
      [
        "эжащ",
        -9.469915310077418
      ],
      [
        "кIыф",
        -9.470446103561038
      ],
      [
        "ЛIы",
        -9.470541851458492
      ],
      [
        "къыкIэры",
        -9.472148683910117
      ],
      [
        "хуэзы",
        -9.472159456750632
      ],
      [
        "зэда",
        -9.472360518749364
      ],
      [
        "жыф",
        -9.47366156115325
      ],
      [
        "пэлъэщ",
        -9.475582670099808
      ],
      [
        "ефэ",
        -9.47625252692429
      ],
      [
        "бауэ",
        -9.47858069659926
      ],
      [
        "агъым",
        -9.478831388379973
      ],
      [
        "тор",
        -9.480161289913571
      ],
      [
        "Къуэ",
        -9.481088943662947
      ],
      [
        "Iар",
        -9.481895406577115
      ],
      [
        "Iэж",
        -9.482678026922569
      ],
      [
        "зэрыз",
        -9.483655882657605
      ],
      [
        "чу",
        -9.48660870512607
      ],
      [
        "кIуэда",
        -9.486977544803196
      ],
      [
        "пэщIэт",
        -9.48730768611869
      ],
      [
        "Бы",
        -9.487666467808143
      ],
      [
        "тез",
        -9.488928341876527
      ],
      [
        "дзэн",
        -9.489082475429871
      ],
      [
        "кум",
        -9.490102092507003
      ],
      [
        "эх",
        -9.490277745702215
      ],
      [
        "шхуэхэр",
        -9.491156055542014
      ],
      [
        "лъхьэну",
        -9.491771520192362
      ],
      [
        "дар",
        -9.492032430273587
      ],
      [
        "къахуи",
        -9.49217008870719
      ],
      [
        "жыным",
        -9.492470255245838
      ],
      [
        "щIэп",
        -9.493414142913414
      ],
      [
        "щIагъ",
        -9.493635541742476
      ],
      [
        "лыр",
        -9.494536451668132
      ],
      [
        "ЦIыху",
        -9.494865542334368
      ],
      [
        "уигъэ",
        -9.495488359406302
      ],
      [
        "гуфIыкI",
        -9.495495074874622
      ],
      [
        "мыхь",
        -9.49584154099021
      ],
      [
        "къутэж",
        -9.496742275663793
      ],
      [
        "кIакъым",
        -9.497622357045978
      ],
      [
        "хуэд",
        -9.497750186907972
      ],
      [
        "еджа",
        -9.497941942441422
      ],
      [
        "Iуо",
        -9.498161598161595
      ],
      [
        "фIэкI",
        -9.4986734352788
      ],
      [
        "техьэ",
        -9.49907777740413
      ],
      [
        "ухуэн",
        -9.49921917709517
      ],
      [
        "уэс",
        -9.500692722437103
      ],
      [
        "дэлъ",
        -9.500767844363217
      ],
      [
        "илъ",
        -9.502157628254086
      ],
      [
        "шыпхъу",
        -9.50217114299664
      ],
      [
        "щIыф",
        -9.503618016100475
      ],
      [
        "пылъ",
        -9.503672033891686
      ],
      [
        "щIэзы",
        -9.503781248730814
      ],
      [
        "науэ",
        -9.504389681485538
      ],
      [
        "дзауэ",
        -9.504580542392258
      ],
      [
        "щIэкIа",
        -9.504656219004247
      ],
      [
        "уха",
        -9.504814293249865
      ],
      [
        "хузо",
        -9.504820131346735
      ],
      [
        "гъыр",
        -9.50736239839743
      ],
      [
        "зэпа",
        -9.507485331558444
      ],
      [
        "агъыр",
        -9.508782380688398
      ],
      [
        "ита",
        -9.509671144117451
      ],
      [
        "ие",
        -9.512212384356719
      ],
      [
        "ыжкъым",
        -9.512305205138029
      ],
      [
        "зэрыщIэ",
        -9.512633942449764
      ],
      [
        "хэзы",
        -9.513545872069137
      ],
      [
        "15",
        -9.514159443733979
      ],
      [
        "амкIэ",
        -9.514743859335518
      ],
      [
        "бгъуэт",
        -9.51565626091968
      ],
      [
        "къыщыз",
        -9.515819651491544
      ],
      [
        "зэзгъэ",
        -9.515847525130132
      ],
      [
        "сыдэ",
        -9.516280733411463
      ],
      [
        "пхэ",
        -9.517873024519178
      ],
      [
        "сыхэ",
        -9.518190693297598
      ],
      [
        "Жан",
        -9.518213913558714
      ],
      [
        "рий",
        -9.521230317334087
      ],
      [
        "бэлэрыгъ",
        -9.522330484471635
      ],
      [
        "къэф",
        -9.522648628374082
      ],
      [
        "пхъуэт",
        -9.522696572627826
      ],
      [
        "сакъы",
        -9.523915411861012
      ],
      [
        "зыфIэ",
        -9.525851525481059
      ],
      [
        "гъэш",
        -9.527022688292359
      ],
      [
        "гъэбыдэ",
        -9.527537965494007
      ],
      [
        "ныкъуэкъу",
        -9.527908205127767
      ],
      [
        "ипщI",
        -9.529584756214502
      ],
      [
        "къысхуа",
        -9.529771989437508
      ],
      [
        "лъэгъуар",
        -9.53012287749826
      ],
      [
        "фыз",
        -9.530896378826128
      ],
      [
        "щхьэм",
        -9.532113689050835
      ],
      [
        "шхуэу",
        -9.532887817321672
      ],
      [
        "жаIа",
        -9.533022534358466
      ],
      [
        "сэм",
        -9.533074817943056
      ],
      [
        "тхьэлэ",
        -9.533243222454509
      ],
      [
        "гъыу",
        -9.533559322221022
      ],
      [
        "уэрэд",
        -9.533975593466108
      ],
      [
        "лъэщ",
        -9.53424393126964
      ],
      [
        "елъэIу",
        -9.534267820647838
      ],
      [
        "тезы",
        -9.53444815607574
      ],
      [
        "10",
        -9.534802152670409
      ],
      [
        "зыбгъэ",
        -9.535371068218057
      ],
      [
        "ель",
        -9.535443218124067
      ],
      [
        "чын",
        -9.538230110571245
      ],
      [
        "об",
        -9.538670020575417
      ],
      [
        "дэр",
        -9.53989009541938
      ],
      [
        "гъэтIысхьэ",
        -9.540532325766254
      ],
      [
        "лин",
        -9.540836548104672
      ],
      [
        "гъафэ",
        -9.540966516830597
      ],
      [
        "Пщы",
        -9.541708628921953
      ],
      [
        "кIынур",
        -9.542425944137536
      ],
      [
        "щащэ",
        -9.542443236879869
      ],
      [
        "зэпрыкI",
        -9.542701233342175
      ],
      [
        "пщхьэ",
        -9.543542043424566
      ],
      [
        "къыфIэ",
        -9.543866928495758
      ],
      [
        "дригъэ",
        -9.544057390027623
      ],
      [
        "лъытэж",
        -9.544740397540199
      ],
      [
        "щIакъым",
        -9.545140414923942
      ],
      [
        "жьхэм",
        -9.545411543858997
      ],
      [
        "ыфынукъым",
        -9.546889512109743
      ],
      [
        "жыртэкъым",
        -9.54700255032719
      ],
      [
        "лэжьэн",
        -9.548047612441206
      ],
      [
        "Iэпхъуэ",
        -9.548102516462876
      ],
      [
        "къызд",
        -9.548801481447818
      ],
      [
        "хыжыну",
        -9.549126093808116
      ],
      [
        "щыгъуазэ",
        -9.549635117799532
      ],
      [
        "нэщхъей",
        -9.54984512958039
      ],
      [
        "фIэкIуэд",
        -9.55004255331552
      ],
      [
        "къару",
        -9.551677956675704
      ],
      [
        "пкIэ",
        -9.551790413219972
      ],
      [
        "шей",
        -9.552387931192845
      ],
      [
        "ек",
        -9.553393560129033
      ],
      [
        "къыхо",
        -9.553640809422664
      ],
      [
        "тIысы",
        -9.554764477875072
      ],
      [
        "хэмылъ",
        -9.555219310541368
      ],
      [
        "жэр",
        -9.55534622440295
      ],
      [
        "зэпи",
        -9.556029058205919
      ],
      [
        "хуэпщI",
        -9.55605854778086
      ],
      [
        "хьат",
        -9.556746877761089
      ],
      [
        "лIауэ",
        -9.556845744507083
      ],
      [
        "ыфакъым",
        -9.557463988903608
      ],
      [
        "Ща",
        -9.557471962230549
      ],
      [
        "хилъхьэ",
        -9.557505114306888
      ],
      [
        "пхъ",
        -9.557752403749522
      ],
      [
        "зэрып",
        -9.558424536831513
      ],
      [
        "деж",
        -9.55843709572434
      ],
      [
        "къыхуе",
        -9.558893299898662
      ],
      [
        "бгынэ",
        -9.562617387895394
      ],
      [
        "тхьэусыхэ",
        -9.562789165596307
      ],
      [
        "гъуэлъыж",
        -9.564254016638243
      ],
      [
        "IэщIэкI",
        -9.564322813214353
      ],
      [
        "дыкъи",
        -9.565497441918595
      ],
      [
        "нэхъыфI",
        -9.566701582745244
      ],
      [
        "ацэ",
        -9.566719931309468
      ],
      [
        "джэну",
        -9.567998237401273
      ],
      [
        "нуми",
        -9.568257639657169
      ],
      [
        "щыд",
        -9.568349937797365
      ],
      [
        "ыххэу",
        -9.568355292308874
      ],
      [
        "сей",
        -9.56869080747813
      ],
      [
        "ров",
        -9.570074853491029
      ],
      [
        "ой",
        -9.570260432817232
      ],
      [
        "Iакъым",
        -9.57058025201935
      ],
      [
        "гуфIа",
        -9.571230204666344
      ],
      [
        "ский",
        -9.571936801712962
      ],
      [
        "щэж",
        -9.572165964234877
      ],
      [
        "къыщIо",
        -9.572416957761138
      ],
      [
        "Iэрыхьа",
        -9.572547052958331
      ],
      [
        "Iут",
        -9.574290702925008
      ],
      [
        "гъэкIын",
        -9.574762483953078
      ],
      [
        "эжын",
        -9.574972443293927
      ],
      [
        "къыIэщIэ",
        -9.57531598553733
      ],
      [
        "Тэ",
        -9.575390290301714
      ],
      [
        "фIэмыIуэху",
        -9.576655914708523
      ],
      [
        "хъунщIэ",
        -9.5771712669581
      ],
      [
        "дре",
        -9.577338894986092
      ],
      [
        "кIэра",
        -9.577722506414531
      ],
      [
        "хьэри",
        -9.577867026326956
      ],
      [
        "зыхь",
        -9.57800572782346
      ],
      [
        "щIэз",
        -9.578062088702463
      ],
      [
        "кIынщ",
        -9.57849148299905
      ],
      [
        "зэрызи",
        -9.57925083847438
      ],
      [
        "ыгъуафIэ",
        -9.579917984595966
      ],
      [
        "хэзгъэ",
        -9.58010470627999
      ],
      [
        "уей",
        -9.580843272193821
      ],
      [
        "увэну",
        -9.581203607879146
      ],
      [
        "хыжащ",
        -9.58149487166309
      ],
      [
        "ыгъэм",
        -9.581801663940038
      ],
      [
        "къезы",
        -9.582003882541082
      ],
      [
        "гъэпцIа",
        -9.582162563629378
      ],
      [
        "техуэ",
        -9.583015151598394
      ],
      [
        "еуэ",
        -9.583353925142823
      ],
      [
        "ыпIэм",
        -9.583832485445281
      ],
      [
        "къызыте",
        -9.584777292219
      ],
      [
        "плъэн",
        -9.58493224704495
      ],
      [
        "зэрагъэпэщ",
        -9.58503219235427
      ],
      [
        "ыжат",
        -9.585309421793296
      ],
      [
        "къыбгъэдэ",
        -9.58615795840236
      ],
      [
        "зыIэ",
        -9.586505243775598
      ],
      [
        "зэгурыIуэ",
        -9.587420288842896
      ],
      [
        "зызы",
        -9.587645975500138
      ],
      [
        "тIэщI",
        -9.589427384565752
      ],
      [
        "гуапэ",
        -9.589582131723244
      ],
      [
        "гъэIущ",
        -9.59061517958245
      ],
      [
        "хуэр",
        -9.59075216567329
      ],
      [
        "гъапцIэ",
        -9.591416087027454
      ],
      [
        "хьакъым",
        -9.592322885473564
      ],
      [
        "ыжар",
        -9.59247665353416
      ],
      [
        "гъахъуэ",
        -9.592820901093855
      ],
      [
        "гум",
        -9.593029269293682
      ],
      [
        "кIуалIэ",
        -9.593293952843569
      ],
      [
        "тезгъэ",
        -9.593369357364667
      ],
      [
        "сыф",
        -9.593744770985271
      ],
      [
        "дымы",
        -9.59383909893057
      ],
      [
        "нат",
        -9.5939106408109
      ],
      [
        "бакъуэ",
        -9.59563492395883
      ],
      [
        "р-щэ",
        -9.595682015786927
      ],
      [
        "жыг",
        -9.595785439598867
      ],
      [
        "пыIэ",
        -9.595964396753235
      ],
      [
        "вер",
        -9.596211299460329
      ],
      [
        "гуащIэ",
        -9.596952787109164
      ],
      [
        "нэпс",
        -9.59736118967253
      ],
      [
        "эным",
        -9.597667942030863
      ],
      [
        "Мар",
        -9.598955930245408
      ],
      [
        "пыт",
        -9.598956398431636
      ],
      [
        "ыкIащ",
        -9.599716790283473
      ],
      [
        "ыкIэм",
        -9.601121815384742
      ],
      [
        "дан",
        -9.60157396599254
      ],
      [
        "зэблэ",
        -9.601792802580619
      ],
      [
        "IэщIагъэ",
        -9.602287097497344
      ],
      [
        "хуэгъэ",
        -9.602743620577144
      ],
      [
        "къыкъуэ",
        -9.603005449067172
      ],
      [
        "нып",
        -9.603055822071967
      ],
      [
        "гъэгушхуэ",
        -9.603269831418583
      ],
      [
        "къызэрыдэ",
        -9.603305309691617
      ],
      [
        "мыгъуэ",
        -9.603768389986918
      ],
      [
        "пIэр",
        -9.604056601782036
      ],
      [
        "лан",
        -9.604305132809824
      ],
      [
        "жэщ",
        -9.604466230209706
      ],
      [
        "унагъуэ",
        -9.605161263425014
      ],
      [
        "пщылI",
        -9.605440111751566
      ],
      [
        "куу",
        -9.605724540769657
      ],
      [
        "лл",
        -9.606583608650432
      ],
      [
        "нти",
        -9.607454363067973
      ],
      [
        "журэ",
        -9.608322871828717
      ],
      [
        "хьым",
        -9.60846473575867
      ],
      [
        "лъэщIыхьэ",
        -9.608532766437321
      ],
      [
        "уфIыцI",
        -9.60885781650222
      ],
      [
        "хуригъэ",
        -9.609287945462597
      ],
      [
        "гур",
        -9.60932042948525
      ],
      [
        "жынукъым",
        -9.610264314929012
      ],
      [
        "убыдыж",
        -9.611239677768602
      ],
      [
        "Iэп",
        -9.611776513037642
      ],
      [
        "апхуэдэ",
        -9.61183584423985
      ],
      [
        "дей",
        -9.612148431243483
      ],
      [
        "КIуэ",
        -9.612338638036967
      ],
      [
        "къыщIигъэ",
        -9.612879574018926
      ],
      [
        "нэф",
        -9.613117624861918
      ],
      [
        "зыщI",
        -9.613609282023305
      ],
      [
        "фыгъуэ",
        -9.61443742782261
      ],
      [
        "Iус",
        -9.614466148945263
      ],
      [
        "Iащ",
        -9.614636338937382
      ],
      [
        "сыкъыщы",
        -9.615314280138827
      ],
      [
        "псынщIэ",
        -9.617018253058646
      ],
      [
        "къэв",
        -9.61721939396504
      ],
      [
        "мывэ",
        -9.618517442971779
      ],
      [
        "зэрызы",
        -9.618883374110307
      ],
      [
        "сыте",
        -9.619130568912404
      ],
      [
        "къуэш",
        -9.619256651417599
      ],
      [
        "зегъэ",
        -9.619374752465907
      ],
      [
        "17",
        -9.619894487725727
      ],
      [
        "зытра",
        -9.62001297535178
      ],
      [
        "от",
        -9.620364536693238
      ],
      [
        "хат",
        -9.6206988923064
      ],
      [
        "гъуащэ",
        -9.620901478317588
      ],
      [
        "дэн",
        -9.62114822703373
      ],
      [
        "ыгъуэм",
        -9.621570575237422
      ],
      [
        "ть",
        -9.622344533738296
      ],
      [
        "окI",
        -9.62234917726505
      ],
      [
        "псо",
        -9.622854365043713
      ],
      [
        "щымыт",
        -9.623372295370434
      ],
      [
        "шам",
        -9.624218287431333
      ],
      [
        "уфэ",
        -9.625778815068589
      ],
      [
        "гъей",
        -9.625801780954795
      ],
      [
        "гъэувыIэ",
        -9.625917086893644
      ],
      [
        "щакIуэ",
        -9.625987772558702
      ],
      [
        "екIу",
        -9.626055485839395
      ],
      [
        "къуз",
        -9.626911267155617
      ],
      [
        "лъагэ",
        -9.627117255068828
      ],
      [
        "зэро",
        -9.62818854951786
      ],
      [
        "драгъэ",
        -9.62896346467696
      ],
      [
        "псэлъэж",
        -9.629184487539375
      ],
      [
        "зэремы",
        -9.629337891865552
      ],
      [
        "хыурэ",
        -9.62989462977273
      ],
      [
        "ыдзэ",
        -9.632511739802949
      ],
      [
        "ыжыф",
        -9.632597077059398
      ],
      [
        "еупщI",
        -9.63268593126025
      ],
      [
        "щыте",
        -9.63275801709592
      ],
      [
        "шыхь",
        -9.634177814731657
      ],
      [
        "ел",
        -9.634577198013389
      ],
      [
        "хакъым",
        -9.63477718585394
      ],
      [
        "щIапIэ",
        -9.634892762572795
      ],
      [
        "фынур",
        -9.63509588717957
      ],
      [
        "щIэхъуэпс",
        -9.636037361793264
      ],
      [
        "ыпа",
        -9.636143619913952
      ],
      [
        "Iэпэ",
        -9.63641901275432
      ],
      [
        "банэ",
        -9.636911071089276
      ],
      [
        "Ис",
        -9.637607000553931
      ],
      [
        "факъым",
        -9.63766828067456
      ],
      [
        "ля",
        -9.63885943328885
      ],
      [
        "еин",
        -9.64045649848096
      ],
      [
        "кIуауэ",
        -9.640476278388933
      ],
      [
        "Iуэта",
        -9.64157965750055
      ],
      [
        "щIэдэIу",
        -9.642122969165003
      ],
      [
        "сщIэ",
        -9.642199448699763
      ],
      [
        "фащ",
        -9.643403333742448
      ],
      [
        "жьащ",
        -9.644791205141164
      ],
      [
        "мен",
        -9.646945296810177
      ],
      [
        "ыжьыр",
        -9.647584557022167
      ],
      [
        "Фэ",
        -9.64866950613536
      ],
      [
        "уэршэр",
        -9.648789016718684
      ],
      [
        "трих",
        -9.649175408008908
      ],
      [
        "убзыху",
        -9.649265040873772
      ],
      [
        "гъэхьэзыра",
        -9.650269087810614
      ],
      [
        "ткIу",
        -9.651519671610487
      ],
      [
        "сагъэ",
        -9.651710904542696
      ],
      [
        "схуэмы",
        -9.651950594006877
      ],
      [
        "хэку",
        -9.652210237143343
      ],
      [
        "сте",
        -9.653645463793339
      ],
      [
        "теплъэ",
        -9.653992218653269
      ],
      [
        "лъэIуа",
        -9.65426466351623
      ],
      [
        "Iыгъэ",
        -9.654905220715968
      ],
      [
        "бгъуэ",
        -9.654932248743064
      ],
      [
        "щи…",
        -9.654944654831185
      ],
      [
        "лIащ",
        -9.655735471526548
      ],
      [
        "фызэ",
        -9.655966123506785
      ],
      [
        "фIо",
        -9.656062172211097
      ],
      [
        "гузэва",
        -9.65709580617191
      ],
      [
        "Iэпхъуа",
        -9.657959605534248
      ],
      [
        "гъэпщкIуа",
        -9.657959869899035
      ],
      [
        "щIэхэр",
        -9.657963530846768
      ],
      [
        "кIуэцIы",
        -9.658496101681916
      ],
      [
        "тхын",
        -9.658883255744957
      ],
      [
        "къыдэкI",
        -9.65902108890126
      ],
      [
        "щышынэ",
        -9.659867177761754
      ],
      [
        "хуэупсэ",
        -9.659934566053327
      ],
      [
        "хьэблэ",
        -9.660509862847576
      ],
      [
        "къащIэ",
        -9.660594237636417
      ],
      [
        "пэщIэувэ",
        -9.661524815078856
      ],
      [
        "убыдын",
        -9.662155602463804
      ],
      [
        "тIысхьащ",
        -9.663779310372574
      ],
      [
        "псэлъэну",
        -9.663866953087425
      ],
      [
        "гъын",
        -9.664759112481836
      ],
      [
        "гъум",
        -9.664968740619148
      ],
      [
        "овым",
        -9.666872701728469
      ],
      [
        "Фе",
        -9.667006667014054
      ],
      [
        "псэун",
        -9.667035323973177
      ],
      [
        "лъын",
        -9.668296820196723
      ],
      [
        "лий",
        -9.668826074604135
      ],
      [
        "хъуауэ",
        -9.668865747385755
      ],
      [
        "гъэс",
        -9.66894242675961
      ],
      [
        "кIэщI",
        -9.671227397947042
      ],
      [
        "джыкI",
        -9.671678770991651
      ],
      [
        "лъэгъуащ",
        -9.672762344426452
      ],
      [
        "щыхуэ",
        -9.672778619700562
      ],
      [
        "тхакIуэ",
        -9.673184394403382
      ],
      [
        "лъэфа",
        -9.673613654218144
      ],
      [
        "гугъа",
        -9.673808672701341
      ],
      [
        "гэ",
        -9.673863814075396
      ],
      [
        "дыгъуэ",
        -9.674776557755855
      ],
      [
        "ейри",
        -9.67585169348677
      ],
      [
        "шхуэхэм",
        -9.676341937072795
      ],
      [
        "ншэщ",
        -9.676807430066805
      ],
      [
        "плIэ",
        -9.677573024378006
      ],
      [
        "бэр",
        -9.677599666737535
      ],
      [
        "хьри",
        -9.678051022737804
      ],
      [
        "дэп",
        -9.678492155267875
      ],
      [
        "ныгъэм",
        -9.678527625698916
      ],
      [
        "Iуащ",
        -9.678649122158411
      ],
      [
        "щ.",
        -9.680907126213075
      ],
      [
        "псэху",
        -9.681671248183054
      ],
      [
        "бг",
        -9.682133270347208
      ],
      [
        "хуэза",
        -9.682233547379939
      ],
      [
        "тIагъэ",
        -9.682574493075613
      ],
      [
        "лъэгъу",
        -9.682990415243912
      ],
      [
        "етIысэх",
        -9.683294412374698
      ],
      [
        "ыщхьэ",
        -9.683436249488226
      ],
      [
        "нэкIу",
        -9.68418139253101
      ],
      [
        "убзэ",
        -9.684286262250792
      ],
      [
        "Во",
        -9.68638314846681
      ],
      [
        "хьэс",
        -9.686437748920646
      ],
      [
        "кIэлъо",
        -9.686627809885255
      ],
      [
        "Iэтыж",
        -9.686743989814717
      ],
      [
        "хъыджэбз",
        -9.687005994740392
      ],
      [
        "дыщIэ",
        -9.687210498221345
      ],
      [
        "еящ",
        -9.687262790857073
      ],
      [
        "зэгъэж",
        -9.687552919800435
      ],
      [
        "мышх",
        -9.688427135981481
      ],
      [
        "жьхэр",
        -9.691713848513835
      ],
      [
        "япэ",
        -9.69189809450043
      ],
      [
        "щыпэ",
        -9.692203942821838
      ],
      [
        "щызгъэ",
        -9.69355712896969
      ],
      [
        "ЩIа",
        -9.693603553425518
      ],
      [
        "кIуэдэж",
        -9.693832825691475
      ],
      [
        "мыгъу",
        -9.693979672652862
      ],
      [
        "гуауэ",
        -9.694309122992415
      ],
      [
        "гъэгусэ",
        -9.694583178087798
      ],
      [
        "эмрэ",
        -9.695065125014949
      ],
      [
        "димы",
        -9.695381943098857
      ],
      [
        "гъэщIэхъу",
        -9.695593222267012
      ],
      [
        "къысхуе",
        -9.696449121967293
      ],
      [
        "мафIэ",
        -9.696622450472246
      ],
      [
        "къызэрыз",
        -9.696850444972025
      ],
      [
        "гъэпсэу",
        -9.697157736132848
      ],
      [
        "къэзмы",
        -9.697906019114107
      ],
      [
        "рати",
        -9.698165227530794
      ],
      [
        "хьами",
        -9.698697216035221
      ],
      [
        "Аб",
        -9.69903717216923
      ],
      [
        "зэпры",
        -9.699252599446957
      ],
      [
        "гъэгугъа",
        -9.699851091077736
      ],
      [
        "Зэхэ",
        -9.70063697643213
      ],
      [
        "кIынущ",
        -9.702487981735757
      ],
      [
        "Iэжьэ",
        -9.703147456820375
      ],
      [
        "дыкъа",
        -9.704454033823424
      ],
      [
        "ныгъэр",
        -9.704523317140323
      ],
      [
        "плъын",
        -9.704870222272223
      ],
      [
        "Фи",
        -9.705386566415445
      ],
      [
        "хуэсакъ",
        -9.706381547350801
      ],
      [
        "тэмэм",
        -9.706385201238904
      ],
      [
        "кIуэжа",
        -9.706547762231306
      ],
      [
        "ыншэу",
        -9.707383697830352
      ],
      [
        "зэрихьэ",
        -9.708107746870748
      ],
      [
        "диIэ",
        -9.708141258661797
      ],
      [
        "пIытI",
        -9.708717154703656
      ],
      [
        "яфIэ",
        -9.709108218570869
      ],
      [
        "джащ",
        -9.709165754225616
      ],
      [
        "нумэ",
        -9.710269962097293
      ],
      [
        "дыкъэ",
        -9.711598541951837
      ],
      [
        "акIэт",
        -9.711873398713898
      ],
      [
        "Сыщы",
        -9.711894603138019
      ],
      [
        "ье",
        -9.712007756416783
      ],
      [
        "ядэ",
        -9.712515308194885
      ],
      [
        "ышхуэр",
        -9.712613751521467
      ],
      [
        "Къэс",
        -9.712707700547735
      ],
      [
        "эныр",
        -9.713249823877764
      ],
      [
        "теувэ",
        -9.713672337963938
      ],
      [
        "хъумэж",
        -9.713887176126327
      ],
      [
        "яIэ",
        -9.714473961157918
      ],
      [
        "зымыгъэ",
        -9.714495350140462
      ],
      [
        "пхуэмы",
        -9.715201861964951
      ],
      [
        "къэтэдж",
        -9.715629673509394
      ],
      [
        "ыгъуэр",
        -9.716914645809288
      ],
      [
        "лэжьын",
        -9.717130787499553
      ],
      [
        "гъуэу",
        -9.71714944470417
      ],
      [
        "хэз",
        -9.71789535638112
      ],
      [
        "кIуэсыкI",
        -9.718866708594135
      ],
      [
        "щIыжын",
        -9.718886294588618
      ],
      [
        "нэщI",
        -9.71915658296524
      ],
      [
        "тегушхуэ",
        -9.71942033235984
      ],
      [
        "хъей",
        -9.71978650046449
      ],
      [
        "хури",
        -9.720044218767086
      ],
      [
        "щIэзгъэ",
        -9.720857078916346
      ],
      [
        "убла",
        -9.721161826377498
      ],
      [
        "шыIэ",
        -9.721181889457215
      ],
      [
        "щысхь",
        -9.721959543156833
      ],
      [
        "сабий",
        -9.72277347336577
      ],
      [
        "лъыхъу",
        -9.722834925072073
      ],
      [
        "зда",
        -9.722987326022638
      ],
      [
        "бзэр",
        -9.723013944884421
      ],
      [
        "щхьэр",
        -9.724079441210758
      ],
      [
        "ыжакъым",
        -9.724186377701296
      ],
      [
        "гъэгуфIэ",
        -9.724384009084662
      ],
      [
        "дзын",
        -9.724386608190326
      ],
      [
        "зэфIэкI",
        -9.726346489865369
      ],
      [
        "къис",
        -9.727435170519927
      ],
      [
        "Шу",
        -9.727680093682302
      ],
      [
        "Йо",
        -9.729725369281114
      ],
      [
        "бзэу",
        -9.73172238143135
      ],
      [
        "хъуэр",
        -9.732142053941484
      ],
      [
        "тIу",
        -9.732214374626366
      ],
      [
        "укIын",
        -9.733399588389913
      ],
      [
        "згъуэт",
        -9.734852151943144
      ],
      [
        "шым",
        -9.737689485291174
      ],
      [
        "Iуэн",
        -9.738193526491525
      ],
      [
        "лэжьэну",
        -9.738354327530523
      ],
      [
        "кIуэжыну",
        -9.73850514741174
      ],
      [
        "щригъэ",
        -9.739163289093735
      ],
      [
        "щамы",
        -9.739667577708005
      ],
      [
        "хэхъуэ",
        -9.739798081814715
      ],
      [
        "хъуэпс",
        -9.744316237190521
      ],
      [
        "къудей",
        -9.744423792069064
      ],
      [
        "гъащIэр",
        -9.74471567691212
      ],
      [
        "амрэ",
        -9.745148942647717
      ],
      [
        "ец",
        -9.746146860242428
      ],
      [
        "щIами",
        -9.746249174048721
      ],
      [
        "жьауэ",
        -9.747056875199853
      ],
      [
        "ехыж",
        -9.747595026335361
      ],
      [
        "IэтыкI",
        -9.747657504338871
      ],
      [
        "ней",
        -9.747763141459583
      ],
      [
        "еб",
        -9.749418227361359
      ],
      [
        "хэбгъэ",
        -9.74958189784791
      ],
      [
        "кхъуэ",
        -9.750529387680022
      ],
      [
        "оп",
        -9.750679160049895
      ],
      [
        "хуэпэж",
        -9.751045146976919
      ],
      [
        "гъагъэ",
        -9.751181329674926
      ],
      [
        "мурад",
        -9.752224092430527
      ],
      [
        "гъапщэ",
        -9.752887912781844
      ],
      [
        "Но",
        -9.753447166639546
      ],
      [
        "хьырт",
        -9.75379259116202
      ],
      [
        "джэу",
        -9.75381376219909
      ],
      [
        "дий",
        -9.754273278085666
      ],
      [
        "сыб",
        -9.754561161750583
      ],
      [
        "гъэплъ",
        -9.754733274904163
      ],
      [
        "5-",
        -9.755606733318771
      ],
      [
        "яте",
        -9.756111529968
      ],
      [
        "Жа",
        -9.756642425029803
      ],
      [
        "гъэпуд",
        -9.756814492090832
      ],
      [
        "къызэрызэ",
        -9.757274744025949
      ],
      [
        "зэхуэзэ",
        -9.75793636850896
      ],
      [
        "мыгъэкI",
        -9.758092452347768
      ],
      [
        "рыс",
        -9.758666589777498
      ],
      [
        "химы",
        -9.758722093064957
      ],
      [
        "хъея",
        -9.759516851235208
      ],
      [
        "щIалъхьэ",
        -9.76084803676004
      ],
      [
        "кол",
        -9.761109160386393
      ],
      [
        "Адыгэ",
        -9.76143597522065
      ],
      [
        "щIэгъэ",
        -9.76145073498427
      ],
      [
        "жамэ",
        -9.761585869776528
      ],
      [
        "зэрыщыт",
        -9.764645584382134
      ],
      [
        "плъыжь",
        -9.765151748377228
      ],
      [
        "зэпкъры",
        -9.766463072177718
      ],
      [
        "къыжьэдэ",
        -9.767656371457509
      ],
      [
        "нэхъ",
        -9.768387463288256
      ],
      [
        "къэдгъэ",
        -9.769307874024783
      ],
      [
        "хыжу",
        -9.76932329243968
      ],
      [
        "зэхих",
        -9.76957445800182
      ],
      [
        "пэщIэ",
        -9.77053775528175
      ],
      [
        "зэхуэс",
        -9.771402146021153
      ],
      [
        "ыгъа",
        -9.77144887078338
      ],
      [
        "шхуи",
        -9.771679553679755
      ],
      [
        "хуэмыхъу",
        -9.772110705122659
      ],
      [
        "зэхэт",
        -9.772207892441209
      ],
      [
        "къикI",
        -9.772416193840291
      ],
      [
        "лю",
        -9.772551806179905
      ],
      [
        "жырти",
        -9.773295157920414
      ],
      [
        "хуам",
        -9.773934589709487
      ],
      [
        "Iэщэ",
        -9.774048285328156
      ],
      [
        "бан",
        -9.775470239181606
      ],
      [
        "цIыхун",
        -9.776070429571451
      ],
      [
        "энукъым",
        -9.77626898844211
      ],
      [
        "жрэ",
        -9.77643906729848
      ],
      [
        "тхьэкъу",
        -9.777628486447764
      ],
      [
        "дэж",
        -9.777806192236323
      ],
      [
        "роман",
        -9.778251173667115
      ],
      [
        "ыжурэ",
        -9.779855270303251
      ],
      [
        "псэуа",
        -9.78090541410905
      ],
      [
        "Iыхь",
        -9.781332147803951
      ],
      [
        "Хьэж",
        -9.781606192139655
      ],
      [
        "дамэ",
        -9.781724622287658
      ],
      [
        "пхуэз",
        -9.7820839536577
      ],
      [
        "IэщIэлъ",
        -9.782255799400911
      ],
      [
        "ншэм",
        -9.783340729225408
      ],
      [
        "мыкIыж",
        -9.783489778879257
      ],
      [
        "пол",
        -9.784684785217546
      ],
      [
        "агъэххэ",
        -9.784771524784329
      ],
      [
        "сымаджэ",
        -9.785128666511888
      ],
      [
        "убгъуа",
        -9.785788094358798
      ],
      [
        "трах",
        -9.787787308661386
      ],
      [
        "хыумы",
        -9.787990907456635
      ],
      [
        "джэм",
        -9.788402995698496
      ],
      [
        "ункIыфI",
        -9.789079962197032
      ],
      [
        "ъ",
        -9.789115914596477
      ],
      [
        "ынкIи",
        -9.789521220831912
      ],
      [
        "хущIегъуэж",
        -9.789981562761637
      ],
      [
        "хынур",
        -9.790783446837516
      ],
      [
        "дзэу",
        -9.791708863151461
      ],
      [
        "сабыр",
        -9.791782057228332
      ],
      [
        "фIащ",
        -9.792695792475012
      ],
      [
        "щIигъу",
        -9.793382347989063
      ],
      [
        "гъэпцI",
        -9.793539934795735
      ],
      [
        "жраIэ",
        -9.79400856390524
      ],
      [
        "къебгъэ",
        -9.79581185530132
      ],
      [
        "нэгъуэщI",
        -9.79710226590474
      ],
      [
        "фызэры",
        -9.797191566409946
      ],
      [
        "лъхьащ",
        -9.797276205854105
      ],
      [
        "Сызэры",
        -9.797671325769592
      ],
      [
        "къуауэ",
        -9.79787862718582
      ],
      [
        "хьыжын",
        -9.797992093897044
      ],
      [
        "пежьэ",
        -9.798238804173973
      ],
      [
        "Къэз",
        -9.799305369436333
      ],
      [
        "къыпхуа",
        -9.799696351566746
      ],
      [
        "жепIэ",
        -9.800080146681488
      ],
      [
        "пхъэщ",
        -9.800798410111888
      ],
      [
        "мед",
        -9.801477483582172
      ],
      [
        "топ",
        -9.801534344404411
      ],
      [
        "Лэ",
        -9.801555573342121
      ],
      [
        "пэмылъэщ",
        -9.8023601096187
      ],
      [
        "жынт",
        -9.802557546838312
      ],
      [
        "щIэкIыж",
        -9.804394758058404
      ],
      [
        "щIидзэ",
        -9.80639173426122
      ],
      [
        "тIысыж",
        -9.807466711907024
      ],
      [
        "псым",
        -9.807858503565594
      ],
      [
        "фIыцIэ",
        -9.807974392453543
      ],
      [
        "зэв",
        -9.808236789140437
      ],
      [
        "гъэнэху",
        -9.808375448669278
      ],
      [
        "сыкъо",
        -9.808449099912533
      ],
      [
        "ахъшэ",
        -9.80943947551956
      ],
      [
        "Унэ",
        -9.81038449046197
      ],
      [
        "къэгъэ",
        -9.811241440071626
      ],
      [
        "къеп",
        -9.811492504118892
      ],
      [
        "щIэплъ",
        -9.811656860999328
      ],
      [
        "акIэщ",
        -9.811772083874434
      ],
      [
        "IуантIэ",
        -9.812075604474547
      ],
      [
        "тетхыхь",
        -9.81234604201903
      ],
      [
        "ян",
        -9.81299975002669
      ],
      [
        "щIынур",
        -9.813205099561848
      ],
      [
        "дегъэ",
        -9.814325433278132
      ],
      [
        "гъащIэм",
        -9.814590924491295
      ],
      [
        "ыкIэр",
        -9.814636190478412
      ],
      [
        "Къысхуэ",
        -9.816073507401896
      ],
      [
        "хуабэ",
        -9.816229354843902
      ],
      [
        "щыб",
        -9.816872147423258
      ],
      [
        "щэну",
        -9.817328651807564
      ],
      [
        "пре",
        -9.818197280474635
      ],
      [
        "аджэ",
        -9.818629236606482
      ],
      [
        "умысыж",
        -9.818827196499516
      ],
      [
        "Го",
        -9.820158234147225
      ],
      [
        "ный",
        -9.820427539454066
      ],
      [
        "зэман",
        -9.820670634603506
      ],
      [
        "пагэ",
        -9.82077162404703
      ],
      [
        "пцIа",
        -9.821741697125344
      ],
      [
        "ФIы",
        -9.82195574670514
      ],
      [
        "анэр",
        -9.822029338979934
      ],
      [
        "зышэ",
        -9.822885877359411
      ],
      [
        "стра",
        -9.822985547372213
      ],
      [
        "рыкIуэ",
        -9.82316175030337
      ],
      [
        "бзэх",
        -9.823608884679604
      ],
      [
        "гушхуа",
        -9.823671616895993
      ],
      [
        "урыс",
        -9.82381166280873
      ],
      [
        "лэл",
        -9.824329394486709
      ],
      [
        "ке",
        -9.824812575845677
      ],
      [
        "щтэж",
        -9.82514450829735
      ],
      [
        "нэри",
        -9.826108769002111
      ],
      [
        "лен",
        -9.82619449903953
      ],
      [
        "Псэ",
        -9.826829744859992
      ],
      [
        "тхъа",
        -9.827303015578266
      ],
      [
        "жэм",
        -9.828542531359028
      ],
      [
        "къыщ",
        -9.828586511381229
      ],
      [
        "щIригъэ",
        -9.82891574670245
      ],
      [
        "ынтэкъым",
        -9.829128390100855
      ],
      [
        "гъуэн",
        -9.829146014604985
      ],
      [
        "изо",
        -9.829193702624984
      ],
      [
        "иримы",
        -9.83033754828676
      ],
      [
        "сыхьэт",
        -9.830591149980513
      ],
      [
        "сэбэп",
        -9.831630965686399
      ],
      [
        "мыплъэ",
        -9.833820294251304
      ],
      [
        "кIуэнур",
        -9.834741489590954
      ],
      [
        "ыжам",
        -9.835248516250264
      ],
      [
        "насып",
        -9.83590616277522
      ],
      [
        "кIами",
        -9.836423834732592
      ],
      [
        "жыныр",
        -9.83652544553615
      ],
      [
        "мет",
        -9.837090519488946
      ],
      [
        "Ири",
        -9.837636677790423
      ],
      [
        "лъей",
        -9.838017723729376
      ],
      [
        "щIыхьэж",
        -9.838523609564103
      ],
      [
        "узыншэ",
        -9.838594284689709
      ],
      [
        "къуаншэ",
        -9.83886031801914
      ],
      [
        "вагъуэ",
        -9.839417578080951
      ],
      [
        "зре",
        -9.83969214168831
      ],
      [
        "итI-щы",
        -9.83976458465143
      ],
      [
        "къызэригъэ",
        -9.840563391200416
      ],
      [
        "гъэгугъэ",
        -9.841438949772192
      ],
      [
        "емыкIу",
        -9.842660764841215
      ],
      [
        "щIегъуэж",
        -9.843641462883435
      ],
      [
        "къызыхэ",
        -9.843693323389653
      ],
      [
        "агъэнт",
        -9.84382212157431
      ],
      [
        "пхыкI",
        -9.845764231448054
      ],
      [
        "гъэхъей",
        -9.845980831937872
      ],
      [
        "эф",
        -9.846647320832098
      ],
      [
        "убэрэжь",
        -9.847062201207834
      ],
      [
        "14",
        -9.847458287361018
      ],
      [
        "къыщхьэщы",
        -9.847844351745485
      ],
      [
        "Iуэу",
        -9.849019360616948
      ],
      [
        "а-",
        -9.849023195556814
      ],
      [
        "гуэша",
        -9.849185292296063
      ],
      [
        "тызо",
        -9.849441016045105
      ],
      [
        "зумы",
        -9.84964000001198
      ],
      [
        "зэригъэпэщ",
        -9.850435296774283
      ],
      [
        "лет",
        -9.850492229566946
      ],
      [
        "шхуитI",
        -9.850502308031377
      ],
      [
        "ФIэ",
        -9.85164939792947
      ],
      [
        "езмы",
        -9.853801023532977
      ],
      [
        "къызэримы",
        -9.853806963356487
      ],
      [
        "лъэры",
        -9.8548636457822
      ],
      [
        "кIуэцIры",
        -9.855551358183106
      ],
      [
        "пщIыкI",
        -9.856378617569248
      ],
      [
        "къыкIэлъы",
        -9.856665422736967
      ],
      [
        "Iих",
        -9.858421979926572
      ],
      [
        "гуашэ",
        -9.859083473074689
      ],
      [
        "хуегъэ",
        -9.859134920486099
      ],
      [
        "лIар",
        -9.85936321293955
      ],
      [
        "цIыхубз",
        -9.859639035974677
      ],
      [
        "хыхьэж",
        -9.860020294431681
      ],
      [
        "арэзы",
        -9.860320118000217
      ],
      [
        "IуэнтI",
        -9.861013538021087
      ],
      [
        "Пе",
        -9.861701348960997
      ],
      [
        "дгъуэт",
        -9.862039538826266
      ],
      [
        "игъуэт",
        -9.862639240206967
      ],
      [
        "гъэщхьэхукI",
        -9.863923551319274
      ],
      [
        "къызэмы",
        -9.865052984408912
      ],
      [
        "уемы",
        -9.865478105261223
      ],
      [
        "щIэбгъэ",
        -9.866132226975072
      ],
      [
        "Ге",
        -9.868263236662607
      ],
      [
        "къэрал",
        -9.868307691581618
      ],
      [
        "ещхь",
        -9.868360415398481
      ],
      [
        "лIыгъэ",
        -9.868765455689218
      ],
      [
        "жьэну",
        -9.869053687375908
      ],
      [
        "дзэри",
        -9.869081300483337
      ],
      [
        "гъэпс",
        -9.869185849229648
      ],
      [
        "щхьэпры",
        -9.869474669287799
      ],
      [
        "ищI",
        -9.869787867973244
      ],
      [
        "хуеплъэкI",
        -9.869913052997124
      ],
      [
        "шэри",
        -9.870392742715543
      ],
      [
        "пша",
        -9.870434804808387
      ],
      [
        "гуIэ",
        -9.870620861541536
      ],
      [
        "къыщыхъу",
        -9.871109236010057
      ],
      [
        "кIуэжын",
        -9.872474290713935
      ],
      [
        "Дызэры",
        -9.876080187210295
      ],
      [
        "жыжьэ",
        -9.877259714116583
      ],
      [
        "ирит",
        -9.877460210317258
      ],
      [
        "пэрыт",
        -9.87823798456338
      ],
      [
        "ахэри",
        -9.878877161157005
      ],
      [
        "елъэ",
        -9.879067066381714
      ],
      [
        "хэкIыж",
        -9.881410397011631
      ],
      [
        "плъэж",
        -9.881462538856995
      ],
      [
        "гъун",
        -9.881742966766792
      ],
      [
        "псэуну",
        -9.881775664093984
      ],
      [
        "00",
        -9.881811368781793
      ],
      [
        "ыфыркъым",
        -9.882327685786743
      ],
      [
        "ван",
        -9.882341327437516
      ],
      [
        "Узы",
        -9.88280532846399
      ],
      [
        "щыбгъэ",
        -9.883418187786734
      ],
      [
        "12",
        -9.883487058279794
      ],
      [
        "зэрыдэ",
        -9.883700185011595
      ],
      [
        "ухуа",
        -9.883881508857671
      ],
      [
        "бар",
        -9.884132566543663
      ],
      [
        "класс",
        -9.884230238698795
      ],
      [
        "шэрджэс",
        -9.884424167515583
      ],
      [
        "къыто",
        -9.884717281089225
      ],
      [
        "пыгуфIыкI",
        -9.884760847084408
      ],
      [
        "гъэзэжыну",
        -9.88499149822049
      ],
      [
        "плI",
        -9.885337446788295
      ],
      [
        "нэхъыщIэ",
        -9.886509657574269
      ],
      [
        "мэз",
        -9.886849934299947
      ],
      [
        "пэджэж",
        -9.887282627515294
      ],
      [
        "згъэкI",
        -9.887382536885589
      ],
      [
        "темыт",
        -9.887644227736239
      ],
      [
        "Чы",
        -9.887852743992392
      ],
      [
        "гурыIуэн",
        -9.887961340067456
      ],
      [
        "бер",
        -9.888711006195596
      ],
      [
        "щIэмыхьэ",
        -9.889258773478478
      ],
      [
        "Жь",
        -9.88927652940185
      ],
      [
        "ура",
        -9.890560939525944
      ],
      [
        "щIэрт",
        -9.891529473899972
      ],
      [
        "къай",
        -9.891724045356643
      ],
      [
        "щабэ",
        -9.892601878798022
      ],
      [
        "шри",
        -9.892956931759105
      ],
      [
        "дзыхэ",
        -9.89340943384433
      ],
      [
        "пхуи",
        -9.893481115528292
      ],
      [
        "джи",
        -9.89377713588938
      ],
      [
        "бзэрабзэ",
        -9.89387798993435
      ],
      [
        "ящIэ",
        -9.894730946382293
      ],
      [
        "ншэр",
        -9.894749239763204
      ],
      [
        "щIэкъу",
        -9.89484126698046
      ],
      [
        "мер",
        -9.895894291852958
      ],
      [
        "хуэтщI",
        -9.896004750441604
      ],
      [
        "мырзэ",
        -9.896012442444754
      ],
      [
        "ович",
        -9.896475535705383
      ],
      [
        "хэдгъэ",
        -9.896674300864634
      ],
      [
        "мылъхьэ",
        -9.896757638775469
      ],
      [
        "лъалъэ",
        -9.898478637941317
      ],
      [
        "къыщыдэ",
        -9.89884107848949
      ],
      [
        "гъэлъапIэ",
        -9.899967403077977
      ],
      [
        "пцIы",
        -9.900243867718045
      ],
      [
        "бии",
        -9.900566358813132
      ],
      [
        "здэкIуэ",
        -9.900748457572242
      ],
      [
        "дэлажьэ",
        -9.901077128566712
      ],
      [
        "лъэныкъуэ",
        -9.901083245267827
      ],
      [
        "Iэтыну",
        -9.901465048970643
      ],
      [
        "Уз",
        -9.90174242488932
      ],
      [
        "бэкъу",
        -9.902539688583495
      ],
      [
        "иубыд",
        -9.9027777340396
      ],
      [
        "пащтыхь",
        -9.903352500532401
      ],
      [
        "нал",
        -9.903925313559654
      ],
      [
        "мыкIыу",
        -9.904436822022571
      ],
      [
        "пш",
        -9.907287207140428
      ],
      [
        "халъхьэ",
        -9.90754395030735
      ],
      [
        "Iам",
        -9.908232799875726
      ],
      [
        "Iэмал",
        -9.908441511463165
      ],
      [
        "бзаджэ",
        -9.909004135322157
      ],
      [
        "сыщIы",
        -9.909020940213939
      ],
      [
        "лъагъуэр",
        -9.909379257704096
      ],
      [
        "жея",
        -9.909885003694798
      ],
      [
        "гъавэ",
        -9.910430849393558
      ],
      [
        "сабии",
        -9.910739627287517
      ],
      [
        "Iами",
        -9.91092986799724
      ],
      [
        "щыгъуэ",
        -9.911368016926415
      ],
      [
        "ныбжь",
        -9.911549005940838
      ],
      [
        "дэплъ",
        -9.91170186664203
      ],
      [
        "Iусэ",
        -9.91227653984832
      ],
      [
        "слъэгъуа",
        -9.91241088447785
      ],
      [
        "гъашэ",
        -9.912670796056982
      ],
      [
        "къыщыд",
        -9.912974576051436
      ],
      [
        "Адэ",
        -9.912977730729251
      ],
      [
        "нэхъы",
        -9.913105762341775
      ],
      [
        "утIыпща",
        -9.913563101092794
      ],
      [
        "Iуих",
        -9.913637748644632
      ],
      [
        "ынумэ",
        -9.915028945683208
      ],
      [
        "Щи",
        -9.915037717205543
      ],
      [
        "дэз",
        -9.915138759181133
      ],
      [
        "хъуэкI",
        -9.915649323465196
      ],
      [
        "щIэупщIа",
        -9.916077116357748
      ],
      [
        "щIэтIысхьэ",
        -9.916786960792077
      ],
      [
        "КIу",
        -9.917418389386533
      ],
      [
        "бгын",
        -9.91815438872289
      ],
      [
        "техъуэ",
        -9.918859036779944
      ],
      [
        "чик",
        -9.919507891345091
      ],
      [
        "къутэн",
        -9.919683894281672
      ],
      [
        "хуапэ",
        -9.919815604047827
      ],
      [
        "зэIы",
        -9.920290909434
      ],
      [
        "сыбгъэ",
        -9.92060943878585
      ],
      [
        "ыгъащ",
        -9.921009876451588
      ],
      [
        "догъэ",
        -9.921159757980124
      ],
      [
        "гъуалъхьэ",
        -9.921202468994068
      ],
      [
        "кIэзыз",
        -9.921345454704444
      ],
      [
        "щIыпIэ",
        -9.921353397253268
      ],
      [
        "уэркъ",
        -9.921786294537187
      ],
      [
        "Iуигъэ",
        -9.92200855149937
      ],
      [
        "гъэзэну",
        -9.923409300371304
      ],
      [
        "щыгъупщэж",
        -9.923605853542838
      ],
      [
        "сызэри",
        -9.923651713257826
      ],
      [
        "зэхе",
        -9.923921682008398
      ],
      [
        "узэд",
        -9.924472024798787
      ],
      [
        "гъуэжь",
        -9.924886333902315
      ],
      [
        "щIакIуэ",
        -9.92493885621371
      ],
      [
        "шия",
        -9.924965763110606
      ],
      [
        "хъулIэн",
        -9.925318339779839
      ],
      [
        "ужьых",
        -9.927170611291654
      ],
      [
        "Про",
        -9.927559141608818
      ],
      [
        "епсых",
        -9.927923123966492
      ],
      [
        "эжауэ",
        -9.929295619661954
      ],
      [
        "хьэжа",
        -9.929360453131014
      ],
      [
        "гъэпэщ",
        -9.929369609984384
      ],
      [
        "Уэр",
        -9.929394377812798
      ],
      [
        "щIамэ",
        -9.92942347231562
      ],
      [
        "къэзымы",
        -9.930995791514553
      ],
      [
        "зэрыригъэ",
        -9.93161797983947
      ],
      [
        "ищыр",
        -9.931736101762688
      ],
      [
        "фым",
        -9.932448924639095
      ],
      [
        "укъуэдия",
        -9.932760716752112
      ],
      [
        "хуэмыгъэ",
        -9.934100204720941
      ],
      [
        "хулIэ",
        -9.934464290318076
      ],
      [
        "хыжри",
        -9.934475132137138
      ],
      [
        "ирегъэ",
        -9.936442011943306
      ],
      [
        "ущий",
        -9.936810631057538
      ],
      [
        "фызы",
        -9.936962096541672
      ],
      [
        "щхьэры",
        -9.937026299627895
      ],
      [
        "Ас",
        -9.937040555348847
      ],
      [
        "гъэкIуэн",
        -9.93723902505344
      ],
      [
        "зыхуе",
        -9.93862955683073
      ],
      [
        "акъыл",
        -9.938752719037854
      ],
      [
        "тIэкIу",
        -9.939069682534129
      ],
      [
        "лъхьэри",
        -9.939405314070983
      ],
      [
        "хьэл",
        -9.939636570010151
      ],
      [
        "хэта",
        -9.940371257218697
      ],
      [
        "парт",
        -9.940455559221373
      ],
      [
        "гъэнэн",
        -9.940854268609769
      ],
      [
        "ымкIи",
        -9.941640923025854
      ],
      [
        "пцIыж",
        -9.941835377791222
      ],
      [
        "Ста",
        -9.941933007474523
      ],
      [
        "бэкъуэ",
        -9.942545569251543
      ],
      [
        "Гуащэ",
        -9.942869180565223
      ],
      [
        "лъэмыIэс",
        -9.943065015681354
      ],
      [
        "хуэсхь",
        -9.943088857760834
      ],
      [
        "гупсысын",
        -9.94330259191106
      ],
      [
        "зэныкъуэкъу",
        -9.944475998348068
      ],
      [
        "Iуэтэн",
        -9.94475440946717
      ],
      [
        "щэхун",
        -9.945809662175943
      ],
      [
        "Хы",
        -9.946213088948856
      ],
      [
        "Iыхьэ",
        -9.946233615368758
      ],
      [
        "дэлъху",
        -9.946507156853766
      ],
      [
        "хызо",
        -9.946590629313707
      ],
      [
        "нури",
        -9.946679700711051
      ],
      [
        "мыщIэу",
        -9.946705375486484
      ],
      [
        "зэлъыIу",
        -9.947231248047064
      ],
      [
        "пэрыуэ",
        -9.947478824415708
      ],
      [
        "кIынукъым",
        -9.947717710466318
      ],
      [
        "Не",
        -9.947999131961978
      ],
      [
        "Вагъуэ",
        -9.948119094937063
      ],
      [
        "тех",
        -9.948817361817316
      ],
      [
        "IущIэ",
        -9.949085555330182
      ],
      [
        "пыщIа",
        -9.94925927361245
      ],
      [
        "къытехьэ",
        -9.949409026503496
      ],
      [
        "зэфIэувэ",
        -9.949554424738857
      ],
      [
        "къыщIэмы",
        -9.950097729338072
      ],
      [
        "гъащтэ",
        -9.952000077172073
      ],
      [
        "сыще",
        -9.952565673314574
      ],
      [
        "пар",
        -9.952932658642345
      ],
      [
        "иIыгъ",
        -9.952949684222414
      ],
      [
        "ежэх",
        -9.953664261783167
      ],
      [
        "Ире",
        -9.953720121557499
      ],
      [
        "быдэ",
        -9.954019644156434
      ],
      [
        "плъащ",
        -9.95407548047068
      ],
      [
        "къыв",
        -9.9547263318365
      ],
      [
        "дэджэгу",
        -9.954883118212884
      ],
      [
        "къуэн",
        -9.954958687432638
      ],
      [
        "оч",
        -9.95496783002014
      ],
      [
        "гъэпса",
        -9.956149346511786
      ],
      [
        "гъаIуэ",
        -9.95649150020553
      ],
      [
        "пхын",
        -9.957231447198222
      ],
      [
        "хъуэну",
        -9.957973620487694
      ],
      [
        "фыркъым",
        -9.958036838600531
      ],
      [
        "зызо",
        -9.9582786163967
      ],
      [
        "гувэ",
        -9.958801247985447
      ],
      [
        "пщIын",
        -9.958821218407667
      ],
      [
        "зэхэпх",
        -9.959021432335113
      ],
      [
        "шэщI",
        -9.959180657695345
      ],
      [
        "пэIэщIэ",
        -9.960149080666838
      ],
      [
        "гъэзэщIэн",
        -9.960550142232794
      ],
      [
        "дызэри",
        -9.960633436488644
      ],
      [
        "нтIэ",
        -9.960950278124685
      ],
      [
        "къызэIу",
        -9.960993748987544
      ],
      [
        "напIэ",
        -9.961543665566575
      ],
      [
        "фынут",
        -9.961645929617465
      ],
      [
        "ныбэ",
        -9.962308811967516
      ],
      [
        "зэпе",
        -9.96308699922352
      ],
      [
        "лъэгъуам",
        -9.96349610194991
      ],
      [
        "зэхэс",
        -9.963956445504419
      ],
      [
        "шэрыуэ",
        -9.964131745783025
      ],
      [
        "дэхъу",
        -9.964608516413612
      ],
      [
        "ыжынущ",
        -9.964663253346522
      ],
      [
        "кл",
        -9.966794199535588
      ],
      [
        "ыпхъэщ",
        -9.966943375508288
      ],
      [
        "хьэлэл",
        -9.967134183721797
      ],
      [
        "ше",
        -9.967827034988575
      ],
      [
        "анэм",
        -9.968206642867134
      ],
      [
        "измэм",
        -9.968365761251846
      ],
      [
        "блэж",
        -9.968495629906997
      ],
      [
        "гъэса",
        -9.96884290764211
      ],
      [
        "шалIэ",
        -9.969603267936161
      ],
      [
        "щIыху",
        -9.969639842672606
      ],
      [
        "вар",
        -9.969797243377393
      ],
      [
        "цIу",
        -9.970224848669726
      ],
      [
        "щIэжыну",
        -9.970993340739264
      ],
      [
        "лъыхъуа",
        -9.971395010094314
      ],
      [
        "зэрыза",
        -9.972490689923335
      ],
      [
        "жьар",
        -9.972498975345694
      ],
      [
        "хуэарэзы",
        -9.972772146407351
      ],
      [
        "зыпы",
        -9.973137152028475
      ],
      [
        "Ю",
        -9.973370179069383
      ],
      [
        "тхьэмыщкIэ",
        -9.973372671129354
      ],
      [
        "лэжьакIуэ",
        -9.973571712276415
      ],
      [
        "бампIэ",
        -9.973661394750499
      ],
      [
        "кIыртэкъым",
        -9.973799325366208
      ],
      [
        "увауэ",
        -9.973964135564115
      ],
      [
        "Гъуэ",
        -9.974405717647294
      ],
      [
        "ыш",
        -9.974416668940531
      ],
      [
        "дэIэпыкъун",
        -9.97487051259817
      ],
      [
        "тхъэж",
        -9.975117192752734
      ],
      [
        "мыщэ",
        -9.975380238358207
      ],
      [
        "кIыпIэ",
        -9.975763929599301
      ],
      [
        "кIута",
        -9.976535406961657
      ],
      [
        "зэбгры",
        -9.976654639048805
      ],
      [
        "къыхуэмы",
        -9.97709180365219
      ],
      [
        "декIуэкI",
        -9.977636953607657
      ],
      [
        "жеIэ",
        -9.978334302716464
      ],
      [
        "увыIэж",
        -9.978413675677269
      ],
      [
        "Що",
        -9.980218068465028
      ],
      [
        "акIуэхэм",
        -9.981472327074677
      ],
      [
        "жэх",
        -9.98183099006506
      ],
      [
        "Iуэтэжын",
        -9.981927477624968
      ],
      [
        "фIыр",
        -9.982730127216275
      ],
      [
        "къэкI",
        -9.983122781076236
      ],
      [
        "агъэм",
        -9.983249428080072
      ],
      [
        "фхуэ",
        -9.984018635124588
      ],
      [
        "узи",
        -9.984420713511927
      ],
      [
        "дэхащIэ",
        -9.984517851073107
      ],
      [
        "нэщхъ",
        -9.984546085660075
      ],
      [
        "ог",
        -9.9849717101693
      ],
      [
        "литературэ",
        -9.985447704505475
      ],
      [
        "мызагъэ",
        -9.985554166185816
      ],
      [
        "зэрыра",
        -9.985560511992771
      ],
      [
        "Ни",
        -9.986224989026079
      ],
      [
        "атор",
        -9.98623294105173
      ],
      [
        "Iэгу",
        -9.986339348455186
      ],
      [
        "губжьа",
        -9.987785083408362
      ],
      [
        "Сыно",
        -9.988554391531627
      ],
      [
        "акIуэм",
        -9.988674468630581
      ],
      [
        "къип",
        -9.989038053234228
      ],
      [
        "Бу",
        -9.989077063064483
      ],
      [
        "Къан",
        -9.990416542758501
      ],
      [
        "къызэрыхэ",
        -9.990459325866949
      ],
      [
        "щхьэщыкI",
        -9.990914351586209
      ],
      [
        "щIрагъэ",
        -9.990999826642321
      ],
      [
        "пшыныж",
        -9.991349100118558
      ],
      [
        "16",
        -9.991414271956941
      ],
      [
        "лъэдэн",
        -9.991420787202376
      ],
      [
        "дзакъэ",
        -9.992710676012194
      ],
      [
        "Га",
        -9.993603341019893
      ],
      [
        "къытте",
        -9.99369867083286
      ],
      [
        "ная",
        -9.99412436992066
      ],
      [
        "ологие",
        -9.994634483244923
      ],
      [
        "мыкIуэж",
        -9.995992747812867
      ],
      [
        "Ве",
        -9.996825805855835
      ],
      [
        "дыщызэ",
        -9.997155622670569
      ],
      [
        "иер",
        -9.998971577643031
      ],
      [
        "Ущы",
        -9.999189504702564
      ],
      [
        "бзу",
        -9.99920690709018
      ],
      [
        "гъэункIыфI",
        -10.000051841859133
      ],
      [
        "мыхъун",
        -10.000846682674556
      ],
      [
        "зезгъэ",
        -10.001131421884544
      ],
      [
        "теб",
        -10.001414269952358
      ],
      [
        "бжесIэ",
        -10.002075125364309
      ],
      [
        "пIыкI",
        -10.002103588737787
      ],
      [
        "ебгъэрыкIуэ",
        -10.002232651919996
      ],
      [
        "хьэлы",
        -10.00241698666581
      ],
      [
        "кърегъэ",
        -10.002757990896564
      ],
      [
        "Фо",
        -10.00297487446429
      ],
      [
        "но-",
        -10.003183902202615
      ],
      [
        "дзей",
        -10.003662431582224
      ],
      [
        "хуэхъуну",
        -10.003709944526772
      ],
      [
        "дыщэ",
        -10.003913973612157
      ],
      [
        "махуи",
        -10.004055894846806
      ],
      [
        "ого",
        -10.004612168224186
      ],
      [
        "пщIэн",
        -10.004727580296965
      ],
      [
        "фIэлIыкI",
        -10.005409728493518
      ],
      [
        "13",
        -10.00563561404216
      ],
      [
        "убыдащ",
        -10.005961330244624
      ],
      [
        "шхэн",
        -10.006060991535502
      ],
      [
        "нам",
        -10.006122274556235
      ],
      [
        "лъакъуэ",
        -10.006218853858773
      ],
      [
        "бгъэдыхьа",
        -10.006328129075314
      ],
      [
        "шэлIэж",
        -10.00646195139522
      ],
      [
        "дызо",
        -10.006520446776392
      ],
      [
        "щеджэ",
        -10.00653670188835
      ],
      [
        "арэт",
        -10.006679480238024
      ],
      [
        "къыпте",
        -10.006763675282606
      ],
      [
        "укIыж",
        -10.006849314907793
      ],
      [
        "Хьэт",
        -10.007557850640204
      ],
      [
        "лIалIэ",
        -10.00796981801811
      ],
      [
        "Iыгъын",
        -10.008329705456958
      ],
      [
        "жьэди",
        -10.008466234176275
      ],
      [
        "щIыIу",
        -10.00860827599178
      ],
      [
        "зыхуей",
        -10.00869833039675
      ],
      [
        "унэхъу",
        -10.00999375420562
      ],
      [
        "тхэн",
        -10.010296127199641
      ],
      [
        "эжа",
        -10.010746082931862
      ],
      [
        "еяуэ",
        -10.010948930063257
      ],
      [
        "къызэте",
        -10.010989008575251
      ],
      [
        "тэрэ",
        -10.011193123021528
      ],
      [
        "къыдэмы",
        -10.011589455906822
      ],
      [
        "хьэдэ",
        -10.011752015563026
      ],
      [
        "Сып",
        -10.011760644681063
      ],
      [
        "лист",
        -10.012200656920129
      ],
      [
        "дис",
        -10.013480094541297
      ],
      [
        "ырат",
        -10.014356203678357
      ],
      [
        "трилъхьэ",
        -10.014407761656104
      ],
      [
        "вен",
        -10.01447124929593
      ],
      [
        "щымыIэ",
        -10.015106811180164
      ],
      [
        "олог",
        -10.015106941359242
      ],
      [
        "укъуэдий",
        -10.015747080725603
      ],
      [
        "яригъэ",
        -10.01615912412375
      ],
      [
        "утIыпщхьэ",
        -10.016860060754906
      ],
      [
        "Iуэтэжа",
        -10.016985067370337
      ],
      [
        "мыпэс",
        -10.018273941669205
      ],
      [
        "лъитэ",
        -10.018398783787111
      ],
      [
        "къыхуигъэ",
        -10.018996286301775
      ],
      [
        "хьамэ",
        -10.019393195678502
      ],
      [
        "Гъа",
        -10.019793228430359
      ],
      [
        "псыхьа",
        -10.019957944536623
      ],
      [
        "къуэж",
        -10.020617160034035
      ],
      [
        "хъар",
        -10.020893517248009
      ],
      [
        "гъэпэж",
        -10.020997572512233
      ],
      [
        "гъакъуэ",
        -10.02246262250684
      ],
      [
        "шэча",
        -10.023289402271125
      ],
      [
        "сэну",
        -10.02510740486515
      ],
      [
        "къекIуэкI",
        -10.025583433536552
      ],
      [
        "200",
        -10.025641603935394
      ],
      [
        "къыгурыIуэ",
        -10.026007516343919
      ],
      [
        "Пы",
        -10.026610743718699
      ],
      [
        "тIысэх",
        -10.027125282155655
      ],
      [
        "еплъых",
        -10.02716440328814
      ],
      [
        "мылъэгъуа",
        -10.02974499596109
      ],
      [
        "хуэзгъэ",
        -10.0299119754584
      ],
      [
        "фащэ",
        -10.030199795297655
      ],
      [
        "хами",
        -10.030887958588458
      ],
      [
        "тхыгъэ",
        -10.031002501408647
      ],
      [
        "семы",
        -10.031301533971735
      ],
      [
        "гъазэу",
        -10.03179222646213
      ],
      [
        "щIадзэ",
        -10.03179800580357
      ],
      [
        "гъэкъуаншэ",
        -10.032608685206377
      ],
      [
        "щызэте",
        -10.032660788002747
      ],
      [
        "Ре",
        -10.032759615004919
      ],
      [
        "имыIэж",
        -10.0334770003478
      ],
      [
        "ья",
        -10.034744110711465
      ],
      [
        "ыжынукъым",
        -10.03481219952361
      ],
      [
        "евгъэ",
        -10.035717341196328
      ],
      [
        "гъэзэжын",
        -10.036379001230491
      ],
      [
        "агъкIэ",
        -10.03685928387484
      ],
      [
        "хуихь",
        -10.037156742610698
      ],
      [
        "къедгъэ",
        -10.037186667286539
      ],
      [
        "хъуэжа",
        -10.037358639463418
      ],
      [
        "кхъухь",
        -10.037872952691327
      ],
      [
        "щхьэгъусэ",
        -10.038451741710087
      ],
      [
        "хьэхын",
        -10.039065276069676
      ],
      [
        "къихьэ",
        -10.039144435045785
      ],
      [
        "хыным",
        -10.039196147807473
      ],
      [
        "Ад",
        -10.039233609889855
      ],
      [
        "ирихь",
        -10.039472268295302
      ],
      [
        "нысэ",
        -10.039510352644617
      ],
      [
        "ыпщ",
        -10.039947809196931
      ],
      [
        "щхьэхуэ",
        -10.0401758043117
      ],
      [
        "Къыдэ",
        -10.040285204202565
      ],
      [
        "рак",
        -10.040531212109494
      ],
      [
        "щыхъуа",
        -10.040774474956645
      ],
      [
        "стро",
        -10.041435626442407
      ],
      [
        "хуэзэн",
        -10.041639315018447
      ],
      [
        "къыхэмы",
        -10.041869285006612
      ],
      [
        "увэри",
        -10.041869373825199
      ],
      [
        "фыщI",
        -10.042200140851373
      ],
      [
        "гуфIэн",
        -10.043763547613015
      ],
      [
        "30",
        -10.045476821884446
      ],
      [
        "чыж",
        -10.045646011394108
      ],
      [
        "лIыхь",
        -10.046387357005568
      ],
      [
        "бзэкIэ",
        -10.04726246667054
      ],
      [
        "хъуэжын",
        -10.04799706947703
      ],
      [
        "тхыдэ",
        -10.048557825893173
      ],
      [
        "ухъуреихь",
        -10.048674455093941
      ],
      [
        "щрихьэлIэ",
        -10.049978519024918
      ],
      [
        "тхащ",
        -10.05010931375923
      ],
      [
        "фырт",
        -10.050409546251206
      ],
      [
        "щыгъупща",
        -10.050466155918357
      ],
      [
        "лъыхъуэн",
        -10.050843549231615
      ],
      [
        "къыщIэкI",
        -10.051039618393807
      ],
      [
        "Илъэс",
        -10.051287049269433
      ],
      [
        "тэджыж",
        -10.05160588863276
      ],
      [
        "щыдыхьэшх",
        -10.052037452324427
      ],
      [
        "Iэба",
        -10.052161259228125
      ],
      [
        "еижь",
        -10.052731430244906
      ],
      [
        "къытре",
        -10.052791741129187
      ],
      [
        "еину",
        -10.053553841792176
      ],
      [
        "ыхьыж",
        -10.055290343449329
      ],
      [
        "жылэ",
        -10.055504455527313
      ],
      [
        "къилъагъу",
        -10.055975419318878
      ],
      [
        "пэжыжьэ",
        -10.056290792062974
      ],
      [
        "фIэIуэху",
        -10.05698677714855
      ],
      [
        "щIумы",
        -10.057573373385182
      ],
      [
        "сцIыху",
        -10.057939079745381
      ],
      [
        "гие",
        -10.05814269885569
      ],
      [
        "Iэтэ",
        -10.058313580083304
      ],
      [
        "жриIа",
        -10.0589556371875
      ],
      [
        "гъуитI",
        -10.05914692296082
      ],
      [
        "щIэпхъуэж",
        -10.059411083140668
      ],
      [
        "кIыжыр",
        -10.059737985423912
      ],
      [
        "№",
        -10.0599097899436
      ],
      [
        "зыхуигъэ",
        -10.060301562231285
      ],
      [
        "лэжьыгъэ",
        -10.060488220468493
      ],
      [
        "хуэдиз",
        -10.060594374503054
      ],
      [
        "ыкIын",
        -10.06070430691453
      ],
      [
        "джыр",
        -10.061437298279856
      ],
      [
        "Урыс",
        -10.06174165759535
      ],
      [
        "гузэвэн",
        -10.061813470438054
      ],
      [
        "бжа",
        -10.061958410766772
      ],
      [
        "дэгу",
        -10.06244905903018
      ],
      [
        "пэгъунэгъу",
        -10.06258281737103
      ],
      [
        "Би",
        -10.063540629205624
      ],
      [
        "гъэшынэ",
        -10.064211953761323
      ],
      [
        "итIрэ",
        -10.064344745637175
      ],
      [
        "хурикъу",
        -10.064638718182206
      ],
      [
        "зэхах",
        -10.064845257347606
      ],
      [
        "шхыр",
        -10.064896669999381
      ],
      [
        "нтэкъэ",
        -10.065434031577837
      ],
      [
        "хуэхъун",
        -10.0659135835563
      ],
      [
        "къызэрыте",
        -10.06614641983666
      ],
      [
        "Бгъэ",
        -10.066368296986395
      ],
      [
        "текIуа",
        -10.066594131240263
      ],
      [
        "ыжыртэкъым",
        -10.067045398843177
      ],
      [
        "пщэфI",
        -10.067994137451553
      ],
      [
        "зэIуах",
        -10.06817184155378
      ],
      [
        "гъэзэщIа",
        -10.068310561429962
      ],
      [
        "хьынур",
        -10.06846289787121
      ],
      [
        "елэжь",
        -10.068512024338673
      ],
      [
        "къыщигъэ",
        -10.06945869727744
      ],
      [
        "хъеи",
        -10.069702067795522
      ],
      [
        "гъэпIейтей",
        -10.070022922983943
      ],
      [
        "къулей",
        -10.070281804120967
      ],
      [
        "Iэгъуэ",
        -10.070298972788546
      ],
      [
        "хьынщ",
        -10.070832781064643
      ],
      [
        "цIэфт",
        -10.07156097519255
      ],
      [
        "лIыхъужь",
        -10.071703383384325
      ],
      [
        "дэплъей",
        -10.071850611416581
      ],
      [
        "изм",
        -10.072187225165518
      ],
      [
        "упщIыну",
        -10.07289582877589
      ],
      [
        "ежьэж",
        -10.07415220758439
      ],
      [
        "Хо",
        -10.075196669192803
      ],
      [
        "лажьэр",
        -10.075522426010426
      ],
      [
        "зэрахьэ",
        -10.076639130346308
      ],
      [
        "тхар",
        -10.07696143236446
      ],
      [
        "лъэгъуауэ",
        -10.077311513538369
      ],
      [
        "кIей",
        -10.078340157632294
      ],
      [
        "хурагъэ",
        -10.078967713709527
      ],
      [
        "зыще",
        -10.079381913831988
      ],
      [
        "Гъуэгу",
        -10.079508203249233
      ],
      [
        "жынкIэ",
        -10.07958621630804
      ],
      [
        "зэщхь",
        -10.080747536130332
      ],
      [
        "вэн",
        -10.081104559020439
      ],
      [
        "яхуэмы",
        -10.082077388092806
      ],
      [
        "лъапэ",
        -10.082117825760914
      ],
      [
        "Iуэтэну",
        -10.082186524143228
      ],
      [
        "лъагъуныгъэ",
        -10.082344078685145
      ],
      [
        "хуэбгъэ",
        -10.082949220644238
      ],
      [
        "гъэгувэ",
        -10.083125184020762
      ],
      [
        "зэрыцIыху",
        -10.083271450670019
      ],
      [
        "хужаIэ",
        -10.083508239353808
      ],
      [
        "джэрэз",
        -10.083916286487948
      ],
      [
        "хущIэкъу",
        -10.084497519762202
      ],
      [
        "уэзгъэ",
        -10.084629930827083
      ],
      [
        "ыбзэм",
        -10.084747886834457
      ],
      [
        "лъыкъуэкI",
        -10.084827554579824
      ],
      [
        "шэжыну",
        -10.084845844946305
      ],
      [
        "тырку",
        -10.084972733997827
      ],
      [
        "ынуми",
        -10.08519230634045
      ],
      [
        "Анэ",
        -10.085419720504063
      ],
      [
        "ныб",
        -10.085663685064105
      ],
      [
        "Пхъэ",
        -10.086523793662305
      ],
      [
        "къэувыIэ",
        -10.08701948667261
      ],
      [
        "щIэжыр",
        -10.08730598749245
      ],
      [
        "хъужа",
        -10.08817317740185
      ],
      [
        "хих",
        -10.089222870120627
      ],
      [
        "щхьэдэх",
        -10.089486813476501
      ],
      [
        "щIэщыгъуэ",
        -10.090712477569046
      ],
      [
        "гумэщI",
        -10.091512691502402
      ],
      [
        "къэуш",
        -10.09383090792126
      ],
      [
        "енкэ",
        -10.09484447218988
      ],
      [
        "хей",
        -10.094958795153115
      ],
      [
        "ещэ",
        -10.094964134339797
      ],
      [
        "хьэжын",
        -10.09521933455159
      ],
      [
        "дыхьэж",
        -10.0955241476875
      ],
      [
        "хузэфIэмыкI",
        -10.096267595792892
      ],
      [
        "шо",
        -10.096609950876616
      ],
      [
        "хуэзыщI",
        -10.097444982117175
      ],
      [
        "щыгъ",
        -10.098066583375106
      ],
      [
        "хах",
        -10.098071324061312
      ],
      [
        "лъе",
        -10.098514709050278
      ],
      [
        "дэIуэн",
        -10.098656436024786
      ],
      [
        "къызэрыд",
        -10.098684642819789
      ],
      [
        "раш",
        -10.0988241340604
      ],
      [
        "щымыгугъ",
        -10.098884797854549
      ],
      [
        "цэм",
        -10.10087752307173
      ],
      [
        "мал",
        -10.101485779838603
      ],
      [
        "гъуэзэн",
        -10.102365126193899
      ],
      [
        "зэуэну",
        -10.102688433766353
      ],
      [
        "шэчын",
        -10.102767016122293
      ],
      [
        "Хь",
        -10.103030130475418
      ],
      [
        "шкIэ",
        -10.103289042801709
      ],
      [
        "гува",
        -10.103317079043546
      ],
      [
        "ашэ",
        -10.103543306511689
      ],
      [
        "ца",
        -10.103822984662395
      ],
      [
        "зытригъэ",
        -10.10435061083887
      ],
      [
        "Iо",
        -10.104693605978447
      ],
      [
        "Iыгъыу",
        -10.104786914727462
      ],
      [
        "фIагъэ",
        -10.105880154304955
      ],
      [
        "11",
        -10.106061205286005
      ],
      [
        "ыжынур",
        -10.106334218653535
      ],
      [
        "бэлыхь",
        -10.106780790079952
      ],
      [
        "текI",
        -10.10697530420478
      ],
      [
        "нэмыщI",
        -10.107602033901928
      ],
      [
        "гъэпщ",
        -10.107706707625024
      ],
      [
        "тралъхьэ",
        -10.108104730981854
      ],
      [
        "кIуи",
        -10.10858947448192
      ],
      [
        "жесIэ",
        -10.111236945830262
      ],
      [
        "гъэджэгу",
        -10.111397791544475
      ],
      [
        "къытригъэ",
        -10.111805250384378
      ],
      [
        "гъэсэн",
        -10.112391427297343
      ],
      [
        "зэгъэн",
        -10.112996702963887
      ],
      [
        "къиIэт",
        -10.11322626204711
      ],
      [
        "къуза",
        -10.113288737446473
      ],
      [
        "гъэж",
        -10.114488771625618
      ],
      [
        "ирикъу",
        -10.114577909037513
      ],
      [
        "бэг",
        -10.115058518420653
      ],
      [
        "Ле",
        -10.115193417233263
      ],
      [
        "ерыщ",
        -10.11587384860311
      ],
      [
        "хыхьэн",
        -10.116401047457728
      ],
      [
        "щIэным",
        -10.116711955396841
      ],
      [
        "пхъуатэ",
        -10.11722267382386
      ],
      [
        "къыфхуэ",
        -10.11723976947349
      ],
      [
        "щIэдгъэ",
        -10.117704475993015
      ],
      [
        "Ав",
        -10.118292993599393
      ],
      [
        "вод",
        -10.118687787120372
      ],
      [
        "пщIыпщI",
        -10.118794856515379
      ],
      [
        "фауэ",
        -10.118903664253256
      ],
      [
        "4-",
        -10.120831182856652
      ],
      [
        "хэщI",
        -10.120934682374022
      ],
      [
        "схуе",
        -10.121455492225234
      ],
      [
        "Iыхьлы",
        -10.122563198607047
      ],
      [
        "зэгуэп",
        -10.122960998275007
      ],
      [
        "зэщIо",
        -10.12311135002519
      ],
      [
        "Апхуэдэ",
        -10.123730398388787
      ],
      [
        "кIия",
        -10.123811119693254
      ],
      [
        "шыпс",
        -10.124277784364866
      ],
      [
        "зыкъригъэ",
        -10.124547390867022
      ],
      [
        "хузэфIэкIыну",
        -10.124646043914055
      ],
      [
        "зэхэсх",
        -10.125146790378082
      ],
      [
        "хыфI",
        -10.125334535123574
      ],
      [
        "хэмыхьэ",
        -10.125511641101795
      ],
      [
        "щIызо",
        -10.125816698551368
      ],
      [
        "къеуэ",
        -10.126322903786916
      ],
      [
        "лIыкI",
        -10.12641119636855
      ],
      [
        "ыфыртэкъым",
        -10.127254656699332
      ],
      [
        "хиш",
        -10.127592568623173
      ],
      [
        "маз",
        -10.127598366639237
      ],
      [
        "згъэзэж",
        -10.127987150293333
      ],
      [
        "щэхуж",
        -10.12806181277372
      ],
      [
        "скэм",
        -10.129829723655359
      ],
      [
        "псэлъыхь",
        -10.130255686001426
      ],
      [
        "телъыджэ",
        -10.130270015270074
      ],
      [
        "оль",
        -10.130368471422624
      ],
      [
        "Iуб",
        -10.130394350905927
      ],
      [
        "тIысыкI",
        -10.13054108853325
      ],
      [
        "зей",
        -10.13066272868453
      ],
      [
        "пшэр",
        -10.132372433151282
      ],
      [
        "зэридзэкI",
        -10.132547904690247
      ],
      [
        "ыпауэ",
        -10.132703762974348
      ],
      [
        "щхьитI",
        -10.133634531002304
      ],
      [
        "лъыса",
        -10.134317443983676
      ],
      [
        "хьэжыну",
        -10.134654860433745
      ],
      [
        "къыфIэщI",
        -10.135187479588243
      ],
      [
        "щыджэгу",
        -10.13543699437564
      ],
      [
        "гъэувын",
        -10.135607795134536
      ],
      [
        "шхыу",
        -10.136781516542147
      ],
      [
        "техьа",
        -10.137349898736932
      ],
      [
        "зыIыгъ",
        -10.137720901219515
      ],
      [
        "хуишэ",
        -10.13814325945847
      ],
      [
        "къыщIагъэ",
        -10.138970778543989
      ],
      [
        "Хъ",
        -10.139060943005099
      ],
      [
        "къытемы",
        -10.139381990015547
      ],
      [
        "джалэ",
        -10.140062783168489
      ],
      [
        "щекIуэкI",
        -10.140372545325192
      ],
      [
        "ЩIалэ",
        -10.140379058465747
      ],
      [
        "мыдаIуэ",
        -10.14079416127906
      ],
      [
        "жытIэ",
        -10.14082105168404
      ],
      [
        "ографие",
        -10.141926672033993
      ],
      [
        "тхыкI",
        -10.142354306327537
      ],
      [
        "тхьэмадэ",
        -10.142385493429328
      ],
      [
        "иIэж",
        -10.142404225051397
      ],
      [
        "пхуэдэ",
        -10.143505365807307
      ],
      [
        "авто",
        -10.144268478862571
      ],
      [
        "тхауэ",
        -10.144441299371678
      ],
      [
        "пэщылъ",
        -10.144714077579955
      ],
      [
        "Псэу",
        -10.145030895130832
      ],
      [
        "пхъуа",
        -10.145933002719328
      ],
      [
        "къызыхуэ",
        -10.146311656729537
      ],
      [
        "сатыр",
        -10.146477045414683
      ],
      [
        "гъэгъун",
        -10.146521716857992
      ],
      [
        "хищIыкI",
        -10.146865255625318
      ],
      [
        "Хъан",
        -10.147330277008091
      ],
      [
        "пашэ",
        -10.14747373806484
      ],
      [
        "мыхыу",
        -10.14775646319011
      ],
      [
        "зэдгъэ",
        -10.148167133110793
      ],
      [
        "фIэкIуэда",
        -10.149106584669568
      ],
      [
        "къыфху",
        -10.150894302523572
      ],
      [
        "хэзмы",
        -10.151917033862606
      ],
      [
        "утэ",
        -10.152419331226948
      ],
      [
        "зрегъэ",
        -10.152457381375697
      ],
      [
        "ение",
        -10.152635557757687
      ],
      [
        "пхуэс",
        -10.152906508213459
      ],
      [
        "хыркъым",
        -10.153098218231069
      ],
      [
        "бал",
        -10.153260488806032
      ],
      [
        "Ком",
        -10.153383289309271
      ],
      [
        "Iэпхъу",
        -10.153422814147017
      ],
      [
        "гъэдахэ",
        -10.154023049722227
      ],
      [
        "Бжэ",
        -10.154943657890861
      ],
      [
        "КIы",
        -10.155096282202525
      ],
      [
        "щыгъупщэ",
        -10.155965481887087
      ],
      [
        "лэжьар",
        -10.15628194120278
      ],
      [
        "лъэгъуакъым",
        -10.15830668368148
      ],
      [
        "щIыкIыу",
        -10.15862154353972
      ],
      [
        "эк",
        -10.158728587449133
      ],
      [
        "гужьей",
        -10.158878360613633
      ],
      [
        "уиIэ",
        -10.159212000922313
      ],
      [
        "пшынэ",
        -10.159360306763759
      ],
      [
        "хьэлэмэт",
        -10.15981077246664
      ],
      [
        "хуеджэ",
        -10.159926583224536
      ],
      [
        "зумыгъэ",
        -10.16036487426766
      ],
      [
        "Гуры",
        -10.160421200892014
      ],
      [
        "фIэмыфI",
        -10.16082489932739
      ],
      [
        "нагъуэ",
        -10.161561624006605
      ],
      [
        "хамы",
        -10.161695185029986
      ],
      [
        "IукIыж",
        -10.162174648562406
      ],
      [
        "нос",
        -10.162670270078241
      ],
      [
        "убыдауэ",
        -10.16331784933202
      ],
      [
        "лъаIуэ",
        -10.164240218546134
      ],
      [
        "нитI",
        -10.164731733532566
      ],
      [
        "къызэрыб",
        -10.165063085608558
      ],
      [
        "уасэ",
        -10.165205044890351
      ],
      [
        "унафэщI",
        -10.16546478990702
      ],
      [
        "хуэщI",
        -10.16575144199329
      ],
      [
        "ыгъэмрэ",
        -10.16671936683126
      ],
      [
        "теухуа",
        -10.166873074799259
      ],
      [
        "егъэджакIуэ",
        -10.167180978420259
      ],
      [
        "мэжалIэ",
        -10.167210671465423
      ],
      [
        "Же",
        -10.167299200224285
      ],
      [
        "къыде",
        -10.167454194198001
      ],
      [
        "Ло",
        -10.168118346903249
      ],
      [
        "2-",
        -10.169236210658202
      ],
      [
        "фэрыщI",
        -10.169328607532647
      ],
      [
        "ание",
        -10.16936521718213
      ],
      [
        "темыхуэ",
        -10.16967657855638
      ],
      [
        "лъхуэ",
        -10.170169590918983
      ],
      [
        "зэкIуэцI",
        -10.170296955825009
      ],
      [
        "къызэрыра",
        -10.170916868853102
      ],
      [
        "упщIыIу",
        -10.171434484670133
      ],
      [
        "гъэзэн",
        -10.171718975500427
      ],
      [
        "къызит",
        -10.171740405062053
      ],
      [
        "хъуэпсэн",
        -10.172133637571378
      ],
      [
        "пIащэ",
        -10.172430020542347
      ],
      [
        "кан",
        -10.17245407500275
      ],
      [
        "22",
        -10.1725521630012
      ],
      [
        "зэрахуэ",
        -10.172963948342726
      ],
      [
        "ххэну",
        -10.17338262171224
      ],
      [
        "жьакIэ",
        -10.173496466882192
      ],
      [
        "хункIэ",
        -10.173767581642322
      ],
      [
        "Къэб",
        -10.174389880188695
      ],
      [
        "псэлъэф",
        -10.174712019565147
      ],
      [
        "Iэтыр",
        -10.177034094676362
      ],
      [
        "бэяу",
        -10.177101491171264
      ],
      [
        "дэIуэну",
        -10.177231332198435
      ],
      [
        "гъэзэгъа",
        -10.177889194186498
      ],
      [
        "лIыжь",
        -10.178105303464438
      ],
      [
        "къакIуэ",
        -10.178661509209068
      ],
      [
        "пэлъэщын",
        -10.178912275727523
      ],
      [
        "зэIуих",
        -10.178920548278263
      ],
      [
        "щыдгъэ",
        -10.17944773516626
      ],
      [
        "зэгъэну",
        -10.18025058024526
      ],
      [
        "баш",
        -10.180520985181523
      ],
      [
        "хэб",
        -10.180612956294041
      ],
      [
        "нэхъыбэ",
        -10.181954180806098
      ],
      [
        "сфIы",
        -10.182174382522
      ],
      [
        "ыпэу",
        -10.18218895893105
      ],
      [
        "Дахэ",
        -10.182264228543739
      ],
      [
        "Дыщы",
        -10.182642630456712
      ],
      [
        "псэуж",
        -10.182702526038142
      ],
      [
        "къыжьэд",
        -10.18273702155236
      ],
      [
        "губзыгъэ",
        -10.18300137575409
      ],
      [
        "плъых",
        -10.183247011965626
      ],
      [
        "псэлъыкI",
        -10.183440541901717
      ],
      [
        "дывгъэ",
        -10.183534168716719
      ],
      [
        "Зэра",
        -10.183632773130155
      ],
      [
        "ыпIэр",
        -10.183819628935595
      ],
      [
        "лъэмыкI",
        -10.184442415727425
      ],
      [
        "щымыхъу",
        -10.184953182101326
      ],
      [
        "раз",
        -10.185334922688341
      ],
      [
        "альнэ",
        -10.186108881327293
      ],
      [
        "тепсэлъыхьын",
        -10.18637542392929
      ],
      [
        "щызо",
        -10.186553460123008
      ],
      [
        "шхыж",
        -10.186968234048305
      ],
      [
        "къыкъуэкI",
        -10.18750038248547
      ],
      [
        "къыпхуэмы",
        -10.187520547883736
      ],
      [
        "рыуэ",
        -10.187788025579987
      ],
      [
        "ыщIэм",
        -10.189525503870644
      ],
      [
        "гъэзэхуэж",
        -10.190278442965552
      ],
      [
        "дынэс",
        -10.190667170147048
      ],
      [
        "гъэсын",
        -10.190774812118413
      ],
      [
        "тебгъэ",
        -10.190998973728359
      ],
      [
        "тIысхьэри",
        -10.191742166032466
      ],
      [
        "пхры",
        -10.19178915630944
      ],
      [
        "хегъэ",
        -10.191919431088493
      ],
      [
        "ыкIауэ",
        -10.192320400072045
      ],
      [
        "паубыд",
        -10.192425948202885
      ],
      [
        "къызда",
        -10.192689646322219
      ],
      [
        "вед",
        -10.192985228411114
      ],
      [
        "хэIэбэ",
        -10.193158936534306
      ],
      [
        "ЩI",
        -10.193716296265368
      ],
      [
        "ыпащ",
        -10.1937930390604
      ],
      [
        "гъадэ",
        -10.193850703062834
      ],
      [
        "хыхьэжа",
        -10.195006860696592
      ],
      [
        "хьэрэм",
        -10.195553108297526
      ],
      [
        "ёр",
        -10.195776657368947
      ],
      [
        "мыту",
        -10.196725544249107
      ],
      [
        "ышхуи",
        -10.196797185971574
      ],
      [
        "едаIуэ",
        -10.196847292187304
      ],
      [
        "шынагъуэ",
        -10.196960975103512
      ],
      [
        "къуэлъ",
        -10.197854346532608
      ],
      [
        "хъуэпскI",
        -10.199037499839758
      ],
      [
        "гъэгубжь",
        -10.199570010151009
      ],
      [
        "прав",
        -10.200462368342745
      ],
      [
        "0-рэ",
        -10.200618785813559
      ],
      [
        "Iуащхьэ",
        -10.200681983600791
      ],
      [
        "къыхих",
        -10.202375267042498
      ],
      [
        "щIэпхъуэ",
        -10.20258359367411
      ],
      [
        "хъужын",
        -10.20277426041578
      ],
      [
        "мыIыгъ",
        -10.202964480809209
      ],
      [
        "лъэта",
        -10.203083224291134
      ],
      [
        "хуэпа",
        -10.20449103172065
      ],
      [
        "кIэрэхъ",
        -10.204584175514416
      ],
      [
        "зэуэн",
        -10.205837978273536
      ],
      [
        "-пэщэ",
        -10.205850567369826
      ],
      [
        "дуней",
        -10.205884731407458
      ],
      [
        "артист",
        -10.205912542298602
      ],
      [
        "жимыIэ",
        -10.206120519114506
      ],
      [
        "пыкI",
        -10.206207156021048
      ],
      [
        "бжыгъэ",
        -10.206430454263236
      ],
      [
        "Емы",
        -10.206542294958943
      ],
      [
        "еджэн",
        -10.20695505369918
      ],
      [
        "щымысхь",
        -10.207665317314113
      ],
      [
        "тедгъэ",
        -10.20829909804129
      ],
      [
        "лъабжьэ",
        -10.208417341159599
      ],
      [
        "симы",
        -10.208682362624977
      ],
      [
        "лъымыс",
        -10.208888201900065
      ],
      [
        "ной",
        -10.208974712703942
      ],
      [
        "ыкъуей",
        -10.210006087127567
      ],
      [
        "нэсыж",
        -10.210442032958586
      ],
      [
        "хэплъхьэ",
        -10.212096049069462
      ],
      [
        "гъэбыда",
        -10.212465129461567
      ],
      [
        "лъхьауэ",
        -10.21373760569472
      ],
      [
        "евым",
        -10.213778475913765
      ],
      [
        "пыч",
        -10.214143371143363
      ],
      [
        "ыдзэм",
        -10.214192426649085
      ],
      [
        "ыгъэкIэ",
        -10.214551404708295
      ],
      [
        "къалъху",
        -10.21649853996991
      ],
      [
        "бзи",
        -10.216721595267346
      ],
      [
        "традзэ",
        -10.217368191934879
      ],
      [
        "сурэт",
        -10.217466751813554
      ],
      [
        "щыIа",
        -10.217594927823695
      ],
      [
        "зыхищIэ",
        -10.217916905012858
      ],
      [
        "лиц",
        -10.218159386742945
      ],
      [
        "Ъ",
        -10.218404616576045
      ],
      [
        "Iущащэ",
        -10.218531264550192
      ],
      [
        "хуимыт",
        -10.219190934860071
      ],
      [
        "яхэт",
        -10.219535670641623
      ],
      [
        "лъытэн",
        -10.220773643247849
      ],
      [
        "хуея",
        -10.222285415207715
      ],
      [
        "зэщIигъэ",
        -10.223363043557441
      ],
      [
        "нэхъыщхьэ",
        -10.223441054875241
      ],
      [
        "Бат",
        -10.223702204542494
      ],
      [
        "зэдэпсэу",
        -10.224042540579026
      ],
      [
        "къикIыж",
        -10.22415682033786
      ],
      [
        "пащIэ",
        -10.224548016539366
      ],
      [
        "о-",
        -10.225807806902793
      ],
      [
        "етэ",
        -10.226279550820504
      ],
      [
        "пыс",
        -10.226391134714262
      ],
      [
        "гъэпцIэж",
        -10.226751505001996
      ],
      [
        "бгъэдэкI",
        -10.226992160542892
      ],
      [
        "Жьы",
        -10.227614823387096
      ],
      [
        "Уэз",
        -10.227746986487748
      ],
      [
        "щIэплъэ",
        -10.227875673834443
      ],
      [
        "ыжыным",
        -10.22811642829835
      ],
      [
        "чым",
        -10.228129161216433
      ],
      [
        "къыIэщI",
        -10.228692664011225
      ],
      [
        "гумащIэ",
        -10.229876742111994
      ],
      [
        "ектор",
        -10.232599958621847
      ],
      [
        "щIегъэ",
        -10.232814271499244
      ],
      [
        "хьэжыр",
        -10.233324157883267
      ],
      [
        "щхьэщих",
        -10.233871969562738
      ],
      [
        "мыхъуа",
        -10.234155542439462
      ],
      [
        "жесIа",
        -10.234279710754906
      ],
      [
        "гыз",
        -10.234521941521303
      ],
      [
        "цIыхугъэ",
        -10.234600946783441
      ],
      [
        "джэрий",
        -10.234647333374053
      ],
      [
        "накIуэ",
        -10.234775636907413
      ],
      [
        "граф",
        -10.23511797233422
      ],
      [
        "дэкIыж",
        -10.236237268537568
      ],
      [
        "хуэкIуа",
        -10.236402247635151
      ],
      [
        "атэм",
        -10.236469289350499
      ],
      [
        "Iэпыкъу",
        -10.23663848332993
      ],
      [
        "жэуап",
        -10.23783205044187
      ],
      [
        "лъыж",
        -10.237869719997297
      ],
      [
        "зэхэгъэкI",
        -10.239363959441453
      ],
      [
        "ыфынут",
        -10.240008298937749
      ],
      [
        "щытын",
        -10.240462498476166
      ],
      [
        "хащIыкI",
        -10.240765530202292
      ],
      [
        "под",
        -10.240798896405279
      ],
      [
        "пэщэщ",
        -10.241188112631331
      ],
      [
        "пхъуэж",
        -10.241251059986428
      ],
      [
        "ирамы",
        -10.241261897984753
      ],
      [
        "апIэм",
        -10.242875424708021
      ],
      [
        "Iурылъ",
        -10.243138980104867
      ],
      [
        "ТIа",
        -10.243279221812841
      ],
      [
        "гъэIэпхъуэ",
        -10.243752407874956
      ],
      [
        "хъуэпса",
        -10.244903933769216
      ],
      [
        "ыцIэ",
        -10.244966138777677
      ],
      [
        "цIэрыIуэ",
        -10.245647696084067
      ],
      [
        "пщIантIэ",
        -10.245789729785116
      ],
      [
        "каз",
        -10.245812313527512
      ],
      [
        "къэкIуа",
        -10.245969636714154
      ],
      [
        "пхуе",
        -10.247408502715444
      ],
      [
        "бгэ",
        -10.247518430454585
      ],
      [
        "щэкI",
        -10.247968523183367
      ],
      [
        "Гуэ",
        -10.248273563634342
      ],
      [
        "ехъулIа",
        -10.249221072881022
      ],
      [
        "къеплъ",
        -10.249255303004265
      ],
      [
        "тхыжа",
        -10.249938891999346
      ],
      [
        "овскэ",
        -10.250046755560128
      ],
      [
        "хьей",
        -10.250062125188242
      ],
      [
        "хущIыхьэ",
        -10.25055612168247
      ],
      [
        "сиIэ",
        -10.251021683656127
      ],
      [
        "кIыфI",
        -10.251136472876048
      ],
      [
        "сригъэ",
        -10.251480550384983
      ],
      [
        "пщытэ",
        -10.251741784279773
      ],
      [
        "тетIысхьэ",
        -10.252471610987016
      ],
      [
        "гъеиж",
        -10.252476610900978
      ],
      [
        "жып",
        -10.253308592547388
      ],
      [
        "Iурих",
        -10.253965357399139
      ],
      [
        "зэкIэлъы",
        -10.254648349866608
      ],
      [
        "къелъэ",
        -10.254715398548214
      ],
      [
        "Кон",
        -10.254837909491272
      ],
      [
        "къэув",
        -10.25589711057076
      ],
      [
        "дэпщ",
        -10.25650910194308
      ],
      [
        "щхьэц",
        -10.256748708203283
      ],
      [
        "шэх",
        -10.256821081276826
      ],
      [
        "емызэгъ",
        -10.25855336601266
      ],
      [
        "лъхьэжын",
        -10.259110496971703
      ],
      [
        "утIыпщын",
        -10.259120843684844
      ],
      [
        "лыдыкI",
        -10.25970053642611
      ],
      [
        "илъэгъуа",
        -10.259766384026792
      ],
      [
        "КI",
        -10.25985899776689
      ],
      [
        "лъащIэ",
        -10.259968430600313
      ],
      [
        "мазэ",
        -10.260893617456176
      ],
      [
        "кино",
        -10.261602175975622
      ],
      [
        "гъэхьэзырын",
        -10.261672920985113
      ],
      [
        "схуэхъу",
        -10.262334432548762
      ],
      [
        "сов",
        -10.262894563216609
      ],
      [
        "тэджыкI",
        -10.264146498268346
      ],
      [
        "щIиху",
        -10.264313704307131
      ],
      [
        "охьэ",
        -10.265012178915342
      ],
      [
        "Iэпы",
        -10.266079678262255
      ],
      [
        "къуэувэ",
        -10.26632117871958
      ],
      [
        "Iув",
        -10.267291713639821
      ],
      [
        "гъэзащ",
        -10.267623123312807
      ],
      [
        "Iуэтэф",
        -10.267883938405282
      ],
      [
        "пхъэнкI",
        -10.268416975697608
      ],
      [
        "къун",
        -10.26847706020163
      ],
      [
        "дэмыкI",
        -10.269002604931494
      ],
      [
        "тIасэ",
        -10.269157535264828
      ],
      [
        "жынкъым",
        -10.269255371728892
      ],
      [
        "зэкIэщI",
        -10.269380477944502
      ],
      [
        "схузэ",
        -10.26938807904585
      ],
      [
        "Бал",
        -10.269915303791432
      ],
      [
        "тхам",
        -10.270020888351064
      ],
      [
        "хуэупса",
        -10.270799774391545
      ],
      [
        "гъэлъэгъуэж",
        -10.271948078606812
      ],
      [
        "мыпсэу",
        -10.271998318351127
      ],
      [
        "ген",
        -10.272156917289678
      ],
      [
        "зэкIуэцIы",
        -10.272407747180898
      ],
      [
        "муслъымэн",
        -10.27321207912778
      ],
      [
        "насыпыфIэ",
        -10.273233386153844
      ],
      [
        "гъуэж",
        -10.27337721945084
      ],
      [
        "губгъуэ",
        -10.273779050882657
      ],
      [
        "цIыхужын",
        -10.275074449023318
      ],
      [
        "дэгушыIэ",
        -10.275738520172856
      ],
      [
        "Къыд",
        -10.275836337701516
      ],
      [
        "театр",
        -10.275914062336046
      ],
      [
        "техьэлъэ",
        -10.276025950747826
      ],
      [
        "мыгъэгъу",
        -10.276320156199626
      ],
      [
        "пхуэхъу",
        -10.27665164332184
      ],
      [
        "къафэ",
        -10.276815493943305
      ],
      [
        "хилъхьа",
        -10.277131798034041
      ],
      [
        "дэкIуа",
        -10.277268981902218
      ],
      [
        "фIэгъэщIэгъуэн",
        -10.277526146401584
      ],
      [
        "къищI",
        -10.277767786969665
      ],
      [
        "дамыгъэ",
        -10.279712306664127
      ],
      [
        "жумыIэ",
        -10.279733540468294
      ],
      [
        "лъэфыж",
        -10.279796016478052
      ],
      [
        "гъэтIылъа",
        -10.281748661386773
      ],
      [
        "Жэщ",
        -10.282040435467318
      ],
      [
        "эгъухэм",
        -10.283593948462972
      ],
      [
        "пэш",
        -10.284334622740914
      ],
      [
        "зэныбжьэгъу",
        -10.284422986691585
      ],
      [
        "щызэхуэс",
        -10.28517202315766
      ],
      [
        "плъыт",
        -10.285376687843574
      ],
      [
        "студент",
        -10.287296914855466
      ],
      [
        "бгъум",
        -10.287663116227549
      ],
      [
        "щIэныгъэлI",
        -10.28826683779674
      ],
      [
        "сщIын",
        -10.288386996889848
      ],
      [
        "къезыгъэ",
        -10.288449098424408
      ],
      [
        "хуэфI",
        -10.288546010670508
      ],
      [
        "бгъур",
        -10.2885636442916
      ],
      [
        "пIейтей",
        -10.28885829136459
      ],
      [
        "упса",
        -10.289006970098384
      ],
      [
        "грам",
        -10.289048561899452
      ],
      [
        "ежьа",
        -10.29011346750081
      ],
      [
        "пщафIэ",
        -10.290272423908068
      ],
      [
        "епсыха",
        -10.290680603872087
      ],
      [
        "гуфIэгъуэ",
[...]
